#version: 0.2
à ¤
à ¥
Ġ à¤
à¤ ¾
à¥ į
à¤ °
à¤ ¨
à¤ ķ
à¤ ¿
à¥ ĩ
à¥ ĭ
à¤ ²
à¤ ®
à¤ ¤
à¤ ¯
à¥ ģ
à¥ Ģ
à¤ ¸
Ġà¤ ¸
Ġà¤ ª
à¤ ª
à¤ ¹
Ġ à¥
à¤ ¦
à¤ µ
Ġà¤ ķ
à¤ Ĺ
Ġà¤ Ĺ
à¤ Ł
à¥ Ī
Ġà¤ ¨
Ġà¤ °
Ġà¤ ¬
Ġà¤ ®
à¤ ı
Ġà¥ ¤
à¤ ľ
Ġà¤ Ń
à¤ ¬
Ġà¤Ĺ à¤°
Ġà¤ ħ
Ġà¤ ¹
à¤ ·
Ġà¤ µ
à¤ §
Ġà¤ Ľ
à¤ ¶
à¤ Ĥ
à¤ ¡
Ġà¤ ¦
à¤ ļ
à¤ ģ
Ġà¤ ¤
à¤ı à¤ķ
à¤ ¥
Ġà¤ Ĩ
Ġà¤ ²
Ġà¤ ľ
à¤ Ī
à¤ £
à¤ Ń
à¤ Ľ
â Ģ
à¤ ĸ
à¤ ī
à¥ Ĥ
Ġà¤ ī
Ġà¤¸ à¤®
Ġà¤ ¯
à¤¹ à¤°
à¤° à¤ķ
à¤ ĩ
à¤° à¤®
à¥ ¤
à¥ Į
Ġà¤ ļ
à¤ «
Ġà¤Ń à¤¨
Ġà¤ ¶
à¤ ł
Ġà¤ ĸ
Ġà¤ ı
à¤¯ à¤ķ
à¤ī à¤¨
à¥ ¦
à¤¾ à¤ģ
Ġà¤ ¥
à¤° à¤¤
à¤¨ à¤ķ
à¥ ĥ
Ġà¤ª à¤¨
Ġà¤Ń à¤ıà¤ķ
Ġà¤ª à¤°
Ġà¥ ¨
Ġà¤ħ à¤¨
Ġà¥ §
Ġà¤ «
à¤° à¤£
à¤ Ļ
Ġ âĢ
à¤ľ à¤¨
. .
à¤ ĺ
à¤ ¢
à¤¸ à¤®
à¤¸ à¤ķ
à¤¨ à¤®
Ġà¤Ľ à¤¨
à¤ª à¤°
Ġà¤ı à¤ķ
âĢ Ļ
Ġà¤ ĺ
à¤² à¤ķ
Ġà¤ľ à¤¨
Ġà¤® à¤¹
Ġà¤¬ à¤¨
à¤µ à¤¸
à¥ §
à¤ ŀ
Ġà¤ Ł
Ġà¤° à¤¹
à¤¨ à¤²
à¥ Ń
à¤ ħ
à¤ª à¤¨
à¤¯ à¤®
Ġà¤ §
à¤Ĺ à¤°
à¥ «
Ġà¤¸ à¤ķ
Ġà¤¯ à¤¸
Ġà¤¸ à¤¹
à¥ ¨
ĠâĢ ĺ
à¥Į à¤Ĥ
Ġà¤¤ à¤¥
à¤° à¤²
Ġà¤ħ à¤§
à¤° à¤¹
Ġà¤µ à¤°
à¤¯ à¤¸
Ġà¤ ¡
à¤° à¤¦
à¤ł à¤®
Ġ (
à¤² à¤®
à¤¤ à¤°
à¤ª à¤¤
Ġà¤Ĩ à¤«
Ġà¤® à¤¨
à¤ Ŀ
Ġà¥¨ à¥¦
à¤° à¤¸
à¤ª à¤Ľ
à¥ ª
Ġà¤¬ à¤¢
Ġà¤ī à¤ª
âĢ ĵ
Ġà¤¸ à¤°à¤ķ
à¤¾ ,
Ġà¤ķ à¤®
Ġà¤¬ à¤¤
Ġà¤ħ à¤°
à¤ķ à¤²
Ġà¤ķ à¤°
à¥ ©
Ġà¤¤ à¤°
à¤ķ à¤®
à¤¯ à¤¤
à¤ĩ à¤¨
à¤ļ à¤¨
à¤° à¤¹à¤°
à¤ Ĩ
à¤¬ à¤¨
.. .
à¤ı à¤°
Ġà¤ ł
Ġà¥ ©
à¤Ľ à¤¨
à¤Ł à¤ķ
à¥ ¬
Ġà¤Ĩ à¤¯
Ġà¤² à¤Ĺ
à¤ª à¤®
à¥ģ à¤ģ
Ġ ?
Ġà¤ ĩ
à¤Ł à¤¨
à¥ ®
Ġà¤ħ à¤¸
à¤µ à¤°
Ġà¤ª à¤¹
à¤µ à¤ķ
à¤¯ à¤¨
Ġà¤¸ à¤¬
à¤¤ à¤ķ
à¤µ à¤¨
à¥ ¯
à¤² à¤¯
à¤² à¤²
à¤¾ à¤Ĥ
Ġà¤Ĺ à¤¤
à¤® à¤ķ
à¤° à¤§
Ġà¥ «
à¤· à¤£
à¤¯ à¤µà¤¸
à¤¸ à¤²
à¤° à¤¬
Ġà¤Ń à¤ı
à¤² à¤¬
Ġ :
à¤¸ à¤¨
à¤Ĺ à¤¤
à¤° à¤µ
à¥ĩ ,
Ġà¤ī à¤¨à¤²
Ġà¤¬ à¤¸
à¥į à¥¤
Ġà¤ī à¤¤
à¤² à¤¨
à¥Ī à¤Ĥ
à¥Ģ ,
Ġà¤ī à¤¨
à¤® à¤¨
à¤Ł à¤°
à¤¶ à¤ķ
Ġà¥ ª
à¥ĭ à¥¤
Ġà¤¨ à¤Ĺà¤°
à¤· à¤ķ
Ġà¤ħ à¤Ń
Ġà¤¬ à¤ľ
Ġà¤¹ à¤ľ
à¥ĭ ,
à¤¨à¤® à¤¨
à¤¯ à¤°
à¤® à¤¤
à¤ķ à¤°
Ġà¤Ĩ à¤°
à¥Į à¤ģ
Ġà¤ħ à¤µà¤¸
à¤¡ à¤ķ
Ġà¤ ĵ
Ġà¤Ĩ à¤ıà¤ķ
à¤° à¤¯
à¤¤ à¤®
Ġà¤Ĩ à¤ľ
Ġà¥ ¬
à¤ķ à¤ķ
à¤¬ à¤°
Ġ _
à¤Ń à¤¨
Ġà¤¨ à¤¯
Ġà¥¨à¥¦ à¥Ń
à¤¤ à¤¨
Ġà¤ī à¤¦
Ġà¤¸ à¤ŀ
à¤« à¤²
Ġà¤ª à¤ķ
à¤¦ à¤¨
Ġà¤ Ŀ
à¤Ĺ à¤²
à¤¶ à¤¨
Ġà¤ķ à¤¸
Ġà¤¸ à¤°
à¤ ĵ
Ġà¤ļ à¤²
Ġà¤Ĩ à¤µ
Ġà¤ª à¤¤
Ġà¤ħ à¤¹
Ġà¤¸ à¤¨
à¤ª à¤ķ
à¤§ à¤¨
Ġà¥ Ń
Ġà¤¸ à¤¦
à¤Ń à¤¯
à¤ ĥ
âĢ ¯
Ġà¤¤ à¤ª
à¤¯ à¤²
à¤® à¤²
Ġà¤¤ à¤¯
à¤Ń à¤ıà¤ķ
à¤¨ à¤¨
à¤ī à¤Ł
à¤Ĺ à¤ķ
Ġà¤¬ à¤°
à¤¨ à¤¸
à¤ĸ à¤°
à¤¿ à¤Ĥ
Ġà¤¯ à¤¹
à¤µ à¤²
Ġà¤¸ à¤¯
à¤°à¤® à¤®
à¤ľ à¤ķ
Ġ -
à¤° à¤¶
à¤¤ à¤²
Ġà¥§ à¥¦
à¤¸ à¤¦
Ġà¤Ń à¤¯
à¤ĩ à¤ıà¤ķ
Ġ !
âĢ ĺ
à¤ħ à¤¨
Ġà¤¦ à¤°
Ġà¤ª à¤Ľ
à¤¤ à¤ª
Ġà¥ ¯
Ġà¤ĸ à¤°
Ġà¤¸à¤® à¤¯
à¤ķ à¤°à¤£
Ġà¤ħ à¤Ĺ
à¥į ,
à¤Ł à¤®
Ġà¤ı à¤īà¤Ł
à¤¹ à¤ķ
Ġà¤ª à¤¢
Ġà¤® à¤¤
à¤Ł à¤²
Ġà¤ħ à¤¬
Ġà¥ ®
Ġà¤¸à¤¹ à¤¯
Ġà¤¹ à¤°
à¤¾ .
à¤® à¤®
à¤µ à¤ľà¤¨
Ġà¤ Ķ
ĠâĢ ĵ
Ġà¤¸à¤® à¤¸
Ġà¤Ĩ à¤§
à¤ĩ à¤°à¤¹
Ġà¤¸à¤¦ à¤¸
Ġà¤ľ à¤¸
Ġà¤ĺ à¤°
Ġà¤ ¢
Ġà¤ī à¤¨à¤ķ
à¤ķ à¤ª
âĢ Ŀ
Ġà¤ı à¤®
à¤¿ à¤ģ
Ġà¤ħ à¤®
Ġà¤ī à¤¹
à¤· à¤®
Ġà¤® à¤§
Ġà¤ķ à¤¤
a l
à¤° à¤Ń
Ġà¤ĵ à¤²
à¤ĩ à¤¤
o m
à¤¯ à¤¹
Ġà¤ķ à¤²
Ġà¤¸ à¤Ń
Ġà¤ī à¤®
à¤² à¤Ĺ
Ġà¤ĩ à¤¨
Ġà¤¨ à¤®
à¤µ à¤®
Ġà¤Ĩ à¤īà¤¨
Ġà¤ª à¤¦
Ġà¤¨à¤Ĺà¤° à¤ª
N e
à¤¸ à¤¹
à¤ĵ à¤µ
âĢ ¦
à¤ķ à¤¤
à¤Ĺ à¤®
Ġà¤® à¤²
Ġà¤¶ à¤°
à¤¾ à¥ĩ
à¤¶ à¤®
Ġà¤Ĩ à¤Ĺ
à¤° à¤ļ
Ġà¤ħ à¤ĺ
à¤°à¤® à¤£
à¤¹ à¤¨
Ġà¤ħ à¤µ
à¤ı à¤¨
Ġ 2
à¤¦ à¤°
Ġà¤ľà¤¨ à¤¤
Ġà¤ª à¤Łà¤ķ
Ġà¤¬ à¤²
à¤¬ à¤²
à¤Ń à¤°
à¤¿ ,
Ġà¤¥ à¤ª
ĠâĢ ľ
à¤ĺ à¤Łà¤¨
a r
à¤ĩ à¤²
à¤£ à¤¯
Ġà¤Ĩà¤µ à¤¶
à¤¸ à¤Ń
à¥¨ à¥¦
Ġà¤ī à¤ķ
à¤ľ à¤¸
à¤° à¤ªà¤¤
à¤¶ à¤¤
Ġà¤ħ à¤ª
à¤Ī à¤ķ
à¥Įà¤Ĥ ,
à¤¸ à¤¬
à¤¡ à¤²
Ġà¤¬ à¤¹
Ġà¤Ĩ à¤®
à¤¦ à¤ķ
Ġ Ne
Ġ '
à¥ģ ,
Ġà¤ķ à¤¹
Ġà¤¹ à¤¤
Ġà¥§ à¥«
à¤µ à¤¤
Ġà¤Ĺ à¤ł
Ġà¤« à¤°
Ġ ,
à¤® à¤ļ
Ġà¤µ à¤Ł
Ġà¤Ĩ à¤¨
i n
à¤ľ à¤®
à¤ħ à¤ĺ
à¤¯ à¤µ
Ġà¤Ĺ à¤ıà¤ķ
à¤¦ à¤µ
Ġà¤ļ à¤°
Ġà¥§ à¥§
Ġà¤¨ à¤¸à¤ķ
à¥į âĢ
Ġà¥¨à¥¦ à¥§
Ġà¤¦ à¤²
Ġà¤¯ à¤¸à¤ķ
Ġà¥¤ âĢĻ
Ġà¥§ à¥¨
Ġà¤² à¤ķ
à¤² à¤¯à¤ķ
à¤Ļ à¤ķ
Ġ ...
à¤® à¤¬
0 1
à¤ł à¤ķ
Ġà¤ķà¤¸ à¤°
Ġà¤ī à¤²
à¤ı à¤ªà¤Ľ
à¤µ à¤°à¤£
Ġà¤¸à¤¹ à¤Ń
Ġà¤Ń à¤°
Ġà¤¸ à¤«à¤²
à¤¿ .
Ġà¤ī à¤ļ
Ġà¤ĺ à¤Łà¤¨
à¤¸ à¤°
à¤ļ à¤ķ
Ġà¥§ à¥¯
à¤ľ à¤Ĺ
Ġà¤¸ à¤ļ
Ġà¤ħ à¤¤
à¤¡ à¤®
à¤° à¤ª
à¤ķ à¤¨
à¤¤ à¤°à¤£
Ġà¥¨à¥¦à¥Ń à¥«
à¤· à¤¯à¤®
à¤¥ à¤®
Ġà¤®à¤¹ à¤¤
Ġà¤µ à¤¡
Ġà¤¸ à¤¡à¤ķ
à¤¨ à¤Ĺà¤°
o n
Ġà¤¨ à¤¹
à¤® à¤¹
Ġà¤ļà¤² à¤ļ
à¥įâĢ į
à¤ı à¤®
à¤¤ à¤µ
Ġà¤Ľ à¤²
à¤£ à¤ķ
à¤¯ à¤¸à¤ķ
a n
Ġà¤°à¤¹ à¤¨
Ġà¤Ń à¤ĩà¤°à¤¹
à¤« à¤¤
r e
à¤ĩ à¤¸à¤ķ
p al
à¤ª à¤²
à¤· à¤¦
Ġà¤¸ à¤µ
Ġà¤ª à¤ł
à¤ľ à¤²
à¤¾ âĢĵ
à¤Ĥ .
Ġà¤īà¤ª à¤ļ
à¤· à¤¤
Ġà¤Ĩ à¤¦
Ġà¤ Ĳ
à¤° à¤¨
Ġà¤¯à¤¸ à¤²
w s
à¤¨ à¤µ
Ġà¤° à¤ķà¤®
à¤µ à¤ª
à¤ĩ à¤Ł
à¤ı à¤¸
Ġà¤ħ à¤Ŀ
à¤²à¤¯ à¤²
Ġà¤ħ à¤«
à¤® à¤¦
à¤°à¤ļ à¤£
Ġà¤§ à¤¨
à¤¹ à¤²
Ġà¤¸ à¤¤
à¤ĺ à¤ķ
Ġà¥¨ à¥«
Ġà¤ıà¤ķ à¤¤
à¤ĩ à¤ķ
Ġà¤ħ à¤¦
Ġ2 01
Ġà¤Ĩ à¤ī
c om
à¤Ī à¤²
Ġà¤Ĩ à¤ķ
Ġà¤¸à¤¹ à¤®à¤¤
à¤¨ à¤¬
Ġà¤ı à¤¸
à¤¨ à¤¯
Ġà¤Ĩ à¤¶
à¤°à¤¦ à¤°
Ġà¥« à¥¦
Ġà¥¨à¥¦à¥Ń à¥ª
à¤µ à¤¯
Ġà¤¸ à¤Ļ
Ġà¤¸à¤® à¤¯à¤®
à¤§ à¤®
Ġà¤ī à¤ł
Ġà¤¨ à¤¦
à¤ľ à¤¯
Ġà¤Ĩ à¤ĩ
Ġà¤Ń à¤ıà¤°
e r
Ġà¤īà¤ª à¤²à¤¬
Ġà¤Ĩ à¤¤
Ġà¤¤ à¤¤
à¤¦ à¤Ľ
à¤¹ à¤®
Ġà¤ħ à¤²
à¤§ à¤ķ
à¤¯à¤¤ à¤ķ
à¤² à¤¤
à¥ĩ à¥¤
Ġà¥© à¥¦
Ġà¤¶ à¤ķ
Ġà¤¬ à¤ļ
à¤¯ à¤¸à¤®
Ġà¤§ à¤°
Ġà¥§ à¥©
à¤¦ à¤²
à¤¨ à¤ª
Â »
Ġà¤Ńà¤ı à¤ªà¤Ľ
à¤² à¤¨à¤®
à¤¨ à¤°
à¤¯ à¤ª
Ġà¤ļ à¤°à¤£
à¤² à¤¯à¤®
Ġà¤¨ à¤Ń
à¤² à¤µ
Ġà¤ľ à¤®
Ġà¥ ¦
à¤¥ à¤²
Ġà¤ķ à¤ª
Ġà¤Ľà¤² à¤«à¤²
Ġà¥§ à¥®
Ġà¤ª à¤¶
à¤ĩ à¤¦
t i
Ġà¤¯ à¤¤
Ġà¤ı à¤¨
Ġà¥§ à¥¬
à¤¬ à¤¹
Ġà¥§ à¥ª
Ġà¤ Ī
Ġà¤®à¤¤ à¤¦
h a
Ġà¤® à¤°
Ġà¤¨ à¤Ńà¤ıà¤ķ
à¤ľ à¤§
Ġà¤ĺ à¤Ł
à¤ª à¤¯
Ġà¤ľ à¤°
Ġà¤ľ à¤Ĺ
à¤ī à¤µ
à¤· à¤¯
Ġà¤¹ à¤¸
Ġà¤¨ à¤ª
à¤® à¤§
à¤¸ à¤°à¤ķ
à¤² à¤°
à¤² à¤¸
à¥Ī à¤ģ
à¤Ĺ à¤ł
Ġà¤¦ à¤¶
Ġ 1
à¤° à¤ľ
à¤¯ à¤¯à¤¨
à¤§ à¤¬
à¤ļ à¤®
à¤¯à¤® à¤¨
Ġà¥§ à¥Ń
à¤ī à¤¦
Ġà¤ı à¤µ
Ġà¤Ń à¤Ł
à¤ļ à¤²
Ġà¤¨ à¤ľ
Ġà¤¨ à¤°
à¤¦ à¤®
à¤ª à¤Łà¤ķ
Ġà¤Ń à¤£
à¤¾ )
à¤ļ à¤°
Ġà¥¨ à¥§
âĢ ľ
Ġà¤¤ à¤¸
à¥ģ à¤Ĥ
à¤ħ à¤°
n e
Ġ C
à¤¸ à¤¸
à¤Ń à¤ķ
à¤Ń à¤µ
s t
Ġà¤Ĺ à¤£
Ġà¤¸ à¤²
à¤¨ à¤¤
Ġà¤¸à¤¹ à¤ķ
à¤Ĩ à¤°
à¤¯ à¤Łà¤¨
à¤°à¤¤ à¤ķ
à¤Ĺ à¤¦
à¤® à¤Ĺ
à¤ª à¤¦
Ġà¤¸ à¤ľ
à¤¬ à¤¸
à¤ĸ à¤ķ
Ġà¤ħ à¤ªà¤°
à¤īà¤¨ à¤²
à¥Įà¤ģ ,
à¥Ī ,
Ġà¤ĸ à¤¬à¤°
ĠNe pal
à¤¯ à¤Łà¤ķ
à¤ľ à¤¦
Ġà¤¯à¤¸ à¤°
à¤¾ âĢĻ
Ġà¥¨ à¥ª
à¤Ļ à¤²
Ġ201 8
à¤ķ à¤¸
Ġ /
à¤¯à¤¸ à¤²
Ġ P
à¤°à¤® à¤ķ
à¤® à¤°
Ġà¤Ń à¤µ
à¤ľ à¤¨à¤ķ
ĠNe ws
à¤¶ à¤²
à¤· à¤§
a d
à¤¨à¤Ĺà¤° à¤ª
Ġà¤ħà¤¨ à¤²
à¤Ĩ à¤«
à¥Ģ âĢĻ
à¤§ à¤¨à¤ķ
à¤ķ à¤Ł
à¤ª à¤¨à¤ķ
à¤¬ à¤¦
Ġà¤¦ à¤ķ
Ġà¤Ń à¤ĩà¤¸à¤ķ
Ġà¥¨ à¥¨
Ġà¤Ĺà¤ł à¤¨
Ġà¥¨ à¥®
à¤Ĺ à¤²à¤¬
Ġà¤¶ à¤¨
à¤® à¤¸
Ġ S
à¤¯ à¤£
à¤¯ à¤¹à¤°
à¤ĩ à¤°
à¤§ à¤¤
Ġà¤ĺ à¤°à¤®
Ġà¤Ń à¤¦
Ġà¤¦ à¤²à¤ķ
à¥Ń à¥ª
Ġà¤ī à¤¡
Ġ M
à¤µ à¤¦
Ġà¤ĸ à¤¡
Ġ [
o r
à¤° à¤·
à¤² à¤¨à¤ķ
à¤¸ à¤¹à¤°
à¤ķ à¤¹à¤°
Ġà¤ľ à¤¹
à¥¦ à¥¦
à¤§ à¤°
à¤¯ à¤¦
Ġà¤¹ à¤Ł
Ġà¤¤ à¤¹à¤ķ
Ġà¤ķ à¤¥
Ġà¤° à¤ķ
Ġà¥¨ à¥Ń
Ġ Â»
Ġà¤ ĭ
à¤ĩà¤¤ à¤¬
e n
Ġà¥¤ âĢĿ
Ġà¤ª à¤°à¤®
à¤Ļ à¤®
Ġà¤ľ à¤¸à¤²
Ġà¤Ĺ à¤®
Ġà¤® à¤¸
à¤ľ à¤°
o u
à¤Ĺ à¤¢
à¤Ł à¤¬à¤²
Ġ A
à¤¸ à¤ļ
l e
à¤° à¤ļà¤¨
à¤ľ à¤µ
Ġà¥¨ à¥¯
Ġà¤ļ à¤¨
Ġà¤¸à¤¹ à¤ľ
à¤¾ ...
Ġà¥¨ à¥©
à¤· à¤®à¤¤
Ġà¤ħà¤µ à¤§
Ġà¥¨ à¥¬
à¤ĺ à¤°
à¤Ī à¤¨
à¤¨ à¤¸à¤ķ
à¤¯à¤ķ à¤°
à¤ª à¤£
Ġà¤Ĩà¤ľ à¤ķ
à¤¯à¤¸ à¤ªà¤Ľ
à¥Ģ )
à¤°à¤¬ à¤¹
à¤¹ à¤¤
à¤ Ķ
Ġà¤Ĺà¤ł à¤¬à¤¨
à¤ļ à¤¨à¤®
Ġà¤° à¤®
Ġà¤ĸ à¤¨
à¤¨ à¤¹à¤°
à¤ľ à¤ª
Ġà¤ľ à¤µ
à¤µ à¤µ
Ġà¤ķ à¤µ
Ġà¤¨ à¤¤
m a
Ġà¤ħà¤µà¤¸ à¤°à¤®
Ġà¤Ĩ à¤Ī
à¤ł à¤ķà¤²
à¤¸ à¤µ
à¤ĩ à¤®
Ġà¤īà¤ª à¤¯
à¤µ à¤¯à¤¨
Ġà¤ī à¤¸à¤²
à¤ķà¤² à¤¨
à¤µ à¤¤à¤¨
Ġà¤« à¤°à¤ķ
Ġà¤¯ à¤¦
Ġà¤Ń à¤Ī
Ġà¤ľ à¤¤
Ġ R
Ġà¤Ĩ à¤ĩà¤¤à¤¬
à¤Ł à¤¬
à¤¤ à¤¤
à¥ĭ )
à¤· à¤²
à¤¯ à¤¬
à¤Ĩ à¤ľ
à¥§ à¥¦
Ġà¤Ķ à¤·à¤§
Ġà¥ª à¥¦
à¤ł à¤ķà¤®
Ġà¤ĺ à¤£
e s
à¤ļ à¤¨à¤ķ
à¤¬ à¤°à¤ķ
à¥ĩ à¤ģ
à¥Ń à¥«
à¤ĸ à¤²
Ġà¤Ĳ à¤¨
à¤Ĺ à¤£
à¤¶ à¤¸à¤Ń
Ġ m
à¤µà¤ķ à¤ª
à¥¤ âĢĻ
Ġà¤¨ à¤ķ
Ġà¤Ŀ à¤¨
i l
à¤°à¤£ à¤²
à¤īà¤¨ à¤ķ
Ġà¤Ĩ à¤ł
Ġà¤ Ĭ
à¤ĩ à¤¡
Ġà¤īà¤ª à¤¸
Ġà¤® à¤¦
à¤¯à¤ķ à¤¤
Ġà¤Ĩ à¤ª
à¤¤ à¤¹à¤°
à¤ĩ à¤¸
Ġà¤ħà¤µà¤¸ à¤°
à¤ĩ à¤¨à¤²
à¤ī à¤ķ
Ġà¤¬ à¤®
Â ¥
Ġà¤¹ à¤²
Ġà¤¸à¤® à¤°
à¤ª à¤¹
a t
à¤ħ à¤§
Ġà¤¶ à¤¬
Ġà¤Ĩ à¤ļ
Ġ "
Ġà¤¤ à¤¹
à¤¨ à¤¦
à¤ķà¤°à¤£ à¤ķ
à¤°à¤£ à¤®
Ġà¤ķ à¤ķ
à¤° à¤µà¤ķ
à¤ħ à¤¬
à¥ĩ à¤Ĥ
e d
Ġà¤² à¤¡
à¤ł à¤²
Ġ T
, âĢĻ
Ġà¤¸ à¤ª
om e
à¤ª à¤·
Ġà¤µ à¤¨
à¤ħ à¤¸
Ġà¤ķà¤® à¤ľ
Ġà¤¯ à¤¸à¤®
Ġà¤Ĩ à¤²
à¤¡ à¤°
Ġà¤Ń à¤µà¤¨
à¤ķà¤® à¤²
à¥Ģ âĢĵ
à¤ħ à¤®
à¤ı à¤²
âĢĻ ,
H ome
à¤£ à¤®
à¤ĸ à¤®
à¤Łà¤° à¤¨
à¤Ĺ à¤¨
Ġà¤ĩ à¤®
à¤ħ à¤¹
à¤¾ -
Ġ D
Ġà¤ħ à¤ķ
à¤¤ à¤°à¤ķ
à¤° à¤ĸ
Ġà¤¸ à¤ªà¤¨
Ġ )
i t
Ġà¤¤ à¤²
Ġà¤Ń à¤¤
à¤Ĺ à¤°à¤®
à¤¸ à¤ª
à¤ī à¤¤
à¤Ł à¤µ
Ġà¥¨à¥¦ à¥¦
à¤¤ à¤µà¤¨
Ġà¤ĩ à¤¤
Ġà¤ķ à¤¨
Ġà¥¨à¥¦ à¥¬
Ġà¤° à¤¨
à¤¤ à¤¬
Ġ on
à¤Ĩ à¤Ī
à¤¯ à¤¯
Ġà¤¤ à¤¹à¤®
Ġà¤¸à¤® à¤¨
Ġ O
_ _
Ġà¤ļà¤°à¤£ à¤®
Ġà¤ī à¤ľ
Ġà¥© à¥§
à¥Ń à¥©
à¤ĩ à¤ľ
à¤¯à¤µ à¤¹
Ġà¤ĭ à¤£
Ġà¤Ĩ à¤ķà¤°
à¤¥ à¤ķ
à¤® à¤ª
Ġà¥¬ à¥¦
à¤ķ à¤¬
Ġà¤Ńà¤ı à¤¨
a g
à¤ª à¤ļ
à¤ĩ à¤ª
à¤ķ à¤µ
à¤¨ à¤¸à¤®
à¤¥ à¤¨
r a
Ġà¤µ à¤¸
à¤¬ à¤ķ
à¤Ĩ à¤ľà¤ķ
à¤ĸ à¤¨
à¤Ĺ à¤¬
Ġà¤ĸ à¤¸
Ġà¥¨à¥¦à¥§ à¥®
Ġà¤¯à¤¸ à¤ħà¤ĺ
à¤Ĺ à¤®à¤¨
à¤£ à¤¸
Ġà¤ķ à¤¡
Ġ B
Ġà¤ħ à¤ĸ
à¤¾ à¥¤
à¤µ à¤Ł
Ġà¤¸à¤«à¤² à¤¤
o re
à¤§ à¤µ
Ġà¤¡ à¤Ł
Ġà¤¨ à¤µ
Ġà¤¸ à¤«
Ġà¤īà¤ª à¤Ń
Ġà¤« à¤²
à¤¶ à¤¸
Ġà¤ı à¤ª
Ġà¤Ń à¤ķ
à¤« à¤¬
Ġà¤¶ à¤¹à¤°
à¤² à¤¸à¤®
Ġà¤ķ à¤Ł
Ġà¥¨à¥¦à¥Ń à¥©
Ġà¤ľ à¤²à¤µ
Ġà¤ĩ à¤²
à¤µ à¤§
à¤Ĺà¤ł à¤¨
à¤¶ à¤¬
i c
Ġà¤ĸ à¤¤
à¥ĭ ...
à¤¹ à¤®à¤¨
à¤°à¤¹ à¤¨
à¤¥ à¤²à¤®
Ġà¤ľà¤¨ à¤¸
Ġ N
à¥Įà¤Ĥ à¥¤
à¤ļ à¤¯
à¤°à¤®à¤£ à¤ķ
Ġà¤ī à¤¸à¤ķ
Ġà¤² à¤²
Ġà¤ı à¤ľ
Ġà¤¦à¤² à¤¹à¤°
e ad
i k
en t
Ġà¤¤ à¤¨
Ġà¤ľ à¤²
à¤µ à¤¶
v i
à¤¬ à¤®
à¤® à¤£
Ã ·
Ġà¤ª à¤²
à¤°à¤¤ à¤²
à¥ģ à¤ĥ
à¤Ł à¤¹à¤°
à¥§ à¥¨
à¤ĺ à¤²
Ġà¤ļà¤°à¤£ à¤ķ
à¤° à¤ŀ
Ġà¤¸ à¤§
à¤° à¤°
Ġ E
Ġà¥© à¥«
Ġà¤Ĺ à¤ıà¤°
à¤ Ĭ
à¤Ł à¤°à¤¸
à¤· à¤°
Ġà¤ĸ à¤Ł
à¤µ à¤¡
Ġà¤Ĺ à¤²
à¤Ĺ à¤°à¤ķ
Ġà¤ī à¤ªà¤¤
b ar
t h
à¤¶ à¤¨à¤®
Ġà¤Ĺ à¤¨
Ġà¤ħ à¤¡
à¥ĭ âĢĻ
à¤Ī à¤®
à¥§ à¥§
à¤° à¤¥à¤®
à¤° à¤Ĺà¤¤
à¥ĩ âĢĵ
Ġà¤ī à¤ªà¤°
à¥ĩ âĢĻ
à¤Ŀ à¤¨
Ġ I
Ġà¤¸ à¤¹à¤°
Ġà¤¨ à¤¬
à¤¸ à¤¨à¤²
Ġà¤¨ à¤²
à¥§ à¥¯
à¤Ł à¤°à¤®
à¤° à¤¸à¤®
à¤·à¤ķ à¤¹à¤°
Ġà¤¯à¤¸ à¤¬
.. ..
à¤ĩ à¤¯
à¤¾ :
à¤°à¤¤ à¤®
ha bar
à¤Ĺ à¤¤à¤ķ
Ġà¤¹ à¤ª
Ġà¤° à¤¸
à¥Ģ .
a y
Ġà¥© à¥¨
à¥ĩ )
Ġà¤Ŀ à¤£
à¤° à¤Ĺ
à¥ģ à¥¤
Ġà¤ª à¤¸
à¤Łà¤¨ à¤Ĺà¤°
Ġà¤Ĺ à¤²à¤¤
âĢ Ķ
à¤Ł à¤ª
Ġà¤¸ à¤¡
Ġà¤ħà¤¸ à¤°
Ġà¤¦ à¤¸
Ġà¤² à¤®
h t
âĢ¦ ]
à¤µ à¤¨à¤ķ
Ġ .
à¤¡ à¤¸
Ġà¤Ĩà¤ĩ à¤ª
à¤ĩ à¤ķà¤²
Ġà¤ľ à¤¬
à¥© à¥¦
à¤¡ à¤¨
Ġà¤ªà¤¦ à¤®
Ġà¥¨à¥¦à¥Ń à¥¨
à¤ľ à¤¬
in e
Ġ F
à¤Ń à¤®
m ent
à¤Ĺà¤¤ à¤®
Ġà¤¡ à¤²à¤°
ĠâĢ ¦
à¤°à¤®à¤£ à¤®
Ġà¤ħ à¤¶
Ġà¤ª à¤ŀ
à¤·à¤£ à¤ķ
Ġ p
à¤ŀ à¤ª
Ġà¤ľ à¤¨à¤ķ
Ġà¤ħ à¤µà¤°
à¤¯à¤¸ à¤°
Ġà¤Ĩ à¤ı
à¤ª à¤¸
c h
Ġ[ âĢ¦]
à¤¸ à¤¨à¤ķ
à¤¶ à¤¨à¤ķ
à¤ļà¤¨ à¤ª
Ġà¥Ń à¥¦
ma il
à¤¬ à¤ľ
Ġà¤® à¤Ĺà¤°
à¤² à¤¤à¤®
Ġ K
Ġà¤Ĩ à¤¹
Ġà¤ķ à¤ł
Ġà¥© à¥©
à¤ª à¤ķà¤®à¤²
à¤ı à¤«
à¤Ł à¤°à¤ķ
Ġà¤¨à¤Ń à¤ı
à¤ī à¤ª
in g
à¤°à¤£ à¤ķ
o p
Ġ H
à¤¿ à¤ĥ
ne ws
à¤¯à¤¸ à¤¬
Ġà¤¢ à¤ķ
à¤¡ à¤¬
à¤¹ à¤¦
à¤¤ à¤¸
à¤² à¤ª
Ġà¤ĩ à¤ļ
e l
Ġà¥¯ à¥®
à¤µ à¤¸à¤ķ
w w
Ġà¤ĸ à¤¤à¤°
Ġà¤¦ à¤¬
Ġm ore
Ġà¤® à¤Ļ
à¤¦ à¤µà¤²
Ġà¤¨ à¤Ĺà¤¦
à¤¦ à¤¤
à¤ħ à¤ª
Ġà¤Ńà¤ı à¤ªà¤¨
Ġà¤ªà¤¹ à¤²
Ġà¤ľ à¤¸à¤ķ
à¤² à¤¤à¤²
à¤ĵ à¤²
ĠNepal i
à¤¨à¤¸ à¤Ń
Ġà¤ļ à¤¢
ti on
Ġà¤ł à¤Ĺ
Ġà¥® à¥¦
à¥§ à¥«
à¤¯ à¤°à¤¤
Ġà¤¬ à¤Ĺ
à¤ķ à¤¤à¤¨
Ġà¤Ĩà¤« à¤¨
Ġà¤ľà¤¨ à¤ľ
à¤µ à¤°à¤ķ
à¥§ à¥®
a b
à¤ī à¤®
Ġà¤ĸ à¤£
Ġà¤ī à¤°
Ġà¤Ĭ à¤°
o l
u r
Ġà¤¸à¤¡ à¤ķà¤®
Ġà¤ķ à¤¸à¤²
Ġà¤Ĩ à¤Ĺà¤²
à¤¦ à¤¨à¤®
à¤ī à¤¹
à¤µ à¤¨à¤®
Ġà¤ł à¤ķ
à¤¦ à¤¶
Ġà¤® à¤£
à¤¸ à¤¤
Ġà¤®à¤¹ à¤¸
à¤¯ à¤Ł
Ġà¥ª à¥«
0 0
i d
Ġ s
ĠC om
Ġà¤¨ à¤ªà¤°
Ġà¤Ĺ à¤¯
à¤¥ à¤®à¤¨
à¤¹à¤° à¤£
à¤Ĩ à¤®
Ġà¤¸ à¤°à¤¸
à¤· à¤ªà¤Ľ
Â ©
Ġà¤§ à¤®
à¥ĩ -
à¤°à¤® à¤²
Ġà¤¶ à¤µ
Ġà¤¸ à¤¸
à¥ģ Â¥
à¤® à¤¯
Ġà¤ľ à¤¡
à¤µ à¤Ń
Ġà¤¤ à¤°à¤ķ
à¤° à¤«
à¤¥ à¤°
Ġà¤ĺ à¤¨
à¤ı à¤¨à¤¨
à¥Ĥ ,
l ine
à¤Ł à¤µà¤²
Ġà¤Ĳ à¤¤
Ġà¤® à¤¹à¤°
Ġà¤® à¤ŀ
Ġà¤ı à¤²
à¤ĩà¤¨à¤² à¤®
Ġà¤Ĺà¤£ à¤¤à¤¨
Ġà¤ªà¤¦ à¤ķ
à¤ī à¤¡
à¥§ à¥¬
ĠâĢ Ķ
à¤ı à¤ľ
Ġà¤ħ à¤·
Ġà¤° à¤£
Ġ L
à¥ģ .
à¤¶ à¤¹à¤°
Ġà¤ļ à¤ķ
Ġà¥¨à¥¦ à¥«
Ġà¤ļ à¤¯à¤¨
Ġà¤ķà¤® à¤²
Ġ J
à¤¤ à¤°à¤®
Ġà¤īà¤ª à¤ª
à¤¶ à¤¨à¤²
Ġà¤Ķ à¤ªà¤ļ
Ġà¤¦ à¤¶à¤ķ
à¤¨à¤¸ à¤°
Ġà¤ı à¤¶
Ġà¤ľà¤¨ à¤ª
Ġà¤¦à¤¶ à¤®à¤²
e m
Ġà¤Ĩ à¤ıà¤°
à¤ľ à¤¤
ti c
Ġà¤¦à¤¶à¤®à¤² à¤µ
à¥Ģ à¤ģ
à¤®à¤¬ à¤¹
Ġà¤ľà¤¨à¤ķ à¤ª
Ġà¤¤ à¤²à¤¬
à¥ģ à¥ģ
Ġà¤ı à¤µà¤®
à¤°à¤¤ à¤ª
Ġà¤Ń à¤Ĺ
à¤¨ à¤Ńà¤¨
Ġà¥¯ à¥¦
à¤« à¤°
à¤° à¤¥
Ġà¤¯ à¤¥
à¤² à¤¦
Ġà¤¹ à¤µ
Ġà¤¸ à¤¶à¤¸
à¥Į ,
à¤Ĺ à¤ľ
à¤® à¤¹à¤°
à¥ĭ âĢĵ
Ġà¤ī à¤¸
à¤Ń à¤²
à¥¨ à¥«
) ,
à¤ªà¤¦ à¤£
à¥§ à¥ª
à¤¹ à¤¸
à¤« à¤ķ
à¤ī à¤¸
à¤· à¤¸à¤®
à¤°à¤¹ à¤£
à¤£ à¤ªà¤¤
à¥ĩ ...
Ġà¤īà¤ª à¤®à¤¹
Ġ! !
Ġà¤¹ à¤ķ
Ġà¤ħ à¤ªà¤¨
b er
Ġà¥¨à¥¦à¥§ à¥Ń
à¤· à¤ħà¤ĺ
à¤ª à¤¶
à¤Ĩ à¤¯
à¤² à¤Ń
à¤¸à¤¦ à¤®
à¤° à¤¬à¤¨
Ġà¤¸à¤¦ à¤°à¤®
Ġ 3
à¥§ à¥Ń
Ġà¤ľ à¤¸à¤®
à¤Ĺ à¤¹à¤°
Ġà¤ıà¤ķ à¤ľà¤¨
Ġà¤ķ à¤ŀ
à¤Ĩà¤° à¤ıà¤¨
à¥Ģ -
Ġà¤Ĺ à¤ı
Ġà¤° à¤ļà¤¨
à¤¡ à¤«
o f
r i
e t
ou s
à¤°à¤µ à¤¦
à¤ĩ à¤Ń
Ġà¤® à¤¨à¤®
à¤Ł à¤¸
à¥Ĥ à¤ģ
à¤°à¤ķ à¤°
à¤¤ à¤¹
Ġà¤° à¤µ
à¥ĭ à¥ĩ
a s
à¤ķà¤°à¤£ à¤²
à¤¥ à¤µ
à¤¯à¤¸ à¤Ń
à¤ĸ à¤¦
Ġà¥Ń à¥«
à¤¿ :
à¤ª à¤¥
à¤¬ à¤°à¤®
à¤Ĺ à¤ķà¤°
x t
à¤§ à¤²
o st
âĢ ĭ
à¤¸à¤¦ à¤ķ
à¤² à¤¤à¤ķ
à¤Ń à¤Ĺ
Ġà¤µ à¤ķ
à¤¯ à¤°à¤ķ
à¤² à¤¹à¤°
à¥ģ âĢĻ
i a
à¥ĭ ?
à¤ģ ,
Ġà¥« à¥«
à¤® à¤µ
Ġà¤ĺ à¤°à¤ķ
à¤²à¤ķ à¤ķ
Ġà¤¨ à¤Ĩ
Ġà¤¬ à¤¦à¤²
à¤ŀ à¤µ
a k
a m
à¤µ à¤°à¤²
à¤¶ à¤µ
Ġà¤¨à¤Ń à¤Ī
Ġà¤¦ à¤²à¤²
à¤·à¤ķ à¤ķ
Ġà¤ªà¤° à¤°
Ġà¤ľ à¤¨à¤®
à¥§ à¥©
à¤§ à¤¨à¤²
Ġà¤° à¤¨à¤ķ
Ġà¥¤ à¥¤
Ġà¤¦ à¤®
à¤¨ à¤Ń
Ġà¤¡ à¤°
Ġ ar
Ġà¤ħ à¤Ļ
re vi
à¥¨à¥¦ à¥Ńà¥«
e c
à¤¨ à¤¤à¤®
Ġà¤ħà¤¸ à¤«à¤²
u n
à¤· à¤Ń
à¥Ń à¥¨
Ġà¤Ĩ à¤ĩà¤°à¤¹
à¤· à¤¹à¤°
ĠCom ment
à¤¯à¤¸ à¤ħà¤ĺ
à¤ķ à¤¹
Ġ 0
revi ous
à¤¥ à¤¤à¤¨
à¥¨à¥¦ à¥Ńà¥ª
Ġ f
ĠR ead
Ġà¥© à¥¬
à¤¯à¤¤ à¤²
à¤®à¤¹ à¤¤
à¤Ĺ à¤¶
Ġà¤ı à¤«
Ġ l
à¤Ŀ à¤¦
à¤µ à¤°à¤®
à¤° à¤Ļ
Ġà¤¸à¤® à¤Ĺ
Ġà¤ħà¤¸ à¤¨
à¤Ĺà¤£ à¤¨
à¤Ī à¤ıà¤ķ
à¤¾ âĢ¦
à¥ĩ .
t p
/ /
à¤µ à¤¹à¤°
à¤¦ à¤¯
ht tp
Ġà¤Ĩ à¤¨à¤¨
â Ĩ
à¤¶ à¤¤à¤²
à¤¦ à¤¨à¤ķ
Ġà¤® à¤ľà¤¦
Ġà¤Ľà¤² à¤«
: //
ne pal
Ġà¤ħ à¤ŀ
Ġà¤¬ à¤ķ
à¥ģ :
i s
Ġà¤¬ à¤¡
Ġà¤¸ à¤Ĺà¤°à¤®
à¥ĩ ?
à¤£ à¤¤
à¥ĭ -
à¤¶ à¤Ńà¤°
Ġà¤ĵ à¤Ń
à¤Ĩ à¤¨
à¤· à¤¯à¤²
Ġà¤Ńà¤ı à¤®
Ġà¤ħ à¤ļ
Ġà¤« à¤¸
à¤¸ à¤Ļ
an d
à¤Ń à¤¦
à¤¥ à¤Ĺ
Ġà¤ħ à¤²à¤Ĺ
Ġà¤Ĺ à¤¹
à¤ī à¤°
Ġà¤ľà¤¨ à¤¶à¤ķ
Ġà¤°à¤£ à¤¨
Ġà¤¸à¤®à¤¯ à¤¦
em ber
à¤¯ à¤°à¤²
e p
à¥Įà¤Ĥ âĢĵ
Ġà¤ıà¤ķ à¤²
à¥¨ à¥¯
Ġà¤Ĩ à¤ıà¤ªà¤Ľ
à¤¤ à¤°à¤¤
Ġà¤° à¤¤
tic le
a p
Ġà¤¹ à¤Ļà¤ķ
à¤ł à¤ķà¤ķ
à¤² à¤ªà¤¤
à¤¿ ?
à¤² à¤ĸ
Ġ W
r o
à¤£ à¤²
P revious
Ġà¤Ń à¤°à¤¤à¤ª
à¤· à¤¯à¤ķ
Ġ201 7
à¤ī à¤²
Ġà¥ª à¥ª
Ġà¤ļ à¤®
à¤µà¤² à¤ªà¤°
à¤ħ à¤Ń
Ġà¤¨ à¤°à¤¹
à¤ĩà¤Ł à¤¹à¤°
Ne pal
à¤ī à¤£
à¤¥ à¤²à¤ķ
o o
à¤¦ à¤Ľà¤¨
à¤²à¤¯ à¤¹à¤°
Ġà¤¬à¤¹ à¤¸
Ġà¤ī à¤ªà¤¨
Ne xt
Ġà¤īà¤ª à¤ķà¤°à¤£
à¤§ à¤¨à¤®
à¤ĩ à¤¬
à¤ı à¤īà¤Ł
à¤Ł à¤ĺ
à¤°à¤® à¤¹à¤°
Ġà¤¨à¤Ń à¤ıà¤°
Ġà¤Ŀ à¤°
à¤¿ ...
à¤ıà¤¸ à¤ª
à¤¾ /
à¥Ģ ...
à¥Ń à¥¬
Ġà¤§à¤¨ à¤Ĺà¤¢
ou t
à¤Ń à¤µà¤¤
à¤¨ à¤ļ
à¤°à¤¤ à¤¬
n line
à¤® à¤°à¤£
Ġà¤ª à¤¬
Ġà¤Ń à¤²
à¤· à¤¬
Ġà¤ī à¤Ń
à¤ħ à¤²
à¥¨ à¥¨
ĠComment s
Ġà¥¬ à¥«
Ġà¥© à¥®
Ġ G
Ġà¥§à¥¯ à¥¯
Ġà¤ª à¤¸à¤²
à¤¤à¤µ à¤¨à¤ķ
à¤¦ à¤Ĺ
Ġà¤ ĥ
Ġà¥§à¥¦ à¥¦
Ġà¤² à¤ĺ
Ġà¤ħà¤¬ à¤ķ
t er
Ġà¤¶ à¤¤
Ġà¤ħ à¤¥à¤µ
__ __
à¤¯à¤® à¤¬
à¤µ à¤£
Ġà¥© à¥ª
à¤¤ à¤¦
Ġà¥ª à¥¨
à¤·à¤£ à¤®
Ġà¤ıà¤ķ à¤¦à¤®
à¤Ł à¤«
à¤²à¤¯ à¤¬
Ġà¤ĩ à¤¸
g mail
à¤ª à¤Ł
à¤µà¤¯ à¤¨à¤®
à¤¥ à¤ª
Ġà¤¸à¤® à¤¯à¤ķ
à¤Ĺ à¤¸
à¤Ł à¤°à¤²
Ġà¤¸à¤°à¤¸ à¤«
à¥į ...
Ġ b
à¤µà¤¯ à¤¨à¤ķ
à¥¨ à¥©
à¤£ à¤ª
à¥ĭ âĢ¦
Ġà¤ħ à¤Ł
Ġà¤¨ à¤·
Ġà¤ı à¤£
Ġ news
Ġà¤Ĩ à¤¸
à¤ľà¤¨ à¤®
à¤ª à¤¬
Ġà¤ľà¤¸ à¤°
ĠI n
à¥¦ à¥Ńà¥©
à¤ĸ à¤£
Ġar ticle
à¤µ à¤¸à¤®
Ġ c
à¤ĸ à¤¹à¤°
Ġà¤ł à¤¹à¤°
Ġà¤Ľ à¤°
d e
Ġ in
i m
à¥¨ à¥ª
u l
à¤¤ à¤°à¤²
e b
a c
à¤µ à¤ļ
v e
à¤¤ à¤¡
Ġà¤Ī à¤¶
Ġà¤ıà¤ķ à¤ķ
à¤¸à¤¦ à¤¹à¤°
http s
Ġà¤Ĺ à¤ľà¤²
à¤Ī à¤¤
à¤¤ à¤¨à¤ķ
Ġà¥¨à¥¦à¥§ à¥¬
Ġà¤¨ à¤ĸ
Ġà¥© à¥Ń
Ġà¤®à¤¤ à¤Ĺà¤£à¤¨
Ġà¥¨à¥¦ à¥ª
Ġà¤Ĩà¤ľ à¤¦
Ġà¤Ĺ à¤ľ
t o
à¤ľà¤¨ à¤¤
ĠO nline
h ar
à¤¸ à¤¨à¤®
à¥įâĢ Į
à¤Ĺà¤² à¤µ
i r
l o
i p
ed ia
à¤¶ à¤Ń
à¥¨ à¥®
à¥ĩ ]
Ġ of
à¥« à¥¦
or t
à¤ģ à¥¤
à¤ĺ à¤°à¤®
Ġà¥« à¥§
à¤ĩ à¤«
à¤°à¤® à¤¨
à¤¯ à¤§
à¤¾ à¥Īà¤Ĥ
à¥ °
à¤¡ à¤²à¤ķ
Ġà¤Ī à¤¨
Ġà¤¹ à¤ķà¤ª
Ġà¤ª à¤£
à¤ķ à¤°à¤¬
Ġ 4
Ġà¤¤ à¤®
à¤ķ à¤¥
ar y
à¤¯à¤¤ à¤®
Ġà¤¬à¤ļ à¤¤
à¥Ģ :
Ġ? âĢĻ
à¤ļà¤² à¤ļ
à¤ĺ à¤¨
à¤Ĺ à¤®à¤²
à¤°à¤ķ à¤°à¤£
Ġà¤ıà¤¨ à¤Ĩà¤°à¤ıà¤¨
Ġà¤¸à¤® à¤Ŀà¤¦
Ġà¤ħ à¤µà¤²
à¤Ĩ à¤µ
à¥ĭ, âĢĻ
Ġà¤ķà¤ª à¤¡
2 01
Ġà¤Ĩ à¤ªà¤¤
.. ...
à¥Ń à¥Ń
f f
Ġà¥ª à¥®
Ġà¤Ńà¤Ĺ à¤µ
Ġà¤ķ à¤¬
à¤² à¤¨à¤²
à¤¯à¤¨ à¤¸
à¤· à¤ķà¤²
à¤²à¤ķ à¤²
Ġà¤° à¤Ĺà¤¤
à¤Ł à¤µà¤°
Ġà¤Ķ à¤¦
à¤¶ à¤°
âĢĿ ,
Ġà¤¬ à¤¯
à¤· à¤ľ
Ġà¤Ī à¤®
à¤µ à¤¹
à¥Įà¤ģ à¥¤
à¤°à¤ª à¤¶
h e
Ġà¤ĵà¤Ń à¤°à¤®
Ġà¤°à¤¹ à¤¸
Ġà¤ı à¤¡
Ġà¤ķ à¤¦à¤®
Ġà¥ª à¥©
ww w
Ġà¤® à¤ķà¤µ
à¤¹à¤¦ à¤°à¤¬
à¤Ĺ à¤¡
Ġà¤ħà¤¸ à¤¹
Ġà¥© à¥¯
à¤¡ à¤ª
à¤Ĺà¤ł à¤¨à¤ķ
Ġ U
Ġà¤ľ à¤Ł
à¤µà¤ķ à¤°
Ġà¤¨ à¤¸
Ġà¤²à¤Ĺ à¤¤
Ġà¤īà¤ª à¤¹
Ġ 5
à¤ľ à¤¶
ĠâĢ Ļ
Ġà¤¤ à¤¹à¤²
à¤°à¤¸ à¤¹
à¤¸à¤¦ à¤²
à¤ļ à¤¸
a j
à¥¨ à¥§
Ġà¥ª à¥¯
à¤°à¤¹ à¤µ
à¤® à¤¶
à¤® à¤ļà¤¨
à¤Ī à¤¦
Ġà¤° à¤¦
Ġà¤ĺ à¤°à¤¬
à¥¨ à¥¬
à¤¦ à¤¦
à¥Ń à¥¦
à¤° à¤ªà¤Ľ
u s
à¤¨ à¤ªà¤Ľ
Ġà¤ħ à¤¸à¤®
à¤¤à¤ķ à¤ķ
Ġà¤¸à¤¡à¤ķ à¤ķ
à¤¸ à¤µà¤ķ
Â «
à¥į âĢĵ
à¤Ł à¤²à¤®
Ġà¥« à¥¬
à¤¯à¤£ à¤Ĺà¤¢
à¤ľà¤¨ à¤²
Ġ2 0
à¤µ à¤¯à¤®
à¤Ī à¤µà¤Ł
à¤¤à¤® à¤²
à¤°à¤ķ à¤Ł
Ġà¤¢ à¤²
à¥¨ à¥Ń
Ġà¤ħà¤¸ à¤²
à¤¦à¤¨ à¤¶
Ġà¤ħ à¤ľ
Ġ ]
Ġà¤¸ à¤²à¤®
à¤¯ à¤°à¤®
à¤¾ '
Ġà¤ļ à¤²à¤¨
Ġà¤²à¤Ĺ à¤Ńà¤Ĺ
à¤¯à¤® à¤ķ
Ġà¤¡ à¤²
Ġà¤ħà¤« à¤Ĺ
ĠâĢ Ŀ
ĠO ff
à¤¬ à¤¤
Ġ re
à¤°à¤§ à¤¨
à¤µ à¤ľ
à¤Łà¤¬ à¤²à¤ķ
à¤ı à¤ª
Ġ Â©
à¥į âĢĻ
Ġà¥¦ à¥¬
Ġà¤ıà¤ķ à¤¦
à¤ķ à¤¦
Ġà¤ĩ à¤°
à¤Ī à¤¸
à¥¯ à¥®
Ġà¤¸ à¤Ł
à¥ĥ à¤Ĥ
Ġà¤¦ à¤°à¤¬
à¤²à¤¬ à¤²
or g
à¤¶ à¤ķà¤²
Ġà¤¨ à¤¬à¤¨
at e
à¤ķà¤® à¤ķ
Ġà¤ĩ à¤ķ
R ead
w ik
Ġà¤Ľ à¤ķ
Ġà¤ĸ à¤¬
Ġà¥ª à¥§
Ġà¤ĩ à¤ľ
Ġà¤ħà¤ª à¤¡
à¤¿ âĢĻ
à¤¦ à¤¸
à¥¦ à¥Ńà¥ª
Ġà¤¨ à¤µà¤²à¤ªà¤°
à¤¯ à¤¶
à¤°à¤® à¤¶
Ġ 9
o v
: :
Ġà¤ħ à¤ļà¤®
Ġà¤¸ à¤ĺ
es s
Ġà¤¸à¤®à¤¯ à¤¸à¤®
à¤° à¤µà¤°
à¤ī à¤Ľ
à¤µ à¤¬
à¤¾ à¥Ī
à¤°à¤¶ à¤¸
Ġà¤¹ à¤®
à¤¨ à¤¹
Ġà¤Ł à¤¨
à¥¨à¥¦ à¥Ńà¥©
à¥¦ à¥¬
à¤¹ à¤¬
à¤¬ à¤Ī
a ma
Ġà¤¸ à¤°à¤²
à¤ĩ à¤°à¤²
à¤² à¤µà¤¸
à¤ļ à¤¬
Ġà¥¨à¥¦à¥§ à¥«
à¤Ī à¤Ł
à¤Ķ à¤·à¤§
à¤¡ à¤¯à¤¨
Ġà¤¬ à¤§
à¤Ļ à¤¬
Ġà¥¬ à¥©
à¤Ĩ à¤Ĺ
à¤ª à¤ª
à¤ĸ à¤¤
à¤° à¤Ńà¤¨
à¤Ī à¤¹à¤°
à¤¾ à¤ĥ
à¤¯à¤® à¤²
Ġà¤® à¤¦à¤¨
à¤Ĺ à¤®à¤ķ
à¥¤ âĢĿ
à¤« à¤®
à¤²à¤¬ à¤¹
u ary
Ġà¤ħà¤¨ à¤¶à¤¨
à¤¯à¤Łà¤ķ à¤ķ
a tion
Ġà¤¨ à¤ļ
Ġà¤Ĺà¤£ à¤¨
à¤Ĺ à¤²à¤®
ï ¿
à¤¦ à¤°à¤²
Ġà¤¯à¤¸ à¤ªà¤Łà¤ķ
à¤°à¤£ à¤¸à¤Ń
Ġà¥« à¥ª
Ġà¤Ĩ à¤īà¤Ł
g ht
Ġà¤¶ à¤ªà¤¥
ï¿ ½
à¤¯ à¤ľ
à¤ľà¤ķ à¤¤
l y
ĠâĢ ¢
à¤· à¤¦à¤ķ
Ġ V
Ġ: -
à¤¨ à¤¥
Ġà¤¬ à¤²à¤®
Ġà¤ª à¤µ
à¤¨à¤µ à¤Ł
à¤ľ à¤ķà¤²
Ġà¥« à¥®
à¤¯ à¤¨à¤ķ
à¤¸à¤® à¤ķ
Ġà¤Ĺ à¤ĩà¤°à¤¹
Ġà¥ª à¥¬
à¤¤ à¤µà¤®
Ġà¤µ à¤²
Ġà¥« à¥©
à¤° à¤ľà¤¨
Ġà¤ĵ à¤°
à¤¯à¤¯ à¤¨à¤ķ
Ġà¥¦ à¥§
Ġà¤ľ à¤¯à¤¨
Ġà¥« à¥¨
Ġà¤¤ à¤¬
Ġà¤ľà¤¨ à¤¯
âĢ Į
Ġà¤¶ à¤°à¤£
à¤¨ à¤¡
à¤ĩà¤¨ à¤¨
! !
Ġà¤ħ à¤µà¤ķ
Ġà¤¥ à¤°
Ġà¤¸ à¤¶à¤ķ
à¤ŀ à¤¹à¤°
Ġà¤Ĩ à¤ĸ
ti t
à¤® à¤ªà¤¨
à¤¿ âĢĵ
à¤ĺ à¤®
Ġà¤ľà¤¨ à¤µà¤°
Ġà¤Ĩà¤µ à¤¦
à¥į :
Ġà¤§ à¤¨à¤ķ
à¤ļ à¤¨à¤²
à¥ĭ .
à¤¸ à¤°à¤²
Ġà¤ı à¤¯à¤°
Ġà¤° à¤Ļ
à¤¸ à¤ŀ
à¤ľ à¤°à¤ķ
à¤ĩ à¤¨à¤ķ
it y
Ġà¤ı à¤ļ
Ġà¤ķ à¤¸à¤ķ
à¥ª à¥«
à¥Į à¥¤
à¤ĵ à¤¸
a in
à¤ĩ à¤¨à¤®
à¥Ģ à¥¤
Ġà¤ķ à¤°à¤£
Ġà¤ľ à¤¬à¤°
à¤ĩ à¤Łà¤®
ĠA r
à¤® à¤ľ
p h
Ġà¤Ń à¤ĩ
à¤ĺ à¤¸
Ġà¤ı à¤¯à¤°à¤²
Ġà¤«à¤² à¤«
à¤¹ à¤ķà¤²
Ġà¤Ł à¤°
à¤ª à¤¨à¤®
Ġà¤ı à¤Ł
u b
an c
à¤¤ à¤¸à¤®
à¤¿ à¥¤
Ġà¤Ľà¤²à¤« à¤²à¤®
Ġà¤® à¤ķ
Ġà¤¯à¤¸ à¤ª
Ġà¤ı à¤¨à¤¸
à¤²à¤Ĺ à¤¨
ip edia
à¤¾ Â»
à¤¶à¤ķ à¤ķ
ak habar
à¤ľ à¤¹à¤°
Ġà¤¨ à¤¨
Ġ w
à¤µ à¤ķà¤²
Ġà¤¹ à¤¦
à¥į -
Ġ â
à¤·à¤£ à¤²
à¥¨à¥¦ à¥¬
à¤°à¤¤ à¤¸
de x
à¤¤à¤µ à¤¨à¤®
Ġ th
Ġà¤ħà¤² à¤ªà¤¤
u st
Ġà¥ª à¥Ń
à¥ĩ, âĢĺ
B C
à¤¯à¤ķ à¤ķ
Ġà¥¨à¥¦à¥Ń à¥§
à¤£à¤¯ à¤¹à¤°
Ġà¤ħà¤° à¤¬
à¤¸ à¤°à¤®
Ġà¥¬ à¥ª
Ġà¤¦ à¤°à¤²
Ġà¤¸à¤¹ à¤¸à¤ļ
à¤¬ à¤ľà¤¨
à¤ĩ à¤Łà¤ķ
in dex
Ġà¤ª à¤Ł
à¤²à¤Ĺ à¤ŀ
à¤£ à¤°
à¤µà¤ķ à¤ªà¤®
à¤¦ à¤¹à¤°
à¤ħ à¤·
tit le
Ġà¤Ńà¤ı à¤¸
Ġà¤ħà¤« à¤°
à¤°à¤Ĺ à¤ŀ
Ġà¤® à¤ľ
à¤¤ à¤ļ
Ġà¥Ń à¥¨
Ġà¤¦ à¤«
Ġ ab
Ġà¤®à¤¨ à¤ªà¤°
à¤¸ à¤Ĺà¤°
à¥Įà¤Ĥ -
à¥Ĥ âĢĵ
Ġà¤¡à¤Ł à¤ķà¤®
Ġà¤Ń à¤ĩà¤¨
Ġ: :
à¤¸ à¤¡à¤ķ
ol d
vi e
Ġà¤¦ à¤¯
à¤µà¤ķ à¤ķ
à¤¤à¤°à¤£ à¤ķ
à¤° à¤¯à¤¤
à¤ī à¤ľ
Ġà¥Ń à¥®
à¤µà¤ķ à¤ªà¤ķ
à¤ļà¤¯ à¤ªà¤¤
Ġà¤ļ à¤°à¤®
à¤¾. )
t ha
o w
Ġà¥¬ à¥§
à¤ķà¤°à¤£ à¤®
à¤£ à¤¬à¤¹
Ġà¤Ĩ à¤ĩà¤¸à¤ķ
Ġà¥¨à¥¦à¥Ń à¥¦
à¥ĭ à¤Ĥ
Ġà¥¯ à¥«
Ġà¤ª à¤ļ
Ġ >
Ġà¤¶ à¤¹
Ġà¤ıà¤ķ à¤ªà¤Łà¤ķ
à¥¦ à¥©
Ġab out
Ġà¥« à¥Ń
Ġà¥® à¥«
Ġà¥¬ à¥®
Ġà¤Ĺ à¤ıà¤ªà¤Ľ
Ġà¤Ĺ à¤¹à¤¨
Ġà¥¤ '
à¤Ĺ à¤Ł
an g
à¤¾ ?
à¥Ģ '
Ġà¤° à¤¹à¤°
u ra
à¤¨ à¤¯à¤¨
Ġà¥¤ ...
Ġà¤¨ à¤µà¤°
ort al
à¤¯à¤® à¤®
à¤¹ à¤£
à¥© à¥®
à¥ª à¥¦
Ġà¥«à¥¦ à¥¦
Ġà¤¹à¤Ļà¤ķ à¤Ļ
à¤¤ à¤ľ
, âĢĿ
ph p
y a
à¤° à¤Ĩà¤µ
à¥ģ âĢĵ
Ġà¥¨à¥¦à¥§ à¥ª
à¤ı à¤Ī
Ġà¤Ĩ à¤¦à¤°
à¤µ à¤Ńà¤°
Ġà¤ĩ à¤Łà¤¹à¤°
Ġà¤¬ à¤¦
à¥© à¥©
Ġà¤¹ à¤®à¤²
h i
à¤¸ à¤µà¤°
Ġà¤Ľ à¤µ
à¥Ģ à¤Ĥ
Ġà¤ ·
à¤Ľ à¤ķ
k habar
à¤¹ à¤ª
à¤ľ à¤¹
Ġà¤Ĺ à¤Ĺà¤¨
Ġ1 0
old id
Ġà¤Ĩà¤ĩ à¤¸
à¤Ł à¤²à¤²
à¤Ĩ à¤¤
à¤ĸ à¤¬à¤°
à¤Ī à¤ª
à¤¦ à¤¬
à¤¨ à¤ľ
Ġà¤Ĩà¤ĩ à¤«
a ti
à¤¨ à¤Ĺà¤°à¤ķ
à¤ĸ à¤¬
Ġà¤¡ à¤°à¤²
Ġà¤§ à¤ķ
à¤¿ -
Ġà¥¯à¥® à¥ª
Ġà¤¸à¤¡à¤ķ à¤ĸà¤£
Ġà¥Ń à¥ª
à¤® à¤¸à¤®
à¤µ à¤¨à¤²
à¤µà¤¨ à¤¶
Ġà¤ĺ à¤¡
à¤¨à¤ķ à¤°
Ġà¤¬ à¤Ł
à¤ħ à¤Ĺ
ic k
à¤¯ à¤ľà¤¨
à¤· à¤¸
à¤Ĩ à¤ĩ
Ġà¤Ĩ à¤¬à¤¦
wik ipedia
à¤® à¤Ĺà¤°
Ġà¥Ń à¥Ń
Ġà¤¹ à¤¨
Ġà¤¤à¤¨ à¤¹
à¤¨ à¤ľà¤¨
Ġà¤ĵ à¤®
à¤¯ à¤¬à¤¸
à¤¡ à¤ªà¤°
à¤®à¤¨ à¤Ĺà¤°
Ġà¤® à¤ļ
à¤¡ à¤µ
Ġà¥« à¥¯
Ġà¥§à¥¯ à¥®
à¤ľà¤¨à¤ķ à¤ª
à¤¤ à¤°à¤¦
Ġà¤īà¤¦ à¤¯à¤ª
à¤ª à¤¸à¤®
Ġà¤¶ à¤²
Ġà¤° à¤¨à¤²
o k
Ġâ Ī
à¤ĩà¤¤ à¤µ
à¥Ĥ .
Ġà¥¬ à¥¨
Ġà¤® à¤¨à¤ķ
Ġà¤¹ à¤ķà¤®
à¥¦ à¥«
1 1
Ġà¤Ĩ à¤¸à¤ª
à¤²à¤¬ à¤ķ
Ġà¤¹ à¤²à¤®
à¤°à¤®à¤£ à¤¬
Ġà¤ıà¤ķ à¤®
Ġ +
Ġà¤¨ à¤µà¤¨
Ġà¥¬ à¥¬
à¤· à¤ķà¤®
à¥¦à¥¦ à¥¦
à¤¸à¤ķ à¤¹à¤°
Ġà¤Ŀ à¤²
à¤ķ à¤¡
Ġà¤Ń à¤°à¤®
ĠâĪ £
à¤Łà¤¬ à¤²à¤®
Ġà¤ħà¤µ à¤¶
Ġà¤ķà¤® à¤°
r om
Ġà¤Ńà¤Ī à¤°à¤¹
o s
Ġà¤¦à¤° à¤¬à¤¨
à¥ģ -
Ġà¤Ń à¤¬
à¤Ĩ à¤īà¤Ł
à¤ķ à¤¤à¤®
Ġà¥® à¥®
2 0
Ġà¥¦ à¥«
à¤¦ à¤£
Ġà¤¦ à¤®à¤ķ
u g
à¤ľ à¤°à¤²
à¤¦ à¤¨à¤²
Ġà¤ĩ à¤ľà¤°
à¤¯à¤Ł à¤ķà¤²
Ġà¤ķ à¤«
âĨ Ĵ
Ġà¤¨ à¤Ĺ
Ġà¤ıà¤¸ à¤ª
Ġà¤¸à¤® à¤ķ
à¤¦ à¤µà¤ķ
à¤ı à¤ªà¤¨
Ġà¤¹ à¤¡
âĨ Ĳ
Ġà¤« à¤¨
Ġà¤Ĩà¤¯ à¤²
Ġà¤Ķ à¤¸à¤¤
u t
o t
à¤ľà¤Ĺ à¤¢
à¤¸ à¤µà¤®
à¤ķ à¤¶
à¥Ń à¥§
à¤ģ à¥ģ
à¤¨ à¤ħà¤ĺ
Ġà¤²à¤® à¤ľ
à¤ħ à¤«
Ġà¤¨ à¤Ĺà¤°à¤ķ
à¤Ĺ à¤°à¤£
Ġà¥Ń à¥§
à¤¯à¤ķ à¤®
Ġà¤ħà¤¨ à¤¸à¤¨
ĠK habar
Ġ 6
à¥ª à¥¬
à¥© à¥§
à¤¯à¤ķ à¤²
à¤¿ à¥į
Ġà¤®à¤¨ à¤¸
à¤Ĺà¤ł à¤¨à¤²
à¥į, âĢĻ
ĠC anc
Ġ201 6
à¤ıà¤® à¤Ī
à¤² à¤Ļ
Ġà¤ī à¤ĸ
Ġà¤¬ à¤Ļ
ĠCanc el
Ġà¤µ à¤¹
à¤¯ à¤¥
à¤° à¤Ļà¤ķ
Ġà¤Ĩà¤Ī à¤ª
Ġà¤¶à¤¹à¤° à¤®
à¤ı à¤ļ
à¤µà¤¸ à¤¨
à¤¶ à¤¤à¤ķ
1 0
Ġ_ _
an t
Ġà¤° à¤ľ
Ġà¤®à¤¤ à¤ªà¤¤
à¥ĭ '
à¥ª à¥®
Ġà¤° à¤¨à¤®
) :
Ġà¥Ń à¥¬
ag ar
Ġà¤ħ à¤¯
Ġ d
ri ght
Ġà¤Ĺ à¤Ńà¤°
Ġà¤ĭ à¤·
Ġà¤īà¤ª à¤¸à¤Ń
à¤ł à¤Ń
Ġà¤¦ à¤¶à¤®
à¥© à¥¨
à¤¨à¤µ à¤ħà¤§
Ġà¤ļ à¤Ł
Ġ âĨĴ
à¤ī à¤¤à¤²
op y
Ġà¥¯ à¥¯
à¤ı à¤²à¤¸
à¥© à¥«
Ġà¤ľà¤¨ à¤ļ
Ġà¤ĵ à¤Ł
à¤¾ (
i g
à¤ķ à¤ŀ
n p
Ġà¤ĵ à¤¸
Ġà¤¦ à¤µ
à¤°à¤ķ à¤°à¤£à¤®
à¤ª à¤¹à¤°
à¤¯à¤® à¤¹à¤°
Ġà¤ħà¤¨ à¤®
à¥¤ '
à¤ī à¤¸à¤²
Ġà¤Ľ à¤ł
à¤ª à¤°à¤®
à¤¾ à¤¾
à¤ĩ à¤¬à¤°
1 2
Ġà¤ıà¤ķ à¤¸
Ġà¤ĵ à¤Ŀ
à¤Ī à¤ľà¤¨
à¤ĺ à¤Ł
Ġà¤ĩ à¤ľà¤²
T ag
à¤¸ à¤²à¤®
Ġà¤Ĩ à¤®à¤¨
à¤° à¤Ĺà¤¨
ha m
Ġ and
opy right
à¥« à¥§
à¤Ĩà¤Ī à¤ľ
Ġà¥Ń à¥©
Ġà¤ħà¤ª à¤¹à¤°à¤£
Ġ ag
à¤ª à¤ŀ
Ġ to
à¤¶à¤Ń à¤°à¤ķ
Ġà¤ķ à¤ļ
à¤¿ âĢ¦
à¤Ł à¤°à¤¹à¤°
g er
Ġà¤Ĩ à¤Ń
à¤¤à¤° à¤µ
à¤¬ à¤¢
Ġ 7
à¤Ĩ à¤ĩà¤¤à¤¬
ĠP ortal
à¤¿ )
à¤µà¤¨ à¤¸
Ġà¤µ à¤¸à¤¨
à¤¹à¤ķ à¤¹à¤°
Ġà¤Ĩà¤ķ à¤¸
Ġ ..
à¥¦ à¥Ńà¥«
Ġà¤Ĩà¤ª à¤¸
à¤¹ à¤ľ
Ġà¥¬ à¥Ń
à¤¯à¤¯à¤¨ à¤°à¤¤
à¤²à¤ķ à¤¹à¤°
Ġà¤Ńà¤µ à¤¨à¤®
Ġ1 2
à¤¶ à¤ª
Ġà¤² à¤¨
à¤°à¤® à¤¬
à¤ķ à¤Łà¤ķ
Ġ *
à¤Ł à¤¸à¤®
A L
à¤µà¤°à¤£ à¤®
Ġà¥® à¥ª
à¤² à¤Ĺà¤¤
Ġà¤ĩ à¤ŀ
à¥Ģ /
à¤« à¤°à¤ķ
Ġà¤Ŀ à¤¡à¤ª
Ġà¤ı à¤Ńà¤°
Ġà¤ª à¤ª
à¤¯ à¤£à¤ķ
Ġà¤ĸ à¤ªà¤¤
Ġag o
à¤¨à¤¸ à¤¹
à¤Ł à¤²à¤ķ
à¤¨ à¤ħà¤¨
à¤² à¤¡
âĢ į
à¤¤à¤ķ à¤¹à¤°
à¥ĩ âĢ¦
Ġ www
à¤Ļ à¤Ĺ
Ġà¤ł à¤ª
l ick
Ġà¤ķà¤® à¤¨
) à¥¤
à¤¨ à¤Ńà¤°
à¤ ¼
Ġà¤Ŀ à¤Ĺà¤¡
Ġà¥¨à¥¦à¥§ à¥©
Ġà¤Ĩà¤ī à¤¦
Ġà¤¨ à¤Ńà¤¨
Ġà¤¸à¤¹ à¤¨
ep t
à¤ĩà¤°à¤¹ à¤¨
à¥¨à¥¦ à¥§à¥®
Ġà¤¬ à¤¸à¤¨
Ġà¤ħà¤¬ à¤¸
ĠP ost
Ġà¥ Ĳ
à¤°à¤¸ à¤°à¤ķ
Ġà¤Ĺ à¤ļ
Ġà¤¦ à¤£
à¤ıà¤¨ à¤Ĩà¤°à¤ıà¤¨
à¤·à¤¯ à¤¹à¤°
Ġà¤¸à¤ª à¤¥
à¤ķ à¤¨à¤ķ
à¥¤ à¥¤
à¤ī à¤ļ
à¤Ļ à¤¸
Ġà¤¨à¤Ń à¤ıà¤ªà¤Ľ
à¥© à¥¬
Ġà¤Ĩ à¤¬
Ġà¤Ĩ à¤°à¤®
Ġà¤¸ à¤Ĺ
à¤ħ à¤ķ
à¤ª à¤ªà¤Ľ
Ġà¤¨ à¤Ľ
à¤¸ à¤¤à¤®
à¤° à¤¨à¤Ĺà¤°
Ġp ost
ĠD ec
Ġà¤ķ à¤°à¤ķ
Ġà¤ĺ à¤²
Ġà¤ĩ à¤Ł
t e
Ġà¤ľ à¤Ĺà¤¤
à¤ĩ à¤²à¤®
à¤Ľ à¤¦
à¥ĭà¥¤ âĢĻ
Ġà¤īà¤ª à¤¸à¤®
ĠM ore
Ġà¤Ĳ à¤¨à¤ķ
à¤¶ à¤¦
à¥ģ à¥į
à¤® à¤Ļ
Ġ e
à¤¯ à¤Ń
7 4
à¤°à¤¸ à¤°
Ġ!! !
Ġ Â«
ĠâĢ İ
re s
à¤¸à¤ķ à¤²
Ġà¤Ĺ à¤Ī
à¤¹ à¤µ
ĠN E
Ġ 8
ĠJ an
à¥ĩà¤ģ ,
Ġà¤¸à¤¹à¤° à¤®
à¤¸ à¤«
C opyright
à¤® à¤¤à¤ķ
à¤Łà¤° à¤«
à¤ī à¤¡à¤ķ
à¤¯à¤¸ à¤¹
à¤ Ĳ
Ġà¥¨à¥¦à¥§ à¥¦
Ġà¤ļà¤² à¤ĸ
Ġà¤ķ à¤²à¤®
Ġà¤Ł à¤ª
à¤ī à¤ªà¤¤
Ġ? âĢĿ
Ġà¥¨à¥¦à¥¦ à¥Ń
à¥© à¥¯
Ġà¥¨à¥¦ à¥¨à¥¦
à¤ķ à¤Łà¤®
Ġà¤Ńà¤µ à¤¨à¤ķ
à¤ķ à¤¸à¤°
à¤¸ à¤ıà¤ª
ir st
d ay
à¤¡ à¤¹à¤°
I V
à¤¥ à¤²à¤¬
Ġ1 1
à¤¸à¤ķ à¤ķ
Ġà¤Ł à¤¸
Ġà¤ľà¤¨ à¤µ
à¥« à¥®
à¤Ĩ à¤¬
Ġà¤¥ à¤²
à¤¹à¤° à¤£à¤ķ
Ġà¤® à¤¡
à¤£ à¤µ
à¤¨à¤¬ à¤¹
ĠB BC
2 4
Ġà¤² à¤Ń
à¤¹à¤² à¤ª
à¤§à¤¨ à¤Ĺà¤¢
- -
à¥ĩ à¥į
à¤ħ à¤µ
à¤ıà¤¨ à¤ı
ĠM ess
ept ember
à¤ħ à¤¦
Ġà¤ıà¤® à¤¬
u d
à¤£ à¤¯à¤ķ
à¤ľ à¤¯à¤ķ
à¤² à¤¬à¤¨
Ġà¤¦ à¤¹
à¤ħ à¤¨à¤²
Ġà¥¬ à¥¯
Ġà¤Ĩ à¤ĩà¤¤à¤µ
à¤ª à¤¯à¤²
Ġth e
Ġà¤ªà¤¹ à¤²à¤®
à¤°à¤¹ à¤ķ
à¥Ģ âĢ¦
ĠC h
im al
à¤² à¤Ł
à¤² à¤¹
Ġ a
en ger
Ġà¤¨à¤Ńà¤ı à¤¸à¤®
à¤°à¤Ń à¤°
à¤¾ âĢľ
Ġà¤ľ à¤¯
Ġà¤ħ à¤ªà¤®
à¤¾ âĢĿ
à¤¤à¤¹ à¤Ł
Ġà¤ı à¤°
à¤ª à¤¡
à¤ĸ à¤¸à¤®
Ġà¤ħ à¤£
à¤¤ à¤ķà¤²
Ġà¤ĸ à¤²
Ġà¤Ĩà¤ľ à¤¬
ĠMess enger
à¥¬ à¥¦
à¤ĸà¤² à¤¢
.... ..
à¤¯à¤¤ à¤¯
Ġà¤īà¤ª à¤ķ
Ġà¤Ĺà¤ł à¤¨à¤ķ
à¥Įà¤Ĥ, âĢĻ
A T
Ġà¥¨à¥¦à¥§ à¥§
Ġà¤¶ à¤¶
à¤ħ à¤¤
Ġà¥® à¥¨
Ġà¤ł à¤®
Ġà¤ħà¤® à¤°
y akhabar
à¤µ à¤¤à¤ķ
Ġà¤ķ à¤·
à¤· à¤Ĺà¤°
à¤¤ à¤ķà¤®
à¥Įà¤Ĥ âĢĻ
n d
Ġà¤¸ à¤¤à¤°
Ġà¥® à¥§
à¤Ĺà¤® à¤¨à¤ķ
Ġà¤¸à¤¬ à¤Ńà¤¨
à¥Ī âĢĻ
à¤¹à¤¨ à¤¤
à¤¯à¤¯ à¤¨à¤²
à¤¡à¤ķ à¤ª
Tag s
à¤¯ à¤²à¤ķ
Ġf rom
i o
on g
à¤§à¤¨ à¤¬
Ġà¥¨à¥¦à¥§ à¥¨
s h
à¤£ à¤¯à¤²
Ġà¤ıà¤¸ à¤ıà¤²à¤¸
à¤ı à¤Ł
à¤ª à¤ķà¤°
à¤ı à¤¸à¤¨
à¤¯ à¤¦à¤²
Ġà¥Ń à¥¯
Ġ1 9
à¤Ĺ à¤²à¤ķ
Ġà¤ĵ à¤Ńà¤°
Ġ1 7
à¤² à¤¯à¤¨
à¤¯à¤Ł à¤¨à¤ķ
à¤¶à¤ķ à¤¹à¤°
p r
à¤ıà¤« à¤¸
à¤Ń à¤ªà¤¤
Ġà¤¡ à¤¡
à¤¾ !
à¤ī à¤¡à¤®
à¥© à¥ª
à¥Ī ...
à¥ĩ '
à¤®à¤¦ à¤¤
Ġà¤ħà¤Ĺ à¤¸
Ġà¤ħ à¤Ľ
à¤°à¤µ à¤Ł
re st
à¤Ĩ à¤§
à¤§ à¤ª
Ġà¥® à¥¬
à¤¥ à¤¨à¤®
à¤ľ à¤¤à¤¨
Ġà¤¡à¤² à¤°à¤ķ
ou r
à¥Ĥ -
à¥į )
à¤Ń à¤ıà¤¨
à¥ª à¥ª
à¤· à¤Ńà¤¨
à¥ĩà¤ģ à¥¤
à¤¤à¤¨ à¤¹à¤°
à¤łà¤ķ à¤¹à¤°
à¤ķ à¤¤à¤°
Ġà¥¨à¥¦à¥¬ à¥ª
Ġà¤ª à¤®
Ġà¤ķ à¤¦
Ġà¤®à¤Ĺà¤° à¤²
Ġà¤²à¤Ĺ à¤ĩà¤¨
à¤Ń à¤¤
à¤ĩ à¤¹à¤°
Ġà¤¦à¤¶à¤ķ à¤¦
Ġà¤ªà¤Łà¤ķ à¤ķ
à¤ĺ à¤°à¤ķ
e ar
à¤Ī à¤¬
ar k
à¤Ī à¤ľ
Ġà¤Ńà¤° à¤ªà¤°
oo k
u m
Ġ1 5
à¤Ńà¤² à¤ªà¤®
ay a
Ġà¤¶ à¤°à¤¦
à¤Ĩ à¤ĩà¤ľ
Ġ #
Ġà¤ĩ à¤¶
à¥ĭ âĢĿ
à¤Łà¤¨ à¤Ĺà¤°à¤®
à¤Ĩ à¤ĩà¤¸
Ġà¤° à¤¬
A R
à¤°à¤¸ à¤ŀ
à¤Ĩà¤Ī à¤¸
à¤¯ à¤°à¤§à¤¨
à¤² à¤ļ
à¤ľ à¤¦à¤°
à¤Ł à¤°à¤¬
à¤¶ à¤®à¤¨
Ġà¤Ĩ à¤°à¤ķ
Ġà¤¨à¤Ĩ à¤ıà¤ķ
à¤ı à¤²à¤ķ
ĠS ama
Ġà¤ľ à¤²à¤¸
à¤ī à¤¥
à¤ķ à¤°à¤²
Ġà¤ªà¤¸ à¤²à¤®
à¤ħ à¤¶
à¤¹ à¤Ļà¤ķ
ĠAr tha
Ġà¥¯ à¥¬
Ġà¤ĺà¤° à¤ªà¤°
Ġà¤ĺ à¤°à¤¦
Ġà¤¤ à¤°à¤²
Ġà¤ªà¤Łà¤ķ à¤ªà¤Łà¤ķ
à¤ĸ à¤Ńà¤¨
à¤¡ à¤¨à¤®
Ġ1 3
Ġà¥® à¥©
à¤ħ à¤ªà¤°
Ġ1 6
Ġà¤ĩ à¤£
à¤ª à¤°à¤ķ
Ġà¤¬à¤¸ à¤ª
Ġà¤ĸà¤¤à¤° à¤¨
Ġà¤ıà¤¸ à¤ıà¤¸à¤ª
à¤ªà¤¨ à¤ªà¤¤
Ġà¤īà¤ª à¤®
à¤Łà¤µ à¤²à¤®
à¤°à¤ķ à¤²
Ġà¤Ķ à¤ļ
____ ____
à¤§ à¤µà¤ķ
M E
Ġà¤µ à¤ľ
à¤Ĩ à¤ıà¤ķ
à¤ł à¤¹à¤°
à¤· à¤¯à¤µà¤¸
à¤¶à¤¤ à¤¸à¤®
ĠR ep
à¥ģ ...
à¤µ à¤²à¤²
Ġà¤Ľà¤²à¤« à¤²à¤ķ
Ġà¤Ĺ à¤«
Ġà¤® à¤ľà¤¬
id e
à¤¬ à¤Īà¤®
Ġà¥¯ à¥ª
Ġ1 8
à¤°à¤®à¤£ à¤²
2 2
Ġà¤ı à¤¯à¤°à¤ķ
Ġà¤ĵ à¤²à¤®
Ġà¤Ĩà¤Ī à¤¤à¤¬
à¤¯à¤¦ à¤²à¤²
à¤® à¤ĺ
à¤ĩ à¤µ
à¥¨à¥¦ à¥¦
à¥į ?
g e
Ġà¤ľ à¤Ļ
à¤īà¤¨ à¤®
Ġà¤Ĩà¤ª à¤¸à¤®
à¤¶ à¤¤à¤®
Ġà¤ħà¤µ à¤¤à¤°à¤£
à¤°à¤ļ à¤²
Ġà¤¨à¤Ĩ à¤īà¤¨
Ġà¤² à¤ľ
Ġà¤® à¤¤à¤²
Ġ k
âĢ¦ âĢ¦
à¤£ à¤¬
ur yakhabar
à¤ĩ à¤ı
1 8
à¤°à¤¸ à¤Ļ
Ġà¤¸à¤¯ à¤Ńà¤¨
à¤¸ à¤¯
à¤°à¤ļ à¤²à¤¨
o c
Ġà¤Ĩà¤Ī à¤¸
ĠT he
is h
1 5
à¤¤à¤° à¤¬
à¤¦ à¤¥
à¤¡ à¤²à¤²
à¤¥ à¤¸
à¤Ĺ à¤ª
Ġà¤§ à¤®à¤²
Ġà¤°à¤ķà¤® à¤ķ
Ġà¥¯ à¥§
à¤ħ à¤Ŀ
à¤¦ à¤Ń
Ġà¤¡ à¤ķ
Ġà¤ĸ à¤Ĺ
Ġà¥¨à¥¦à¥¬ à¥®
ĠDec ember
à¤¥ à¤¤
à¤ı à¤¸à¤®
Ġà¥¨à¥¦à¥§ à¥¯
Ġà¥¯ à¥¨
Ġà¥® à¥Ń
à¤ļ à¤¤
Ġà¤® à¤¨à¤²
c ha
Ġà¤Ŀ à¤²à¤¨
al l
à¤µ à¤²à¤ķ
Ġà¤īà¤ª à¤µ
à¤°à¤¤ à¤°
à¤¾à¤ģ ,
Ġà¤² à¤¤
Ġà¤µ à¤¤
Ġà¤Ĩ à¤¸à¤¨
Ġ Y
Ġà¤Ĺ à¤¦
à¤ª à¤¢
Ġà¤¶ à¤®
à¥Ģ (
Ġà¤ļ à¤ª
Ġà¤®à¤¹ à¤¶
Ġà¤µ à¤¢
à¤ĵ à¤ķ
1 9
ug ust
Ġ t
Nepal i
à¤ķ à¤°à¤ķ
à¤¾ ..
à¤¡ à¤²à¤®
à¥« à¥«
à¤Ĩ à¤¶
Ġà¤ľ à¤¥
Ġà¤¥ à¤ķ
à¤ĩ à¤²à¤ķ
agar ik
ĠN ov
à¥ģ )
on t
W S
Ġà¥¯ à¥Ń
à¤² à¤§
, '
à¤ħ à¤ĸ
Ġà¤¤ à¤¸à¤°
à¥ª à¥§
à¤ļ à¤¥à¤°
à¤¸ à¤Ł
es h
Ġà¤ħà¤µ à¤²à¤®
à¤¨ à¤¶
Ġà¤ľà¤¨ à¤Ĩà¤¨
à¤µ à¤²à¤®
à¤°à¤¹ à¤®
ĠIn ter
Ġà¤ľà¤¨ à¤¸à¤®
à¤ĵ à¤¬
Ġ &
à¤¤à¤° à¤°
à¥¯ à¥Ńà¥Ń
à¤¨à¤¨ à¤Ĺà¤°
Ġà¥® à¥¯
Ġà¤ħ à¤²à¤®
ow n
' ,
à¤¦ à¤¶à¤¨
Ġà¤¸à¤®à¤¯ à¤ªà¤Ľ
à¤¶à¤¤ à¤Ńà¤¨
à¤¨ à¤µà¤²à¤ªà¤°
à¥ĭ :
Ġà¤¹à¤¦ à¤¸à¤®
Ġ https
Ġà¥¨à¥¦à¥¬ à¥¯
lo ad
Ġà¤Ķ à¤ľ
Ġà¤Ĩ à¤µà¤ķ
Ġà¤¨à¤® à¤¸
à¤¤ à¤¹à¤¤
Ġà¤² à¤¸
Ġà¥©à¥¦ à¥¦
à¤¥à¤² à¤Ĺà¤¤
ag e
? ?
à¤ļ à¤²à¤ķ
à¤¡ à¤¤
ĠH imal
Ġ2 4
à¤¦ à¤ª
à¤ķ à¤ħà¤ª
Ġ1 4
Ġà¤ľà¤¨à¤® à¤¤
à¤¬ à¤²à¤ķ
P ost
Ġà¥¨à¥¦à¥¬ à¥©
à¤Ń à¤£
u re
à¤Ī à¤°à¤¹
Ġà¤¯ à¤ľ
à¤Ł à¤¤
à¥ģà¤ģ ,
Ġà¤¤à¤¹ à¤¬
1 3
Ġà¤īà¤ª à¤²à¤ķ
A N
Ġà¤Ĩà¤ľ à¤¸à¤®
à¤ķ à¤¸à¤²
à¤¤ à¤®à¤ķ
à¤²à¤ķ à¤£
Ġà¤² à¤£
Ġà¥¯ à¥©
à¤°à¤£ à¤¹à¤°
Ġà¤ıà¤ķ à¤ħà¤°
I M
à¤²à¤¨ à¤°à¤¤
ĠE n
1 4
à¤¤à¤µ à¤Ł
Ġà¤Ĩà¤Ĺ à¤®à¤¨
à¥ª à¥Ń
i st
Ġà¤Ĳ à¤¨à¤®
Ġ/ /
à¤ķ à¤Łà¤²
à¤¯à¤¨ à¤ľà¤°
7 5
ain ik
à¤¸à¤® à¤¯
N o
à¥¬ à¥¯
à¥įà¥¤ âĢĻ
à¥¨à¥¦ à¥Ńà¥¨
Ġà¤µ à¤ļà¤¨
Ġà¤ĵ à¤ªà¤¨
à¤Ń à¤°à¤¤à¤ª
à¤¡ à¤¦
Ġà¤¬ à¤¸à¤®
Ġà¥§à¥« à¥¦
à¤ªà¤° à¤¬
Ġà¤® à¤®
à¤°à¤² à¤Ĺ
à¤¤ à¤Ĺà¤¤
à¤ķ à¤¸à¤®
à¤¡ à¤Ńà¤¨
à¤¾ à¥°
à¤¯à¤Łà¤ķ à¤¹à¤°
à¤Ĺ à¤µ
à¤Ĺ à¤ħà¤¨
Ġ Â
à¤· à¤¯à¤¤
à¤¤à¤°à¤£ à¤®
Ġà¤ªà¤¦ à¤¬
h o
à¤¦ à¤°à¤¤
à¤¤ à¤¬à¤¹
à¤¤à¤° à¤Ĺà¤¤
à¤ĩ à¤Łà¤²
à¤¡ à¤ªà¤®
Ġà¤« à¤¡
à¥ĭ âĢĻ,
Ġm in
p le
à¤® à¤¨à¤ķ
Ġà¤² à¤¹
à¤° à¤µà¤¨
201 8
Ġà¤Ĩà¤Ī à¤¤à¤µ
à¤¦à¤¨ à¤¹à¤°
à¤Ń à¤ķà¤°
à¤ıà¤¨ à¤ª
Ġre ad
à¤Ī à¤¡
Ġà¤®à¤¹ à¤¨
ĠN o
h an
ra k
à¤Ńà¤ªà¤¤ à¤¨
ĠS eptember
à¤ī à¤Ľà¤¨
à¤Ī à¤ķà¤²
Ġà¤¯ à¤ķ
\ \
Ġà¤® à¤Ĺà¤°à¤ķ
Ġà¤² à¤¹à¤°
Ġà¤®à¤¹ à¤¤à¤²
à¥Ģ à¤ĥ
à¤¡ à¤¡
à¤¯ à¤¨à¤²
à¤Ĩ à¤ķ
Ġà¤¸à¤® à¤¯à¤¸
c t
Ġà¤Ŀ à¤°à¤¨
ĠJan uary
à¤£ à¤¨
à¥¦ à¥ª
à¤² à¤ľ
Ġà¤ı à¤ªà¤ķ
à¤£ à¤¹à¤°
à¤ķ à¤¬à¤¹
à¤ļ à¤¥
Ġà¤ªà¤°à¤® à¤ª
à¤¤ à¤¨à¤²
à¤²à¤² à¤Ĺ
à¤¸ à¤¸à¤®
Ġà¤¨ à¤ļà¤²
Ġà¤¨ à¤Ł
p d
Ġb y
pr il
al o
à¤ŀ à¤ķ
Ġà¤Ĩ à¤ıà¤¨
Ġà¤¸à¤¬ à¤²
own load
à¤Ń à¤¸
à¥¦ à¥®
à¤Ĩà¤° à¤ı
ad io
Ġà¤¤ à¤²à¤ķ
à¥Ģ âĢĿ
à¤ķ à¤Ńà¤°
à¥¦ à¥¯
à¤ĩà¤ķ à¤²à¤®
à¥« à¥¯
Ġà¤¬ à¤¸à¤ķ
à¤· à¤¤à¤°
à¤ĩà¤¨ à¤¬
à¤ħ à¤Ļ
Ġà¤· à¤¡
à¥į .
Ġà¤ħà¤¨ à¤¨
à¤¨ à¤Ľ
à¤ª à¤¨à¤²
Ġà¤ĵ à¤ĸà¤²à¤¢
Ġà¤§ à¤°à¤¹à¤°
à¤¸à¤® à¤®
y an
à¤¹ à¤ķà¤ķ
Ġà¤ĩ à¤Ń
à¤µ à¤Ĺ
à¤² à¤¯à¤¸
Ġà¤Ĩà¤ĩ à¤¡à¤²
ve rest
Ġà¤Ł à¤ķ
Ġ y
Ġà¤¡ à¤¬à¤²
Ġà¤ķ à¤¯
Ġà¤¶à¤¹à¤° à¤ķ
à¤£ à¤¯à¤®
à¤Ĩ à¤¦
Ġà¥¨à¥¦à¥¦ à¥®
Ġà¤¨à¤¬ à¤¢
ic i
ĠT V
Ġ nepal
à¤¯à¤® à¤¯
à¤² à¤¸à¤¹
Ġà¤ħà¤¸à¤¹ à¤®à¤¤
à¤ľ à¤¸à¤²
Ġà¤ĸà¤¬ à¤°à¤¦
N agarik
m e
Ġà¤¬ à¤¦à¤°
ant ra
à¤¤ à¤ľà¤¨
à¤¨ à¤Ĺ
à¤Ł à¤¨à¤ķ
Ġ ....
à¤ı à¤¨à¤¸
Ġà¥¯à¥® à¥«
Ġà¤ħ à¤ł
Ġà¤ĩ à¤Ļ
à¤ª à¤ĸ
Ġà¤¦à¤° à¤ĸ
à¤¹ à¤Ł
Ġà¤° à¤ļ
à¤¶à¤¨ à¤¬
a h
à¤Ļ à¤¦
j ya
Ġà¤¬ à¤Ŀ
s p
à¤ĵ à¤®
Ġà¤ľà¤® à¤°
it h
à¥« à¥ª
jya alo
à¤ı à¤¡
Ġà¤® à¤¤à¤ķ
à¤ģ âĢĻ
Ġà¤īà¤ª à¤¦
à¤Ĩ à¤ł
à¤łà¤ķ à¤¬
Ġà¥¨à¥¦à¥¦ à¥¬
à¤¨à¤Ĺà¤° à¤²
Ġà¤Ń à¤°à¤¤
à¥į âĢ¦
er s
Ġà¤ľ à¤ª
à¤¬ à¤ļ
à¥¤ "
à¤ı à¤Īà¤ķ
à¤°à¤£ à¤¬
u ne
Ġà¤¢ à¤Ļ
à¤· à¤°à¤¤
eb ook
à¤ĸ à¤¡
à¤ıà¤® à¤ıà¤¸
IV E
à¤Ī à¤Ń
ĠRep ly
Ġà¤¦ à¤²à¤¬
N E
Ġà¥¦ à¥®
à¤¨ à¤Ĺà¤°à¤®
âĢ ¢
op ati
Ġà¤Ł à¤¹à¤°
à¤Ń à¤Ł
à¤¸à¤® à¤¸
eb r
à¥į Â»
Ġà¤¤ à¤Ł
à¤¾ "
à¤Ĺ à¤¬à¤¹
à¤¯à¤¸à¤® à¤§
à¤Ī à¤¯
Ġà¥§à¥¯ à¥¬
ebr uary
à¤ħà¤¬ à¤ķ
Ġà¤® à¤Ł
Ġà¥¦ à¥Ńà¥ª
ĠJ ul
à¤² à¤µà¤ķ
ĠNE WS
Ġà¤Ĳ à¤°
Ġà¤ĺ à¤°à¤§
Ġ com
à¤ħà¤ª à¤¡
ĠU jyaalo
à¥¦ à¥§
l d
à¤ĩ à¤ıà¤¨
à¤Ľ à¤ª
ac ebook
à¥¯à¥® à¥«
1 6
à¥Ĥ âĢĻ
à¤®à¤ķ à¤µ
Ġà¤° à¤ĺ
à¤¬ à¤¡
à¤ł à¤¨
res s
Ġà¤¸ à¤°à¤¹
à¤¯à¤¯ à¤¨à¤®
à¤ı à¤Īà¤®
Ġà¤Ĩà¤µ à¤®
Ġà¤ľà¤¬à¤° à¤ľà¤¸
Ġà¤Ĩà¤Ĺ à¤ľà¤¨
Ġ2 3
ch ar
Ġà¤Ńà¤Ĺ à¤µà¤¤
à¤Ł à¤¨à¤®
à¤ª à¤µ
Ġà¤Ĩà¤ĩ à¤ıà¤®à¤Ī
à¤Ĺ à¤¬à¤¨
cha ar
ĠSama chaar
à¤ķ à¤Ń
Ġre p
à¥Ī à¥¤
à¤µà¤¸ à¤¹
? âĢĻ
à¤°à¤ķ à¤ķ
à¤¯ à¤ªà¤¤
à¤ĥ à¥¤
à¤ıà¤« à¤ķ
Ġà¤¨à¤ľ à¤°
Ġà¤ī à¤Ľ
à¤ªà¤° à¤°
à¤Ĺà¤¬ à¤ľ
Ġà¤ª à¤ĸ
à¥ĩà¤Ĥ ,
à¤ļà¤¨ à¤ªà¤Ľ
it al
à¤²à¤¬ à¤®
à¤ıà¤ķ à¤¤
Ġà¤īà¤ª à¤¸à¤ļ
Ġs uryakhabar
à¤·à¤¯ à¤Ĺà¤¤
Ġà¤ĸ à¤ª
u e
t antra
an s
ĠM un
ĠArtha tantra
Ġà¤ĺ à¤°à¤¹à¤°
à¤°à¤ķ à¤®
w e
hi yan
1 7
à¤¨à¤² à¤®
vie w
Ġà¤¯ à¤¨
à¥¦ à¥Ńà¥¬
à¥ª à¥¯
à¥« à¥Ń
Ġà¤Ńà¤ĩà¤°à¤¹ à¤¨
Ġà¤µ à¤ŀ
aj ha
Ġà¥¨à¥¦à¥¦ à¥¯
à¤®à¤¤ à¤¦
ation al
' s
Ġà¤¤à¤°à¤² à¤¤
M o
ec t
ab hiyan
c o
Ġà¤¨ à¤¹à¤°
Ġà¤ķ à¤ªà¤ķ
à¥© à¥Ń
Ġà¤ľ à¤¬à¤ķ
à¤¯ à¤ļ
Ġà¤Ĩ à¤£à¤µ
er o
à¤ĸ à¤¨à¤¨
rak ura
ham rakura
Ġà¤° à¤ŀ
à¤Ńà¤° à¤ª
Ġ at
Ġà¤ıà¤ª à¤¬
Ġà¤ī à¤¬
à¤²à¤¤ à¤¬
Ġà¤¡ à¤¬
Ġà¤ĺà¤° à¤Ń
Ġà¤ķ à¤¦à¤°
ici pal
2 3
ar i
Ġà¤ıà¤¯à¤° à¤ª
ĠNov ember
Ġà¤¸ à¤¨à¤®
à¥Ģ ?
à¤§ à¤¸
à¤ªà¤° à¤¸
Ġà¤ĸà¤¬ à¤°à¤¹à¤°
à¤¨à¤² à¤Ĺ
à¤¤à¤ķ à¤°
Ġ n
Ġà¥¨à¥¦à¥¬ à¥Ń
I T
Ġà¤¶ à¤Ļ
O R
à¤² à¤«
à¤ľ à¤ªà¤¤
Ġà¤Ńà¤Ī à¤¸à¤ķ
à¤¦ à¤ķà¤²
Ġà¤ľà¤¸à¤® à¤§
ĠA ugust
à¤ĩà¤² à¤Ł
à¤¸ à¤¹à¤ķ
à¤ķ à¤ħà¤¨
à¤Ī à¤°
à¤Ĺ à¤²à¤²
Ġp ro
ĠMun icipal
à¤°à¤¸ à¤²
à¤ ĭ
ple te
à¤ķ à¤ľ
à¤ĩ à¤ļ
à¤¾) ,
à¤Ĺà¤® à¤¨à¤®
à¤§ à¤¹à¤°
0 7
à¤¤à¤¹ à¤¤à¤ķ
u p
Ġà¤¡ à¤®
à¥ª à¥¨
2 5
à¤Ĺà¤ł à¤¬à¤¨
Ġà¤ķà¤® à¤ķ
Ġà¤® à¤Ŀ
ma ge
Ġ h
Ġà¤ħà¤ĸ à¤£
e e
Ġà¤¨ à¤°à¤®
à¤ª à¤¸à¤ķ
à¤ı à¤¶
Ġà¤ľà¤¨ à¤¹
Ġà¤Ŀ à¤Ł
à¤Ŀ à¤Ł
à¤Łà¤¨ à¤Ĺà¤°à¤ķ
as h
th er
à¥¦ à¥Ń
à¤¶ à¤°à¤£
ura tion
Ġà¤ªà¤ł à¤¨à¤ª
à¤Ĺà¤ł à¤¨à¤¹à¤°
o g
Ġà¤ķ à¤£
à¤ī à¤ªà¤°
Ġà¤¦à¤¶à¤® à¤²à¤¬
b r
à¤ĸ à¤¸
or ld
ĠD uration
à¤Ĺ à¤®à¤¤
à¥¦ à¥¨
Ġà¤Ľ à¤¤
à¤°à¤ľà¤¨ à¤¨
à¤¯à¤¦ à¤²à¤ķ
Post ed
Ġà¤¸à¤¹à¤° à¤ķ
à¤¦ à¤¬à¤¹
Ġà¤Ĩ à¤·
à¥« à¥¬
à¤¯ à¤²à¤¯
à¥ĩà¤Ĥ à¥¤
à¤¾ à¥į
ap p
vie ws
Ġà¤¬ à¤ŀ
Ġà¤Ńà¤ĩ à¤¹
Ġà¤Ĩà¤ī à¤²
à¤²à¤¨ à¤¬
0 5
à¤¯à¤¸ à¤¨
à¤µ à¤®à¤¨
Ġà¤Ńà¤ı à¤Ľ
Ġà¤¬ à¤¦à¤¨
Ġà¤ľà¤¨ à¤°à¤²
à¤Ľ à¤¡
Ġà¤ªà¤¦ à¤¯
à¤¤ à¤¯
à¤¯à¤ķ à¤µ
à¤µà¤ķ à¤¹à¤°
à¤¨ à¤¯à¤®
à¤¸ à¤¸à¤¹
Ġ( âĨĲ
Ġà¤¸à¤® à¤¯à¤²
Ġà¥ª à¥¦à¥¦
à¤°à¤ķ à¤µ
: -
à¤¾ à¥Īà¤ģ
Ġà¤Ĳ à¤¨à¤²
Ġà¤¸à¤®à¤¯ à¤ħà¤ĺ
Ġà¤®à¤¤ à¤ªà¤°
à¥Įà¤Ĥ à¥¤âĢĻ
à¤Ĺ à¤¸à¤®
à¤ľ à¤ķà¤ķ
à¤ļà¤¨ à¤¬
ĠS t
à¤¿ à¥°
Ġà¤ĩ à¤ª
à¤¤ à¤¥
à¤¸à¤® à¤¨
à¤¥ à¤¬
Ġà¤¬à¤² à¤°
à¤Łà¤ķ à¤°
Ġ views
Ġà¤Ī à¤²
Ġà¤ĩà¤¨ à¤°
à¤ľà¤² à¤µ
à¤¯ à¤¬à¤¹
Ġà¤®à¤¤ à¤Ń
Ġà¤¦ à¤°à¤®
Ġrep ly
à¤¹ à¤¹à¤°
Ġà¤ıà¤ķ à¤Ľ
Ġà¤®à¤¨ à¤Ĺ
à¥« à¥¨
Ġà¤¨ à¤²à¤Ĺ
Ġà¤ľà¤¨à¤¸ à¤Ļ
at h
ĠCom plete
à¤®à¤¶ à¤°à¤£
à¤Ĩ à¤²
à¥¬ à¥©
Ġà¤Ĩà¤ĩ à¤¡à¤²à¤ķ
à¤ł à¤Ĺ
à¤° à¤«à¤²
r y
à¤µ à¤°à¤¹à¤°
à¥® à¥¦
à¤ª à¤Łà¤ª
à¤Ĩà¤Ī à¤ª
à¤ªà¤¤ à¤ķ
à¤ľ à¤¸à¤®
0 3
Ġà¤¤à¤¹ à¤¸à¤®
à¥ĩ /
à¤¡ à¤Ń
Ġà¤ĵ à¤¬
à¤ī à¤ł
a w
ĠR adio
ut es
à¤ģ âĢĵ
à¤¥ à¤²à¤²
à¤°à¤® à¤¸
i v
à¤Ĥ ,
Ġà¥¦ à¥¯
à¤² à¤¶
à¤° à¤¸à¤ķ
à¤Ĩ à¤Ĺà¤²
à¤ªà¤° à¤µ
Ġà¤ıà¤¨à¤Ĩà¤°à¤ıà¤¨ à¤ı
201 7
Ġmin utes
un g
à¤ĩ à¤ľà¤°
Ġà¤ĵ à¤Ĺà¤Ł
à¤¦à¤° à¤Ĺ
m and
Ġà¤ī à¤§
ĠD ownload
Ġà¤« à¤ķ
Ġà¤ħà¤µà¤¸ à¤°à¤ķ
à¥Ī à¥Ī
à¤ĩ à¤¹
à¤¿ à¤¾
Ġà¥¤ "
Ġà¤Ĩ à¤ªà¤°
à¤°à¤« à¤²à¤®
Ġ9 8
à¥ĭ /
à¤Ĩ à¤ĩà¤ª
à¤·à¤¦ à¤²
0 8
Ġà¤¬ à¤²à¤ķ
à¥Įà¤ģ âĢĵ
Ġà¤¥ à¤¨
à¤°à¤ª à¤¸
Ġà¤¬ à¤¬
Ġà¤¸ à¤¦à¤¨
à¤ĩ à¤Ļ
Ġà¤®à¤¤ à¤²à¤¬
à¤µà¤°à¤£ à¤ķ
à¤°à¤¬ à¤°
0 9
Ġà¤¸à¤® à¤ķà¤ķ
Ġà¤ıà¤ķ à¤ľ
à¤ī à¤¸à¤ķ
Ġà¤°à¤ķà¤® à¤®
à¤Ł à¤¦
à¤Ī à¤«
Ġà¤Ńà¤ı à¤¨à¤¨
à¥Įà¤Ĥ :
ĠMunicipal ity
à¤® à¤¸à¤¹
Ġà¥§à¥¦ à¥§
lo g
T op
Ġ2 2
Ġà¤¸à¤¹ à¤ķà¤°
at ure
à¤ı à¤®à¤¬
à¥ĩ :
ate st
ĠT e
ĠM o
à¥ģ '
ã Ģ
à¥ģ, âĢĻ
Ġà¤ĭ à¤¤
à¤ıà¤« à¤ª
à¤¯ à¤²à¤®
à¤Łà¤µ à¤²à¤ķ
Ġà¥¤ )
i le
à¤Ŀ à¤®
à¤® à¤«
Ġà¤¸à¤¹à¤ľ à¤¤
à¤¶ à¤¯
Ġà¤¸ à¤ĸ
à¤¯à¤¤ à¤¨
Ġà¤¦à¤¶ à¤ķà¤®
Ġà¤ª à¤¡
Ġà¤Ĩ à¤Ĩà¤«
à¤ķ à¤°à¤®
à¤ı à¤²à¤®
à¥Ń à¥®
à¤Łà¤° à¤ª
à¥įâĢĮ à¥¤
Ġc lick
p ur
Ġà¤ħà¤ª à¤²
Ġ2 5
à¤·à¤£ à¤¬
à¤Ń à¤°à¤¤
à¥ª à¥©
à¤· à¤¯à¤°
Ġà¤ªà¤° à¤¦
à¤ĩ à¤Ĺà¤°
ar ch
à¤°à¤® à¤§
à¤¾âĢĻ ,
C H
à¤¨ à¤µà¤°
in a
nepal news
Ġà¤Ĩ à¤Ļ
à¤ī à¤¬
Ġà¥¨à¥¦à¥¬ à¥¨
à¤²à¤® à¤ľ
Ġà¤¨ à¤¬à¤¸
à¤§ à¤°à¤²
à¤¸ à¤Ĺà¤°à¤®
Ġà¤µ à¤¨à¤ķ
0 6
à¤µà¤¨ à¤¬
a st
0 4
à¤µ à¤¤à¤®
à¤¥ à¤¶
Ġ- -
Ġà¤ı à¤ĺ
Ġà¥¦ à¥Ń
à¤· à¤ª
à¤¡ à¤¨à¤ķ
Ġf irst
à¤ı à¤Ľ
Ġà¤ĺ à¤°à¤²
c e
Ġà¤Ĩà¤¤ à¤Ļ
à¤¤à¤° à¤ª
Ġà¤Ĩà¤® à¤°à¤£
Ġà¤Ĩà¤ĩ à¤ľ
Ġà¤¦ à¤°à¤ķ
Ġ @
ĠM ay
Ġà¤ıà¤« à¤ª
Ġà¥¨à¥¦à¥¬ à¥«
à¤« à¤¦
Ġà¤¸ à¤¯à¤ķ
à¥Ĥ )
à¤² à¤µà¤²
à¤¯à¤¸ à¤ļ
b out
l ish
or d
Ġ ch
à¤¯ à¤Ńà¤¨
à¤Ŀ à¤ķ
à¤¤à¤µ à¤¨à¤²
à¤¯à¤¸ à¤¤à¤°
Ġà¤¯à¤¸ à¤µà¤°
à¥§à¥¦ à¥®
ĠV ide
à¤ķà¤Ł à¤¤à¤®
Ġà¤ıà¤¨ à¤Ĩà¤°à¤ı
E R
Ġ2 1
Ġà¤µ à¤¨à¤¸
à¤¶ à¤¹
à¤¶ à¤Ńà¤ķ
Ġà¤Ĳ à¤¶
Ġà¤ħà¤ĸ à¤¬
à¤° à¤ĺ
Ġà¤¯ à¤®
Ġà¤Ńà¤ı à¤¤
à¤¹à¤Ļà¤ķ à¤Ļ
à¤Ĥ à¤Ĥ
Ġà¤Ĩ à¤ĩà¤¨
à¤¸ à¤¡
i on
à¤¨ à¤°à¤®
à¥ĭ ..
Ġà¤ķ à¤²à¤ķ
Ġà¥¨à¥« à¥¦
ð Ł
à¤¯ à¤°à¤¬
Ġà¤¦ à¤®à¤¨
à¤ľà¤¨ à¤Ńà¤¨
Ġ ï¿½
à¤° à¤ħà¤¨
Ġà¤ħà¤Ĺ à¤·
à¤¾à¤ģ à¥Ī
Ġà¤ıà¤¸ à¤ıà¤®à¤ıà¤¸
Ġà¤¨ à¤¶
à¤ľà¤¨ à¤¸
Ġà¤ıà¤ķ à¤ªà¤Ľ
Ġà¥ª à¥§à¥¦
Ġà¥¦ à¥Ńà¥©
ĠS p
ect ed
à¤¨ à¤ªà¤°
Ġà¤°à¤£ à¤µ
Ġà¤ħà¤¸à¤¹ à¤ľ
à¤¨ à¤ĸ
à¤·à¤£ à¤¹à¤°
Ġà¤Ĩà¤Ī à¤ľ
Ġà¤īà¤ª à¤²à¤µ
à¤ĩà¤ķ à¤²à¤ķ
à¤¡ à¤¸à¤®
Ġà¥¨à¥¦ à¥¦à¥¦
2 8
à¤µà¤° à¤¬
à¤ļ à¤µ
ic e
Ġà¤¬ à¤¹à¤°
Ġà¤¡ à¤¢
à¤¯à¤¸ à¤ª
Ġà¤Ĺ à¤¢
à¥« à¥©
Ġpro t
Ġà¤ĺà¤° à¤ľà¤Ĺ
à¤ĩ à¤°à¤¸
à¤¯à¤Ł à¤¨à¤®à¤¨
à¤Łà¤° à¤Ł
Ġà¥¨à¥¦à¥¬ à¥¬
g le
Ġà¤¨à¤Ĺà¤° à¤¸à¤Ń
Ġà¤µà¤° à¤ªà¤°
à¤¸à¤¨ à¤¬
w it
à¤ĩ à¤Ńà¤°
à¤ĩ à¤¬à¤²
Mo ther
à¤Ĺ à¤ľà¤²
à¤Ī à¤ĵ
e v
i z
à¤¤à¤¹ à¤Łà¤ķ
et ing
ĠC ont
n a
Nepal Mother
0 2
Ġà¤¥à¤ª à¤²
à¥¨à¥¦ à¥§à¥Ń
Ġà¤®à¤¦ à¤¤
Ġprot ected
à¤ķ à¤°à¤¹à¤°
pd f
à¤Ĩ à¤ĩà¤Ń
à¤¯ à¤Ļ
à¤Ĺ à¤ıà¤ķ
à¤Ĩ à¤ľà¤¦
à¤¸à¤¹ à¤®à¤¤
ig ital
Ġà¤Ĩà¤µ à¤¤à¤ľ
Ġà¤Ĺ à¤ĩà¤¸à¤ķ
Ġà¤² à¤°
Ġ .....
Ġà¤¦à¤° à¤Ń
à¤ĩà¤¨ à¤°
Ġà¤ļ à¤®à¤¤
à¤ª à¤²à¤ķ
à¤Ń à¤ļ
à¤Łà¤ª à¤Ł
e mail
ĠJul y
à¥Ģ) ,
Ġà¤Ĩà¤ĩ à¤¡
à¤ľà¤® à¤£
à¤ħ à¤¡
i ve
k s
à¤¡à¤ķ à¤ªà¤ķ
à¤¤ à¤Ń
wit ter
Ġà¤ĺà¤° à¤ĺà¤°à¤®
à¤ħà¤« à¤Ĺ
à¤¯ à¤Ĺ
à¤ĸ à¤ķà¤²
à¤ķà¤² à¤¨à¤ķ
Ġà¤ĵ à¤ª
à¤īà¤¦ à¤¯à¤ª
à¤¯ à¤²à¤²
à¤¹ à¤ľà¤¨à¤ķ
à¤Ń à¤ħà¤Ļ
Ġà¤¸à¤® à¤²
à¤ķ à¤¸à¤¹
à¤¯à¤ķ à¤¹à¤°
Ġà¤ħ à¤ľà¤¯
à¤ī à¤¤à¤ķ
Ġà¤Ľ à¤ª
à¤¤ à¤²à¤ķ
à¤īà¤ª à¤ª
à¤®à¤¤ à¤²
à¤µà¤² à¤ª
à¤Łà¤ķ à¤ķ
Ġ app
à¤¸à¤® à¤¯à¤®
ap tion
Ġ g
à¤¸ à¤°à¤¸
Ġà¤ħà¤²à¤® à¤²
à¥ģ âĢĿ
Ġà¤Ĺ à¤¸
à¤¦à¤¯ à¤ĺ
ĠI D
Ġà¤Ķ à¤²
à¤· à¤ľà¤¨à¤ķ
à¤ĸ à¤¨à¤ķ
à¥¬ à¥¬
à¤¨à¤® à¤¸
Ġà¥¨à¥¦à¥ª à¥¬
Ġ v
ĠF irst
Top nepalnews
r ic
à¤ļ à¤µà¤Ł
Ġà¤ķà¤® à¤®
Ġ201 5
Ġà¤° à¤ľà¤¤
à¤ī à¤ªà¤ļ
à¤°à¤® à¤ħà¤¨
Ġà¤® à¤®à¤¤
Ġà¥§à¥§ à¥©à¥®
à¤¨ à¤Ł
Ġà¤¸à¤¦ à¤¨à¤®
à¤ĸ à¤°à¤®
à¤ı à¤Ńà¤°
Ġà¤« à¤£
2 6
à¥ĭ !
à¤¯à¤® à¤¶
à¤ı à¤¤
Ġà¤Ń à¤ľà¤¨
Ġà¤¸à¤¤ à¤¹
Ġà¤® à¤¸à¤²
Ġà¤² à¤ĸ
à¥¤ ...
Ġà¤ĸ à¤¬à¤°à¤ķ
Ġcom ment
t ain
à¤¸ à¤ªà¤¨
har e
K habar
e a
à¤µ à¤°à¤¸
Ġ2 00
of t
Ġf or
à¤Ł à¤ķà¤®
Ġà¤ķ à¤Ńà¤°
Ġà¤¸ à¤ľà¤Ĺ
Ġà¤ľ à¤²à¤®
à¤Ļ à¤Ł
à¤ľà¤¨ à¤¶
à¤¿. ,
Ġm ark
à¤ľ à¤Ńà¤£
à¤ıà¤¨à¤Ĩà¤°à¤ıà¤¨ à¤ı
à¥Ń à¥¯
à¤Ńà¤° à¤Ļ
ay an
à¤®à¤ķ à¤°
à¤¦ à¤²à¤ķ
à¤¤à¤¨ à¤¹
A M
à¥¬ à¥§
Ġà¥§à¥¯à¥¯ à¥¦
â ĸ
à¤« à¤¨
Ġà¤ĩ à¤®à¤°
Ġà¤īà¤¦ à¤¯
Ne ws
Ġà¤ľà¤¸ à¤¬
à¥ĩ âĢĻ,
à¤¸ à¤«à¤°
Ġà¤¦ à¤²à¤®
ãĢ Ģ
à¤¤ à¤Ńà¤°
Ġà¤īà¤¦ à¤ĺ
ne t
Ġà¤ĺà¤¨ à¤¶
a z
Ġar e
à¤ª à¤²à¤²
à¤°à¤¸ à¤¨
à¤¯ à¤¨à¤®
we et
à¤¸ à¤ħà¤¨
à¥¬ à¥®
Ġà¥¦ à¥¨
Ġmark eting
e re
à¥ ī
Ġà¤ª à¤¤à¤¨
à¥ĩâĢĵ âĢĺ
à¤¸ à¤Ĺ
à¤ıà¤¸ à¤ľ
Ġm on
Ġà¤¸à¤¡à¤ķ à¤¬
à¤ķ à¤«
à¤Ĭ à¤¨
Ġà¤ĭ à¤£à¤ķ
à¤Ł à¤ªà¤Ľ
à¤¸ à¤§
Ġà¤ī à¤Ĺ
Ġà¤¨à¤Ń à¤ĩ
Ġà¥¦ à¥Ńà¥¨
à¥Įà¤ģ -
à¤¯à¤¸ à¤µ
2 9
Ġà¤ĸ à¤®
à¤¸à¤¹ à¤¯
Ġà¤® à¤¦à¤°
Ġà¤® à¤¤à¤ª
à¥į à¥į
Ġà¤Ĩà¤ī à¤Ľ
ï »
à¥Ĥ [
ï» ¿
Ġà¤ļ à¤¯à¤¨à¤ķ
à¤¦ à¤¶à¤®
Ġà¤® à¤Ĺ
ĠL atest
à¤Ĺ à¤ļ
à¤¦ à¤°à¤ķ
à¤§à¤¨ à¤¹à¤°
à¥Ī âĢ¦
à¤¤à¤® à¤¬
à¤ĩà¤² à¤¹à¤°
i f
à¥Ī -
E D
n t
Ġà¥¯ à¥Ńà¥Ń
on d
Ġà¤µ à¤ľà¤¨
6 6
à¤Ĥ à¥°
à¤ĩ à¤ªà¤²
à¤Ī à¤Ī
Ġà¤Ĩà¤ľ à¤Ń
Ġà¤ľà¤Ĺ à¤¦
à¤ıà¤² à¤Ĺà¤¤
à¥ĭ à¤ĥ
in d
à¤²à¤¬ à¤¸
Ġà¤Ńà¤° à¤ª
P AL
à¥į à¤ĥ
Ġà¤®à¤¦ à¤¨à¤ķ
Ġà¤² à¤¯
à¤Ĩà¤° à¤Ł
à¤² à¤ªà¤Ľ
à¤¦ à¤²à¤¯
tain ment
ĠP age
Ġ! âĢĻ
Ġà¤ĵ à¤¹
Ġà¤ıà¤ļ à¤Ĩà¤ĩà¤Ń
f o
Ġà¥¦ à¥ª
ub e
ĠP ol
à¤Ĩ à¤ĸ
à¤ĸ à¤¨à¤®
Ġà¤ª à¤µà¤¨
à¤¦ à¤²à¤²
à¥ģ à¥¤âĢĻ
Ġà¤¦ à¤¤
Ġà¤¸à¤¡ à¤ķà¤²
Ġà¤¦ à¤¨
Ġà¤Ĳ à¤ķ
ĠA n
il l
Ġ Home
Ġà¤¨ à¤°à¤¹à¤¨
S ajha
Ġà¤īà¤ª à¤§
Ġà¤° à¤Ĺà¤¤à¤ķ
à¤² à¤ĺ
ĠR at
à¤µ à¤ªà¤Ľ
Ġà¤² à¤ļ
à¤¤ à¤ĸ
Â °
à¤¨ à¤¤à¤°
à¤ª à¤ķà¤²
Ġà¤¡ à¤¨
ap er
à¥į !
Ġà¤Ĺ à¤¡à¤¬
à¥¯à¥®à¥« à¥§à¥¨
à¤ĺ à¤¦
or y
à¤¹ à¤¤à¤ķ
à¤Ĥ à¥Ī
I mage
à¤ı à¤¸à¤ķ
Ġà¥§à¥§ à¥¦
à¤¸à¤¦ à¤¸
ha t
à¤ī à¤ªà¤¯
Ġà¥¦ à¥©
ĠD igital
a il
2 1
à¤® à¤¦à¤¨
Ġà¤ı à¤¬
à¤ŀ à¤²
en d
à¤¾à¤ģ âĢĵ
Ġà¤¤ à¤¦à¤¨
ĠâĢĺ âĢĺ
à¤Ĭ à¤°
Ġc aption
i e
Ġread ing
à¤ĩ à¤ĵ
it e
à¥® à¥¯
à¤Ń à¤°à¤ķ
à¤Ī à¤¸à¤ķ
à¤ī à¤¸à¤®
à¤¯à¤ª à¤¶
à¤¸ à¤ľ
Ġà¤Ĩà¤ĩ à¤ªà¤°
ĠT op
à¤¸à¤¦ à¤¬
Ġà¤ıà¤ķ à¤°
D F
à¤¨ à¤ªà¤¤
mand u
Ġ2 8
à¤²à¤¬ à¤°
Ġà¤Ĩ à¤µà¤¸
Ġà¤¸à¤Ł à¤¹
Ġà¤ķ à¤°à¤¦
à¤Ĥ :
Ġà¥¤ âĢ¦
à¤ŀ à¤¤
ĠI P
ĠJ une
u c
ĠF acebook
Ġon line
Ġà¤¹ à¤ķà¤ķ
à¤ĸ à¤ķà¤ķ
ĠC lick
à¤®à¤ľ à¤¯à¤¨
à¤®à¤ķ à¤¥
ĠD ainik
à¤Ł à¤¯
à¤¶à¤¨ à¤¹à¤°
à¤¬ à¤¬
Ġmon th
à¤ĩà¤¨ à¤²à¤ķ
Ġà¤¤ à¤²à¤µ
2 7
D I
g ov
à¥ģà¤ģ à¥¤
à¤¾à¤Ĥ à¥Ī
à¤¦ à¤®à¤ķ
Ġà¤¨à¤µ à¤ľ
à¤¬ à¤¹à¤°
Ġà¤Ĩ à¤²à¤®
à¤· à¤Ńà¤°
Ġà¤° à¤¥
à¤ĩ à¤Ĺ
ĠF ebruary
Ġà¥§à¥¦ à¥®
3 3
à¤¬ à¤§
Ġà¤ĵ à¤Ľ
à¤Ĺà¤ł à¤¨à¤®
à¤ķ à¤Ĺ
à¤¯à¤¸ à¤¯à¤¤
Y ou
à¤ıà¤¨ à¤ľ
mail à¤®
à¤« à¤¸
à¤¥à¤² à¤¹à¤°
à¤ļ à¤ª
à¤Ĩ à¤ī
Ġà¤īà¤ªà¤ķà¤°à¤£ à¤¹à¤°
à¤ľ à¤¯à¤¨
à¤°à¤ª à¤¥
ok har
ear ed
à¤Ĩà¤Ī à¤¬
Ġ> >
am ro
à¤µ à¤ħà¤§
Ġapp eared
à¥ĭ ;
al a
à¥ĥ âĢĻ
Ġà¤¶ à¤¤à¤ª
ate g
ĠRat opati
à¤¤ à¤ªà¤¤
r ik
Ġà¤Ń à¤¡
âĢ İ
Ġ Â¥
Ġ: âĢĵ
à¤ľà¤Ĺ à¤ŀ
Å Ĵ
Ġà¥¨à¥§ à¥§
ĠHimal ayan
an k
AT E
à¤° à¤Ļà¤®
à¥Įà¤ģ âĢĻ
Ġà¤¦à¤² à¤¸
Ġà¤ķ à¤ªà¤®
Ġà¤¬ à¤¸à¤²
à¥¯ à¥¦
Ġà¤Ľ à¤Ĺ
à¤Ń à¤¬
ĠNe xt
Ġà¤ļ à¤¤
à¤ıà¤® à¤¸
à¤ģ à¥Ī
Ġà¤° à¤ľà¤¨
à¤® à¤Ń
à¤¯ à¤ĺ
Ġà¥¨à¥¦à¥¦ à¥ª
Ġà¤¯à¤¸ à¤¸
à¤Ĩ à¤ĩà¤¬
à¤¦ à¤°à¤¬
Ġà¥¦ à¥Ńà¥«
Ġà¥§à¥¯ à¥«à¥¦
ĠA pril
Ġ %
Ġà¤ħ à¤¥
à¥ ľ
à¤¾ _
à¤ı à¤ľà¤¸
ang ar
Ġà¤ª à¤¥
Ġà¥¨à¥¦ à¥©à¥¦
Ġà¤· à¤¡à¤¯à¤¨
à¤¨ à¤ľà¤¨à¤ķ
à¤® à¤ĸ
à¤Ĺ à¤Ń
Ġà¤°à¤¹ à¤¦
Ġà¤®à¤¨ à¤¨
ar d
i al
à¤Ĺ à¤¦à¤°
Ġà¤ħà¤µ à¤¤
angar oo
ĠK angaroo
Ġà¥¨à¥¦à¥ª à¥®
C O
à¥ĩ Â«
ĠA nd
à¤¤ à¤¨à¤®
à¤¹ à¤²à¤®
Ġà¤² à¤¬
ans ar
ro id
on line
à¤£à¤¯ à¤¬
âĢ¦ .
Ġw ith
à¤¸ à¤¶à¤¸
à¤¶ à¤ļà¤¨
Ġà¥§ à¥¨à¥¦
Ġ all
Ġà¤ľà¤¨ à¤¨
ĠP R
Ġà¥¨à¥¦ à¥¨à¥¨
!! !
Ġà¤ħ à¤¸à¤ķ
à¥¬ à¥ª
à¤Ł à¤¸à¤¹
Ġ <
à¤² à¤°à¤®
u th
à¤¬ à¤°à¤²
ath mandu
à¤ķà¤® à¤ľ
Ġ2 6
Ġà¤Ĩà¤ļ à¤°à¤£
AR CH
à¤ļà¤¥ à¤°à¤ķ
Ġà¤¨à¤ľ à¤°à¤®
ĠW orld
âĢĮ à¤Ĥ
à¤® à¤ªà¤Łà¤ķ
Ġà¤®à¤¨ à¤¹à¤°
à¤łà¤ķ à¤ªà¤Ľ
Ġà¤ªà¤¦ à¤¸
Ġà¤ı à¤Ń
ARCH IVE
ab al
à¥ĭ à¤ģ
à¤¯à¤¤ à¤¬
ï¿½ ...
à¤® à¤Ĺà¤łà¤¬à¤¨
to ber
Ġ $
Ġà¤Ĩ à¤ĩà¤²
Ġà¤Ĩà¤¯ à¤°à¤²
c tober
à¤¡ à¤°à¤ķ
Ġà¤ħà¤¬ à¤¸à¤°à¤®
Ġà¤µ à¤¨à¤®
Ġà¤ıà¤ķ à¤¤à¤°
à¤Łà¤² à¤¹à¤°
ĠVide o
r al
u k
Ġà¤ı à¤ļà¤ķ
Ġà¤¦à¤¶ à¤°à¤¥
Ġà¤ı à¤ıà¤«à¤¸
à¤¡ à¤°à¤²
Ġà¤² à¤ĸà¤¨
Ġà¤¹à¤Ļà¤ķ à¤Ļà¤ķ
à¤ķ à¤ł
ĠM edia
Ġà¥¨à¥¦à¥« à¥¯
à¤¹ à¤£à¤ķ
à¤ļ à¤¦
à¤¦ à¤ķà¤¤
el i
Ġ ad
à¤° à¤ľà¤¸
à¤· à¤µ
à¤¡ à¤§
à¤ĩà¤ķà¤² à¤²
Ġà¤¸à¤® à¤¤
on e
Ġà¤Ĩà¤Ī à¤°à¤¹
à¤¦ à¤²à¤¬à¤¹
ha k
à¤¨ à¤°à¤¹à¤°
à¥¯ à¥¯
à¤¹à¤° à¤ķ
Ġà¤ªà¤¦ à¤ª
à¤ĵ à¤Ł
m à¤¨
à¤¥ à¤¹à¤°
Ġà¤°à¤ķà¤® à¤²
Ġà¤¸à¤¨ à¤¸à¤¨
Ġà¥¨à¥¦à¥« à¥®
ĠE verest
à¤Ł à¤¸à¤²
Ġà¤ĸà¤¬ à¤°à¤²
' '
an ti
T he
à¤°à¤ķ à¤°à¤£à¤ķ
à¤µ à¤¯à¤ķ
à¤ħ à¤µà¤¸
Ġà¤Ŀ à¤²à¤ķ
Ġà¥¨à¥¦à¥¦ à¥«
à¤¯ à¤°à¤¹à¤°
3 0
à¤µ à¤²à¤¨
à¤ı à¤¸à¤¬
à¤¦ à¤¹
Â ·
Ġà¤ĸ à¤µà¤°
à¤ľà¤¨ à¤¬
Ġà¤Ł à¤®
Ġà¤ıà¤« à¤ıà¤®
à¥© à¥©à¥¦
Ġà¤Ī à¤ª
E S
J an
à¤® à¤²à¤ķ
ĠP at
à¤²à¤Ĺ à¤®
ho to
à¥ĭ ]
Ġà¤¸à¤¦ à¤°
à¤Ľ à¤°
t aj
à¤¿ !
à¤Ł à¤ļ
Ġà¤¤ à¤²à¤®
à¤¯à¤¨ à¤¹à¤°
Ġà¤ĵ à¤¡
k o
à¥Ģ à¥ĩ
Ġà¤Ĺà¤¤ à¤µà¤°
Ġà¤¶à¤¹à¤° à¤¹à¤°
Ġà¤¦à¤® à¤ķà¤²
O S
à¤Ĺ à¤¨à¤®
à¤ĺ à¤£
Ġà¤¹à¤Ļà¤ķ à¤Ļà¤®
à¥ĩ à¥ĩ
à¤Ī à¤¨à¤ķ
Ġà¤Ńà¤ı à¤²à¤Ĺà¤¤
Ġ http
à¤Ŀ à¤£
Ġà¤¹à¤Ļà¤ķ à¤Ļà¤²
à¥Ī âĢĵ
à¥¦ à¥Ńà¥¨
i re
Ġà¤° à¤¨à¤°
à¤ª à¤¸à¤²
à¤ľ à¤¸à¤ķ
3 9
à¤¶ à¤ķà¤®
âĢ Ĭ
Ġà¤ľ à¤«à¤¤
Ġà¤¤ à¤¦
à¥¯à¥® à¥ª
à¤·à¤¦ à¤®
Ġà¤ħà¤¸à¤«à¤² à¤¤
ac k
à¤¨ à¤µà¤¤
on om
Ġ2 7
Ġà¤ľà¤¨ à¤Ĺà¤£à¤¨
à¤¬ à¤Ńà¤¨
Ġà¤īà¤ªà¤¦ à¤«
à¤Ł à¤¨à¤²
à¤¡ à¤¬à¤²
à¤ľà¤¨ à¤¯
à¤Ń à¤µà¤²
I C
S hare
Ġà¤ıà¤¨ à¤ľ
Ġà¤ľà¤¨ à¤ħà¤§
Ġs ec
à¥¤ .
in ue
à¤¤à¤¨ à¤Ĺà¤°
à¤ľà¤¨ à¤ª
wik i
à¥Ī )
oo gle
Ġà¤¹ à¤µà¤²
ĠT im
Ġà¥¨à¥¦à¥¦ à¥©
Ġà¥¬ à¥¦à¥¦
e st
Ġà¤¨ à¤°à¤¸
à¤µà¤¨ à¤Ńà¤°
Ġà¤Ŀ à¤®
à¥¬ à¥«
ĠT h
à¤°à¤¬ à¤¦
à¤Ń à¤µà¤ķ
Ġà¥§à¥¯à¥¯ à¥®
ĠH amro
à¥į âĢĻ,
à¤ĩ à¤ıà¤ªà¤Ľ
à¤Ī à¤¨à¤²
à¤®à¤Ĺà¤° à¤²
à¤Ĩ à¤µà¤¶
Ġà¤¡à¤² à¤°à¤®
à¤ī à¤ĸ
Ġà¤Ń à¤ĩà¤¦
i tic
Ġà¤ħ à¤¶à¤ķ
à¤¨ à¤§
à¤¤à¤¨ à¤ª
à¤ı à¤Īà¤²
à¥ĭ, âĢĿ
Ġà¤Ĩ à¤¡à¤®
Ġà¤ħà¤µ à¤¹
ĠCh ina
ea ve
à¤Ń à¤µà¤¨
Ġà¤¨ à¤īà¤ł
à¥ĭà¥¤ âĢĿ
à¤ªà¤° à¤²
à¤¸ à¤ªà¤Ľ
à¤Ĩ à¤ª
un d
o d
à¤¢ à¤¤
à¤° à¤ħ
à¤¯ à¤ľà¤¨à¤ķ
à¤ĩ à¤ķà¤°
à¤²à¤¯ à¤¦
à¤Ĺà¤£ à¤¤à¤¨
Ġmonth s
à¥ĩ, âĢĻ
à¥ĩ âĢĿ
Ġ3 0
à¤Ī à¤ªà¤Łà¤ķ
Ġà¤ĺ à¤°à¤§à¤¨
ol og
à¤® à¤µà¤°à¤£
à¤¹à¤° à¤£à¤®
okhar a
anti pur
I N
à¤¦ à¤ĺ
à¤§ à¤µà¤ª
Ġà¤¶ à¤®à¤¶
à¤µà¤Ń à¤°à¤ķ
3 5
ĠM arch
à¤ıà¤¸ à¤¨à¤ķ
à¤¡ à¤ħà¤¨
à¤² à¤ľà¤¸
ĠO ctober
" ,
à¤ķà¤® à¤°
à¤¸ à¤°à¤¬
à¤¾ âĢĶ
Ġà¤¬ à¤ĸà¤¤
à¥ªà¥® à¥©à¥©à¥¦
Ġà¤¸à¤ķ à¤¸
Ġà¤ļ à¤®à¤ķ
à¤¡ à¤¯
à¤µ à¤ĺ
s s
Ġà¤Ĺà¤¡à¤¬ à¤¡
Ġà¤¯ à¤¶
Ġà¤ħ à¤¢
Ġà¤ªà¤Łà¤ķ à¤¸à¤®
, ,
4 4
à¤¯ à¤ħà¤¨
Ġà¤ĵ à¤¢
à¥į '
Ġà¥¨à¥¦à¥¦ à¥¨
Ġà¤¯à¤¸ à¤ªà¤Ľ
à¥¬ à¥¨
ac t
Ġà¤ħà¤ª à¤µ
à¤ķ à¤²à¤®
à¤ı à¤®à¤ķ
à¤ħ à¤²à¤Ĺ
Ġà¤ª à¤¹à¤°
Ġà¤Ī à¤¤
Ġà¤¹ à¤¨à¤¨
à¤Ĩà¤Ī à¤Ń
à¤ł à¤¤
Ġà¤¨ à¤µà¤²à¤ª
à¤ł à¤¸
à¥ĩ ..
à¤®à¤¸ à¤¤
el s
H O
à¤¯à¤£ à¤ª
Ġà¤®à¤¹ ÅĴ
re ak
à¤µ à¤¦à¤²
, ...
à¤ı à¤¤à¤ķ
Ġà¤ľà¤¬ à¤¸à¤®
) )
à¤²à¤¯ à¤ħà¤¨
ĠB log
Ġà¤¤ à¤µà¤°à¤²
Ġà¤ªà¤¦ à¤¹à¤°
à¤°à¤¹ à¤²
à¤°à¤µ à¤¹à¤¨
7 2
q u
à¤ĩ à¤¡à¤ķ
à¤ļ à¤ľà¤¨
Ġà¤¯ à¤°
ĠN aya
ĠCont inue
à¤ķ à¤¨à¤®
am e
00 0
Ġà¤® à¤²à¤®
à¤ķà¤ª à¤¡
Ġ ;
à¤¤à¤¹ à¤¤à¤®
l ung
Ġà¤¸à¤®à¤¯ à¤ħà¤¨
ĠEn ter
Ġà¤°à¤® à¤£
à¥ĩ !
à¤ı à¤«à¤²
à¤¯à¤¸ à¤Ńà¤¨
ĠEn g
Ġà¤¹à¤¡ à¤¤
ĠP DF
Ġà¤²à¤Ĺ à¤¨à¤¶
Ġ j
à¤¦ à¤°à¤£
Ġà¤¸à¤¨ à¤°
à¤°à¤ļ à¤²à¤¨à¤®
Ġà¤¨à¤ķ à¤Ĩà¤īà¤Ł
à¤² à¤£
à¤¾ [
à¤® à¤¥
à¤Ļ à¤ľ
à¤¥ à¤¯
à¤ħ à¤¨à¤®
Ġà¤¬à¤¢ à¤¨
i es
à¤¬ à¤°à¤£
Ġà¥¨à¥¦à¥¬ à¥¦
à¤Ĺà¤ľ à¤ªà¤¤
à¤ı à¤¬
à¤Ĩ à¤¸
? âĢĿ
Ġà¤¸à¤¹ à¤ª
ĠU n
Ġ eb
à¤¸à¤¹ à¤Ń
ĠS h
à¤¿ '
Ġà¤¸à¤® à¤µ
à¤ļà¤ķ à¤¨
à¤¹à¤²à¤ª à¤¹à¤²
à¥Įà¤Ĥ à¤ĥ
ĠH IM
re e
à¤°à¤¨ à¤Ĺà¤°à¤®
Ġ =
à¤¨à¤¬ à¤®
Ġà¤ķà¤¸ à¤°à¤¤
à¤° à¤Ĩà¤®
ĠHIM AL
Ġà¤ļ à¤¹à¤²à¤ªà¤¹à¤²
Ġ? ?
Ġà¤Ĩà¤¯ à¤Ĩà¤°
Ġà¥¨à¥¦à¥¬ à¥§
à¤°à¤® à¤ľ
a i
DI A
à¤ķ à¤¸à¤ķ
à¤¹à¤° à¤²
Ġà¤ĸ à¤¡à¤ķ
ag lung
7 3
ir m
à¥ĩ à¤ĥ
n b
Ġà¤ĩ à¤¯à¤°
ĠAnd roid
à¤¥ à¤Ĺà¤¨
Ġà¤µà¤° à¤¦
à¥ĢâĢĻ ,
à¤°à¤ļ à¤¢
Ġà¤¬à¤¹ à¤¸à¤ķ
à¤Ĺà¤²à¤® à¤¯
Ġà¤¶ à¤¤à¤ķ
Ġà¤ı à¤Ĺ
Ġà¤ı à¤Ĩà¤Īà¤ľ
à¤ļ à¤¹à¤°
à¤® à¤ŀ
à¥ĩ (
à¤¬ à¤¸à¤ķ
Ġ! âĢĿ
Ġà¤¤à¤Ł à¤¬à¤¨
ĠM y
ĠL IM
à¤¬ à¤²à¤®
à¤Ĺà¤® à¤¨à¤²
Ġà¤Ī à¤ļ
Ġà¥¨à¥¦à¥« à¥¨
à¥į à¤¾
taj akhabar
à¥į, âĢĺ
in ess
ĠR e
ĠE tajakhabar
IT ED
ĠLIM ITED
ME DIA
IV ATE
ĠPR IVATE
ĠHIMAL MEDIA
à¤Ľ à¤¤
an a
ĠD ev
rik a
Ġà¤Ĩ à¤ıà¤®
ust ral
à¤¾à¥Īà¤Ĥ -
à¤Ĺ à¤ľà¤®
L C
à¤ľà¤¨ à¤®à¤¤
à¥ĭà¥¤ '
ar e
ĠA BC
à¤Ĩ à¤ĩà¤ķ
à¤Łà¤° à¤¸à¤®
à¤ıà¤ļ à¤¡
Ġà¤ıà¤¨à¤Ĩà¤°à¤ı à¤¨à¤ķ
Ġà¤Ĺà¤ł à¤µà¤¨
à¤¤à¤° à¤¸à¤®
Ġà¤ħ à¤¬à¤°
à¥¬ à¥Ń
Ġà¤Ľ à¤Łà¤ªà¤Ł
Ġà¤°à¤ķà¤® à¤¬
à¤¸ à¤«à¤²
aj a
Ġà¤«à¤² à¤¦
d ainik
à¤¬ à¤Īà¤ķ
out ube
ĠEnter tainment
à¤Ļ à¤µ
à¤ª à¤ķà¤ķ
à¤ķ à¤²à¤ķ
à¤¯ à¤¤à¤°
à¤īà¤¨ à¤¦
à¤¨ à¤ľà¤¸
Ġ! ...
es e
à¤Ĺ à¤¨à¤ķ
à¤ĩà¤Ł à¤¬
Ġà¥¨à¥¦à¥« à¥¦à¥©
à¤² à¤Ĺà¤°
Ġà¤ħà¤° à¤¬à¤®
olog y
Ġ ac
à¤² à¤°à¤ķ
Ġà¤ķà¤® à¤²à¤ª
ĠÂ £
Ġà¥¨à¥¦à¥ª à¥Ń
à¤¤ à¤°à¤¹
Ġà¥¨à¥¦à¥¦ à¥§
Ġà¤ħà¤ª à¤¹à¤°à¤£à¤ķ
Ġm ul
Ġà¤ªà¤ķ à¤¡
à¤£ à¤Ĺ
à¤°à¤¬ à¤²
Ġà¤¡ à¤£
Ġeb aglung
à¤ľ à¤¡
Ġà¤ħà¤° à¤¬à¤ķ
Ġ_ ________
à¤¨ à¤¯à¤¤
Ġà¤¸à¤¹ à¤ļ
A pril
à¤¦ à¤°à¤®
Ġà¤ł à¤Ł
p l
Ġà¤ļ à¤¹
Ġà¤ħà¤¨à¤¶à¤¨ à¤°à¤¤
à¤ªà¤° à¤¦
C om
à¥Īà¤Ĥ ,
à¥¨à¥¦ à¥Ńà¥§
à¤ı à¤ıà¤«à¤¸
à¤Ń à¤ı
à¥¦à¥« à¥§à¥¯
Ġà¤¸ à¤¯à¤®
à¤ľà¤¸ à¤°
à¥¨à¥¯ à¥¦à¥«à¥§à¥¯
s ha
Ġà¥¨à¥¦à¥« à¥¬
à¤¾à¥Īà¤Ĥ ,
Ġà¤Ńà¤ı à¤¦
Ġà¤§à¤¨ à¤°
à¤ľà¤¦ à¤°à¤®
Ġnews abhiyan
Ġà¤¸ à¤¶
à¤ľ à¤¬à¤¹
news abhiyan
à¥¨à¥® à¥ªà¥ª
à¥¯à¥®à¥«à¥§à¥¨ à¥ªà¥®à¥©à¥©à¥¦
à¤¯à¤¸ à¤¤
verest dainik
à¥įà¥¤ âĢĿ
T weet
us iness
Ġà¤Ŀ à¤¡à¤ªà¤®
Ġà¤µ à¤¯à¤¸
ĠP ur
Ġe verestdainik
Ġà¥ªà¥§à¥¦ à¥¨à¥®à¥ªà¥ª
Ġnepal i
ar t
Ġà¤§ à¤¨à¤®
à¤²à¤¬ à¤ļ
Ġà¤ıà¤¸ à¤ĩ
m in
Ġà¥¨à¥¦à¥« à¥¦
à¤¬ à¤ªà¤¤
s er
à¤ļ à¤²à¤®
Ġà¥Ń à¥¦à¥¦
à¤ĺ à¤¬
à¤¯à¤¸ à¤ªà¤Łà¤ķ
à¤ģ à¤Ĥ
Ġà¤ħà¤¸à¤® à¤Ŀà¤¦
Ġà¤¤ à¤¦à¤°
Ġà¤ĵ à¤®à¤ª
ch n
à¤² à¤ħà¤¨
Ġà¤¬ à¤ĸ
à¤¥ à¤ķà¤¹à¤°
à¤µà¤¨ à¤¯
ab els
Ġà¤Ĩà¤ĩà¤°à¤¹ à¤¨
Ġà¤īà¤ª à¤ľ
à¤· à¤¸à¤¹
Ġà¥¨à¥¦à¥« à¥©
à¤¹à¤¦ à¤°à¤µ
à¤Ĳ à¤¤
à¤īà¤ª à¤Ń
Ġà¤ıà¤ļ à¤Ĩà¤Īà¤Ń
à¤¨ à¤°à¤²
à¤¹ à¤¨à¤ķ
à¤² à¤Ńà¤°
Ġà¤ª à¤¥à¤°
Ġà¤ĵ à¤¨à¤¸à¤°
à¤Ĩ à¤°à¤ķ
à¤¡ à¤ľ
à¤Ĺ à¤ªà¤¤
Ġà¤¬ à¤¹à¤¨
) .
Ġà¤ī à¤¨à¤®
à¥® à¥®
à¤¸à¤® à¤µ
Ġà¤ªà¤° à¤¨
Ġà¤Ĩà¤ĩ à¤Łà¤®
à¤Ĺ à¤«
à¥ĭ âĢĶ
y p
à¤®à¤¸à¤® à¤°
Ġà¤ī à¤·
Ġ2 9
à¤¡ à¤°à¤®
à¤Ĩ à¤¹
Ġà¤ªà¤¦ à¤Ń
à¥ ¥
Ġà¤Ĺ à¤¡
y s
Ġà¥§à¥« à¥ª
Ġà¤Ľà¤²à¤«à¤² à¤ªà¤Ľ
Ġà¤¹à¤ķ à¤¹
4 5
Ġà¤Ľ à¤¡
à¤Ĩ à¤ªà¤¸à¤®
à¤µà¤¦ à¤¹
à¥į âĢĿ
à¤Ī à¤¸à¤®
Ġà¤¯à¤¸à¤ªà¤Łà¤ķ à¤ķ
Jan uary
c ess
n ational
à¤¨ à¤«
ad h
Ġà¤ľà¤² à¤ľà¤²
3 6
à¤Ĺ à¤¸à¤¹
à¤ļ à¤²à¤¨
Ġà¤ħà¤µà¤¸ à¤°à¤¹à¤°
Ġà¥¨à¥¦à¥ª à¥¯
Ġà¤ıà¤¨ à¤Ĩà¤Īà¤¸
ĠA ustral
à¤Ĩ à¤ĩà¤¤à¤µ
à¤°à¤¬ à¤¦à¤²
à¤¹à¤¨ à¤¬à¤¹
Ġ is
Ġin fo
Ġà¤¦à¤® à¤ķà¤®
à¤Ļ à¤¤à¤°
Ġà¤ĭ à¤ļ
à¤Ī à¤ĺ
Ġà¤Ŀ à¤¡
ĠInter net
à¤¤à¤µà¤¨ à¤¬
à¤¦ à¤ķà¤ķ
à¤ħ à¤Ľ
à¤°à¤µ à¤²
à¥ĭ âĢĿ,
à¤°à¤¸ à¤¸
Ġà¤¤à¤¹ à¤¹à¤°
à¤² à¤°à¤²
à¤ī à¤ªà¤®
reak ing
à¤īà¤ª à¤Ĺ
à¤ľ à¤ĸà¤¬à¤°
à¤Łà¤¨à¤Ĺà¤° à¤²
Ġà¤Ĺà¤ľ à¤²à¤ķ
Share Tweet
à¤¨à¤¯ à¤¨à¤®
Ġà¤¹ à¤ļ
Ġà¤Ĩ à¤ĩà¤Ł
ĠAustral ia
Ġà¤¸à¤®à¤¯ à¤Ń
L abels
Ġà¥ ¥
à¤§ à¤°à¤ķ
ĠM ag
à¤¡ à¤ªà¤¤
p a
à¤µ à¤¤à¤²
à¤¨ à¤²à¤ķ
Ġà¤ľà¤¸ à¤ħà¤¨
an i
à¤Ĺ à¤¹
Ġà¤Ĩà¤ªà¤¤ à¤ķ
i ght
à¤® à¤¨à¤²
à¤¡ à¤¹
à¤® à¤Ŀ
Ġà¤ľ à¤Ĺà¤¤à¤®
Ġà¤ĵà¤Ń à¤°à¤ķ
à¤Łà¤¨ à¤°
à¥¯ à¥©
Ġ i
à¥ĭ _
à¤²à¤ķ à¤¬
à¤§à¤¨ à¤¸
à¤¯à¤ª à¤¹
Ġà¤¨à¤Ń à¤ıà¤®
à¤¤à¤¹ à¤Łà¤®
Ġà¤¯à¤¸ à¤¤à¤°
U L
à¤¥ à¤ķà¤¤
ig n
à¤¤ à¤Ĺ
Ġà¤Ĺà¤° à¤ķ
Ġà¤« à¤²à¤¸
à¤¾ ]
à¤ī à¤ªà¤¨
Ġà¤¨à¤¹ à¤Ł
Ġà¤ħà¤¬ à¤¦
Ġà¤ĺà¤Ł à¤¸
à¤¬ à¤°à¤¬
à¤ľà¤¨ à¤ľ
à¤¦à¤ķ à¤¹à¤°
Ġà¤ħà¤¸à¤¹ à¤¯
t r
Ġà¤² à¤«
à¤¸à¤® à¤Ĺ
Ġà¤ıà¤¨ à¤ıà¤®à¤¬
à¤¸à¤¨ à¤°
Ġà¤§à¤¨ à¤¬à¤¹
ti me
Ġà¤ĵ à¤ĩà¤°
Ġà¤¦à¤¶à¤ķ à¤ķ
à¤ħ à¤ļ
Ġà¤ħà¤¨ à¤µ
Ġà¤µà¤° à¤ªà¤°à¤ķ
à¤Ĩ à¤īà¤¨
Ġà¤®à¤¹ à¤²
el op
à¥į à¥ģ
Ġà¤¤à¤ª à¤¸
à¤ķà¤°à¤£ à¤¬
U S
ra m
à¤ħ à¤Ł
Ġà¤¹ à¤¬
Ġà¤¸à¤¯ à¤ªà¤¤
à¥§ à¥¦à¥¦
h el
à¤¾ &
ik har
à¤īà¤ª à¤¡
à¤°à¤µ à¤ļà¤¨
Ġà¤ħ à¤®à¤²
à¤Ĥ à¥¤
à¤¤à¤¨ à¤µ
i an
np khabar
à¤ļ à¤ĸ
à¤°à¤£ à¤µ
Ġà¤Ŀ à¤¸
R T
Ġà¥¤ [
à¤Ĩà¤ľ à¤¬
à¤¨à¤² à¤²
à¤¯à¤® à¤¸
âĸ º
Ġà¤ĺ à¤®à¤£
Ġà¤ļ à¤ķà¤²
Ġà¤ıà¤ķ à¤ļ
à¤Ĥà¥° ]
à¤Ĺ à¤Łà¤¨
Ġà¤ĵà¤ªà¤¨ à¤°
Ġà¤Ĩà¤Ĺ à¤¨
à¤ľà¤ķ à¤¹à¤°
Ġà¤¨à¤ª à¤ł
Ġà¤ı à¤ħ
Ġà¤Ĩà¤ı à¤ªà¤¨
our s
à¥ĭ, '
Ġà¤ĩ à¤·
ĠV ie
à¤ıà¤® à¤ı
3 1
à¤¹ à¤ªà¤Ľ
I S
à¤ĩà¤¨ à¤¸
Ġà¥¤ ,
ĠN ama
âĢį âĢį
à¤µà¤°à¤£ à¤²
à¤ľà¤® à¤°
à¤ķ à¤ľà¤¸
Ġà¤¨à¤Ńà¤ı à¤ªà¤¨
à¤§ à¤¯
Ġà¤ħà¤µ à¤Ĺà¤¤
à¤ķ à¤§
à¤ľ à¤¯à¤²
Ġà¤ĭà¤£ à¤ªà¤¤
CO M
ĠEng lish
ĠA M
S he
à¤Ĺ à¤®à¤®
Ġà¥§à¥¬ à¥«
à¤¶à¤® à¤¶
Ġà¤ħà¤¹ à¤®
Ġà¤² à¤®à¤¹
Ġà¥® à¥¦à¥¦
az ine
c onom
Ġà¤īà¤ª à¤²
ĠTim es
3 4
chn ology
Ġà¤Ĩà¤° à¤ľ
à¤¸ à¤¸à¤²
Ġ st
à¤Ł à¤²à¤¬
Ġà¤Ĩà¤µ à¤§
> >
à¤¯ à¤ľà¤¸
Ġà¤¬à¤¹ à¤¸à¤®
Ġà¥§à¥¦ à¥ª
à¤¸ à¤µà¤²
Ġà¤īà¤ª à¤ķà¤°à¤£à¤ķ
à¤Ĺ à¤¤à¤°
Ġà¤¨ à¤«
Ġà¤¬ à¤²à¤²
à¥ģ âĢ¦
à¤µà¤ª à¤¶
à¤Ļ à¤¯
Ġ3 1
Ġà¤² à¤µ
à¤ľà¤¨ à¤²à¤Ĺ
à¥ĭ "
Ġà¤ħà¤² à¤Ĩà¤īà¤Ł
ĠP okhara
Ġà¤¨ à¤¸à¤°
à¤ļ à¤°à¤£
à¤¤ à¤ļà¤°
Ġà¤¸à¤¤ à¤¹à¤®
à¤·à¤§ à¤°
Ġà¥¨à¥« à¥¯
s abal
à¤² à¤¤à¤°
à¤²à¤ĸ à¤£
à¤ı à¤ħà¤¨
à¤Ń à¤¨à¤®
Ġà¥¦à¥¬ à¥®
à¤¾ .....
à¤µà¤¸ à¤¤
à¤¯à¤¸ à¤¸
à¤® à¤ħà¤¨
Ġà¤Ĺ à¤²à¤ķ
ĠDev elop
à¤Ĺ à¤¯
Ġ ma
à¤ľ à¤Ļ
Ġà¥¨à¥¦à¥« à¥§
à¤¬ à¤Ŀ
Ġà¤ħ à¤ķà¤¸
T C
Ġà¤ħà¤° à¤¨
i b
à¤¶ à¤¶à¤°à¤£
Ġà¤¸ à¤ĺà¤¨
Ġà¤ħà¤ª à¤¹à¤°à¤£à¤®
à¤Ł à¤Ń
à¤¾ ;
Ġsec ond
à¤¯à¤Ł à¤¨à¤®
à¤¹ à¤¯
à¤¸à¤® à¤°
Ġà¤ľà¤® à¤ĺà¤Ł
ĠE conom
Sajha sabal
à¤ľ à¤ķà¤®
ĠNE PAL
à¤¤ à¤ªà¤Ľ
à¤ļ à¤Ł
à¤¨ à¤°à¤ķ
à¤² à¤Ńà¤¨
h et
à¤¯à¤¤ à¤¥
à¤Ł à¤¬à¤¨
Ġà¤¤à¤¬ à¤¸à¤®
uth or
à¥¯ à¥¬
ing s
Ġà¤ı à¤¡à¤®
à¤°à¤® à¤¦
à¤®à¤¨ à¤¸
à¥Įà¤ģ, âĢĻ
Ġà¥¨à¥¦à¥« à¥ª
à¤ķà¤¡ à¤Ń
9 9
ar sha
à¤¯ à¤ªà¤°
S eptember
âĨ ĳ
à¤¶à¤¨ à¤ªà¤Ľ
as s
Ġà¤¨à¤Ĩ à¤ī
Ġà¤° à¤Ĺà¤¤à¤®
Ġà¤Ĳà¤¨ à¤ħà¤¨
8 5
A d
à¤¯ à¤¡
Ġà¥¨ à¥¨à¥¦
à¤ıà¤ķ à¤¦
ĠP revious
à¤łà¤® à¤£
w ord
à¤£ à¤¸à¤®
à¤ı à¤ıà¤«à¤ª
à¤ĩ à¤²à¤¬
à¥Įà¤Ĥ âĢĻ,
Ġà¤ħà¤µ à¤¤à¤°à¤£à¤ķ
à¤Ł à¤¡
ĠP O
à¤Ł à¤®à¤ķ
ĠHimal aya
à¤® à¤¨à¤®
à¤¤ à¤¶
à¤ıà¤¸ à¤ıà¤®
à¤¨ à¤µà¤¨
Ġ le
4 6
ĠTe chnology
à¤°à¤£ à¤¯
à¤ķ à¤Ŀ
à¤Ĺà¤¬ à¤£
ĠAr ch
Ġà¤Ĩ à¤¯à¤ķà¤°
à¤¤à¤® à¤§
Ġà¤¨ à¤ķà¤°
ĠPol itic
p aper
ch im
I n
à¤¯à¤¸ à¤ħà¤¨
ĠE x
Ġ20 75
à¤Ī à¤ļ
à¤Ĩ à¤ļ
Ġà¥§à¥¨ à¥«
à¤Ĺ à¤¹à¤¨
Ġà¥¦à¥« à¥¬
* *
Ġà¤Ĩ à¤®à¤®
à¤¯à¤² à¤Ĺ
à¤¿ âĢĿ
Ġà¤²à¤« à¤¡
ĠU S
L eave
à¤° à¤°à¤¤
Ġà¤¬ à¤Łà¤¨
à¤ı à¤²à¤²
on s
Ġà¤ªà¤¹ à¤²à¤ķ
à¤Ĩ à¤¯à¤²
Ġà¤¸à¤¡à¤ķ à¤¹à¤°
as chim
Ġà¤ķ à¤¸à¤®
à¤²à¤¨ à¤ªà¤Ľ
Ġà¥¯à¥®à¥ª à¥§
à¤ľ à¤°à¤®
à¤ĵ à¤ĸà¤²à¤¢
ĠMag azine
O N
Ġà¤Ĩà¤ľ à¤ķà¤²
Ġà¤ªà¤¸à¤² à¤¹à¤°
Ġà¤Ī à¤ķ
Ġsecond s
Ġà¤ķ à¤Ļ
à¤¬ à¤¨à¤®
Ġà¤¸à¤ķ à¤°
Ġà¤¬à¤ľ à¤Ĺ
Ġà¤¨à¤Ĺà¤¦ à¤¸à¤¹
nb sp
à¤Ĺà¤° à¤²
Ġ? ,
à¤Ł à¤ħà¤¨
Ġ vi
Ġà¤® à¤ĸ
à¤ļ à¤¤à¤®
Ġà¤ı à¤¥
à¤ª à¤¬à¤¹
ĠPat rika
à¤Ńà¤Ĺ à¤µ
an e
O nline
à¥ģ âĢĻ,
Ġà¤® à¤²à¤ķ
Ġà¤ľ à¤Ĺà¤®
Ġà¤ľ à¤¯à¤ª
à¤¾à¥ĩ )
ĠA d
à¤ĵ à¤ª
Ġà¤ª à¤Ĺ
Ġà¥§à¥§ à¥§
ĠB I
à¤ıà¤¨ à¤¡
ĠT witter
N A
l in
à¤¸à¤² à¤Ĺ
eb s
Ġà¤Ĺ à¤Ľ
à¤· à¤¦à¤°
à¤ªà¤ķ à¤¹à¤°
à¤¨ à¤¢
à¤ļà¤ķ à¤¹à¤°
ikhar news
à¤ļ à¤¯à¤ķà¤°
à¤łà¤ķ à¤¸à¤®à¤ķ
ĠâĢ¦ .
ĠM ark
à¤ļ à¤°à¤ķ
Ġà¤ĵ à¤ł
Ġà¤¸à¤¦ à¤Ń
Ġp ortal
Ġà¤Ńà¤ı à¤ľà¤¸
Ġà¥¨à¥ª à¥¦
à¤¨ à¤¯à¤ķ
à¤ļ à¤¯à¤ķ
Ġà¤ª à¤°à¤ķ
Ġà¤Ĺ à¤ĩà¤¨
à¤²à¤® à¤¨
à¤§ à¤°à¤£
à¤¨à¤® à¤§
à¤°à¤¹ à¤£à¤ķ
Ġà¤¨ à¤Ĺà¤°à¤®
Ġà¤ĩ à¤¯
Ġà¥§à¥¦ à¥«
à¤Ļ à¤¹à¤°
à¤¬ à¤Ĺ
à¥į, âĢĿ
Ġà¤¸à¤¹ à¤¸
à¤ı à¤Łà¤°
Ġà¤ĩ à¤¬
à¤¹ à¤¡
à¤¥ à¤ķà¤°
à¤ļà¤¨ à¤¸à¤®
Ġà¤¦ à¤°à¤µ
à¥Ĥ à¥¤
Ġà¤Ŀ à¤²à¤ķà¤¹à¤°
à¤Łà¤² à¤Ĺ
ĠT aja
or k
à¤¾à¤ģ )
Ġ20 74
à¤¸ à¤¶
à¤Ľ à¤ł
Ġà¤ħà¤¨ à¤°
à¤²à¤ķ à¤®
ha d
à¤ķà¤² à¤Ĺ
à¤° à¤¡
à¤¯ à¤µà¤°
à¤¸ à¤ĺ
Ġà¤ķ à¤¨à¤ķ
Ġà¥§à¥¦ à¥¦à¥¦
Ġà¥¨à¥® à¥«
à¤¤ à¤¸à¤¹
o de
à¤°à¤¸ à¤°à¤¤
HO ME
à¤Ī à¤¨à¤²à¤®
à¤« à¤¸à¤²à¤®
Ġà¤¦ à¤¯à¤¨
à¥ĩ âĢĶ
ĠH ot
l id
à¥ģ âĢľ
à¤¯à¤ķ à¤°à¤£
m à¤²
à¤ĵ à¤ıà¤¸
Ġà¤Ĩà¤® à¤¸à¤Ń
à¤ļ à¤¶
Ġà¤īà¤ª à¤Ĺ
à¥® à¥©
Ġà¤Ĺ à¤¥
à¤ªà¤° à¤¹
Ġà¤ĺ à¤Łà¤ķ
Ġà¤ľ à¤ĺà¤¨
à¤ķà¤Ł à¤¤
S LC
b o
à¤¨à¤¯ à¤¨à¤ķ
à¥ĥ .
.... ....
e le
à¤Ī à¤°à¤²
Ġà¤īà¤ª à¤¶
Ġà¥§à¥§ à¥©à¥¯
à¥ģ ?
Ġà¤Ķ à¤§
F ebruary
ĠF rom
à¤ł à¤°
Ġà¤ħà¤¨à¤¸à¤¨ à¤°à¤¤
à¤§ à¤°à¤¹à¤°
à¤Ń à¤°à¤®
Ġac cess
Ġà¤° à¤«
4 8
à¤µà¤°à¤£ à¤¸à¤¹
à¤ĩ à¤ľà¤ķ
tr l
à¥į à¥ĩ
à¤® à¤¥à¤²
à¤ķà¤² à¤¨à¤®
Ġà¤Ĺ à¤Ļ
à¤· à¤¨
à¤° à¤Ĺà¤¢
Ġà¤¸à¤¯ à¤¦
Ġà¤ıà¤¸ à¤Īà¤Ī
Ġy ear
Ġà¤¨ à¤°à¤¬à¤¹
à¥¨à¥¦ à¥Ńà¥¦
Ġà¤Ĩ à¤ĩà¤ķ
ĠB usiness
Ġà¤Ĩà¤¶ à¤¯
à¤¼ à¥į
Ġà¤ħà¤²à¤® à¤²à¤®
e x
Ġà¤ĸ à¤µà¤°à¤ķ
ĠS ong
it er
à¥Ģ ..
à¤¶ à¤²à¤¤
à¤¤ à¤ľà¤¨à¤ķ
Ġà¤Ĩ à¤ķà¤²à¤¨
à¤ī à¤Ĺ
à¤² à¤Ŀ
à¤¤ à¤®à¤¨
Ġà¤¸ à¤°à¤¦à¤°
à¤²à¤ķ à¤°
Ġà¤ı à¤¨à¤ª
ĠM H
Ġà¤Ĩà¤Ī à¤ıà¤®à¤Ī
à¤¤à¤² à¤¹à¤°
Ġà¤ķà¤² à¤°
à¤ģ ,âĢĻ
à¤Ļ à¤²à¤Ĺ
Ġh ours
à¤Ĺ à¤µà¤¤
à¤ĵ à¤°
Ġà¤¤à¤¹ à¤¸
à¤Ĺ à¤Ĺà¤¨
à¥ĭ Â¥
à¤¸ à¤¸à¤ķ
à¥Ĥ :
Ġ ~
Ġà¤¸à¤¦ à¤¨à¤ķ
s ip
à¤µà¤° à¤ª
à¤¯à¤µ à¤¦
à¤ľ à¤¬à¤°
Ġà¥¨à¥¦à¥« à¥«
Ġà¤ıà¤¨ à¤Ĩà¤ĩà¤¸
Ġs h
Ġà¤ Ļ
à¤Ļ à¤«
à¤ķà¤® à¤§
à¤ħ à¤ľ
ail y
ĠE d
Ġà¤Ĩà¤¬ à¤¶
Ġà¤¨à¤Ĺà¤° à¤µ
Ġ X
à¤¯ à¤Łà¤°
Ġà¤ĸ à¤ľ
ĠR ES
à¤Ł à¤«à¤°
à¤¨ à¤Ńà¤ıà¤ķ
Ġà¤¸à¤¹ à¤ħà¤§
à¤ļ à¤²à¤²
Ġà¤Ĩà¤ĩ à¤ıà¤®
à¤¿ /
à¤¡ à¤°à¤¸
à¥Įà¤ģ )
à¤¸ à¤ªà¤°
ah ity
ĠC trl
UL T
Ġ1 00
à¤°à¤¤ à¤¤à¤°
ĠNe w
st r
ï ģ
Ġà¤« à¤Ł
à¤¯à¤¤ à¤ª
Ġà¤Ĺà¤Ī à¤°à¤¹
4 9
Ġà¤Ī à¤¸
à¤µ à¤¶à¤ķ
Ġà¤ł à¤¡
à¤ıà¤¸ à¤¸
à¤Ĥ à¤ģ
ĠW ik
à¤¸à¤® à¤²
Ġà¤ļ à¤£
Ġà¤ªà¤ł à¤¨
Ġà¥¯à¥¦ à¥«à¥§
à¤Ľ à¤²
Ġà¤ķà¤° à¤¬
Ġà¤ıà¤ķà¤¸ à¤¯
Ġà¤¬ à¤¦à¤®
à¤¥ à¤¨à¤ķ
à¥® à¥«
à¥ĩ à¤¾
Ġà¤ķà¤® à¤¸
à¥¨à¥¯à¥¦à¥«à¥§à¥¯ à¥§
b e
à¤² à¤ħà¤§
Ġà¤Ľ à¤¦
Ġà¤ħà¤¨ à¤¶à¤¨à¤®
à¤ĩà¤¨ à¤ĸà¤¬
Ġà¥§à¥¯à¥¯ à¥Ń
Ġà¤®à¤¹ à¤Ļ
à¤Ĺà¤² à¤¸
Ġà¥¯à¥®à¥ª à¥¨à¥¯à¥¦à¥«à¥§à¥¯à¥§
à¤ı à¤¶à¤¨
Ġà¥¦ à¥Ńà¥¦
ĠRES ULT
à¤¾ Ã·
Ġà¤Ńà¤µà¤¨ à¤¹à¤°
à¤§ à¤ªà¤Ľ
Ġà¤Ĩà¤ĩ à¤¸à¤²
à¤ľ à¤Ń
... ]
à¤ª à¤£à¤ķ
Ġà¤ı à¤¯
Ġà¤Ĺà¤£ à¤¤
Ġà¤Ń à¤ĩà¤°
3 8
à °
à¤²à¤¨ à¤¸
ĠInter national
à¥Ģ "
à¤²à¤¬ à¤ľ
à¤ĩ à¤¡à¤®
à¤Ĺà¤¤ à¤¦
Ġà¤¦à¤¶à¤ķ à¤ħà¤ĺ
yp e
Ġp npkhabar
à¤°à¤®à¤£ à¤ªà¤Ľ
à¤ľ à¤¬à¤ķ
à¤ļ à¤Ĺ
à¤ĵ à¤²à¤®
lid er
à¥¯ à¥¨
à¤Ĺà¤® à¤ŀ
Ġà¤Ľ à¤¬
à¤ĸà¤ķ à¤¬
Ġà¥§à¥¯à¥¯ à¥ª
à¤ª m
à¤Ĳ à¤¨
ĠF M
Ġà¤Ĩà¤Ī à¤«
ri sh
C L
ateg or
à¥¯ à¥«
Ġà¥§à¥¨ à¥¨
ort s
She et
à¤ļ à¤°à¤²
Ġà¤¹ à¤Ļ
à¤¶ à¤ħà¤¨
ad ing
ĠPur b
Ġ ......
à¤°à¤¦ à¤®
à¤Ĺà¤¤ à¤²
l l
à¤¾ à¤¿
à¤¾ à¥ĩ,
à¤²à¤¨ à¤ª
à¤¯à¤£ à¤¹
Ġà¤ļà¤°à¤£ à¤¬
Ġ ra
al k
à¤ıà¤¸ à¤ı
à¤Ł à¤Ńà¤¨
Ġà¥§à¥¬ à¥¦
Ġà¤ıà¤¨à¤Ĩà¤°à¤ıà¤¨ à¤ıà¤ķ
Ġà¤ħà¤¹ à¤®à¤¦
à¤Ľ à¤²à¤«
ĠâĢ ĭ
Ġà¤ĵ à¤ķ
à¤²à¤ĸ à¤¬à¤°
Ġà¤Ĩ à¤ıà¤¸
à¥Į âĢĻ
à¤¯à¤° à¤¡
à¤µà¤°à¤£ à¤¹à¤°
Ġà¤ļ à¤¸
Ġà¤ĩ à¤Łà¤²
Ġà¤ħà¤µà¤¸ à¤°à¤²
ĠS am
à¤¨ à¤µà¤²
Ġà¥§à¥ª à¥¦
6 5
à¤¤ à¤«
Ġà¤¦à¤° à¤°
ay s
à¤ī à¤¡à¤°
à¤¯à¤Ł à¤¨à¤²
ar tha
Ġà¤¥ à¤®
à¤Ĩ à¤¦à¤°
à¤¦à¤¨ à¤ħà¤¨
à¤µà¤¸ à¤Ń
à¤¸à¤¨ à¤¸
à¤® à¤ªà¤¤
à¤ĩ à¤®à¤¨
à¤¶à¤¨ à¤¸à¤®
à¤ıà¤¸ à¤ĩ
Ġà¤ĭ à¤£à¤®
N ov
ĠT o
à¤ĩ à¤ķà¤®
à¤¯ à¤¬à¤¦
à¤ĩ à¤ıà¤²
3 7
à¤° à¤ĸà¤°
Ġ[ ...]
à¤¦ à¤¸à¤®
ĠPurb eli
à¤ıà¤ķ à¤Ľ
ĠS et
à¤²à¤¬ à¤¬
à¤Ł à¤¹
à¤§à¤¨ à¤ª
Ġà¤¨ à¤Ļ
à¤¶ à¤ªà¤Ľ
à¤Ŀ à¤²
Ġ201 4
Ġà¤ªà¤° à¤¶
Ġà¤Ĺà¤ł à¤¨à¤®
à¤ķà¤°à¤¬ à¤°
à¤¤ à¤²à¤¨
Ġà¤ıà¤ķ à¤¨
Ġà¥§à¥¦ à¥©
à¤¦à¤² à¤¹à¤°
à¤£ à¤ļà¤¨
Ġà¤« à¤¤
Ġà¥§à¥¦ à¥¨
âĢĿ âĢĵ
ĠA p
ĠAr ticle
à¥¨ à¥Ńà¥¨
à¥® à¥ª
Ġà¥¦ à¥Ńà¥§
à¤§ à¤Ńà¤¤
à¥Ģ âĢĶ
Ġà¤Ĩà¤® à¤¸à¤ŀ
ĠInter view
Ġà¥¨à¥¦ à¥©à¥¬
Ġth is
à¤¶ à¤¯à¤¯
. )
w a
à¤Ł à¤Ł
à¤ı à¤Ń
à¥¨à¥¦ à¥¨à¥¦
à¤® à¤µà¤°
Ġà¤Ĩà¤¶ à¤Ļ
à¥Įà¤Ĥ à¤Ĥ
à¤¹à¤Ļà¤ķ à¤Ļà¤®
Ġà¤ªà¤¸ à¤²à¤ķ
of ero
Ġà¥§à¥¯à¥¯ à¥¬
à¤Ĺà¤£ à¤®
à¤¥ à¤ķà¤²
Ġà¤ķà¤¦ à¤®à¤²
Ġà¤ıà¤« à¤ı
A S
âĢĻ -
à¤Ŀ à¤¬
Ġà¤ķà¤® à¤¸à¤²
ĠS an
à¤® à¤°à¤ķ
i ti
à¤ļ à¤ķà¤ķ
à¤ĸà¤ķ à¤¹à¤°
t d
Ġà¤° à¤¶
à¤¬ à¤¸à¤®
Ġ ne
Ġà¤¨à¤Ł à¤Ĩà¤īà¤Ł
ĠEconom ic
à¤°à¤µ à¤£
à¤²à¤Ĺ à¤ĩà¤¨
à¤¹ à¤¸à¤®
à¥¯ à¥ª
Ġà¤° à¤¡
Ġà¤ıà¤® à¤ı
Ġmul khabar
à¤§à¤¨ à¤ªà¤Ľ
Ġà¤¨à¤Ĩ à¤ıà¤ªà¤Ľ
à¥į, '
Ġà¤µ à¤®
Ġyear s
ĠB y
à¤¯à¤¤ à¤¸
à¤£à¤¯ à¤ħà¤¨
ap an
iter ature
Ġà¤¬à¤² à¤¤
à¤ľà¤Ĺ à¤¨
Ġà¤ªà¤Ł à¤ķà¤®
à¤§ à¤¶à¤¤à¤ķ
iv es
Ġà¥¯ à¥¦à¥¦
ĠD es
aschim nepal
à¤īà¤¨ à¤¸à¤®
Ġà¤¡ à¤¸
à¤Ĩà¤° à¤Ĩà¤Ī
Ġà¤Ĺà¤° à¤Ĺà¤¹à¤¨
à¤ľà¤¨à¤®à¤¤ à¤ª
v er
ĠL o
à¥Ģ !
Ġà¤Ń à¤¯à¤ķ
le d
à¥ĩ- âĢĺ
Ġcomment s
à¤¸à¤¦ à¤°à¤®
à¤Ļ à¤Łà¤¨
à¥¨à¥¦à¥¬ à¥®
Ġà¤ķ à¤°à¤®
à¤ıà¤ķ à¤ľà¤¨
f or
m edia
à¤® à¤®à¤¤
Ġà¤¨à¤Ĺ à¤ıà¤ķ
Ġà¤ī à¤«
d c
à¥Ī ..
Ġà¤Ĩà¤Ī à¤Ł
à¤¬ à¤¤à¤ķ
T M
Ġà¤°à¤¹ à¤²
à¤· à¤§à¤ķ
Ġ? ??
i ra
Ġà¤ĸ à¤ķ
Ġà¤¬à¤¢ à¤¦
à¤Ĺ à¤ŀ
Ġà¤Ĩ à¤¯à¤ķ
à¤ł à¤¶
à¤®à¤ķ à¤°à¤£
Ġà¤ı à¤¯à¤°à¤¬
U TC
à¤ĩ à¤¸à¤®
Ġy ou
à¤® à¤¦à¤°
Ġà¤¬ à¤ļà¤¨
à¤µà¤¨ à¤¦
Ġà¤¨à¤ª à¤¢
ĠN ational
al u
à¤¢ à¤ķ
à¤ªà¤² à¤Ł
à¤® à¤°à¤¤
Ġà¥§à¥® à¥¦
à¤¡à¤¯ à¤¨à¤®à¤¨
à¤¿ à¥ĩ
à¤ļ à¤¸à¤®
Ġà¤² à¤Ł
âĢĻ âĢĵ
à¥Įà¤Ĥ ?
201 6
L L
à¥ģ ;
à¤Ŀ à¤¸à¤®
in s
à¤Ľ à¤¸
Ġà¤ķà¤¥ à¤¨
à¤ĩ à¤²à¤²
Ġà¤Ĩà¤ł à¤µà¤Ł
à¤Ī à¤µ
4 3
Ġà¤ľ à¤µà¤°
Ġà¤¨ à¤«à¤°
à¤ĩ à¤Łà¤°
Ġà¤ªà¤Łà¤ķ à¤¥
B y
à¥ĩ ;
Ġà¥¨à¥¦à¥« à¥Ń
à¤Ī à¤¶
à¤Ĺà¤² à¤Ĺ
à¤ĺ à¤°à¤¬
s day
à¤ĸ à¤ª
Ġà¥¤âĢĻ âĢĻ
à¤·à¤¦ à¤¬
à¤§ à¤¶
à¤Łà¤® à¤®
ay akhabar
à¤¯à¤® à¤¨à¤ķ
Ġà¤ľà¤¨à¤® à¤¤à¤ķ
= =
Ġà¤Ĩ à¤¯à¤¸
Ġà¥§à¥¯à¥¯ à¥¯
ĠWik ipedia
à¤¸ à¤Ĺà¤¢
Ġà¤ĸ à¤¬à¤°à¤®
Ġà¤ªà¤° à¤¸
Ġà¤« à¤Ľ
à¥¯ à¥§
het ri
à¤ľ à¤«
à¥® à¥§
c k
à¤ĸ à¤²à¤¨
à¥Į âĢĿ
r ad
à¤¨ à¤¤à¤²
I D
à¤®à¤ļ à¤²
à¤²à¤¯ à¤¸à¤®
à¤¹à¤° à¤®
P ress
à¤Ļ à¤¸à¤®
Ġà¤®à¤¹ÅĴ à¤µà¤ª
Ġà¤ı à¤²à¤°
à¥įà¥¤ '
ĠMH z
à¤µà¤® à¤¹
Ġà¤ľà¤¨ à¤ħà¤ª
Ġà¤Ĩà¤¶ à¤¯à¤ķ
âĢĻ :
à¤°à¤¹ à¤¦
à¤¯à¤µ à¤¶
à¤Ľ à¤µ
à¤·à¤£ à¤ªà¤Ľ
à¤ĩà¤² à¤Łà¤ķ
Ġà¤ħà¤¨ à¤¸à¤¨à¤®
à¤¯ à¤Ĺà¤¤
à¤Ĺ à¤¨à¤²
à¤ĩ à¤ıà¤®
Ġà¤ıà¤ķ à¤ªà¤²
Ġà¤¯à¤¸ à¤¸à¤®
4 0
à¤Ĺ à¤µà¤£
Ġà¤ĸ à¤ļ
Ġà¤ħà¤µ à¤ľ
à¤ª à¤¯à¤ķ
/ -
Ġà¤¸ à¤¤à¤²
ĠO ct
S S
Ġà¤¤ à¤Łà¤¸
ou nt
à¥©à¥¦ à¥ª
ĠH ere
ur l
à¤ı à¤¨à¤ķ
Ġà¤ľà¤¨ à¤§à¤¨à¤ķ
à¤µà¤¸ à¤²
n c
à¤ı à¤Łà¤°à¤®
à¤²à¤¨ à¤¹à¤°
E X
Ġ he
Ġ \\
à¤Łà¤¨ à¤¹
5 6
r ou
Ġà¤Ķ à¤¸à¤¤à¤®
ĠG oogle
à¥į à¤Ĥ
à¤®à¤£ à¤²
2 00
ĠE mail
el l
Ġà¤° à¤Ļà¤ķ
Ġà¤ľà¤¨ à¤¸à¤Ń
à¤¬ à¤Ĺà¤°
ĠNews paper
Ġch hetri
à¤ķ à¤ļ
Ġà¤ĸ à¤Ĺà¤°
Ġà¤ħà¤¨ à¤ª
Ġà¤ľà¤Ĺ à¤¨
à¤īà¤ªà¤® à¤¹
à¤ĩ à¤®à¤°
Ġà¤ħà¤ªà¤¨ à¤¤
Ġà¤¨ à¤¥
à¤ĩ à¤ķà¤¨
Ġà¤® à¤¨à¤®à¤¨
à¤ļà¤¥ à¤°à¤®
7 7
Ġà¥¤ âĢĺ
à¤£à¤¯ à¤µ
Ġà¥§à¥© à¥¨
ĠL td
ser ofero
à¤ł à¤¸à¤¹
à¥įâĢ Ķ
Ġà¥¯à¥® à¥§à¥¬
à¤°à¤® à¤®à¤¨
Ġà¤ľà¤Ĺ à¤¤à¤ķ
A ugust
à¤ı à¤Īà¤¸
S uryakhabar
Ġà¤² à¤¯à¤®
Ġà¤¸à¤¤ à¤¹à¤¬
ĠM ero
+ ''
J ul
Ġ201 0
+'' +
Ġà¤µ à¤¹à¤¨
à¤Īà¤ķ à¤¨
à¤¾à¤ģ âĢĻ
à¤ŀ à¤®
Ġà¤¡à¤Ł à¤ķà¤®à¤ķ
ĠArch ives
à¤ľà¤¤ à¤ªà¤¤
à¤¤ à¤²à¤®
à¤¬à¤°à¤® à¤¹à¤²
à¤µ à¤Łà¤ķ
Ġà¤ħà¤¬ à¤§
à¤¶ à¤ľ
à¥¨à¥¦à¥¬ à¥¯
K athmandu
o b
Ġà¥©à¥« à¥¦
à¤°à¤¬ à¤ķ
in k
ĠJ AN
à¤ķ à¤Ĺà¤£
à¤¢ à¤²
Ġà¥§à¥© à¥¦
Ġà¤¸à¤¹à¤¨ à¤¶
Ġ? '
m es
Â ´
à¥Į ?
à¤°à¤µ à¤¹
I NE
à¤¦ à¤ķà¤ª
à¤ĸ à¤°à¤µ
m s
Ġà¤ħà¤¨ à¤Ń
Ġà¤ľ à¤¯à¤°
ab le
Ġà¤Ń à¤Ļ
à¤ļ à¤µà¤°
ĠF or
Ġ Ġ
Ġà¤ıà¤ķ à¤Ĩà¤ªà¤¸à¤®
Ġà¤§ à¤¡
à¤¤à¤° à¤Ļ
à¥§à¥§ à¥§
anc e
Ġà¤ħ à¤Łà¤²
à¥Į âĢĵ
o h
à¤° à¤Ł
Ġà¤¸à¤¹ à¤®à¤¹
à¤Ŀ à¤Ĺà¤¡
Ġà¤Ĩà¤ľ à¤Ńà¤¨
à¤¯à¤¦ à¤²à¤®
ill a
Ġ am
Ġà¤ħà¤¨ à¤Ĺ
à¤¯à¤¸ à¤ŀ
à¥Ģ [
à¤§ à¤ķà¤ķ
A r
à¤¸ à¤¨à¤®à¤¨
ne l
is s
ĠS ub
à¤°à¤¤ à¤µ
Ġà¤¬ à¤¬à¤Ī
à¤ħ à¤£
Ġà¤¦ à¤¹à¤¨
à¤® à¤¬à¤²
à¤Ł à¤ªà¤Łà¤ķ
Ġ 00
Ġà¤µ à¤¹à¤¸
Ġà¤Ľ à¤Ł
à¤ŀ à¤°
à¥§à¥¯ à¥¦à¥¦
à¥® à¥¨
Ġà¤¸à¤¹à¤° à¤¹à¤°
a v
Ġà¤¹à¤² à¤ļà¤²
à¤®à¤² à¤Ł
Ġà¤Ńà¤¯ à¤°à¤¹
à¥ģà¥¤ âĢĿ
ĠY ou
à¤¸à¤¡ à¤ķà¤®
us nepal
-- --
C T
à¤ªà¤¨ à¤¬
Ġà¥§à¥¦ à¥¯
Ġà¤Ŀ à¤ķ
Ġà¤ħà¤¨ à¤¶à¤¨à¤ķ
Ġà¤Ĩà¤Ī à¤¡à¤²
Ġs p
Ġà¤¨à¤Ĩ à¤ı
Ġà¤« à¤°à¤µ
F F
à¤¸ à¤°à¤¹
à¤ľ à¤¤à¤²
à¥Īà¤ģ ,
à¤Ĩà¤« à¤¨
Ġà¤Ĩà¤¦ à¤°à¤£
Ġà¤¸ à¤µà¤²
à¤¦ à¤ķà¤°
4 7
p ati
op e
U R
Ġà¤ı à¤Ĩà¤ĩà¤ľ
à¤°à¤¤à¤ķ à¤¥
n al
8 6
à¤ķ à¤¢
à¤īà¤¨ à¤¬
) -
à¤ķ à¤Ļ
à¤ī à¤¦à¤²
Ġà¤ı à¤¤
ĠDevelop ed
b al
Ġ r
Ġà¤ĩ à¤«
à¥ĩ) ,
à¤Ł à¤ħà¤ª
Ġà¤ħà¤¬ à¤¸à¤°
Ġà¤ ¿
à¤° à¤¨à¤®
à¤ķ à¤Łà¤¨
ĠOff ice
à¤¤ à¤¤à¤°
à¤īà¤¨ à¤¸à¤ķ
ĠW ith
Ġà¤Ĩà¤ĩ à¤°à¤¨
, âĢĺ
à¤Ł à¤ķà¤²
à¤Łà¤¬à¤² à¤°
à¤ıà¤ķ à¤²
à¤Ĺà¤® à¤¸
ub lish
à¤ĩ à¤£
Ġà¤ı à¤²à¤ª
à¤ķà¤°à¤£ à¤¸
à¤ģ -
oo d
à¤° Tags
Ġà¤Ńà¤ı à¤¸à¤®
ĠA m
ĠE nepal
5 5
à¤¿ ..
Ġà¤ª à¤Ļ
à¤¦ à¤¯à¤ķ
à¤¦ à¤®à¤¨
à¤¨à¤² à¤¬
ama char
à¥Ī à¥į
rish na
ĠA LL
à¤·à¤ķ à¤¬
à¤ķ à¤Ńà¤¨
à¤®à¤Ĺ à¤°à¤ķ
Ġ201 1
Ġà¥ªà¥¯ à¥§à¥¦
ent er
à¤ ½
à¤Ĩ à¤ĩà¤¡
Ġ0 6
Ġà¥ªà¥ª à¥¨à¥Ńà¥¨
Ġà¥ªà¥ª à¥©à¥¦à¥ª
Ġà¥ªà¥ªà¥¨à¥Ńà¥¨ à¥§à¥ª
Ġà¥ªà¥ªà¥©à¥¦à¥ª à¥¨à¥¨
à¤²à¤Ĺ à¤¹à¤°
OS T
à¤®à¤¨ à¤°
ĠH ead
s e
à¤¯ à¤ĸà¤¬à¤°
Ġà¤¦à¤¶à¤ķ à¤Ńà¤¨
Ġà¤¨ à¤Ŀ
Ġà¤¤ à¤ķ
ĠK ong
à¤ĭ à¤·
à¤® à¤¤à¤°
en ce
à¤ª à¤ľ
à¤¯à¤® à¤§
Ġà¤¤à¤° à¤Ļ
Ġà¥¯à¥®à¥ª à¥§à¥¦à¥®
à¥į à¤ģ
à¤ķ à¤Ľ
à¤ķ à¤°à¤¦
l ic
à¤² à¤°à¤¹
Ġà¤Ĩà¤® à¤ľà¤¨à¤¤
Ġà¥¯à¥®à¥ªà¥§à¥¦à¥® à¥§à¥¯à¥¦à¥¦
W ER
t ter
à¤¸ à¤ĸ
à¤¸ à¤°à¤£
à¥Ī :
à¤Ķà¤·à¤§ à¤¸à¤¹
à¤¬ à¤Ļ
à¤°à¤ķ à¤¹à¤°
Ġà¤ı à¤ªà¤®
à¤ļ à¤Ļ
Ġà¤¸à¤®à¤¯ à¤Ńà¤¨
à¤¤à¤² à¤Ĺ
an nel
Ġà¤ķà¤¦ à¤®à¤ķ
ha pa
end ra
Ġà¤Ĩà¤ı à¤¨à¤¨
Ġà¤Ľà¤²à¤« à¤²à¤²
hoto s
Ġà¤¬ à¤Ĺà¤°
ĠArtha ko
ĠArthako artha
à¤ıà¤¨ à¤Ĩà¤Īà¤¸
à¤¦ à¤¦à¤°
à¤Ń à¤¹à¤°
t a
ĠH ong
à¤µ à¤¤à¤°
à¥Įà¤Ĥ /
à¤¬ à¤®à¤®
à¤Ī à¤¨à¤®
à¤ķà¤° à¤ª
as e
A usnepal
à¤Ĥ à¤ĥ
à¤ĩà¤² à¤Łà¤²
H A
ĠâĢĵ âĢĺ
ĠP M
à¤¡ à¤Ĺ
à¤ĵ à¤ıà¤®
ĠF S
Ä ģ
à ®
à¤§ à¤ľà¤¨
Ġà¤¨à¤Ĺà¤° à¤ªà¤°
à¤Łà¤¨à¤Ĺà¤° à¤¸
Ġà¤² à¤ł
à¥Ĥ à¥Ĥ
à¤²à¤® à¤£
w n
à¤¸ à¤ļà¤¨
à¥Įà¤ģ :
ĠF OR
lin es
Ġà¤ħà¤¸ à¤ľ
à¤µà¤ķ à¤¤
al th
Ġà¤ľà¤Ĺ à¤¦à¤®
à¤¾ Â¥
à¤ıà¤¸ à¤¨à¤²
Ġà¤Ń à¤Īà¤¨
à¤¡ à¤°à¤ª
à¤Ĩ à¤°à¤¸
Ġà¥§à¥§ à¥Ń
à¤Ĥ. :
Ġ201 3
ĠS lider
à¤¸à¤¨à¤² à¤²
Ġà¤Ĩ à¤ĺ
à¤µà¤°à¤£ à¤®à¤¨
Ġà¤¬ à¤®à¤ķ
Ġà¤Ĺà¤¹ à¤¤à¤°
Ġà¥§à¥¯à¥¯ à¥©
à¤²à¤ķ à¤¸à¤¹
à¤ħ à¤µà¤§
ĠP ra
ead ing
à¤Łà¤® à¤§
5 0
Ġà¤¯à¤¸à¤® à¤§
à¤¾à¤ģ -
w are
Ġ ðŁ
à¤² à¤Ĺà¤ķ
à¤®à¤ķ à¤¹
à¤ı à¤£
à¤Ī à¤¬à¤°
à¤¤à¤ľà¤¨ à¤¹à¤°
âĢ¦ ..
ĠVie w
ĠH K
Ġà¤¦à¤¶à¤ķ à¤ªà¤Ľ
Ġà¥§à¥¯à¥® à¥¯
à¤£ à¤¦
à¤¤à¤° à¤¸
à¤ķà¤¨ à¤Ĺà¤°
N L
à¤£ à¤ªà¤¨
w an
à¥ģ [
à¤¶ à¤¸à¤®
à¤ı à¤Ľà¤¨
à¤°à¤® à¤ª
à¤¶ à¤¸à¤¹
à¤ĩ à¤«à¤²
Ġà¤°à¤¹ à¤ķ
à¤µà¤°à¤£ à¤ħà¤¨
m i
à¤ī à¤ľà¤°
ĠM a
à¤¬ à¤®à¤ķ
à¤Ļ à¤ª
à¤®à¤ķ à¤¤
à¤¬à¤° à¤¸à¤®
Ġà¤ħà¤®à¤° à¤Ĺà¤¢
à¤° à¤Ļà¤²
Ġà¥§à¥¯à¥® à¥¦
à¥¤ âĢĵ
à¤¬ à¤ĸà¤¤
Ġà¤ħ à¤¥à¤ķ
Ġà¤¶ à¤¯
à¤°à¤ľ à¤¹
Ġà¤¦ à¤ĸ
Ġà¥¤ (
Ġà¤¸à¤¬ à¤¸
Ġà¤¨à¤Ĺà¤° à¤²
à¥¨à¥¦ à¥§à¥¬
à¥Ģ _
à¥« à¥¦à¥¦
à¤®à¤¤ à¤¬
ĠY es
à¤® à¤²à¤²
à¤¯à¤® à¤£
à¤Ķ à¤¦
à¥§à¥¨ à¥©
à¥ĭà¥¤ "
à¤¶à¤Ń à¤°à¤¬
ĠSama char
Ġà¤¸ à¤¯à¤²
à¥¦à¥¬ à¥©
à¥¬à¥¯ à¥¯
Ġà¤¶ à¤¸à¤¸
à¤° à¤Ľ
à¤¶ à¤°à¤¦
J une
ĠO m
Ġà¤¦ à¤®à¤¦
Ġà¤¸à¤¹ à¤ľà¤°
à¤Ĩ à¤°à¤ª
Ġà¤µà¤¨ à¤Ń
à¤¸ à¤°à¤¤
Ġà¤¤ à¤µà¤°à¤¬
âĢĵ âĢĺ
Ġà¤ħà¤² à¤°
P OST
à¤Ĩ à¤Īà¤ķ
Ġà¤¨ à¤¸à¤®
à¤ĺ à¤¨à¤ķ
Ġà¥¦à¥¬ à¥¨
Ġà¥¨à¥¨ à¥«
à¤ĩà¤¡ à¤°
à¤°à¤¸à¤® à¤ķ
y outube
à¤§ à¤¸à¤®
à¥įâĢĵ âĢĺ
à¤Ĺ à¤§à¤¨
Ġad min
à¤® à¤Ńà¤¨
ublish ed
à¤¨ à¤µà¤ķ
Ġ? "
ou ght
Ġà¤¯ à¤®à¤¨
Ġà¤¸ à¤°à¤¦
m ore
Ġà¥¯à¥® à¥¦
Ġà¤¸à¤®à¤¯ à¤¯à¤¤
Ġà¤ªà¤¢ à¤¨
M A
à¤° à¤¶à¤¨
Ġà¥§à¥¨ à¥®
à¤¸ à¤ľà¤¸
Ġà¤ĺ à¤°à¤µ
r it
ĠHK Nepal
à¤ľà¤¯ à¤ª
à¤Ń à¤²à¤®
Ġà¥§à¥¯à¥¯ à¥¨
Ġà¤ª à¤Łà¤¨
Ġà¤ĩ à¤Ļà¤²
à¤°à¤Ń à¤ķ
à¤ıà¤¸ à¤Īà¤Ī
Ġà¤¤à¤¹à¤® à¤§
lo bal
Ġà¤° à¤¨à¤µ
ed ian
à¤ı à¤¸à¤²
Ġà¥§à¥¦ à¥¬
Ġà¤µ à¤¨à¤²
ĠSet opati
Ġà¤¨ à¤µà¤¯
à¤ħ à¤¸à¤²
ĠF e
à¤® à¤Ľ
Ġà¥¨à¥¦ à¥¨à¥§
Ġà¤Ĩà¤ł à¤ľà¤¨
ĠPO WER
Ġà¤ĸ à¤µ
à¤°à¤¤ à¤¤
Ġà¤¸ à¤µà¤¸
à¤¦ à¤¯à¤®
US IVE
h one
Ġarticle à¤ª
ĠMo vie
à¤¤à¤¨ à¤¶
à¤¾à¥ĩ à¥¤
and a
ĠPolitic s
Ġà¥« à¥Ńà¥¦
CL USIVE
âĢĺ âĢĺ
ap ur
edian p
Ġà¤Ĩ à¤Ĭ
à¤·à¤£ à¤¸à¤®
à¤¯à¤¸à¤² à¤Ĺà¤¤
Ġà¤Ľ à¤¤à¤®
à¤ĩà¤¡ à¤¬à¤¡
ĠIn d
Ġn ame
V ide
à¤ĸ à¤ľ
Ġà¤¶ à¤µà¤²
à¤ıà¤¸ à¤ıà¤²
à¤ī à¤Ń
Ġà¤¨ à¤µà¤®
Ġà¤ķà¤²à¤ķ à¤¤
à¤µ à¤ħà¤¨
Ġà¥ªà¥¨ à¥¬à¥¯à¥¯
à¤¼ à¤¾
Ġà¥ªà¥¨à¥¬à¥¯à¥¯ à¥ªà¥§
Ġà¤µ à¤¯
à¤ļ à¤°à¤¸à¤¹
Ġà¤¹à¤Ļà¤ķà¤Ļ à¤¸
oc ial
à¤¸ à¤Ńà¤¨
à¤² à¤¥
Ġà¥§à¥¦ à¥Ń
à¤¯à¤ª à¤¦
à¥¨à¥¬ à¥¦à¥¬
ĠYes Kathmandu
Ġà¥§à¥¨ à¥¬
ateg ory
à¥į âĢĿ,
à¤²à¤¡ à¤®à¤¨
à¤¯à¤² à¤¯à¤®
Ġs a
Ġà¥§à¥¯à¥¯ à¥«
Ġà¤ªà¤¸à¤² à¤¬
ank ing
à¤¯à¤µ à¤§
ĠL eading
ham ro
Ġà¤ıà¤¯ à¤°à¤µ
Ġà¤ħà¤ª à¤¹
Ġà¤Ī à¤°
Ġà¤¹à¤² à¤¹à¤°
3 2
Ġà¤Ĺ à¤Ĺà¤¨à¤ķ
us ic
Ġà¤¶à¤°à¤¦ à¤ķ
à¤¯à¤£ à¤Ĺ
Ġà¤Ĭ à¤¸
Ġà¤ıà¤ļ à¤¡
à¤°à¤Ń à¤°à¤ķ
à¤¨à¤µ à¤ľ
k a
à¥Ī à¤ĥ
dc nepal
c tion
à¥Ģ ;
at ch
à¤¤ à¤¸à¤°
Ġà¤ı à¤¥à¤²
Ġm e
aw al
D ec
Ġà¤® à¤¯
Ġà¤ıà¤® à¤¸
Ġth ought
à¤¯à¤¸ à¤¦
Ġà¤¹ à¤«
à¤ĩà¤° à¤¸à¤ķ
201 5
ok a
à¤ľà¤Ĺà¤¢ à¤®
Ġà¥¦à¥¬ à¥ª
à¥ģ (
à¤¶ à¤µà¤ķ
à¤Ī à¤ªà¤ķ
à¥Į -
ĠP ro
Ġà¤¦ à¤¸à¤®
ĠC ha
Ġà¤ħà¤¸à¤® à¤°
à¤¤ à¤Ĺà¤°
Ġà¤Ń à¤·
Ġà¥§à¥§ à¥«
à¤Ĺà¤² à¤¤
Ġà¤ıà¤ķ à¤¥à¤°
Ġà¥¨à¥¦ à¥©à¥ª
ĠS un
Ġà¤ªà¤¹à¤²à¤ķ à¤¦à¤®
à¤¯à¤² à¤¯à¤ķ
ĠNama h
Ġ à¥ģ
Ġà¤¨ à¤ľà¤¨
S t
Ġà¥§à¥¯à¥¯ à¥§
à¤ķ à¤¦à¤°
Ġà¤ħà¤° à¤µ
à¤Ĩ à¤Īà¤²
Ġà¤Ńà¤ı à¤¯à¤¤
à¤Ń à¤ŀ
Ġà¤« à¤¹à¤°
ahity a
Ġà¤Ĺ à¤§
à¤¾à¤ģ ...
à¥Įà¤ģ âĢĿ,
à¥ĭ (
à¤Ł à¤Ńà¤Ł
Ġà¤Ĩ à¤¯à¤®
âĢ¦ âĢĻ
C I
Ġà¤¯à¤¸ à¤Ńà¤¨
à¤ıà¤¸ à¤Ł
it or
Ġà¤ħà¤ĸ à¤¡
Ġà¤¸à¤¤à¤² à¤ľ
à¤¤ à¤ľà¤¸
à¤§ à¤ķà¤²
à¤Ń à¤§
ĠW ebs
Ġà¤ª à¤°à¤ķà¤®
à¥® à¥¬
6 7
à¤¨à¤¬ à¤¤
c ri
à¤īà¤¦ à¤¯
Ġà¤Ńà¤ı à¤ħà¤¨
à¤®à¤¤ à¤¸à¤®
ĠS a
à¥į ]
Ġà¤ıà¤® à¤¡
à¤²à¤¬ à¤¹à¤°
à¤¨ à¤ļà¤°
ĠA ug
p or
à¤¡ à¤²à¤Ĺ
à¤¡ à¤¸à¤¹
à¤ĩ à¤¡à¤²
à¤Ń à¤²à¤ķ
à¥¤ [
à¤¬à¤¹ à¤¸
at ed
EX CLUSIVE
à¤²à¤¨ à¤¸à¤®
Ġà¤ıà¤ķ à¤®à¤¤
à¤® à¤§à¤¨
Ġà¤§ à¤¨à¤²
ĠK athmandu
Ġw ee
à¤ī à¤ªà¤ķ
at a
à¤Ĺ à¤Ļ
à¥Ģ !!!
à¤Ī à¤Īà¤ķ
à¤¦à¤¨ à¤¬
à¥ģ à¤¾
Ġà¤ī à¤¸à¤®
Ġà¥« à¥¨à¥Ń
à¤¨à¤ª à¤Łà¤ķ
ti s
à¤¤à¤¨ à¤¸
à¤· à¤¶
à¤°à¤® à¤¸à¤®
Ġà¤ħà¤¨ à¤§
à¤°à¤¹ à¤¬
Ġà¤ķà¤¹ à¤²
Ġà¥§à¥ª à¥¯
à¤Ľà¤²à¤« à¤²à¤®
à¤Łà¤¨à¤Ĺà¤° à¤¬
Ġà¤ıà¤¡ à¤Ń
Ġà¤Ĩà¤Ĺà¤®à¤¨ à¤¸
Ġ201 2
ĠG os
à¤ĸ à¤°à¤ķ
à¤ĵ à¤¹
à¤¬ à¤¨à¤ķ
rest ha
à¤¬ à¤¸à¤¨
à¤ĸ à¤¸à¤¹
Ġà¤Ńà¤ĩà¤¨ à¤¸à¤ķ
à¤¡ à¤°à¤¹à¤°
Ġe Ad
ĠeAd arsha
e y
Ġarticle à¤¨
ĠHead lines
ĠEnepal ese
à¥ģ âĢĶ
Ġà¤ĺà¤° à¤ª
Ġ us
à¤· à¤°à¤®
à¤®à¤¤ à¤®
à¥¨à¥¦ à¥§à¥¯
l us
à¤¯à¤¯à¤¨ à¤¹à¤°
Ġà¤¬ à¤²à¤¬à¤¹
à¤¤à¤° à¤Ĺà¤¤à¤ķ
Ġà¤Ĩà¤² à¤Ł
ĠPost ed
Ġà¤ķ à¤Łà¤µ
Ġà¤Ĩà¤ī à¤ľ
à¥§à¥© à¥¯
Ġà¤¤ à¤®à¤²
à¤Ńà¤µ à¤¹à¤°
Ġà¥§à¥¯à¥® à¥¬
Ġà¤ħ à¤µà¤®
à¤Ń à¤ıà¤Ľ
à¥Įà¤Ĥ âĢĶ
Ġ' '
à¤ħ à¤¨à¤¨
à¤ĥ âĢĵ
à¤¸à¤¡à¤ķ à¤ķ
Ġà¤¦ à¤Ļ
Ġ as
Ġà¤ķà¤® à¤²à¤°
à¤µà¤¤ à¤¯
ĠGos sip
à¥Įà¤ģ à¥¤âĢĻ
AM AT
à¤ıà¤¸ à¤ıà¤²à¤¸
ĠJAN AMAT
ĠJANAMAT POST
à¤¨à¤² à¤¹à¤°
Ġà¥¨à¥¦ à¥¨à¥®
Ġà¤Ĩà¤µ à¤°à¤£à¤®
à¤ĩà¤¨ à¤¹à¤°
à¥Ģ &
à¤£ à¤¸à¤Ń
ic ode
à¤®à¤¯ à¤¦à¤°
ĠDes ign
Ġà¥§à¥§ à¥ª
à¤ķ à¤·
Ġà¤® à¤·
à¤²à¤® à¤²
Ġà¤Ī à¤ľ
E E
N T
Ġà¤ªà¤° à¤µ
à¤§ à¤ķà¤°
j a
Ġà¤ľ à¤²à¤¬
à¤ī à¤¹à¤°
ĠFS X
à¥į à¥Ģ
à¤¯à¤¯à¤¨ à¤¬
ĠK hel
c i
Ġà¤ķ à¤¶
à¤£ à¤§
Ġà¥¨à¥¯ à¥©
201 4
Ġà¤¦à¤¸à¤® à¤²à¤µ
à¤° à¤¡à¤ķ
à¤® à¤¹à¤¨
à¤ª à¤ħà¤¨
Ġà¤Ľà¤²à¤« à¤²à¤¬
à¤ľà¤¬à¤° à¤ľà¤¸
Ġ an
Ġà¥§à¥¯ à¥Ńà¥¦
Ġà¥¨à¥¦à¥ª à¥«
à¥ĩ "
à¥ģ !
à¥« à¥¨à¥¦à¥¦
ha s
Ġà¥ªà¥§à¥¦ à¥¨à¥¬à¥¦à¥¬
p ress
à¤· à¤Ĺ
à¤¹ à¤¸à¤ļ
Ġà¤ĺ à¤®
Ġà¤Ł à¤Ł
Ġà¤¶à¤ªà¤¥ à¤Ĺ
Ġà¤ħ à¤ķà¤²
Ġà¤® à¤Ľ
Ġà¥¨à¥¦à¥Ń à¥¬
à¤²à¤ķ à¤¥
Ġe x
à¤ķ à¤£
à¤ļ à¤°à¤®
Ġà¤Ĩà¤ĩ à¤¡à¤²à¤®
ĠJ apan
à¥ĭ? âĢĻ
à¤¨à¤¨ à¤°à¤¸
ĠSt ate
ĠTh ings
à¤£ à¤¤à¤°
ac e
H E
v t
à¥į à¥Ĥ
à¤® à¤Ł
âĢ¦ )
à¤ª à¤°à¤¤
Ġà¥§à¥¯ à¥¬à¥¦
à¤®à¤¸ à¤Ļ
ĠR aj
âĢ¦âĢ¦ âĢ¦âĢ¦
Ġhe re
o ws
5 9
à¥Ī /
à¤¤ à¤Ńà¤¨
à¤¸ à¤¤à¤°
Ġà¤Ĩà¤ĩ à¤®
à¤ħ à¤¯
Ġà¤ļà¤°à¤£ à¤ħà¤¨
à¤¡ à¤ķà¤²
ĠA P
ĠN ay
à¤ħ à¤ŀ
Ġà¤§ à¤ª
Ġà¤¸à¤° à¤ª
à¤¸à¤¨ à¤²à¤ķ
Ġà¤Ĩà¤īà¤¨ à¤¸à¤ķ
à¤ıà¤¨ à¤ıà¤¸
ti v
Ġà¤Ĩà¤Ī à¤¡
à¥ģà¥¤ '
à¤Ĺ à¤«à¤²
à¥§à¥§ à¥¨à¥¦
à¤ķà¤Ń à¤°à¤ķ
à¤Ļ à¤ĸà¤²
à¤¡à¤² à¤¹à¤°
à¤¹ à¤®à¤¦
à¤¦ à¤°à¤¹à¤°
à¤ĩ à¤ľà¤¨
âĢį .
M ay
Ġà¤® à¤¬
à¤µà¤¨ à¤°à¤ķ
Ġà¤¨à¤Ĺà¤° à¤¬
à¤¨ à¤ĵà¤Ł
I ON
g ed
à¤ĩà¤¬ à¤²à¤ķ
à¤¿ (
à¤£ à¤ªà¤Ľ
Ġà¤Ńà¤µà¤¨ à¤¬
__ _
) ;
à¤Ĺ à¤ıà¤°
Ġ- --
à¤® à¤ªà¤Ľ
Ġb et
à¤¶ à¤Ļ
à¤£ à¤ªà¤ķ
à¤ł à¤¬
Ġà¤«à¤°à¤ķ à¤«à¤°à¤ķ
Ġà¤®à¤¹ à¤¤à¤ķ
à¤ħ à¤«à¤®
à¥¯ à¥Ń
in t
ĠM on
à¤Ī à¤Ńà¤¨
à¤ĸ à¤¬à¤°à¤ķ
Ġà¤¶ à¤¸à¤ķ
à¥ģà¤ģ âĢĻ
à¤ľà¤² à¤¸
ĠS er
Ġà¤Ľà¤° à¤Ľ
Ġà¤ľà¤¯à¤¨ à¤Ĺà¤°
à¤ĵ à¤¨
ĠS awal
à¥«à¥¨à¥¦à¥¦ à¥§à¥¬
r of
à¤µ à¤¯à¤²
m p
à¤ĵ à¤¯
Ġà¥¯à¥® à¥§à¥¦
6 8
à¤ª à¤ļà¤¨
à¤¯à¤® à¤¤
Ġà¤ĸà¤¬à¤° à¤ªà¤¤
] [
à¤Ĩ à¤¨à¤¨
Ġ0 9
NE PAL
Ġà¤Ķ à¤¸
ĠP aper
um ar
nepal i
Ġ hamro
à¤ı à¤¯à¤°
Ġà¤ķà¤ł à¤ĺà¤°
a u
à¤¡ à¤®à¤ķ
à¤ļ à¤ķà¤®
à¥® à¥Ń
Ġà¤ıà¤¸ à¤ıà¤¸à¤¬
à¤¯à¤¯à¤¨ à¤ħà¤¨
Ġ 01
à¤¯ à¤°à¤¸
ind ows
al i
à¥«à¥Ń à¥§à¥§à¥¨à¥¦
à¤¶ à¤¬à¤¹
à¤¡ à¤¨à¤¸
Ġà¤¶ à¤µà¤ķ
ĠP ati
à¤Łà¤¬ à¤²à¤²
0 74
Y es
r op
à¤¯à¤® à¤µ
ick et
iv ers
à¤° à¤ªà¤°
à¤ł à¤¨à¤®
ti ve
en er
ĠD aily
à¥ Ĳ
à¤ľ à¤ªà¤°
? '
à¤¦ à¤²à¤®
5 8
an ch
ĠP vt
ĠN ature
à¤¹à¤°à¤£ à¤¹à¤°
Ġà¤ĵà¤Ń à¤°à¤¸
à¥ĭ .....
à¤¯à¤® à¤ħà¤¨
à¥¨à¥¦à¥¬ à¥¨
Ġà¥¤ -
à¤ħ à¤®à¤°
Ġà¤Ĩà¤ĩ à¤ıà¤¨à¤ľ
à¤Ĺà¤£ à¤¤
Ġà¤®à¤¤ à¤¸à¤¹
Ġà¤īà¤ªà¤ķà¤°à¤£ à¤®
Ġà¤® à¤ł
ol m
M arch
Ġà¤ļ à¤¶
à¤²à¤¯ à¤Ń
à¤Ł à¤ĸ
à¥¨à¥¦à¥¬ à¥ª
Ġà¤¸à¤® à¤Ŀ
à¤°à¤¦ à¤¤
Ġà¤ĩ à¤¥
à¤§à¤¨ à¤µ
Ġà¤Ī à¤¯
C E
à¤ķ à¤ķà¤®
à¤ı à¤Ŀ
à¤Ķ à¤·à¤§à¤ķ
à¤ķ à¤¸à¤Ń
à¥Ģ Ã·
à¤ªà¤¦ à¤¸
Ġà¤¹ à¤¸à¤¨
à¤Ī à¤Ĺ
à¤Ļ à¤°
Ġà¤Ĩà¤µ à¤¤
Ġp hotos
à¤ģ à¤ģ
à¤Łà¤° à¤Ńà¤¨
Ġà¤¹à¤ķ à¤¦
Ġà¤°à¤Ĺà¤¤ à¤²
à¥¨à¥¦à¥¬ à¥©
Ġà¤ĸ à¤¹à¤°
ĠL ive
à¤Ĩà¤ĩ à¤ıà¤®à¤Ī
Ġà¤ĺ à¤ļ
à¤¹à¤² à¤¤
ĠJ un
à¤¸à¤«à¤² à¤¤
à¤· à¤°à¤ķ
à¥¨à¥¦à¥¬ à¥¬
Ġà¤¦à¤¶à¤°à¤¥ à¤ļà¤¨
à¤°à¤ķ à¤°à¤£à¤²
à¤¸à¤ķ à¤¸
à¤ħ à¤ļà¤®
à¤ª à¤¦à¤®
à¥ª à¥¨à¥ª
ĠS ajha
Ġà¤® à¤ķà¤°
à¤ľà¤¨ à¤°
à¤°à¤µ à¤¤
tic e
à¥ĥ à¥ĥ
Ġà¥§à¥© à¥¬
à¤¯à¤£ à¤®
at hi
Ġà¤ķà¤¬ à¤¡
Ġà¤¦à¤®à¤ķ à¤ķ
Ġà¤ľà¤¯ à¤¬à¤¹
à¤ľà¤¨ à¤¹à¤°
Ġà¤ıà¤¨à¤Ĩà¤°à¤ı à¤¨à¤²
à¤¦ à¤¤à¤²
Ġà¤ĵ à¤¶
ĠM edianp
Ġà¤¹à¤ķ à¤¸à¤®
à¤° à¤ľà¤²
à¤µ à¤ħà¤°
Ġà¤¨ à¤°à¤¹à¤°
Ġà¤ħ à¤®à¤¨
k ud
à¤ķ à¤ħ
à¤ĵ à¤Ńà¤°
in ks
ĠR oka
ategor ies
rou p
à¤®à¤² à¤Ĺ
adh esh
à¥¨à¥¦à¥¨à¥¦ à¥¨à¥©
Ġà¥¯à¥®à¥§à¥¦ à¥¨à¥¦à¥¨à¥¦à¥¨à¥©
M AN
à¤µ à¤ķà¤®
à¤« à¤Ł
Ġà¤§ à¤µà¤²
à¥« à¥¨à¥«
à¤ķà¤² à¤¸
uc ation
Ġà¤Ĭ à¤¹
Ġà¤ıà¤¸à¤ĩ à¤Ī
9 8
à¥ģ "
Ġà¤ĩ à¤¡
Ġà¤Ĳ à¤²
A n
N ayakhabar
Ġà¤ľ à¤ķ
res ham
à¤¤ à¤ľà¤¨à¤²
ur re
Ġà¤ľà¤¨ à¤¸à¤¹à¤Ń
l alu
à¤¤à¤° à¤¨
Yes in
t s
à¤·à¤® à¤£
ur ope
à¤ıà¤ķ à¤¦à¤®
à¤¶à¤¨ à¤°
à¤Ńà¤µ à¤¬
Ġ de
Ġà¤ķà¤Ł à¤¹à¤°
. ,
à¤¨ à¤µà¤®
à¤ĩ à¤¬à¤¹
à¤ģâĢĻ -
B BC
à¤Ĺ à¤ľà¤ķ
ï ĥ
Ġà¤Ľ à¤¤à¤¬
à¤²à¤® à¤§
ri s
Ġ0 7
Ġà¤ļà¤²à¤¨ à¤ļà¤²
à¥¬ à¥¦à¥¦
b h
Ġà¤¬ à¤ª
à¤ĺ à¤ļ
à¤·à¤¯ à¤¬à¤¸
ud io
à¤ķ à¤¨à¤²
Ġà¤¤à¤¹ à¤¸à¤¨
à¤ĩà¤¬ à¤²à¤²
Ġà¤°à¤¹ à¤¯
à¤Ĩ à¤°à¤²
b y
à¤°à¤£ à¤¸
à¥¨à¥¦ à¥§à¥«
à¤® à¤¹à¤ķ
Ġà¤Ĩà¤ĩ à¤¹
Ġà¤ķà¤¦à¤® à¤¹à¤°
à¤Ļ à¤ļ
Ġ? (
b in
à¤¯ à¤¯à¤ķ
à¥«à¥¯ à¥ªà¥§
à¤ªà¤° à¤Ń
à¤ıà¤¨ à¤Ĩà¤°à¤ı
Ġà¥«à¥Ńà¥¦ à¥«à¥¯à¥ªà¥§
Ġà¤ħ à¤ļà¤²
Ġà¤¹ à¤ķà¤²
Ġà¤Ĩ à¤°à¤¤
Ġà¤ı à¤¸à¤¬
à¤¾à¤ģ à¤ģ
ĠR es
Ġà¥ªà¥« à¥¦
à¥Ń à¥¦à¥¦
à¤¯à¤£ à¤²
à¤¶à¤¨ à¤¸
Ġà¤Ńà¤µ à¤¨à¤²
Ġà¤¨ à¤ĺà¤Ł
à¤¤à¤¨ à¤ªà¤Ľ
al e
har ma
â ģ
Ġà¤Ĺ à¤ıà¤®
à¥¨à¥¦ à¥ªà¥¬
r d
Ġà¥Ńà¥« à¥©
à¤£à¤¤ à¤¯
Ġ00 00
à¤ĺ à¤¡
Ġj ust
Ġà¥¨à¥¦ à¥¨à¥¬
Ġle tter
Ġà¤¤à¤¹à¤¸à¤¨ à¤¹à¤¸
à¤¡à¤² à¤¸
H ira
à¤ĵ à¤ı
O wn
à¤Ł à¤ľà¤°à¤²
à¤²à¤¬ à¤¹à¤¸
à¤¶à¤¨ à¤ħà¤¨
we en
à¤² à¤ł
Ġà¥¨à¥¦ à¥©à¥©
à¤ļà¤¨ à¤¸
irm ire
5 7
ĠSan char
Ġà¤¹ à¤²à¤ķ
à¤¯à¤¯à¤¨ à¤ªà¤Ľ
ĠCom m
Ġà¥§à¥§ à¥¨
à¤² à¤¢
à¤µ à¤µà¤°
à¤Ł à¤¸à¤ķ
Ġà¤¸à¤¹ à¤µ
Ġà¥§à¥« à¥Ń
à¤ıà¤® à¤ľ
ah il
âĸ ª
à¤° à¤ªà¤¨
à¤īà¤¸ à¤«
M S
Ġà¤Ĺ à¤ıà¤¨à¤¨
Ne t
Ġà¤¶ à¤°à¤£à¤®
à¤ľà¤¨ à¤µà¤°
à¤²à¤ķ à¤¤
à¤°à¤¹ à¤¤
Ġà¥§à¥§ à¥¬
ĠT ra
m irmire
Ġà¤¬ à¤®à¤²
Ġà¤ľà¤²à¤® à¤Ĺ
y m
à¤ĸ à¤ļ
à¤ķà¤°à¤£ à¤¸à¤®
Ġà¥©à¥® à¥Ń
Ġà¥§à¥§ à¥©
ri v
mirmire online
4 2
à¤ļ à¤²à¤¯
Ġà¥¨à¥¦ à¥©à¥«
Ġà¤ľà¤® à¤ĺ
Ġà¥¦ à¥¨à¥«
ĠT hapa
Ġbet ween
à¤¾ âĢĺ
à¤¬à¤Ī à¤¬
Ġà¥¯à¥®à¥« à¥§à¥§
à¤µ à¤ªà¤ķ
à¤Ł à¤®à¤²
ĠA uthor
Ġà¤¤à¤¹ à¤¦
Ġà¤¤ à¤¡
à¤¸à¤¨ à¤¹à¤°
Ġà¤ħà¤µà¤¸ à¤°à¤µ
Ġà¥¨à¥¦à¥ª à¥¦
Ġvi de
à¥§à¥¨ à¥ª
ĠH e
Ġà¤Ľ à¤łà¤ķ
à¤¤à¤¨à¤Ĺà¤° à¤ª
à¤§ à¤ķà¤®
à¤ľà¤¨ à¤¸à¤¹
Ġ5 0
Ġà¤²à¤Ĺ à¤¨à¤ĸ
ĠA ct
K antipur
Ġà¤Ń à¤ĩà¤¯
à¤· à¤ħà¤Ĺ
à¤¬ à¤¦à¤²
Ġà¤ıà¤¨ à¤Ĩà¤°à¤Ł
à¥Įà¤Ĥà¥¤ âĢĿ
Ġ( +
Ġà¤ľà¤µà¤° à¤ľà¤¸
ĠLo ading
I L
N irm
m an
Ġà¤¯ à¤®à¤ª
ĠP re
ĠO R
à¤Ĳ à¤¶
Ġà¤ħà¤¸ à¤¤
Ġà¤Ĩà¤ĩ à¤°
Ġà¥¨à¥Ń à¥«
Ġà¤¨ à¤ªà¤¤
à¤Ļ à¤¤
à¤°à¤ľ à¤¹à¤°
à¤ıà¤« à¤ı
à¥§à¥Ń à¥¬
lo w
Ġà¤® à¤°à¤£
à¤§ à¤Ń
Ġà¤®à¤¤à¤² à¤µ
Ġà¤²à¤ļ à¤ķà¤¤
à¥Ī '
Ġà¤µ à¤ļà¤¤
Ġp m
à¤® à¤°à¤®
Ġà¤¡à¤Ł à¤ķà¤®à¤²
à¤¤ à¤Ĺà¤¤à¤ķ
à¤Ī à¤µà¤°
à¤Ń à¤ıà¤ªà¤Ľ
Ġà¤¨ à¤µà¤¦
Ġà¤Ĩ à¤Ĺà¤®à¤¨à¤®
à¤ħ à¤¸à¤¨
Ġà¥¦ à¥ªà¥¬
oft ware
à¤¨à¤ķ à¤²
6 9
Ġà¤¦à¤¶à¤ķ à¤¸à¤®
à¤¾ à¥Ģ
à¥ĭ' ,
ub lic
Ġà¤ı à¤¬à¤®
à¤¾, âĢĻ
à¥Įà¤ģ, âĢĿ
à¤ı à¤ļà¤ķ
Ġà¤¸à¤® à¤ļ
à¤ĩ à¤ķà¤ķ
Ġà¤§à¤° à¤ªà¤ķ
Ġs ub
Ġ9 0
e k
à¥į à¤¾à¤¾
à¤ħ à¤µà¤°
à¤ªà¤¨ à¤¹à¤°
Ġà¤¸ à¤°à¤¹à¤ķ
à¤¯à¤¸ à¤¸à¤®
à¤ķà¤° à¤Ń
Ġà¤ħà¤µà¤¸ à¤°à¤¬
ĠM agar
à¤ıà¤¨à¤ı à¤®à¤¬
Ġà¤ıà¤ķ à¤Ńà¤¨
Ġà¥§à¥© à¥ª
à¤ªà¤°à¤® à¤ª
A ug
R os
Ġà¤Ĩ à¤ĵà¤¸
u es
à¥Ī .
à¤£ à¤¸à¤¹
à¥Ńà¥« à¥«à¥§
our ce
B reaking
à¤ł à¤¦
ĠF r
à¤ĩ à¤µà¤Ł
Ġc ont
Ġà¤Ĩà¤²à¤® à¤²
Ġ! :
Ġà¥§à¥¯ à¥«
Ġà¤¥ à¤®à¤®
Ġà¤ľà¤² à¤ª
Ġà¥¦à¥¬ à¥§
à¥ªà¥¨à¥ª à¥Ńà¥«à¥«à¥§
Ġà¤ľà¤¨ à¤Ĺ
à¤°à¤¨ à¤Ĺà¤°à¤ķ
à¤Ĩà¤Ī à¤¤à¤¬
à¤¥ à¤¨à¤Ĺà¤°
à¤¾. âĢĵ
= "
Ġà¤¨ à¤µà¤ª
à¥¬ à¥§à¥¯
à¤¹à¤¨ à¤¤à¤²
Ġà¥§à¥Ń à¥¦
ag es
à¥¤ -
à¤ıà¤¨ à¤ıà¤®
) ?
à¤¨ à¤ªà¤¨
à¤£ à¤¯à¤¸
à¥¨à¥¦ à¥§à¥ª
Ġà¤¤à¤²à¤¬ à¤®
Ġà¤ħà¤¸ à¤°à¤²
ĠM ain
Ġà¥Ńà¥« à¥¦
Ġà¤¹ à¤ł
âĢĻ âĢĻ
Ġ( #
à¤ĭ à¤£
à¤µà¤ķ à¤¸
à¤¦à¤¨ à¤¸
à¤Ĺà¤® à¤§
Ġà¥§à¥¯ à¥¦
Ġà¤ĺà¤Ł à¤¬à¤¢
ĠT ag
ĠÂ ĸ
à¤¦ à¤¤à¤®
Ġà¥¨à¥« à¥¬
ov er
à¥¨à¥¯ à¥©
à¤¤ à¤ħà¤¨
à¤ĩ à¤µà¤°
à¤¶à¤¤ à¤¬
Ġà¥¨à¥¦ à¥¨à¥«
Ġà¥© à¥©à¥¦
à¤²à¤Ĺ à¤¢
à¤¹ à¤Ĺà¤¤
Ġà¤¦ à¤Ĺ
à¤« à¤°à¤²
à¤°à¤£ à¤¸à¤®
à¤§ à¤ªà¤¤
Ġà¤¸à¤ķ à¤Ńà¤°
Ġà¥¤à¥¤ à¥¤
à¤¹ à¤£à¤®
à¤ķà¤² à¤¬
ĠO f
st e
Ġarticle à¤¸
Ġ url
à¤ķ à¤ķà¤²
à¤ģ [
Ġto g
Ã Ĺ
à¤Ĺ à¤Ńà¤¨
ĠP ahil
à¤¤à¤¸ à¤ŀ
à¤«à¤¸ à¤²à¤ķ
t on
à¤¸ à¤ħà¤«
Ġà¤ħà¤² à¤µ
Ġà¥§à¥® à¥¯
à¥¤ )
Ġtog gle
C h
Ġà¤¸à¤¦ à¤¨à¤²
Jul y
à¤¬ à¤Ł
à¤¡ à¤¨à¤²
à¤µà¤¨ à¤ª
Ġhamro serofero
Ġ Q
à¤ģ à¥¤âĢĻ
à¤ıà¤ķ à¤ªà¤Łà¤ķ
à¤¸ à¤²à¤²
Ġà¤¬ à¤«
à¤·à¤£ à¤¸
ĠVide os
à¥®à¥¯ à¥Ń
bo x
à¤¯à¤ķ à¤¬
à¥Įà¤ģ à¤ĥ
Ġà¥¯à¥® à¥¦à¥¬
à¤Ĩà¤ĩ à¤ıà¤¸
Ġà¤² à¤Ļ
Ġà¥§à¥¯à¥¬ à¥¬
ĠEd ucation
Ġà¤¬ à¤Ĺà¤°à¤®
à¤ĸ à¤Ń
à¤² à¤ļà¤¨
Ġà¤Ń à¤°à¤¤à¤°
Ġà¤¯à¤¸ à¤µ
Ġà¤ħà¤ª à¤Ĺ
à¤¡ à¤¶
à¤Ļ à¤¸à¤¹
b ile
Ġà¤ľ à¤¯à¤ķ
Ġà¤®à¤¹ à¤ķ
Ġà¥¦ à¥¦
à¤ĩà¤¬ à¤²à¤®
sh ikharnews
à¤ĩà¤¨à¤ĸà¤¬ à¤°à¤¸
ĠTo day
à¤Ł à¤Ĺ
à¤ŀ à¤¬à¤¹
Ġsh ikharnews
à¤¦ à¤µà¤¸
à¤£ à¤µà¤¤
g y
à¤ª à¤ľà¤¸
Ġà¥§à¥§ à¥®
Ġm ero
à¤°à¤« à¤²à¤ķ
à¤² à¤µà¤¨
Ġà¤ľà¤¨ à¤ªà¤ķ
Ġà¤®à¤¨ à¤¬à¤¹
à¤ķà¤² à¤²
Ġ: ::
Ġ0 8
Ġà¤ľà¤Ĺà¤¤ à¤²
aw aj
à¥ Ŀ
à¤® à¤°à¤£à¤®
Ġà¤° à¤Ĺ
Ġà¤Ĩ à¤¯à¤¤
Ġà¤īà¤¨ à¤¬
ane ws
à¤° à¤ľà¤ķ
Ġà¤ķà¤® à¤¬
à¤Łà¤² à¤°
ĠP hoto
à¤Łà¤¬ à¤²à¤¬
ĠRe g
a x
Ġà¤¶ à¤ª
à¤°à¤¦ à¤ķ
à¤Ĩ à¤Ļ
à¤ķ à¤¯
à¤ļà¤¨ à¤°
Ġà¥¨à¥¦à¥ª à¥¨
à¥Ī !
Ġà¤Ł à¤¯
à¤°à¤®à¤£ à¤¹à¤°
Ġà¤§à¤¨ à¤ľà¤¨à¤ķ
ĠI T
Ġ al
à¤ķà¤°à¤£ à¤ªà¤Ľ
201 3
re d
à¤µ à¤°à¤¤
à¥¬ à¥«à¥ª
ĠO NL
à¤® à¤ľà¤¦
à¤¯à¤°à¤¬ à¤ľ
Ġà¤Ĺ à¤£à¤ķ
à¤ļ à¤ªà¤¦à¤¸
Ġà¤°à¤¹ à¤®
Ġà¤Ĩà¤µ à¤°à¤£
à¥Įà¤Ĥà¥¤ '
Ġà¤Ĩà¤ĩ à¤ıà¤¸
à¤·à¤¯ à¤¬
il led
à¤¹ à¤²à¤ķ
à¤ľ à¤¸à¤¹
Ġà¤ļà¤°à¤£ à¤¬à¤¦
ĠONL INE
à¤¤ à¤²à¤¬
à¤ªà¤¨ à¤¸à¤®
ĠP e
à¤¦ à¤¯à¤²
à¤« à¤¸à¤²
ĠâĢ į
à¤ªà¤¨ à¤¸
à¤¸à¤¨ à¤µ
Ġà¤Ķ à¤·à¤¤
ĠP l
ĠR ec
à¥Ńà¥¨ à¥§
à¥Ńà¥¦ à¥§à¥Ń
Ġà¤¯à¤®à¤ª à¤ŀ
F A
s ion
à¤¨ à¤°à¤¸
à¤ı à¤Ĺ
Ġà¤Ľ à¤µà¤Ł
à¤ľà¤¨ à¤¸à¤®
à¤¨à¤¸ à¤¹à¤¨
à¥¨à¥¦à¥¬ à¥Ń
ok ar
à¤Ī à¤Łà¤®
à¤Ĺà¤¤ à¤¯
ĠM ar
E x
Ġà¤ħà¤¨à¤µ à¤°à¤¤
Ġà¥«à¥¨à¥Ń à¥®à¥¯à¥Ń
Ġà¤Ł à¤¨à¤ķ
à¥ĩà¥¤ âĢĻ
ĠM an
à¤ĸà¤® à¤¯
à¤Ĩà¤Ī à¤¡
tion ary
à¤¹ à¤¨à¤²
Ġà¥¦à¥¬ à¥©
p u
à¤Ĺ à¤¸à¤¬
à¤« à¤¹à¤°
à¤Łà¤µ à¤²à¤¬
urope Nepal
ĠPahil o
à¤ĩ à¤«à¤ķ
Ġà¤ı à¤ıà¤«à¤ª
Ġà¤¸à¤ª à¤¥à¤Ĺ
à¤ĭ à¤¤
8 0
m y
ul l
d el
à¤¤à¤°à¤£ à¤²
à¤¬ à¤°à¤¹à¤°
à¤§ à¤ªà¤¥
à¥Įà¤Ĥ âĢĿ
ĠHe alth
à¤ª à¤¥à¤°
à¤Łà¤° à¤°
ĠKhel kud
Ġà¤Ĩ à¤²à¤¸
Ġà¤² à¤ª
Ġà¥¯à¥®à¥§à¥¬ à¥¬à¥«à¥ª
ci ence
Ġà¥¯à¥®à¥¦à¥¬ à¥Ńà¥¦à¥§à¥Ń
Ġà¥¯à¥®à¥§à¥¬à¥¬à¥«à¥ª à¥¨à¥¯à¥©
Ġà¥¯à¥®à¥¦à¥¬à¥Ńà¥¦à¥§à¥Ń à¥¯à¥©
4 1
A bout
à¥Ģ .....
Ġà¥¨à¥¦ à¥©à¥¯
à¤µà¤° à¤¸à¤®
à¥Įà¤ģ âĢĻ,
à¥§à¥¦ à¥¨à¥¨
ĠâĢ¦ ..
à¥§à¥® à¥¨à¥¯
à¤ı à¤ĩ
à¤£ à¤ĸ
à¤¶à¤® à¤§
Ġà¤ľà¤¨à¤ķ à¤²
I E
à¤¤à¤¨ à¤¬
à¥Įà¤Ĥ, âĢĿ
à¤Ĩà¤ľ à¤Ń
à¥ĩ Ã·
Ġà¤ķ à¤Ľ
à¤Ĺà¤ł à¤¨à¤¬
han i
ĠD esh
à¤Łà¤µ à¤²à¤²
U n
à¥Ĥ ...
Ġà¤¸à¤¹à¤ľ à¤ķà¤°
Ġà¤ħà¤ķ à¤¬à¤°
it co
u tion
am s
à¤Ĺà¤« à¤Ĺ
" )
Ġà¤ħà¤® à¤°à¤¸
Ġà¥§à¥¨ à¥§
à¥ģ /
Ġà¤Ī à¤Ł
ĠK antipur
à¥ĭ âĢĺ
Ġà¤¨à¤® à¤°
Ġà¤ħà¤« à¤µ
ĠS u
à¤ľà¤¬ à¤¸à¤®
Ġà¥¬à¥© à¥§à¥®à¥¨à¥¯
Ġà¤°à¤¹à¤° à¤²
Ġà¥©à¥®à¥Ń à¥§à¥Ńà¥¬
Ġà¤² à¤ŀ
Ġà¤Ł à¤ļ
Ġà¤īà¤ª à¤ķà¤ª
à¤Łà¤¨ à¤°à¤ķ
Ġà¤® à¤¶
à¤ķà¤Ł à¤¬
Ã ¬
à¤§ à¤ĸ
Ġà¤ī à¤¥à¤²
Ġà¤Ĺ à¤µ
Ġà¤ĸ à¤¶
Ġà¥®à¥ª à¥Ń
ĠMero J
Ġ: )
Ġarticle à¤ķ
E T
y o
à¤µ à¤ħà¤ĺ
à¤¾ ....
ĠSp orts
Ġà¤ıà¤¯à¤°à¤¬ à¤¸
ĠMeroJ illa
à¤¬ à¤ª
Ġà¤ĩ à¤¦
Ġà¤¸à¤¯ à¤¸à¤®
Nirm ala
B e
à¤ķà¤Ł à¤¸
ĠM usic
B FF
T o
Ġ {
à¤ķ à¤ĺ
Ġà¤¹ à¤Ĺ
Ġà¤ļ à¤Ļ
at or
ĠF ree
ch ha
ivers ity
à¤ıà¤¸ à¤¡
à¤¤à¤°à¤¤ à¤°
Ġà¤Ĺà¤ľ à¤¬à¤ķ
Ë Ĩ
st ri
ĠM in
à¤Ń à¤µà¤®
Ġ? )
ic y
à¤ķ à¤¨à¤ķà¤°
à¤Ī à¤ľà¤¹
à¤ĩ à¤ªà¤Ľ
à¤« à¤ķà¤¨
Ġà¤¸à¤¬ à¤ķ
; &
à¥į ;
à¤¯ à¤ļà¤ķ
Ġà¤ħà¤¸ à¤°à¤ķ
à¤ıà¤¸ à¤ıà¤¸à¤ª
7 1
à¤ ±
Ġà¤ £
à¤¤à¤° à¤ĺ
à¤ĩà¤¨à¤² à¤¸à¤®
à¤°à¤ĸ à¤¬à¤°
P A
ĠF l
uc tion
Ġà¤°à¤¹ à¤¨à¤¸à¤¹à¤¨
Ġà¥§à¥© à¥«
S p
S ub
W ho
à¤ª à¤¸à¤¹
à¤Ń à¤ľà¤¨
à¤ĸà¤ķ à¤·
ul t
à¥į- âĢĺ
or n
à¤¯ à¤ªà¤Ľ
Ġà¥¯à¥®à¥« à¥§à¥¦
D R
U N
le ase
à¥Īà¤Ĥ ?
Ġà¤ıà¤« à¤¸
à¤ĸ à¤Ĺ
à¥« à¥¨à¥¦
Ġà¥¨à¥¦ à¥¨à¥ª
à¤£à¤¯ à¤ª
Ġà¤¤à¤° à¤ªà¤¨
B S
à¤ł à¤ª
Ġà¤¸à¤« à¤°
à¤®à¤¤ à¤Ĺà¤£à¤¨
à¤¶ à¤¶
Ġà¤« à¤ľ
à¤ıà¤¨ à¤Ĩà¤ĩà¤¸
Ġà¥§à¥¯ à¥Ńà¥®
ra p
Ġ0 5
Ġà¥¦à¥¬ à¥¯
] à¥¤
Ġà¤ļ à¤¡
à¤µà¤¸ à¤ļ
ry p
Vide o
, âĢ¦
Ġà¤² à¤¥
à¤¯à¤® à¤¦
à¤¯à¤² à¤¸
à¤°à¤ª à¤¥à¤®
à¤µà¤¯ à¤¨à¤²
Ġà¤Ĩà¤Ī à¤¸à¤ķ
ra ha
ĠK TM
stri yakhabar
m it
à¤Ĭ à¤¦à¤²
Ġra striyakhabar
ĠSun day
7 0
Ġà¤® à¤łà¤®
Ġà¥¤ ..
Ġà¤ı à¤ªà¤²
as ed
6 0
D U
à¤¯ à¤²à¤¯à¤²
Ġà¤Ĩ à¤°à¤¸
Ġà¤ı à¤Ļ
à¤¸à¤¨ à¤¸à¤®
ĠC ol
le s
% ,
à¤ķ à¤°à¤¸
Ġà¤¬ à¤°à¤¬
à¤¾ à¥¤âĢĻ
à¤° à¤ľà¤¨à¤²
Ġà¤ħà¤Ĺ à¤®
ri tis
Ġà¥¨à¥§ à¥Ń
ak o
ook s
P S
Ġà¤Ĩ à¤¡
à¤ĩà¤« à¤¸
à¥¨à¥¦à¥¦ à¥Ń
Ġà¤¦ à¤²à¤¬à¤¹
à¤¤à¤® à¤¸
Ġà¤¤à¤²à¤¬ à¤ķ
Ġt witter
à¤¤à¤° à¤ľ
07 3
G oogle
Ġà¤ıà¤ķ à¤µà¤°
à¤°à¤ª à¤Ł
à¤Ĩà¤Ī à¤Ł
8 8
Ġà¤¸à¤¹à¤° à¤²
iz ed
e g
n apur
p an
ne wiki
ĠP ublished
K illed
à¤µ à¤ļà¤¨
Ġà¤Ĺ à¤ıà¤¨
à¤Ł à¤°à¤¦
Ġà¤Ń à¤Ĺà¤¤
Ġà¤¬à¤¨ à¤Ń
Ġà¤¦à¤® à¤¨à¤ķ
itco in
à¤£ à¤Ńà¤ķ
Killed Nirmala
à¤° à¤¨à¤²
à¤Ļà¤ķ à¤¨
ac y
Ġy our
Who KilledNirmala
à¤¥ à¤¸à¤ļ
ĠC ine
O O
) âĢİ
Ġà¤ķ à¤°à¤²
à¤ģ à¥ĩ
Ġà¤Ĩ à¤Ł
Ġà¤Ĩà¤¯ à¤µ
Ġà¤ªà¤¦ à¤®à¤ª
Ġà¤¬à¤¹ à¤¸à¤²
à¤¡ à¤²à¤¬
p s
à¤¿ _
ĠâĢ Į
Ġà¥§à¥§ à¥¯
Ġà¥§à¥¯ à¥§à¥¦
Ros han
à¤ĸ à¤¬à¤¹
ang raha
à¥ī à¤Ĥ
H AN
Ġà¤ªà¤° à¤ª
ĠT HE
Ġà¤ľà¤¨à¤® à¤ŀ
Ġà¥§à¥¯à¥® à¥®
a f
à¤¸ à¤¢
Ġà¤® à¤¤à¤®
à¤ľ à¤²à¤Ĺ
à¤§à¤ķ à¤¹à¤°
Ġà¤ĸà¤Ł à¤ªà¤Ł
Ġà¤īà¤® à¤Ļ
P ra
à¤² à¤¯à¤¸à¤¹
Ġà¤ĵ à¤®à¤¨
Ġà¤ĺà¤° à¤¸à¤®
?? ??
à¤¸ à¤¬à¤°
ĠA l
ĠL iterature
R NA
Ġà¤ĸ à¤Ľ
à¤ĺ à¤¹à¤°
à¤¤à¤ķ à¤¬
à¤Ķ à¤ªà¤ļ
Ġà¤¶à¤¹à¤° à¤²
à¤¨ à¤Ī
à¤ĩ à¤Ńà¤¨
Ġà¥§à¥« à¥«
Ġà¥§à¥¯ à¥ªà¥Ń
Ġà¥¦ à¥ªà¥®
Ġà¥§à¥¯à¥® à¥¨
Ġà¤ľ à¤²à¤¯
Ġà¤Ķ à¤°à¤¹
Ġà¥§à¥¬ à¥¯
Ġà¤Ī à¤Łà¤¹à¤°
à¤Łà¤°à¤¸ à¤¹
ist ry
Ġà¥¨à¥¦ à¥¨à¥©
Ġà¤ıà¤² à¤ľ
ĠU s
à¤¾ !!
à¤ı à¤Ńà¤¨
Ġà¥§à¥¬ à¥§
à¤°à¤ĸ à¤ª
Ġà¤Ĺà¤ı à¤ªà¤¨
Ġw orld
Ġà¥§à¥¯à¥® à¥«
à¤¡ à¤ķà¤°
à¤Ī à¤²à¤Ĺ
Ġà¤ī à¤µ
Ġà¥§à¥« à¥¦à¥¦
Ġà¤ıà¤ħ à¤°à¤²
ritis angraha
Â ¸
Ġ Z
Ġd ays
à¥ĩ âĢĮ
à¤ł à¤²à¤Ĺ
à¤¯à¤£ à¤ĺ
ĠA s
à¤ĩà¤Ń à¤°à¤²
, "
à¥ģ ..
Ġà¤ķà¤² à¤Ļ
ur khabar
à¤¸à¤°à¤¸ à¤«
à¤£ à¤²à¤Ĺ
Ġà¥§à¥« à¥§
ĠA c
à¤¨ à¤¯à¤²
à¤·à¤£ à¤µ
à¥įà¥¤ "
à¤¸à¤¹ à¤ľ
Ġà¥§à¥Ń à¥«
ang a
à¤ıà¤Ī à¤¬
à¤Ľà¤² à¤«à¤²
à¤® à¤¸à¤¨
à¤ı à¤µ
à¤°à¤® à¤°
Ġà¤ıà¤¸ à¤ıà¤®
Ġà¤ıà¤¨ à¤Ł
à¤ıà¤¸à¤ĩ à¤Ī
Ġ op
à¤¾ à¥Ī,
à¤¯ à¤·
à¤ļà¤¨ à¤¹à¤°
à¤°à¤ļ à¤¨à¤²
ar media
Ġà¤® à¤ľà¤¸
à¤¶ à¤µà¤°
Ġà¤Ĩ à¤¶à¤®
Ġà¥¨à¥§ à¥¦
à¤¹ à¤ķà¤®
à¤¾à¤ģ à¤Ĥ
ĠD i
b a
à¤µ à¤µà¤¤
Ġà¤µ à¤ļ
à¤ļà¤¨ à¤ľ
ĠMon day
Ġà¥§à¥¨ à¥©
à¤¹à¤² à¤¹
at us
Ġà¤°à¤£ à¤¬à¤¹
lo ck
Ġà¤µ à¤·
Ġà¥§à¥¯à¥® à¥ª
à¤ħà¤µà¤¸ à¤°
à¤¦ à¤ªà¤Ľ
à¤ļ à¤ķà¤²
Ġà¤« à¤·
Ġà¤ħà¤¬ à¤²à¤®
ma tion
à¤µà¤¯à¤¨ à¤¸
à¥įâĢĮ ,
Ġà¤ľà¤Ĺà¤¤ à¤¬à¤¹
mand armedia
ele br
ĠS and
Ġà¤Ł à¤²
Ġà¥¨à¥¦ à¥©à¥¨
Ġs al
à¤Īà¤¸ à¤¯
Ġà¤ķ à¤ľ
Ġarticle s
à¤¯ à¤Ĺà¤°
à¥ģ à¥ĥ
Ġà¤Ĩ à¤ĩà¤ıà¤ķ
ĠT weet
C C
O f
à¤ª à¤§
Ġà¤ĺ à¤°à¤¸
Ġà¤ĩ à¤Ĺ
ĠA ll
à¤« à¤²à¤®
à¤Ĺà¤° à¤ª
à¥Įà¤Ĥ à¤ģ
... âĢĻ
Ġà¤ħà¤¸ à¤Ī
ĠK B
ĠWebs oft
6 1
ro s
à¥¦à¥Ńà¥ª à¥¯
à¥«à¥® à¥¦à¥Ńà¥ªà¥¯
Ġà¤ħ à¤ªà¤¤
à¥§à¥§ à¥ª
Ġà¤Ŀà¤¡ à¤ªà¤ķ
à¤Ńà¤¨ à¤°
à¤ĵ à¤ıà¤®à¤ķ
ĠI mandarmedia
k h
Ġà¤¸ à¤Ī
à¤µ à¤Ī
Ġà¤¥ à¤ªà¤ķ
à¤ŀ à¤¸
Ġà¤®à¤¨ à¤¤
us h
à¤Ĩà¤¦ à¤°à¤£
ys ansar
A D
Ġà¤®à¤¹ à¤®
Ġ200 9
IC S
Ġà¤² à¤¹à¤²à¤¹
à¤¹à¤¨ à¤¤à¤ķ
U pd
à¤¬ à¤°à¤¦
à¤Ļ à¤¹
ĠS ep
ĠS ahitya
à¥įâĢĮ ?
Ġà¤ħà¤ªà¤¹à¤°à¤£ à¤ªà¤Ľ
ĠPol icy
5 2
R adio
Ġà¤¹ à¤¯
Ġà¤ĸ à¤²à¤²
ïĥ ĺ
J W
à¤¥ à¤¸à¤®
âĢ º
à¤¸à¤ķ à¤°
à¤Ĩ à¤¸à¤¨
Ġ! ,
ed ne
à¤¿ à¥ģ
à¤Ŀ à¤ªà¤ĸ
Ġà¤īà¤¡ à¤¡
à¥¨à¥¦à¥¬ à¥¨à¥¦
à¤Ĺ à¤°à¤£à¤ķ
à¤ļ à¤¤à¤°
à¤ļà¤¨ à¤ħà¤ĺ
Ġà¥«à¥« à¥¦
à¤°à¤ª à¤Łà¤ķ
Ġk ritisangraha
à¤¨ à¤Ľà¤¨
à¤¿ à¥Ģ
Ġà¤« à¤²à¤ķ
Ġà¥§à¥¯ à¥Ńà¥«
en i
Ġà¤¬à¤¸ à¤¹à¤°
Ġà¤°à¤ķà¤® à¤®à¤§
Ġà¥§à¥¬ à¥®
Ġà¥§à¥ª à¥¨
rof ile
Ġà¤īà¤¥à¤² à¤ª
Ġà¤® à¤Ī
Ġà¥¯à¥® à¥§à¥¨à¥ª
Ġà¥¯à¥®à¥§à¥¨à¥ª à¥¨à¥¦à¥¬à¥¨à¥¦
Ġ tha
à¤Ł à¤Ĩà¤īà¤Ł
à¤¬ à¤²à¤²
Ġà¤ĵ à¤ĸà¤°
ap ital
Ġà¥¨à¥¦à¥ª à¥ª
ĠUn iversity
ĠAP K
à¤¦ à¤¶à¤¨à¤®
Ġà¤¯à¤¸ à¤ħà¤¨
ĠA pr
à¤² à¤¸à¤²
à¤ª à¤¦à¤ķ
à¤ı à¤¦
à¤ªà¤Łà¤ķ à¤ķ
Ġt v
à¤ľà¤¨ à¤µ
Ġà¤¤à¤²à¤¬ à¤Ńà¤¤
R ep
d har
à¤µ à¤¬à¤¹
Ġà¤ı à¤ħà¤°
Ġà¤¬ à¤¬à¤°à¤®à¤¹à¤²
Ġà¤¸à¤® à¤·
à¤¯à¤¨ à¤¶
à¤ľà¤¦ à¤°à¤¬
j an
à¥ĭ âĢĮ
à¤¸ à¤°à¤¹à¤°
Ġà¤ı à¤¨à¤¬
Ġà¥¬ à¥¨à¥©
à¤ľà¤¯à¤¨ à¤Ĺà¤°
Ġà¥¨à¥¦ à¥©à¥®
ĠI CT
B iz
er ing
ĠC opyright
u res
à¤ĩ à¤¤à¤®
à¤ıà¤¨ à¤ıà¤¨
edne sday
à¤· à¤¯à¤¸
Ġ0 4
ar a
à¥Įà¤Ĥ, '
à¤Ĺà¤ł à¤¨à¤¸
ĠR ana
V is
g un
à¤® à¤ªà¤¹
à¤ĩ à¤ŀ
à¤¿ âĢľ
Ġà¤¡ à¤¨à¤¹à¤°
à¤ķà¤Ł à¤ª
Ġà¤Ĩà¤ł à¤¬
à¤ĩ à¤Ľ
1 00
E L
à¤° à¤¨à¤ķ
à¤¡ à¤Ł
à¤ļ à¤²à¤°
à¤Ī à¤®à¤¤
Ġà¤Ł à¤¡
ĠL ok
Ġà¤® à¤Ńà¤¨
à¤°à¤£ à¤¤à¤¯
bout à¤®
m ysansar
à¤Ĩ à¤ĩà¤«
! âĢĿ
à¤¯ à¤ŀ
à¤£à¤¯ à¤¸à¤®
ol l
ryp to
à¤¦ à¤¸à¤¤
Ġà¤®à¤¹ Ã¬
Ġà¤¦à¤¶ à¤Ĺà¤ľ
Ġ4 8
C ategories
ĠD h
Ġà¤® à¤ª
à¥Įà¤Ĥ )
à¤¦à¤¨ à¤ª
ab in
ËĨ à¤¨
à¤ĸ à¤µ
Ġà¤¡ à¤ķà¤°
à¤¦à¤¨ à¤¨
à¤Ńà¤ªà¤¤ à¤¨à¤ķ
ature d
ĠCine ma
à¤ª à¤Łà¤¨
Ġà¤¨ à¤¡à¤°
à¤°à¤¦ à¤²
à¤«à¤² à¤¤
OR G
à¤Ĺ à¤ľà¤¸
à¤Łà¤¨ à¤°à¤²
ad a
ĠB ud
à¥ªà¥¬ à¥«
Ġà¤¨ à¤¯à¤¨
à¤Ĩ à¤ĩà¤Ł
à¤ªà¤ķ à¤¤
Ġà¥§à¥ª à¥®
ed er
à¤° à¤°à¤¹
Ġà¤ľà¤¨ à¤Ń
abal i
Ġà¤ķ à¤ªà¤¨
à¤Ļ à¤ĸ
à¤¸à¤² à¤Ł
ĠC on
ĠH ack
O ne
Ġà¤ľà¤¨ à¤ªà¤°
âĢ¦ (
Ġà¤Ĩà¤¶ à¤¯à¤ªà¤¤
Ġà¥©à¥¬ à¥«
oc al
Biz pati
Ġà¤° à¤¤à¤¨
Ġà¤Ń à¤Łà¤®
Ġà¤¯ à¤®à¤°
à¤£à¤¯ à¤ªà¤Ľ
Ġà¤¨à¤ľà¤° à¤ħà¤¨
à¤¾à¤Ĥ à¤ģ
à¤µà¤² à¤Ĺ
à¤¡ à¤ªà¤ķ
Ġà¥¯à¥® à¥«à¥®
Ġà¤¸à¤°à¤¸ à¤²
5 3
Ġà¤® à¤¥
à¤ħ à¤°à¤ķ
à¤°à¤¹ à¤¹à¤°
à¤Łà¤¬ à¤ľ
à¥ĩà¤Ĥ ?
NE WS
Ġà¤ħà¤Ń à¤¦
ĠS ocial
Ġà¤§à¤°à¤ªà¤ķ à¤¡
Ġà¤ħà¤Ĺà¤® à¤µà¤ķ
ho j
ĠPahilo Post
Ġà¤Ł à¤ķà¤°
à¤ħ à¤°à¤¬
Ġ:- âĢĺ
à¤Ĩà¤ĩ à¤ıà¤®
Ġ ti
à¤§ à¤ļ
âĢĶ âĢĶ
Ġà¤¨à¤Ĩ à¤¤
y st
ok ya
; -
Ġà¤¬ à¤°à¤¦
Ġà¤ľà¤¨ à¤ĺ
Ġà¥§à¥« à¥¬
ĠE khabar
à¤īà¤ľ à¤°à¤®
our nal
Ġà¤ıà¤¸à¤ĩ à¤ĩ
Ġà¤®à¤łà¤® à¤¨
Ġà¤¬à¤² à¤¦
à¤ľà¤¦ à¤°à¤ķ
ĠS agar
à¤¾à¥Ī âĢĮ
Ġà¤¨à¤¹à¤° à¤ķ
à¤¯ à¤ªà¤ķ
à¥© à¥¨à¥©
à¤µà¤¨ à¤°
à¥Įà¤ģ âĢĿ
Ġà¤¶à¤¹à¤° à¤¯
à¤¾ ......
Ġà¥§à¥ª à¥«
Ġà¤ľà¤² à¤¶
Ġà¥® à¥§à¥«
ĠC or
ĠVie ws
elebr ity
à¤ľ à¤¥
à¤Ļ à¤¨
à¥Įà¤Ĥ '
im g
à¤¸ à¤²à¤ķ
Ġà¤¸ à¤Łà¤°
Ġà¤Ĩà¤ĩ à¤ķà¤¨
Ġà¤ľà¤Ĺ à¤ľ
ic h
c lus
Ġà¤²à¤Ĺ à¤¨
Ġà¥§à¥¯ à¥«à¥®
à¤ĩà¤ľ à¤¹
à¥Įà¤Ĥà¥¤ "
MAN DU
H imal
à¥į ..
Ġà¤ķà¤° à¤¨
Ġà¤Ĩà¤ķ à¤·
ĠS at
ic har
Ġwee ks
à¤« à¤µ
Ġà¤ħà¤¨ à¤¸à¤¨à¤ķ
à¤Ĩ à¤°à¤¬
as in
Ġsal okya
à¥Ĥ à¤Ĥ
à¥ĭ, âĢĺ
Ġà¤Ŀ à¤ª
ĠB l
Ġà¥§à¥¯à¥¬ à¥¨
( "
Ġà¤Ĩà¤īà¤Ł à¤²
à¤ª à¤²à¤®
à¤ļ à¤¢
âĢĻ ...
.... ...
à¤¥ à¤ķà¤ķ
Ġà¤Ĩà¤ł à¤°
âģ Ħ
Ġà¤Ń à¤ŀ
à¤Ĥ ...
Ġà¤¹à¤ķ à¤ħà¤§
ï Ĥ
à¤¿ .....
Ġà¥¤ .
à¤ĩ à¤¤à¤²
ĠP riv
Ġà¤¨à¤¹à¤° à¤®
à¤°à¤¹ à¤¸à¤®
enter tainment
à¤¸à¤® à¤¯à¤ķ
Ġà¤¹à¤° à¤ªà¤²
Ġà¤¸à¤¤ à¤¹à¤¦
Ġb anking
âĢĮ à¤Ĥ.
à¤¯à¤¸ à¤¨à¤ķ
à¤Łà¤¨ à¤°à¤¸
Ġà¥¨à¥¬ à¥¦
ic ation
Ġb reaking
à¥į [
à¥ĩ, '
Ġà¤Ĩ à¤Ĺà¤®
à¤¯à¤¯ à¤Ń
Ġà¤ıà¤ķ à¤ıà¤ķ
à¤¸à¤¨ à¤¦
à¥ ħ
Ġà¤¨ à¤®à¤¨
à¤§ à¤ĺ
Ġà¤¸à¤¯ à¤ľà¤¨
Ġ! '
Ġà¤§à¤¨ à¤§
ĠB itcoin
Ġà¤ª à¤¥à¤®
Ġà¤« à¤°à¤®
ĠD ay
à¤¤à¤¬ à¤®
Ġà¥§à¥¯à¥® à¥§
ah al
à¥ĩà¤Ĥ âĢĻ
urre nc
< /
p p
Ġà¤¹ à¤°à¤ķ
à¤°à¤® à¤¸à¤¹
à¤¯à¤ķ à¤¸
Ġà¤§à¤¨ à¤ª
à¤¦à¤°à¤¬ à¤ľ
Sub as
u al
Ġà¤ıà¤ķ à¤ª
ĠP ow
ĠNo tice
7 9
l i
à¤Ń à¤°à¤£
à¤°à¤® à¤Ń
Ġà¤ľà¤¨ à¤°
l am
à¤¬ à¤°à¤¬à¤¹
ĠS ing
ma tha
Ġà¤¸à¤¹à¤° à¤¬
ĠW indows
Ġbanking khabar
+ "
à¤ľ à¤ľ
à¤Ĩ à¤°à¤®
à¤¬à¤² à¤¦
P re
Ġ up
à¤°à¤¸ à¤¬
Ġs ama
wik tionary
ĠÂ ·
à¤ĩ à¤¶
à¥¤ âĢĺ
Ġf acebook
= '
à¤¬ à¤ĸ
ur sday
à¤¹à¤Ļà¤ķ à¤Ļà¤ķ
Ġà¤² à¤ļà¤ķ
ĠO n
Ġc on
à¤ĩà¤¨ à¤Ń
à¤²à¤Ĺ à¤Ńà¤Ĺ
à¤¹ à¤¸à¤ķ
Ġà¤¨ à¤Ĺà¤¨
à¤ļ à¤°à¤¹à¤°
à¤ĩ à¤²à¤Ĺ
a awaj
à¤¨ à¤¬à¤°
Ġà¤ĸ à¤°à¤¬
Ġà¤ħà¤¸ à¤°à¤¬
à¤¨à¤Ĺà¤° à¤¬
ĠU r
à¤¯ à¤²à¤¬
à¤¦ à¤¤à¤°
ĠJ ournal
& &
à¤¯ à¤Łà¤°à¤®
Ġà¤ķ à¤ķà¤¨
à¤¤à¤° à¤Ĺ
à¥§à¥« à¥¦
Ġà¤¨à¤Ĩ à¤ĵà¤¸
word press
à¥Ĥ '
Ġ' );
el ist
Ġà¥©à¥® à¥¬
ĠNama ste
! =
7 8
D P
Ĥ ¬
Ġà¥¨à¥¦ à¥¨à¥Ń
Ġ' ;-
ĠG an
index Of
title x
ĠTh ursday
Nov ember
") &&
")&& (
ï Ģ
à¤¡ à¤ªà¤Ľ
Ġà¤Ĩ à¤Ļà¤ķ
Ġà¥§à¥¨ à¥¯
ðŁ ĺ
if e
for mation
Ġà¤¸à¤¬ à¤¥
Ġb e
ĠAm rit
5 4
Ġà¤¦ à¤§
Ġà¤Ĩ à¤Ĺà¤®à¤¨à¤²
à¤µ à¤Łà¤²
à¤¬ à¤ĩ
Ġà¤¶à¤¹à¤° à¤¬
? "
ĠC o
ric elist
à¤¹ à¤²à¤Ĺ
à¤Ī à¤Łà¤¹à¤°
à¤ĩ à¤ªà¤ķ
à¤ķà¤Ł à¤¹à¤°
à¥§à¥Ń à¥§à¥¬
Ġà¤¬ à¤¨à¤ķ
à¤Ī à¤°à¤¹à¤¨
Ġà¥©à¥¨ à¥«
à¤Ĺà¤¤ à¤¤à¤°
Ġà¤¨à¤Ĺà¤° à¤Ń
Ġà¤¨à¤µ à¤Ĺà¤ł
Nagarik aawaj
à¥į à¤¿
à¤¨ à¤µà¤²à¤ª
à¤ª à¤Ĺ
à¤¨à¤µ à¤¶
Ġà¥§à¥© à¥§
Ġà¥§à¥ª à¥ª
à¤µ à¤ıà¤®
ĠNe t
ic al
Ġ0 3
ĠW ednesday
à¤² à¤µà¤®
Ġà¤° à¤ľà¤¸
à¤Ńà¤Ĺ à¤µà¤¤
oo oo
napur na
Ġ or
Ġà¤µ à¤«
Ġà¤Ĩ ËĨà¤¨
Ġà¤ªà¤¦ à¤²
an anews
Ġà¥§à¥© à¥®
at es
à¤ł à¤¸à¤®
Ġp ricelist
à¤ıà¤« à¤ıà¤ķ
har u
à¥¦ à¥Ńà¥§
Ġ? :
ĠG r
ĠSp arsha
à¤ľ à¤Ńà¤¤
à¥Ńà¥Ń à¥Ńà¥¨à¥§
à¥¯à¥®à¥«à¥§à¥¨ à¥Ńà¥Ńà¥Ńà¥¨à¥§
à¥¯à¥®à¥ª à¥§à¥Ńà¥§à¥¬
à¥¯à¥®à¥ªà¥§à¥Ńà¥§à¥¬ à¥ªà¥¬à¥«
à¤° view
à¤¯à¤¨ à¤°à¤¤
à¤¶à¤¹à¤° à¤®
à¥¨à¥¦à¥¬ à¥«
Ġà¤¡à¤Łà¤ķà¤® à¤®
Ġà¥§à¥¯à¥® à¥Ń
à¤ĺ à¤¸à¤®
Ġà¥¨à¥¦ à¥©à¥§
Ġà¤¦à¤° à¤µà¤¨
à¥¦à¥¦ à¥Ń
Vis itor
à¤² à¤¸à¤ķ
Ġà¤Ľ à¤¨à¤ķ
à¤ĩ à¤ĸ
Ġà¤®à¤¹ÅĴ à¤µ
à¤ľ à¤ķà¤°
ĠB o
ik e
à¤¦ à¤īà¤¨
à¤¬ à¤¸à¤²
à¤¥à¤² à¤¸à¤®
à¤® à¤ľà¤¸
à¤· à¤ĺ
à¤°à¤ª à¤¥à¤ķ
is m
à¥¨ à¥¨à¥¦
A g
S h
c urrenc
y ar
Ġà¤ħ à¤ķà¤°
à¤®à¤°à¤£ à¤¶à¤ķ
Ġà¤ıà¤ķ à¤ªà¤ķ
ĠC elebrity
Ġà¤ľà¤¨à¤ķ à¤°
Ġl inks
ks on
rypto currenc
Ġà¤« à¤Ĺ
à¤µà¤° à¤°
à¤¶à¤ķ à¤¬
à¤§à¤¨ à¤¸à¤®
Ġà¤ıà¤² à¤ĩà¤¡
han e
clus ive
à¥¦ à¥Ńà¥¦
Ġà¤¥ à¤µ
ĠSagar matha
y le
à¤ĸ à¤§à¤°
à¤¶à¤¨ à¤²à¤ķ
Ġà¤¡à¤²à¤° à¤¸à¤®
Ġà¤¹à¤Ļà¤ķ à¤Ļà¤¬
________ ________
oc k
Ġ\\ \\
P at
à¤¿ ;
à¤® à¤¡
Ġà¤¯à¤¸ à¤ªà¤²
ak e
5 1
à¤¬ à¤¤à¤®
Ġà¤ħà¤¨ à¤¸
à¥ĩ? âĢĻ
Ġà¤°à¤¨à¤° à¤ħà¤ª
à¥į "
à¤² à¤¯à¤¤
Ġà¤Ń à¤®
Ġà¤Ĺà¤° à¤®
ĠF eb
Ġà¤¨à¤Ĩ à¤ıà¤¸à¤®
un i
Ġ te
à¤ľ à¤µà¤²
Ġà¤ļ à¤Łà¤ķ
Ġà¤¦à¤² à¤Ĺà¤¤
ĠI mage
B AR
Ġà¤Ń à¤°à¤ķ
à¤« à¤²à¤ķ
Ġà¤§ à¤®à¤ķ
Ġà¤¤à¤° à¤¬
AT ION
à¤ļ à¤Ńà¤¨
Ġà¤®à¤² à¤ľà¤²
à¤ıà¤¸ à¤Īà¤Īà¤ķ
ĠL eave
Ġà¤ıà¤ļ à¤ª
ati mes
Ġà¤Ĩà¤ĩà¤ıà¤® à¤ĩ
W hat
b le
Ġà¤¶ à¤¸
à¥ĥ ))
Ġà¤§ à¤ľ
ass word
I J
à¤ķà¤® à¤¨
ment s
Ġà¤¹à¤¦ à¤¬à¤¨
ĠPriv acy
Ġà¤®à¤ĸ à¤®à¤²
Ġà¤ķà¤° à¤µ
Ġà¤®à¤Ĺà¤° à¤¹à¤°
à¤ªà¤Ł à¤ķà¤®
Ġthought s
Ġà¤ ŀ
à¤¥ à¤°à¤¹à¤°
à¤« à¤°à¤®
Ġà¥§à¥¯ à¥Ńà¥¨
à¤µà¤Ń à¤°à¤¬
Ġà¥¦à¥® à¥©
à¤Ī à¤®à¤§
ĠâĢ ł
à¤ĺ à¤¸à¤¸
à¥¬ à¥¨à¥ª
à¤·à¤£ à¤¯
à¤¶à¤¨ à¤¦
Ġà¤¦à¤² à¤Ń
à¥ĩ _
à¤ģ '
à¤°à¤¤ à¤¬à¤¨
ĠJ u
6 4
n g
p er
s ansar
à¤² à¤ļà¤ķ
à¤¹ à¤¤à¤®
à¤ķà¤® à¤®
Ġà¤°à¤ķà¤® à¤¸à¤¹
Ġà¥§à¥© à¥¯
ĠI d
sh restha
Ġà¤ı à¤Łà¤²
Ġà¤ľà¤¨ à¤²à¤¹à¤°
à¤ħ à¤¸à¤ķ
Ġà¤ķà¤² à¤¸
ĠC r
Ġà¤¨à¤Ńà¤ı à¤ľà¤¸
à¤¶à¤¨à¤² à¤²
à¤µ à¤°à¤¦
à¤ľ à¤°à¤Ń
à¤°à¤® à¤¬à¤¦
Ġà¥¨à¥¦ à¥©à¥Ń
à¤¡à¤® à¤°
à¤Ĩà¤Ī à¤ı
ĠI N
ol itic
Ġà¤Ĺà¤« à¤Ĺ
Ġà¤¬ à¤²à¤¬
à¤§à¤¨ à¤¸à¤¹
Ġt ype
w ork
à¤° à¤ħà¤°
à¤¸ à¤¡à¤°
à¤°à¤¦ à¤¯à¤ĺ
à¤Ĺà¤łà¤¨ à¤Ń
ĠBI Z
Ġà¤ľà¤¨ à¤¬
Ġà¤ħà¤Ń à¤¯
Ġà¥§à¥¯ à¥ªà¥¦
Ġcont act
ĠCor por
à¤®à¤¨ à¤Ĺà¤°à¤ķ
ay atimes
Ġà¤ļà¤°à¤® à¤¸
à¤Ł à¤ľà¤¸
à¤¯à¤® à¤µà¤°
Ġà¤®à¤¨ à¤Ń
Ġà¥§à¥¯ à¥Ńà¥§
ount ry
ĠSanchar ak
Ġà¤¤ à¤Ĺ
à¤°à¤¤ à¤¦
Himal ayatimes
ĠBIZ MANDU
Ġà¤Ĩ à¤¬à¤¸
Ġb ased
à¥Ńà¥¯ à¥¬à¥¬
Ġad d
à¤µ à¤īà¤ª
à¥¯à¥®à¥« à¥§à¥¦à¥®
Ġà¥§ à¥¨à¥¦à¥¦
à¤¦à¤¨ à¤¸à¤®
à¤ĵ à¤ªà¤¨
à¤ħà¤¨ à¤¶à¤¨
Ġà¥© à¥¨à¥¦
ĠH D
à¤® à¤ķà¤²
à¤¹ à¤ħà¤¨
à¤ĩ à¤Ńà¤®
à¤¸à¤¬ à¤ķ
à¤Ĩà¤° à¤ıà¤¸
ĠA udio
ĠG lobal
Ġà¥¦à¥¬ à¥«
Ġsa id
ĠDesh ko
P E
à¤°à¤¹ à¤£à¤®
à¤ļà¤¸ à¤¯
à¥¯à¥®à¥ª à¥§à¥¦à¥¨à¥¨
à¥¯à¥®à¥«à¥§à¥¦à¥® à¥Ńà¥¯à¥¬à¥¬
à¥¯à¥®à¥ªà¥§à¥¦à¥¨à¥¨ à¥¬à¥§à¥¯
à¤¨à¤¨ à¤Ĺà¤°à¤®
à¤°à¤¶ à¤®à¤¶
à¤¸à¤¸ à¤¸
ele ct
str uction
- âĢĺ
à¤ĸ à¤ªà¤¢
Ġà¤ĵ à¤ľ
à¤¿. (
Ġà¥§à¥¯ à¥Ńà¥¯
Ġp l
Ġà¥¯à¥®à¥«à¥® à¥¦à¥¬
h y
à¥ĩ, âĢľ
à¤¶à¤ķ à¤¸
Ġà¤ħà¤¦ à¤Ń
ĠK umar
yst em
à¤ļ à¤¡
Ġà¤°à¤¹ à¤¨à¤ķ
à¤°à¤ª à¤¯
ĠF eder
Ġ.... ...
a ud
à¤¡ à¤·
Ġà¤ĸ à¤²à¤¨
à¥ĩà¤ģ âĢĻ
Ġà¤®à¤¹à¤° à¤²
ot es
à¤¦ à¤¶à¤¨à¤ķ
Ġà¤° à¤¬à¤°
à¤ĵ à¤¤
ĠD e
à¥Ĥ "
ĠAn napurna
à¥§à¥¬ à¥Ńà¥®
Ġà¤ıà¤¨à¤Ĩà¤°à¤ıà¤¨ à¤ıà¤²
ĠPolitic al
Y A
à¤ĺ à¤Ń
à¤¨à¤Ĺà¤° à¤Ń
ĠS ite
à¥§à¥¦ à¥¬
Ġ5 00
ud rap
e Himalayatimes
k ot
à¤¯à¤¨ à¤¬
à¥¨à¥¦ à¥§à¥¨
Ġà¤¨à¤ľ à¤°à¤²
à¤ıà¤ļ à¤ĵ
I P
Ġ Ã·
Ġà¤¥ à¤°à¤ķ
ĠL ight
Ġà¥¯à¥®à¥¦ à¥§à¥¨à¥©
à¤ª à¤¸à¤¬
à¥Ī à¥ĩ
à¤¶ à¤¯à¤ķ
à¤¸à¤® à¤¸à¤ķ
à¤¯à¤Łà¤¨ à¤¸
en s
ead line
Ġà¥¦à¥« à¥§
à¤Ĺà¤¤ à¤µà¤°
Ġà¤ıà¤® à¤ĵà¤¯
à¥¨à¥¦ à¥§à¥§
à¤°à¤ľ à¤¨à¤ķ
à¤ĩà¤¨à¤ĸà¤¬ à¤°à¤²
udrap ari
à¤ĩà¤¨ à¤ĸà¤¬à¤°
ĠSam udrapari
b log
k shrestha
Ġà¤¸à¤° à¤Ĺà¤°
ĠSt ory
t t
Ġ it
Ġà¤¬à¤¸ à¤¬
Ne w
à¤¾: -
Ġp aschimnepal
à¤· à¤¬à¤¹
Ġà¤« à¤Ĺà¤¤
à¥¨à¥© à¥«à¥¨
Ġà¥¯à¥®à¥«à¥®à¥¦à¥¬ à¥¨à¥©à¥«à¥¨
Ġà¥¯à¥®à¥¦à¥§à¥¨à¥© à¥§à¥¬à¥Ńà¥®
) _
P hone
à¤Ĺ à¤Ńà¤°
Ġà¤Ĺ à¤ľà¤¬
à¤¬ à¤¦à¤¨
Ġà¤¹ à¤Łà¤²
à¤¡ à¤Łà¤ķà¤®
Ġà¤ľ à¤®à¤²
Ġl iterature
ĠJu kson
Ġà¤¨ à¤ħ
à¤¬ à¤Ĺà¤°à¤®
à¤¶ à¤ľà¤ķ
ĠB ik
ĠG roup
Ġà¤ħà¤ľ à¤¯à¤ķ
Ġà¤ĵà¤Ńà¤° à¤Ł
ari yar
R am
à¤¹ à¤ļ
à¥Ī à¥Īà¤Ĥ
à¤ªà¤° à¤ľ
à¤¨à¤Ĺà¤° à¤¸
Ġà¤ļà¤°à¤£ à¤¹à¤°
s ad
à¤¬ à¤¬à¤°à¤®à¤¹à¤²
Ġà¤§ à¤¬
à¤ıà¤² à¤ľ
y as
à¤Ĺ à¤Ĺ
Ġà¥¨à¥¦ à¥¨à¥¯
à¥ģà¤ģ ,âĢĻ
Ġà¤ħà¤¸à¤¹ à¤ľà¤¤
ĠCh annel
h ik
à¤² à¤Ī
à¤¯ à¤¶à¤ķ
à¤ĩ à¤®à¤²
à¤ĩ à¤ªà¤°
à¤ł à¤¨à¤ķ
à¤ªà¤® à¤¤à¤®
Ġà¤ĵ à¤¤
Ġà¤Ĺà¤ł à¤¬
ati ve
j u
p ort
à¤ĩ à¤ľà¤²
à¤Ĩà¤ľ à¤Ńà¤¨
h z
Ġà¤¯ à¤®à¤²
Ġà¤ĩ à¤µ
à¤Łà¤° à¤Ń
ĠMo bile
x x
Ġ ha
Ġà¤Ń à¤°à¤¤à¤ķ
Ġà¤īà¤ª à¤®à¤¨
à¤¤à¤¨ à¤¸à¤®
ĠC ity
ons es
9 7
g ram
w atch
Å ĵ
à¤Ł à¤Ĺà¤¤
à¤¾à¤ģ à¥Ī,
Ġà¤Ńà¤° à¤ĸà¤°
à¤¡à¤° à¤Ĺ
Rep ort
Ġà¤ľà¤¨à¤ĺ à¤¨à¤¤
Ġà¤¨ à¤ł
à¤ľ à¤®à¤ķ
Ġà¥§à¥« à¥¨
Ġà¥§à¥® à¥¨
Ġâ Ĥ¬
Ġà¤° à¤ĸ
à¤ı à¤ĺ
Ġ- âĢĺ
à¤Ĭ à¤¦
Ġtha t
à¤¹à¤° à¤ª
à¥¤ âĢĶ
Ġà¤Ĺà¤łà¤¨ à¤¸à¤®
à¤¿ à¥ĭ
Ġà¤Ĩ à¤Ĺà¤®à¤¨à¤ķ
à¤¹à¤¨ à¤µ
Ġà¤ıà¤¨ à¤ıà¤¸
Ġà¤Ĺà¤łà¤¨ à¤ªà¤Ľ
à¤Ĩà¤ľ à¤¸à¤®
Ġà¤¦à¤¶à¤ķ à¤¯à¤¤
Ġ20 73
IN G
à¤Ĺ à¤ªà¤Ľ
Ġà¤¸à¤® à¤¥à¤°
ĠT E
ib le
d i
s et
à¤µ à¤°à¤¹
à¤Ń à¤ª
à¥ģ, âĢĿ
Ġà¥§à¥¨ à¥Ń
ĠB h
à¥Ģ. ,
à¤¦à¤¶ à¤¹à¤°
ap os
ĠCh et
à¤¤ à¤£
à¤¶à¤¨ à¤¶
Ġà¤Ĺà¤£ à¤ªà¤¤
ĠS MS
ĠB ha
: âĢĭ
? )
Ġà¤ªà¤¦ à¤®à¤¬à¤¹
à¤¹à¤¨ à¤°
Ġà¥¦ à¥ªà¥Ń
ot e
à¤¿ [
à¤² à¤¡à¤ª
Ġà¤Ĩà¤ĩ à¤¦
Ġà¥¦à¥¬ à¥Ń
Åĵ à¤¯
Ġà¤Ŀ à¤®à¤ķ
à¤§à¤¨ à¤Ĺà¤°
ĠT r
Ġà¥¨à¥¦à¥ª à¥§
22 9
à¤° à¤µà¤¸
à¤¨ à¤µà¤¸
à¤ħ à¤µà¤¤
id ay
Ġ4 0
à¤Ĩà¤ĩ à¤ĵà¤ıà¤®
) âĢĵ
l a
à¤· à¤°à¤¬
à¤ĸ à¤¨à¤²
ur day
!! !!
Ġà¤¨à¤Ĺ à¤Ī
ers on
s cri
à¤¾ à¥ģ
Ġà¤ī à¤ĺ
Ġà¤Ł à¤£
Ġà¤ĵ à¤®à¤ķ
à¤¸à¤¬ à¤Ńà¤¨
Ġà¥§à¥¯ à¥Ńà¥¬
os eli
Ġvide o
ĠMin istry
à¤ľ à¤¤à¤ķ
Ġà¤ĺ à¤¤
Ġmul dhar
c y
à¤¹ à¤¡à¤¤
Ġà¤¹ à¤¥
à¤¡à¤ķ à¤ªà¤®
à¤¬à¤¦ à¤¬
ed it
Ġà¤ľà¤¨à¤® à¤¤à¤¸
Ġre sp
A P
à¤§ à¤µà¤²
à¤Ĥ âĢĵ
à¤Ļ à¤Ń
Ġà¤¤à¤° à¤ĸà¤°à¤®
à¤ĵ à¤Ĩà¤°
à¤¾. -
ĠM B
or i
Ġà¤Ĩà¤Ī à¤¡à¤²à¤ķ
ic ros
ĠAuthor ity
a ch
Â ¬
à¤ĸ à¤µà¤°
Ġà¤Ķ à¤°
à¤¬à¤² à¤Ł
Ġà¥§à¥ª à¥¬
at ha
ec ial
à¤Łà¤Ĩà¤īà¤Ł à¤®
p aschimnepal
ĠF und
ĠCont act
à¤ı à¤¶à¤¨à¤ķ
à¤ĩ à¤ľà¤®
Ġà¤ľà¤¨ à¤¹à¤°
Ġà¤ĵ à¤łà¤®
ebs ite
Ġà¤¦ à¤¬à¤¦à¤¬
Ġà¤ļ à¤Łà¤ªà¤Ł
Ġà¤ªà¤¦ à¤ķà¤ķ
Ġà¥§à¥¬ à¥©
ï¿½ âĢ¦
ant a
Ġ>> >
L IT
à¤Łà¤¨ à¤¸
Ġà¤ıà¤® à¤Ĩà¤°à¤ª
Ġà¤Ĺà¤¢ à¤µ
à¤ķ à¤Ĺà¤¢
ĠS ex
Ġà¥ªà¥ª à¥§
Ġà¤ª à¤²à¤ķ
Ġà¥¤ âĢľ
Ġà¤īà¤ª à¤ķà¤°à¤£à¤²
ĠK oh
Ġw p
Ġà¥§à¥¯à¥® à¥©
à¤µà¤¸à¤¹ à¤®à¤¤
asin o
à¤¨ à¤«à¤²
Ġà¤ĵ à¤¹à¤¦
ĠS ansar
m c
à¤¥ à¤°à¤ķ
à¤²à¤¯ à¤²à¤Ĺ
Ġà¥©à¥¦ à¥¦à¥¦
ut ari
à¤¾à¥Īà¤ģ ,
âĢįâĢį âĢįâĢį
ĠChet ananews
Ġarticle à¤®
Ġà¥¨à¥¦à¥ª à¥©
s ar
à¤ģ âĢĻ,
à¤°à¤¤ à¤²à¤Ĺ
Ġà¤Ĩà¤® à¤¹à¤¡
ĠC ash
à¤Ĩà¤Ī à¤ıà¤¸
iti z
à¥«à¥¨à¥« à¥¬à¥¨à¥ª
ĠTag ged
f e
icros oft
à ±
à¤ª à¤Łà¤¹à¤°
Ġà¤ķ à¤µà¤°
Ġà¤Ĺ à¤Ĺà¤¨à¤²
Ġà¤ļ à¤¯à¤¨à¤®
à¤¯à¤¸ à¤µà¤°
à¤ıà¤¸ à¤ıà¤¸à¤¬
Ġà¤ıà¤¸ à¤¡
ĠB as
Ġc ryptocurrenc
ast e
à¤ķà¤ħ à¤ªà¤ķ
à¤ĸ à¤°à¤²
à¤°à¤£ à¤µà¤¶
à¥© à¥¨à¥¦
à¤Łà¤¨ à¤¬
à¤Ĺà¤ľ à¤²à¤®
ĠSat urday
F acebook
à¤¸à¤® à¤Ŀà¤¦
à¤ĵ à¤¹à¤°
à¤¸à¤¹à¤° à¤ķ
Ġ0 2
à¤²à¤ļ à¤²à¤¨
Ġ Ð
à¤· à¤°à¤¹à¤°
à¤ĸ à¤Ł
Ġà¤ĺ à¤¨à¤®
Ġà¤¨à¤Ĺà¤° à¤¸
Ġà¤¸à¤¯ à¤µà¤Ł
Ġà¥«à¥¦ à¥¦à¥¦
Dec ember
à¥į (
Ġà¤ıà¤ķ à¤¢
Ġà¤¥à¤ª à¤ĺà¤Ł
ĠC ric
à¤ķà¤¬ à¤¡
o j
à¤¶ à¤Ńà¤¨
à¤Ŀ à¤°
vi sion
ategor ized
à¤¯ à¤ªà¤¨
à¤Ī à¤¸à¤¹
à¤¹à¤¨ à¤ª
on ym
at t
v as
à¤°à¤¤ à¤¯
Ġà¤¡à¤²à¤° à¤Ńà¤¨
am ang
O T
à¤ª à¤¸à¤¹à¤°
Ġà¤Ĺ à¤ĩ
Ġà¥§à¥¯ à¥Ńà¥ª
ĠP ar
ĠE p
Ġà¥©à¥¬ à¥¦
Ġ% %
ĠĠ ĠĠ
ĠSing h
ĠCric nepal
H eadline
Ġà¤ħà¤ª à¤¦à¤¸
Ġà¥§à¥Ń à¥ª
.... .....
Ġà¤ª à¤¥à¤ª
à¤¹à¤ķ à¤¸
Ġà¥§à¥¬ à¥¨
à¥ĭâĢĵ âĢĺ
20 74
à¤ĸ à¤Ĺà¤ŀ
à¤ľà¤Ĺ à¤¦
ĠM hz
le ction
à¤µà¤¯à¤® à¤¸
Ġà¥®à¥® à¥¬
ĠMo del
Ġà¤¬à¤¹à¤° à¤¹à¤°
Ġ `
à¤ ©
Ġà¤® à¤Ń
à¤£ à¤¨à¤Ĺà¤°
à¤¾à¤ģ à¥¤
Ġà¥§à¥¯ à¥Ńà¥©
tion s
Ġs athi
ĠUr ja
à¤¿ âĢĻ,
à¥ģ âĢĿ,
à¥© à¥¦à¥¦
à¤² à¤µà¤°
ĠW ash
ĠIn Headline
à¥¦à¥¬ à¥¯
à¥¨à¥¦ à¥§à¥©
ab ul
ear ch
w ard
Ġà¤¸ à¤¶à¤°
Ġà¤Ń à¤¯à¤²
Ġà¤¡ à¤ļ
Ġà¤Ĭ à¤¨
Ġà¤¯à¤® à¤¨à¤®
à¤ªm à¤¤
m er
Ġà¤° à¤¯
à¥Įà¤Ĥ .
Ġà¥§à¥¯ à¥«à¥©
Ġà¤¬à¤ļ à¤¤à¤®
ĠD ar
à¤ħà¤µà¤¸ à¤°à¤®
Ġà¤¨ à¤¸à¤ļ
Ġà¤Ł à¤Ļ
Ġà¤¡ à¤Ĺ
à¤¨ à¤§à¤¨
à¤ķ à¤·à¤ķ
à¤¹ à¤Ĺ
Ġà¤ļ à¤ķà¤¨
al ue
ĠC apital
à¤ĩà¤ª à¤¬
ing ton
Ġ_________ ____
ĠCorpor ate
à¤² à¤°à¤¸
ïĤ §
onym ous
F ast
à¤ı à¤¤à¤²
Ġà¤Ĩ à¤Īà¤ķ
à¥¨à¥¦ à¥ªà¥®
à¤¶à¤Ń à¤°à¤®
ov ation
sp y
à¤ı à¤ĩà¤ķ
à¤ħ à¤ªà¤®
à¤Ŀ à¤°à¤¨
à¤°à¤¸ à¤¯
à¤²à¤¯ à¤ª
à¤°à¤ª à¤ŀ
Ġà¤®à¤¦ à¤°à¤¸
Ġà¤Ĩà¤ļ à¤°à¤£à¤ķ
9 0
à¤Ń à¤ľ
à¥Ĥ ?
ad hi
HAN I
C lick
T ube
Ġà¤Ĩ à¤µà¤°
Ġà¤ľ à¤²à¤ķ
à¤īà¤¨ à¤¸
Ġà¤¸à¤¹ à¤Ĩà¤¯
à¥¯ à¥¦à¥¯
Ġ! "
Ġà¤Ĩà¤ī à¤Ľà¤¨
Ġà¤¬à¤ļ à¤¤à¤ķà¤°
Ġà¥§à¥© à¥©
Ag ro
ã ĥ
Ġà¤¹ à¤²à¤¬
à¥Į ..
à¥¨à¥¦ à¥«à¥®
ic es
Ġà¥¦à¥« à¥®
und er
LIT ICS
Ġ: Â«
à¤Ĥ. âĢĵ
il d
Ġà¥©à¥© à¥§
am p
ric t
M ore
b i
w eb
Ġà¥¤ :
Ġà¤ķà¤² à¤¶
ĠNews Agro
ĠâĢ¦ ]
Ġf b
à¤µ à¤¹à¤¨
Ġà¤Ĩ à¤¥
à¤®à¤® à¤§
Ġd is
n er
Ġà¤ķ à¤¹à¤°
à¤¶ à¤¯à¤®
à¤ħ à¤Ĺà¤¸
Ġà¤Ĩà¤¦ à¤®
ĠC l
ĠP ay
ĠB ir
ur ya
i I
m ed
p ri
à¤¿ "
à¤ļà¤¨ à¤ħà¤¨
Ġà¤Ńà¤ı à¤ªà¤¶
01 8
Ġà¥§à¥Ń à¥§
act spy
à¥Ī ?
Ġà¥§à¥¯ à¥ªà¥«
ĠHamro S
9 3
à¤¸à¤° à¤ª
Ġà¤ħà¤²à¤Ĺ à¤ħà¤²à¤Ĺ
>> >
Ġà¤Łà¤¨à¤ķ à¤ª
à¤µ à¤ľà¤¸
à¤¸à¤¦ à¤µ
Ġà¤¹à¤° à¤¸à¤®
Ġà¤°à¤ķà¤® à¤¸à¤®
Ġà¥§à¥ª à¥§
à¤¨à¤Ń à¤°à¤ķ
== ==
E O
Ġà¤ľ à¤ľ
à¤µà¤¸ à¤°
à¤²à¤® à¤®
Ġà¥§à¥® à¥«
ti f
Ġà¥¨à¥® à¥¦
à¤¾: :
Ġ9 1
ĠPO LITICS
à¤ª à¤ķà¤®
à¤ľ à¤²à¤®
Ġà¤Ĩà¤īà¤¨ à¤ķ
er y
Ġà¤Ī à¤·
ĠR en
Ġà¥ªà¥¬ à¥¬
ĠðŁ ĺ
ĠFr iday
abul anda
à¤° à¤²à¤ķ
Ġà¤¡ à¤®à¤°
ch i
ĠDevelop ment
Ð °
Ġà¤¸ à¤ªà¤°
Ġà¤µ à¤¨à¤¬
ĠP art
Ġà¤ ¾
ĠP ress
ĠNay abulanda
ĠId ol
ĠTE AM
itiz en
à¤§ à¤°à¤£à¤²
Ġà¤§ à¤°à¤¤
Ġà¥¨à¥¨ à¥¨
ĠM e
Ġarticle à¤µ
v ice
Ġà¤ªà¤¸ à¤²à¤²
ĠUn c
k ha
Ġà¤°à¤® à¤ľ
à¤Łà¤°à¤ķ à¤¨
Ġf e
à¥¨à¥¯ à¥¦à¥¦à¥Ń
à¤² à¤ľà¤¯
Ġà¤° à¤Ł
à¤ı à¤¨à¤²
Ġà¤Ń à¤ľ
à¥Į :
à¤¤à¤° à¤ªà¤¶
re nd
à¥¯à¥®à¥ª à¥¨à¥¯à¥¦à¥«à¥§à¥¯
à¥¯à¥®à¥ª à¥¨à¥¯à¥¦à¥¦à¥Ń
scri be
à¥¯à¥®à¥ªà¥¨à¥¯à¥¦à¥«à¥§à¥¯ à¥§à¥¦
à¥¯à¥®à¥ªà¥¨à¥¯à¥¦à¥¦à¥Ń à¥§à¥¨
o ol
à¤®à¤¬ à¤¦
à¤¾... !
Ġs ong
à¥ĭ? âĢĿ
ĠDainik ee
kot a
Fast est
I ME
à¤Ī à¤¤à¤°
à¤¤à¤² à¤¹à¤°à¤ķ
Ġà¤· à¤·
ĠBI HANI
ĠSong s
6 2
à¤ķ à¤·à¤£
à¤¸ à¤°à¤Ń
Ġà¤µ à¤Ĺ
à¤¥ à¤¹
Ġà¤ļ à¤ŀ
Ġà¤ĩ à¤°à¤«
à¤·à¤ķ à¤¸
ec u
à¥¯à¥® à¥ªà¥©
à¤ĺà¤Ł à¤¨à¤ķ
Un icode
R E
à¤Ł à¤Ĺà¤¢
à¥Ĥ âĢİ
à¤¸à¤® à¤¤
à¤ŀ à¤¨
à¥ª à¥¦à¥¦
Ġà¤¨ à¤°à¤¦
Ġà¤¤ à¤Łà¤®
à¤ħ à¤°à¤®
Ġà¤ĵ à¤Ńà¤²
ĠG e
Ġà¤Ĺà¤¡à¤¬ à¤¢
d ha
g u
à¤¤ à¤ĸà¤¤
à¤¬ à¤°à¤¸
Ġà¤ıà¤® à¤ª
Ġà¥§à¥¯ à¥Ńà¥Ń
ĠA N
ĠK HA
ĠU K
à¤ı à¤²à¤¬
Ġà¤ħ à¤ľà¤®
Ġà¤¸à¤¹ à¤ħà¤¸
Ġà¥§à¥© à¥Ń
ĠG ur
Ġne w
à¤®à¤Ľ à¤®
à¤¹ à¤¬à¤°à¤®
à¤¬ à¤¶
Ġà¤µ à¤§
Ġà¤ľà¤¨ à¤¶
Ġà¥§à¥« à¥®
ĠA bout
E mail
Ġà¤Ĺ à¤®à¤²
Ġà¤Ľ à¤¹à¤°
à¤®à¤¨ à¤ª
à¤¸à¤¦ à¤¦
à¥§à¥® à¥«
t v
à¤· à¤¤à¤µ
Ġà¤Ľ à¤®
Ġà¤ĸ à¤²à¤¬à¤²
Ġà¤ķà¤² à¤¹
ĠD C
th an
OO K
Ġ ent
Ġà¤¹ à¤¬à¤²
Ġà¤ıà¤ķ à¤¹à¤ľ
ou n
à¤® à¤¸à¤ķ
à¤¹ à¤µà¤°à¤®
à¤µ à¤Ļ
à¤ł à¤¯
Ġà¤īà¤ª à¤¬
Ġà¤ħà¤« à¤¸
ĠH olm
Ġl atest
ecu tive
F M
à¤ķ à¤¸à¤¨
à¤Ł à¤ªà¤¤
âĢĻ à¥¤
à¤ıà¤¨ à¤¬
à¤¡à¤² à¤°à¤ķ
Ġà¤ħà¤« à¤®
à¤¿ à¤¿
à¤® à¤¸à¤²
à¤£ à¤¯à¤¨
Ġà¤Ńà¤¨ à¤¸
à¤°à¤¹ à¤¸
on struction
ĠD r
R N
} }
à¤° à¤ħà¤ĺ
Ġà¤¡ à¤°à¤ķ
âĢĿ (
à¤ıà¤¨ à¤Ł
à¥§à¥« à¥¨à¥¯
ul sip
Ġà¤¬à¤ļà¤¤ à¤ªà¤¤
Ġà¤Ĺ à¤ıà¤¸
à¥Ĥ âĢĿ
Ġà¤®à¤¹ à¤²à¤ķ
à¤ħ à¤ļà¤²
Ġà¤¯à¤¸ à¤Ń
Ġà¤ħà¤° à¤¬à¤²
st atus
à¤¾ <
à¤Ĺ à¤°à¤£à¤®
à¤Ī à¤¨à¤¨
Ġà¤¬à¤¨ à¤¸
Ġà¥§à¥¯ à¥©
à¤ħ à¤¬à¤¦
Ġà¤¬à¤¸ à¤°
Ġà¤īà¤¨ à¤¸
à¤®à¤¹ à¤²
a ir
à¥ĩ .....
Ġà¤Ł à¤ªà¤°
à¤ķà¤Ł à¤Ĺ
ĠE U
à¤ªà¤¸ à¤Ļ
ri me
out u
Ġà¤ıà¤ħ à¤°à¤ª
à¤¯ à¤¶à¤¨
à¤µ à¤Īà¤®
à¥Īà¤Ĥ à¤ģ
à¤ķà¤° à¤°
à¤°à¤ª à¤²
Ġà¥§à¥Ń à¥©
Ġà¤Ĩà¤Ī à¤ıà¤¸
à¥Ńà¥Ń à¥Ń
à¥¤ âĢ¦
Ġà¤Ĩà¤¹ à¤µ
lo t
S amachar
f t
à¤¦ à¤ľ
Ġà¤Ľ à¤¸
Ġà¤ĵ à¤ķà¤²
à¤§à¤¨ à¤Ĺ
Ġà¤īà¤ł à¤¨
à¤Ĩà¤ľ à¤ķà¤²
ĠW ord
à¤Ĩà¤ĩ à¤ı
ĠAct or
B ish
à¤² à¤ħà¤ĺ
Ġà¤¤à¤° à¤µ
à¤¡à¤² à¤°
Ġà¤¨à¤¬ à¤¤
ĠG u
à¥¯à¥®à¥ªà¥© à¥§à¥«à¥¨à¥¯
à¥¯à¥®à¥ªà¥©à¥§à¥«à¥¨à¥¯ à¥®à¥©
y outu
à¤¸ à¤ı
à¤¦ à¤°à¤¹
à¤§ à¤¦
à¤ħ à¤²à¤ªà¤¤
à¥ĭà¥¤ à¥¤
6 3
à¤¨ à¤¸à¤²
à¤ļ à¤¯à¤¨
Ġà¤Ĩ à¤Īà¤¨
à¤ĵ à¤¡
à¤ıà¤® à¤Ĩà¤°à¤²
Ġà¥§à¥¬ à¥¬
à¤ħà¤ª à¤¹à¤°à¤£à¤ķ
Ġà¥¦à¥« à¥¯
à¥ªà¥¬ à¥¯
j p
à¤¨ à¤¨à¤ķ
à¤® à¤¬à¤°
à¤¥ à¤¡
in st
âĢį à¥ĭ
ues day
â Ļ
Ġà¤¬ à¤¥
à¤µà¤¨ à¤¬à¤¹
à¤ıà¤® à¤ª
Ġà¥§à¥® à¥§
it a
ĠO S
Ġà¤ıà¤² à¤Īà¤¡
Ġ3 3
n u
à¤Ī à¤²à¤®
Ġà¤ı à¤«à¤¬
à¤²à¤¬ à¤¦
Ġ_ ____
Ġà¥§à¥¬ à¥Ń
Ġà¥¦à¥¬ à¥¬
y ale
à¥ ŀ
à¤® à¤¯à¤ķ
à¤® à¤²à¤®
Ġà¤¬à¤ļ à¤¤à¤ķ
Ġà¤Ī à¤£
ĠR a
à¥Ńà¥© à¥«
Pre v
ĠCr icket
ĠA sh
as ansar
âĢĮ âĢĮ
Ġ u
Ġà¤Ń à¤°à¤¤à¤®
Ġà¥§à¥Ń à¥¨
AR K
! âĢĻ
P ages
l s
à¤ı à¤Ĩà¤°
à¥Ĥ à¥į
Ġà¤Ĩà¤Ī à¤ıà¤¨à¤ľ
ĠTe le
ĠEx ecutive
' (
à¤· à¤ªà¤¹
à¤« à¤¯
à¤·à¤£ à¤ªà¤¤
à¤µà¤ª à¤Ł
ch ina
Ġà¥¬à¥« à¥¦
à¤¥à¤ª à¤°à¤ķ
à¥¦à¥¬ à¥®
à¤ľà¤Ĺà¤¢ à¤ķ
Ġà¤²à¤Ń à¤¸
ĠY outube
à¤¾.. (
ĠRec onstruction
ĠRen ovation
9 5
o int
à¤¯ à¤µà¤¤
à¤ī à¤¦à¤ķ
Ġà¤ĵ à¤ĸà¤¤
ar th
ĠM A
) âĢĻ
à¤¨ à¤¸à¤¨
à¤Ĺ à¤ªà¤ŀ
Ġà¤ķà¤® à¤²à¤ķ
ec k
à¥¨à¥¦à¥¬ à¥§
à¤Īà¤ĵ à¤Ł
yo ti
B ooks
à¥ Ľ
Ġà¤¨ à¤¥à¤ª
à¤¯à¤® à¤ªà¤ŀ
Ġà¤ħà¤¸ à¤°à¤¹à¤°
à¤¨à¤¸ à¤¯
Ġà¤ĭà¤£ à¤¬
à¤¸ à¤¤à¤ķ
à¥Ī "
Ġà¤¬ à¥ľ
à¤Ī à¤¤à¤²
à¤Ļ à¤ªà¤Ľ
à¤ªà¤¨ à¤¦
Ġà¤Ĺà¤ľà¤² à¤¹à¤°
ary a
Ġre st
à¤ıà¤¨à¤Ĩà¤°à¤ı à¤¨à¤ķ
m un
à¤¨ à¤ĺ
à¤¯ à¤¬à¤°
à¤µ à¤¥
Ġà¤ħ à¤¦à¤ķ
à¤ľà¤² à¤ľà¤²
to day
ĠGr ant
T V
Ġà¤ľà¤¨ à¤¸à¤°
Ġà¤®à¤¹ à¤²à¤®
à¥ĩà¤ģ ,âĢĻ
it ed
Ġl ink
Ġà¥ªà¥ª à¥©à¥¨à¥©
R P
n ow
à¥ĭ ......
al it
à¤¹à¤¨ à¤Ĺà¤°
Ġ3 018
Ġw ebsite
Ġà¤¨à¤Ĺ à¤¦à¤®
9 85
à¤² à¤°à¤¹à¤°
Ġà¤¨ à¤°à¤ķ
Ġà¤Ľ à¤¥à¤°
à¤Ĩ à¤ķà¤°
Ġ2 229
à¥¨à¥« à¥¦
ĠWash ington
à¤· à¤ľà¤¸
à¤ŀ à¤¬
Ġà¤ĵ à¤µ
Ġà¤ĺà¤° à¤ĸà¤°
an char
Ġ3018 01
Ġ un
à¤¦ à¤¯à¤¦
Ġà¤¸à¤® à¤§
à¤°à¤® à¤ªà¤Ľ
à¤¸à¤® à¤§
à¤²à¤ķ à¤¦
à¤®à¤¬ à¤ľ
ĠC al
ĠA ir
it an
à¤ıà¤« à¤¡
um an
tiv ate
à¤² à¤ªà¤ķ
à¤Ł à¤§
Ġà¤µ à¤¨à¤µ
Ġà¤ªà¤¦ à¤¬à¤¹
ĠT uesday
D E
Â Ń
à¤¶ à¤®à¤²
Ġà¤ľ à¤¯à¤µ
à¤ĸ à¤²à¤Ĺ
Ġà¤«à¤°à¤ķ à¤®
ener al
c ount
j i
Ġ ec
Ġà¤¬ à¤¹à¤ķ
Ġà¤ķà¤¸ à¤°à¤¤à¤®
Ġà¥§à¥« à¥©
Ġà¤Ĳ à¤ļ
ĠS cience
66 7
ĠFeder ation
Ġ2229 01
B OOK
o ice
à¥į )à¥¤
à¤¦ à¤¬à¤²
Ġà¤ķ à¤ļà¤¨à¤ķ
à¤§ à¤Ĺà¤¯
à¤¯à¤® à¤¨à¤®
à¤²à¤¯ à¤µ
Ġà¤¨à¤² à¤¡
à¤¦à¤ķà¤ª à¤¦
à¥į _
à¤¬ à¤Īà¤²
Ġà¤Ĩà¤ľ à¤®
à¤ķà¤¨ à¤¬
à¤¦à¤® à¤ķà¤®
Ġà¤Ĩà¤ı à¤ľà¤¸
ti st
Ġà¤ª à¤²à¤²
Ġà¤¤à¤ª à¤¶
Ġà¤Ī à¤Ń
Ġà¤¦à¤®à¤ķ à¤²à¤ķ
à¤¦ à¤¶à¤ķ
à¤µ à¤£à¤ķ
à¤°à¤¦ à¤¶
Ġà¤ĵ à¤ĸ
Ġà¤¬à¤² à¤µ
Ġà¤ıà¤« à¤ıà¤®à¤ķ
ation s
C S
T witter
h u
à¤Ī à¤ĸ
à¤®à¤¨ à¤Ĺà¤°à¤®
ĠB ank
ĠE uropeNepal
ĠUnc ategorized
Ġà¤Ĺ à¤ľà¤®
à¤ļ à¤²à¤¬
Ġà¤ĺ à¤°à¤¤
Ġà¤¸à¤®à¤¯ à¤¬
à¥§à¥¯ à¥¯
à¤ıà¤ķ à¤ķ
à¥Įà¤Ĥ ...
Ġà¥« à¥§à¥Ń
à¥įà¥¤ )
Ġà¥¨à¥Ń à¥¦
à¤ķ à¤ªà¤Ľ
à¤® à¤ł
à¤¯ Tags
à¥Ī âĢĿ
Ġà¤ĺà¤° à¤ľà¤®
à¤²à¤¤ à¤¹à¤°
et y
à¥¤à¥¤ à¥¤
Ġà¤ĵà¤Ńà¤° à¤¡
um bin
Ġà¤®à¤¹Ã¬ à¤µà¤ª
i j
à¤ľ à¤ħà¤¨
à¤¶ à¤µà¤ª
à¥įà¥¤ ...
à¤ľà¤® à¤¸
à¤ıà¤® à¤¡
Ġà¤Ĩà¤ĩà¤¡ à¤²à¤¬
à¤ıà¤¸à¤ĩ à¤Īà¤ķ
x e
à¤® à¤Ńà¤ķ
Ġà¤Ĩà¤µ à¤¹
lo k
m o
à¥į +
à¤¸ à¤ľà¤¨
à¤¹ à¤¤à¤°
Ġà¥¨ à¥Ńà¥ª
à¤®à¤¨ à¤¹à¤°
Ġà¤ªà¤¤ à¤ŀ
à¤¸à¤¹ à¤¨
à¤łà¤ķ à¤¸
Ġarticle à¤¬
8 7
B ab
à¤ª à¤²à¤Ĺ
à¤Ĺ à¤ı
à¥ĭ) ,
à¤ıà¤® à¤¡à¤¬
Ġà¥¨à¥ª à¥«
à¥ĭ ....
à¤² à¤ªà¤®
à¥Ī ;
à¤ľ à¤²à¤ķ
Ġà¤Ńà¤¯ à¤Ń
à¤łà¤ķ à¤µà¤°
ĠT O
à¥¦à¥© à¥§
à¤¯à¤¸à¤ªà¤Łà¤ķ à¤ķ
ĠâĢĭ :âĢĭ
CE BOOK
D A
d o
à¤® à¤°à¤¸
Ġà¤ļ à¤¤à¤°
à¤¯à¤¤ à¤µ
Ġ1 01
ĠR ong
at o
ĠD is
ĠD oc
as o
Ġc ategory
à¤«à¤² à¤«
ar g
com e
ra me
à¤īà¤ª à¤¸à¤Ń
Ġà¥¦à¥« à¥¨
sh ip
mc m
Ġà¤ıà¤¸ à¤Īà¤ĵ
à¤¯ à¤¬à¤²
à¤· à¤°à¤²
âĢĻ (
in al
à¤ıà¤® à¤Ł
rak ash
Ġà¤° à¤®à¤¨
à¤¬ à¤ļà¤¤
à¤· à¤°à¤¶
Ġà¤Ĳ à¤¸
Ġà¤ħà¤« à¤°à¤¹à¤°
Ġà¥¨à¥§ à¥¬
ĠâĢ¦ âĢ¦âĢ¦
à¥©à¥« à¥¨
à¤ħ à¤®à¤²
Ġà¤ħà¤¬ à¤²
Ġà¥§à¥¬ à¥ª
ĠC O
ou nd
Ġà¤Ĺà¤ĩà¤°à¤¹ à¤¨
s ud
à¤¿ à¥ĥ
à¤²à¤ķ à¤¸
Ġà¤ªà¤¦ à¤ļ
Ġà¤ıà¤¨ à¤ıà¤®
Ġà¥¨à¥¨ à¥«à¥®
à¤µ à¤¯à¤¸
à¤µ à¤Ńà¤¨
à¤ľ à¤Ł
à¤ĩ à¤®à¤ķ
à¤ĩ à¤¸à¤²
Ġà¤ľà¤¨ à¤¸à¤°à¤ķ
à¤ħ à¤µà¤ķ
à¤°à¤ĸ à¤£
ĠF ull
Ġà¤Ĩà¤ı à¤Ľ
Ġà¥¯à¥® à¥«à¥§
ĠUS A
Ġà¤² à¤Ļà¤®
à¤·à¤£ à¤ħà¤¨
re en
Ġà¥¨à¥ª à¥§
Ġent ry
à¥¨à¥¦ à¥§à¥¦
à¥¯à¥®à¥« à¥§à¥§
To day
P R
S D
à¤¸ à¤£
Ġà¤ª à¤µà¤¨à¤ķ
à¤ī à¤¸à¤¬
à¤°à¤£ à¤ª
ĠA ss
à¤« à¤°à¤ª
Ġà¤®à¤² à¤ĸ
à¤ıà¤¨ à¤ıà¤ķ
Ġà¤ıà¤ķà¤Ľ à¤¤
rop ol
à¤¨ à¤Ŀ
à¤¿ âĢĶ
à¤¤ à¤ħà¤²
à¤¯ à¤ĸ
Ġà¤¹ à¤¦à¤ķ
à¤ķà¤ª à¤¥
à¥¨à¥¦ à¥Ńà¥¬
Ġà¥§à¥ª à¥©
âĢĭ âĢĺ
yas amachar
G H
à¥Ģ +
à¤°à¤µ à¤ª
Ġà¤Ĩà¤ĩ à¤ĵà¤ıà¤¸
Ġà¤¸à¤ľ à¤Ĺà¤¤
ïģ ®
Ġà¤¹ à¤¡à¤ª
à¤¡ à¤ļ
Ġà¤Ĩà¤ľ à¤ªà¤¨
FA CEBOOK
à¥į /
à¤¦ à¤¯à¤°
à¤µ à¤¬à¤ľ
Ġà¤Ńà¤ı à¤Ľà¤¨
à¤¶à¤¤ à¤µ
ĠM ARK
Ġà¥©à¥© à¥ª
ap ul
ĠRep ort
% )
à¤¨ à¤¨à¤²
à¤ĩ à¤®à¤®
à¤ĺ à¤·
Ġà¤īà¤ª à¤ľà¤ķ
Ġà¤Ńà¤ı à¤Ŀ
ad i
Ġec onom
ĠMARK ET
S am
r j
à¤Ĥ à¤Ĥ.
à¤¡ à¤¨à¤¬
à¤ļ à¤ĺà¤°à¤®
Ġà¤ľ à¤²à¤¨
à¤µà¤¤ à¤¸
Ġà¤Ĳ à¤¨à¤¹à¤°
Ġà¥¨à¥© à¥¦
à¥§à¥Ń à¥¦
m à¤¯
w orld
Ġà¤ĵ à¤¨
à¤°à¤ļ à¤¨à¤ķ
Ġà¤¤à¤²à¤¬ à¤¬
) ...
r s
Ġ en
Ġà¤ª à¤¥à¤²
Ġà¤Ń à¤ĩà¤¸
à¥Į à¥¤âĢĻ
à¤¸à¤² à¤°
Ġà¤Ĩà¤° à¤ıà¤¸
oo t
ĠU pd
R anga
à¤Ľ à¤¯
Ġà¤¬à¤¸ à¤¸
Ġà¥§à¥¯ à¥ªà¥®
Ġv alue
pri yasamachar
lok priyasamachar
à¤Ĺ à¤µà¤¨
à¤ľ à¤ªà¤Ľ
ar adh
Ġà¤ľà¤¨à¤® à¤¤à¤²
à¤¼ à¥Ģ
ĠHamro serofero
D ownload
R I
Ġ under
à¤¿ Ã·
à¤¥ à¤Ńà¤¨
à¤Ŀ à¤®à¤ķ
Ġà¤ħà¤¬ à¤¶
ar b
à¤·à¤§ à¤°à¤¹à¤°
ĠD uni
à¤¿âĢ¦ .
ĠNay apul
Ġà¤® à¤Ĺà¤¨
à¤£ à¤ľ
à¥Į ,âĢĻ
à¤¨à¤¨ à¤Ĺà¤°à¤ķ
à¤ĩà¤² à¤°
il my
à¤§à¤¨à¤² à¤Ĺ
ĠAp aradh
â Ĺ
à¥ģ à¥Įà¤ģ
Ġà¤Ľ à¤ªà¤ķ
Ġà¤ĺ à¤¸
ĠR am
ch arya
Ġà¤°à¤£ à¤¬
à¤¹à¤ª à¤ŀ
à¥ªà¥¬à¥¯ à¥©à¥ª
A IL
p t
à¤¹ à¤¨à¤¸
à¤µ à¤Łà¤®
Ġà¤¨ à¤µà¤²
Ġà¤¯à¤¸ à¤¬à¤°
à¥ģ, '
Ġà¥§à¥¯ à¥ª
Ġà¥§à¥ª à¥Ń
ĠS c
ed i
Ġà¤Ĩà¤ı à¤¦
Ġ4 5
Ġti mes
Ġà¤¬ à¤¬à¤°à¤®
ĠS ee
à¤ĩà¤« à¤¸à¤¬
à¥¯à¥® à¥¬
In ter
Ġà¤¦à¤² à¤¸à¤®
Ġà¥¦ à¥¨à¥§
ĠA xe
ĠR o
Ġm o
à¤µ à¤¦à¤¨
Ġà¤® à¤ķà¤¹
à¤£ à¤ķà¤°
à¤ħ à¤µà¤¶
Ġà¤Ĩà¤Ī à¤ıà¤®
ent s
Ġ3 5
à¤¾ âĢį
à¤¨ à¤Ĺà¤¢
à¤ª à¤Ńà¤¨
Ġà¤¹à¤° à¤«
Ġà¤īà¤ªà¤° à¤¥
Ġ3 2
et ropol
Ġa uthor
ĠYou Tube
ĠCha he
ĠKHA BAR
à¤¤à¤ķ à¤¤
à¤°à¤¨ à¤ľ
à¤ĩ à¤°à¤¸à¤²
Ġà¤ĵ à¤ıà¤¸
Ġà¥¨à¥« à¥«
Ġà¤ıà¤¸ à¤Īà¤Īà¤ķ
Ġch annel
sud urkhabar
etropol itan
à¤¾ âĢĮ
Ġà¤µ à¤·à¤°
à¤¸à¤® à¤¬
à¤°à¤§ à¤°
à¤¾' ,
à¤ıà¤¨à¤Ĩà¤°à¤ıà¤¨ à¤ıà¤ķ
ĠAp p
ĠDuni yale
à¥Ģ ~
Ġà¤ķ à¤°à¤£à¤²
ĠC itizen
ĠD ep
à¥§à¥Ń à¥¯
ĠW e
ĠPat ro
Ex clusive
9 4
R e
à¤¨ à¤¬à¤¨
Ġà¤¸ à¤ľà¤ķ
à¤¥ à¤¨à¤²
à¤ī à¤ŀ
à¤ľà¤¨ à¤¨
à¤¨à¤® à¤¹
Ġà¤ļà¤² à¤¨à¤²
ĠT el
ĠN ow
ous e
Ġà¥¯à¥®à¥« à¥§à¥¦à¥®
ĠBlog ger
ĠKhelkud News
ï ¼
à¥Ī (
Ġà¤¤ à¤µà¤°à¤®
à¤°à¤µ à¤¶
Ġà¤°à¤ľ à¤¤à¤ª
Ġresp onses
, (
P OR
à¤¡ à¤°à¤µ
à¤Īà¤ķ à¤²à¤®
ĠÂ ´
à¥ Ĭ
à¤¨ à¤Ĺà¤¦
à¤¤ à¤¥à¤²
Ġà¤ļ à¤¹à¤²
à¤µà¤ķ à¤°à¤²
Ġà¥§à¥¨ à¥ª
Ġp rofile
I A
m l
à¤¡ à¤ľà¤¸
Ġà¤ı à¤®à¤ķ
à¤Ĩ à¤£à¤µ
à¤®à¤¦ à¤²
Ġd ownload
ĠMo tivate
P M
Ġà¤ħà¤§ à¤ķ
Ġs elect
" à¥¤
C ategory
à¤§ à¤°à¤£à¤ķ
à¤¨à¤® à¤°
Ġà¤Ī à¤ŀ
Ġà¥¦à¥« à¥ª
k t
Ġà¤¤ à¤µ
Ġà¤¸à¤¹ à¤¦
à¤ĩà¤¨ à¤«
Ġ... (
à¤µà¤°à¤£ à¤¬
Ġà¤¹à¤² à¤¸à¤®
ĠT ri
ic er
ĠL y
20 75
à¤¾ âĢį.
ĠS T
à¥Ńà¥© à¥¦
tic al
ac ep
Ġà¤¸à¤°à¤² à¤¤
Ġ12 9
d oc
t ar
Ð µ
à¥Į âĢľ
Ġà¤ĵ à¤ĩà¤²
ond on
à¤° à¤Ĺà¤°
à¤ļ à¤¯à¤¤
à¥Į ...
à¤°à¤£ à¤¨
Ġà¤®à¤¨ à¤¬
Ġà¤ĩ à¤¨à¤²
Ġà¥¬ à¥Ńà¥«
Ġà¤®à¤¤ à¤ħà¤¨
Ar ticle
Ġex actspy
à¤§ à¤¸à¤Ń
à¥Į à¥Īà¤Ĥ
Ġà¤ı à¤Ĩà¤Ī
Ġà¤Ķ à¤ķ
Ġm adhesh
Ġ!! !!
ul ar
Upd ated
à¤¿ ):
à¥ĩ âĢĺ
Ġà¤ı à¤²à¤¬
Ġà¤ķà¤® à¤²à¤®à¤£
Ġ? ...
à¥ĭâĢĵ âĢľ
w ay
Ġà¤Ľ à¤¹
Ġà¤ļ à¤ªà¤²
Ġà¤Ĺà¤¤ à¤¬à¤°
Ġà¤ĺà¤° à¤ĺà¤°
à¤¿, âĢĻ
Ġs harma
à¤¨ à¤ħ
à¤¦ à¤«
Ġà¤Ĺà¤° à¤¯
Ġà¤¤ à¤®à¤¸
à¤Ī à¤Ńà¤°
à¤¸à¤¨ à¤¸à¤¹
cha in
ĠPe acep
ĠPeacep okhara
à¤¯à¤¸ à¤¨à¤²
Ġà¤ıà¤® à¤ıà¤¸
Ġ, ,
ĠR ight
à¤Ĺà¤¬ à¤¤
à¤¯à¤£à¤Ĺà¤¢ à¤®
ang u
Ġà¤¬ à¥Ŀ
à¤ľ à¤¯à¤°
à¤¬ à¤ªà¤Ľ
à¤· à¤²à¤Ĺ
à¤ĸ à¤®à¤§
à¤°à¤® à¤¶à¤ķ
à¤µà¤° à¤µ
Ġà¥§à¥® à¥¬
à¤¤à¤°à¤² à¤¤
Ġà¤Ĺà¤ľ à¤²à¤®
Ġà¤¸ à¤¤à¤ķ
Ġà¤Ĺ à¤ĩà¤¹
à¤Ī à¤Łà¤ķ
Ġà¥« à¥§à¥®
à¥ĩ? '
à¤ªà¤Ł à¤ªà¤ķ
74 4
Ġy outube
ĠImage Khabar
k oseli
à¥Ī âĢĮ
à¤ı à¤Łà¤°à¤ķ
à¤ģ ...
à¤¨à¤® à¤£
Ġà¤®à¤¨ à¤¶
à¤®à¤¨ à¤µà¤®
Ġà¤ħà¤ª à¤¹à¤°
Ġà¥¬à¥¦ à¥§
Ġà¤ĵà¤Ń à¤²à¤®
AS H
m m
à¤µ à¤ĸ
à¤ľ à¤¯à¤¸
Ġà¤ħà¤ª à¤ļà¤²à¤¨
ĠP o
à¥¦ à¥¨à¥«
Ġà¤Ĺà¤ł à¤¨à¤¬
à¤¯à¤£ à¤¸
à¤ıà¤¨à¤ıà¤® à¤ıà¤ķ
r on
à¤ģ âĢ¦
à¤¯à¤¸ à¤ªà¤¶
ĠD ER
Ġarticle à¤°
à¥¨à¥¦à¥¬ à¥¦
Ġ o
à¤¶ à¤¤à¤°
à¤Ĩ à¤°à¤ľ
à¤¶à¤ķ à¤¦
à¤ķà¤°à¤£ à¤¹à¤°
à¥ĩà¥¤ âĢĿ
In fo
ĠDER AIL
k al
à¤Ĥ âĢĻ
à¤²à¤® à¤ķ
à¤¦à¤° à¤ª
à¤¥à¤² à¤¤à¤°
Ġà¥§à¥Ń à¥¬
Ġà¤ľà¤®à¤ĺ à¤Łà¤®
Ġà¤¸à¤® à¤¯à¤¤
à¤Ļ à¤¡
à¥« à¥§à¥®à¥«
à¤²à¤¨ à¤ļ
ur bar
as ha
k ar
Ġà¤Ĺ à¤«à¤®
Ġà¤¹ à¤°à¤¦à¤®
Ġà¤ľ à¤ļ
Ġà¤¯ à¤®à¤¨à¤ķ
à¤ĩ à¤Ļà¤²
à¤¾à¤ģ âĢ¦
à¤ħ à¤ĸà¤£
à¤¤à¤° à¤µà¤¸
Ġà¤¬à¤² à¤ľà¤«
à¥¨à¥¦ à¥«à¥¨
Ġà¤µà¤¨ à¤ľ
ĠW AT
sp ot
Pra bh
Ġà¥¯à¥®à¥«à¥§à¥¦à¥® à¥«à¥§à¥®à¥«
p ar
Ġ khabar
Ġà¤¬ à¤®à¤¬à¤¹
à¤¡ à¤°à¤¬
Ġà¤Ĩ à¤łà¤®
à¤Ī à¤¹
à¤·à¤£ à¤ķà¤°
Ġà¤ıà¤® à¤ľ
à¥Ģ) _
Ġà¤Ŀ à¤ªà¤Ł
à¤¥à¤² à¤Ń
it le
A ll
d ress
Ġà¤®à¤¨ à¤°
à¤°à¤ľà¤¨ à¤¸
Ġà¥¯à¥®à¥§à¥¬ à¥Ńà¥Ńà¥Ń
Ġà¥¯à¥®à¥§à¥¬à¥Ńà¥Ńà¥Ń à¥Ńà¥©à¥«
F e
h re
à¤ı à¤®à¤²
Ġà¤Ľ à¤®à¤Ľà¤®
à¤°à¤® à¤µ
Ġà¤ĸ à¤Łà¤¨
Ġà¤ı à¤¸à¤ķ
Ġà¤ı à¤²à¤¸
Ġà¤ľà¤¨ à¤ħà¤¨
ĠT IME
ĠW hat
Ġà¤¬à¤§ à¤¶
rj b
Ġà¤¸à¤® à¤¬à¤¨
Ġà¤Ķ à¤·à¤§à¤ķ
ĠNews Today
ĠâĢ¦ âĢ¦
ol ution
Ġnews today
à¤¼ à¤¿
Ġà¥§à¥¯à¥¬ à¥Ń
à¤Ĺà¤ļ à¤²à¤¨
à¥«à¥¨à¥¦ à¥©à¥«à¥¨
lock chain
Ġà¤¤ à¤¡à¤ķ
à¤ĸ à¤ªà¤¤
à¤ĩ à¤¤à¤ķ
à¤ľà¤¨ à¤ªà¤Ľ
Ġà¤ľà¤¨ à¤Ĺà¤£à¤¤
Ġà¥§à¥¯ à¥©à¥¯
at er
Ġà¥¯à¥®à¥ª à¥¨à¥«
N RNA
à¤ļ à¤Ń
Ġà¥ªà¥« à¥¬
Ġà¤ļà¤°à¤® à¤ªà¤¨
Ġ< !
uk rishna
Ġvi s
Bab ukrishna
. ),
Ġà¤¬ à¤ķà¤µ
à¤£ à¤ªà¤¶
à¤¸à¤¨ à¤ª
Ġà¤ĵ à¤Ĺ
à¤¨à¤Ĺà¤° à¤µ
à¥§à¥¯ à¥¦à¥¬
Ġs am
à¥¦à¥¬ à¥Ń
à¤Ł à¤ħà¤Ł
Ġà¤¹ à¤¬à¤ķ
à¤Łà¤ķ à¤¹à¤°
à¤¿à¤Ĥ à¤ģ
à¤Ńà¤² à¤ªà¤°
Ġà¥¯à¥®à¥ª à¥¯
up ada
à¤ĵà¤ı à¤®à¤²
Prabh upada
- (
H olm
e ep
t ang
à¤¤ à¤²à¤²
à¤Ł à¤¤à¤°
à¤Ī à¤ı
à¤¡à¤ķ à¤ķ
Ġà¤¢ à¤²à¤ķ
Ġà¤ıà¤¸ à¤¯
ne ss
à¤µà¤¯à¤¨ à¤¬
ĠB hat
ik oooo
ul i
à¤ļà¤¥ à¤°à¤¬
ĠAn onymous
ĠUS NEPAL
pu ter
Ġ{ {
G C
à¤¨ à¤°à¤¤
à¤¹ à¤¸à¤¹
à¤ľà¤¨ à¤ļ
à¤¤à¤° à¤¹à¤°
à¥ª à¥©à¥«
à¤¾à¥ĩ -
ĠUSNEPAL NEWS
r ag
Ġà¥ ŀ
à¥Į )
à¤ķà¤¨ à¤¹à¤°
Ġà¤¨à¤Ń à¤Īà¤ķà¤¨
ĠM ak
à¤īà¤ª à¤²à¤¬
Ġà¥¦à¥¬ à¥¦
Ġà¤ĺà¤ļ à¤ĺà¤ļ
/ >
8 9
á ¹
à¤£ à¤®à¤¨
à¤Ń à¤°à¤²
Ġà¤« à¤²à¤¤
Ġà¤«à¤° à¤«à¤°
Ġà¤§à¤¨ à¤¸à¤®
à¤Ĭ à¤¦à¤ķ
op mcm
Ġl ist
Ġà¥¯à¥®à¥« à¥§à¥¨
had ur
Ġsub mit
à¤ĩ à¤ħà¤¨
Ġà¤ħà¤§ à¤°
ar pan
à¤²à¤¤ à¤¸à¤®
à¤®à¤¸ à¤Ļà¤²
ĠT ou
ĠB anking
ik a
if t
ĠToday s
Ġà¤ªà¤¹ à¤²à¤²
à¤¸à¤¨ à¤¹
à¤¬à¤² à¤¤
à¤łà¤ķ à¤¸à¤®
ĠP ariyar
ĠS up
nd ash
Ġà¥§à¥¯à¥¬ à¥©
à¤¸ à¤ıà¤ķ
Ġà¤Ĩ à¤ıà¤²à¤Ĺà¤¤
Ġà¤ıà¤® à¤ıà¤®
à¤·à¤® à¤§
Ġà¤°à¤¨ à¤ľ
um ber
Ġà¤¬à¥ľ à¤ª
à¥Į à¥¤âĢĿ
Ġà¤ıà¤ķ à¤¡
Ġà¤ķà¤° à¤¸à¤®
K J
Ġà¤¨ à¤ĺ
Ġm an
ric s
A nd
m b
ĠNepal ese
à¤°à¤Ļ à¤¬
ĠG eneral
à¤°à¤£ à¤¸à¤¹
à¥ĭ, ...
à¥Įà¤ģ à¤Ĥ
ĠNews koseli
-- >
ist rict
Ġà¥§à¥¯à¥¬ à¥«
ile d
hak a
à¤¿ ),
Ġà¤¸ à¤¨à¤ķ
à¤Ł à¤ľ
à¤ľ à¤Ĺà¤¤
Ġà¤² à¤Ľ
à¤ĩ à¤Łà¤¨
Ġà¤§ à¤¨à¤µ
Ġà¤¨à¤Ń à¤ĩà¤¸à¤ķ
it wan
ĠGan than
ĠWAT CH
r u
à¤° à¤¡à¤®
Ġà¤µ à¤ļà¤¨à¤²
à¤ĵ à¤ıà¤¨à¤ıà¤¸
Ġà¥§à¥¯ à¥Ń
Ġà¥§à¥¯ à¥©à¥¦
Ġà¤¬à¤Ł à¤¨à¤®
M B
à¤¸à¤ķ à¤¬
à¥ģà¥¤ "
Ġar tha
Ġà¥¯à¥®à¥ª à¥§à¥ª
Ġà¤¤à¤¦ à¤ħà¤¨
à¤ı à¤°à¤®
à¤ı à¤®à¤®
à¤· à¤¤à¤®
Ġà¥« à¥¨à¥¦
à¤¨à¤¸ à¤ªà¤Ł
à¤Ńà¤µ à¤¨à¤®
à¥¦à¥¦ à¥¦à¥¦
ĠOS Nepal
I K
c on
k antipur
à¤ľ à¤²à¤²
Ġà¤¤ à¤Ļ
Ġà¤Ķ à¤ªà¤¨
Ġà¤ĥ âĢĵ
à¤ªà¤Ł à¤ªà¤®
à¤ĺà¤¨ à¤¶
Ġà¥«à¥¬ à¥¦
à¤¨à¤¯à¤¨ à¤ªà¤¤
gun aso
985 11
à¤¿ à¥¤âĢĻ
à¤µ à¤īà¤ªà¤ª
à¤Ĩ à¤ĵ
à¤®à¤¤ à¤¸à¤¹
à¥Īà¤ģ à¤Ĥ
à¤Ĺà¤ľ à¤²à¤ķ
Ġà¤¨à¤ħ à¤ªà¤¨
N ational
v el
à¤¤ à¤ļà¤¨
à¤Ļ à¤µà¤°à¤ķ
Ġà¤§ à¤¸
à¤°à¤µ à¤ļà¤¨à¤ķ
Ġï¿½ ...
Ġà¤°à¤¥ à¤¯
) [
N C
v en
à¤¬ à¤¯
à¤§ à¤ľà¤¯à¤¨
ar u
Ġà¥§à¥« à¥¯
à¤¯à¤£à¤Ĺà¤¢ à¤ķ
à¤°à¤¨à¤Ĺà¤° à¤¬
---- ----
9 18
Ġà¤¸ à¤¤à¤ª
à¤¦ à¤°à¤µ
à¤µ à¤ªà¤¤
à¤°à¤£ à¤¦
à¤¯à¤® à¤°
à¤ķà¤® à¤¬
à¤Ĺà¤² à¤ª
à¤ĺà¤° à¤ľà¤Ĺ
ME IJ
KJ MEIJ
g h
Ġà¤ĸ à¤²à¤Ļ
Ġà¥§à¥¯ à¥¬à¥¯
Ġà¤ķà¤¦ à¤®à¤¬
ĠUn icode
ĠSub scribe
Ġwee k
a hadur
à¤° à¤ıà¤ķ
à¤§ à¤Ńà¤°
à¤Łà¤¬à¤² à¤ħà¤¨
à¤µà¤Ł à¤°à¤®
Ġà¥©à¥¬ à¥Ń
Ġnews paper
jp g
667 74
O ct
à¤¹ à¤Ń
Ġà¤Ĩ à¤ĩà¤¤
Ġà¤ľà¤¨ à¤Ĩà¤¸
à¤ĩà¤¨à¤² à¤¬
ra tion
v ad
à¤¦ à¤¸à¤¹
Ġà¥¤ &
à¤¥ à¤ķà¤®
à¤°à¤¦ à¤¹
à¤ĸà¤° à¤ļà¤¨
Ġà¥¨à¥¨ à¥§
at ra
Ġn ot
i x
Ġà¤Ľ à¤ľà¤¨
à¤Ī à¤Łà¤²
à¤®à¤® à¤£
à¤¦à¤µ à¤¬
ĠM adhesh
à¤¾" ,
Ġà¥§à¥¯à¥¬ à¥®
ĠTIME S
d urbar
e Khabar
à¥ĭ à¥ĩ,
Ġà¤Ĩ à¤¶à¤ķ
Ġà¤ıà¤¨ à¤Ĩà¤ĩà¤¬
ĠA g
à¥§à¥¯ à¥«à¥¦
ĠF rame
ang tang
23 744
Ġ48 23744
98511 66774
N P
à¤® à¤¢
à¤® à¤®à¤¨
à¤¸ à¤¬à¤²
à¤Ł à¤¤à¤¨
à¤ģ /
à¤ķà¤² à¤Ļ
à¤²à¤¨ à¤¦
Ġà¤¸à¤¨ à¤¸
Ġ- âĢ¦
at ta
à¤īà¤ª à¤¸à¤®
Ġà¤Ĩà¤²à¤® à¤ķ
ĠPow er
inst ant
Ġ<! -
i tion
à¤ĩ à¤Ńà¤²
Ġà¤¨à¤Ń à¤¤
à¤®à¤Ĺ à¤¢
ĠNepal Khabar
à¤·à¤§ à¤°à¤¤
Ġà¥¨à¥¯ à¥¬
b ack
à¤° à¤ªà¤ķ
à¤ĩ à¤°à¤¨
Ġà¤¸à¤¹ à¤ĩà¤¨
à¤Ŀ à¤¡à¤ªà¤®
à¤ıà¤¨ à¤ıà¤²
à¥¨à¥¦ à¥«à¥¬
Ġà¤Ĺà¤£ à¤®
ĠSingh durbar
M P
à¤¾ âĢĿ,
à¤° à¤Ĩ
à¤¨ à¤ħà¤§
à¤² à¤ĸà¤¨
Ġà¤¹ à¤¦à¤®
Ġà¤¦ à¤¸à¤ķ
ĠT er
à¤¡à¤¬ à¤¡
à¥ĩ- '
Ġà¤¨à¤Ĩ à¤ĩà¤ª
MA IN
Bish al
T ype
à¥ģ _
Ġà¤¬ à¤ķà¤°
à¤ľà¤¨à¤ķ à¤°
Ġà¤°à¤® à¤Ŀà¤®
à¤Ĩà¤Ī à¤ıà¤®à¤Ī
ĠB reaking
ĠB ible
ĠK o
ĠArch ive
Ġà¥¯à¥®à¥«à¥§ à¥§à¥¨
i ety
Ġà¤ħ à¤«à¤²
à¤ĩ à¤ıà¤ªà¤¨
Ġà¤ħà¤¨ à¤²à¤ķ
à¤ħ à¤¥à¤µ
Ġ? âĢĵ
Ġà¤īà¤¦ à¤¯à¤°
à¥¨à¥¦ à¥«à¥§
Ġà¤Ĩà¤ī à¤¥
à¥ĩà¤ģ âĢĵ
Ġà¤¤à¤¹ à¤Ĺà¤¤
Ġà¤¨à¤µ à¤īà¤¦
A B
D abali
M a
k har
à¤¬ à¤ĩà¤®
à¤¤à¤° à¤¯
Ġ? -
Ġà¤Ĺà¤¤ à¤¸
ro w
ĠOnline Dabali
Ġof f
Ġi Phone
l aya
Ġà¤¹ à¤¤à¤ķ
à¤§ à¤§à¤°
à¤Ī à¤²à¤ķ
Ġà¤ı à¤Ĩà¤°à¤Ł
à¤¨à¤® à¤ķ
à¤®à¤¤ à¤ªà¤¤
à¤¾. ),
Ġà¤Ĩà¤® à¤ļ
ĠNepal eKhabar
Ġp olitic
ire ct
eni Online
hik ari
M y
S c
à¤ıà¤ķ à¤ªà¤Ľ
à¥Į à¥Ī
Ġà¥© à¥Ńà¥©
à¤¯à¤° à¤¸à¤®
ĠâĢĵ âĢľ
ĠA charya
ĠT em
à¤Ĩà¤¯ à¤°à¤²
à¤¾âĢ¦ .
Ġb usiness
os hi
Ġà¥§à¥¯à¥¬ à¥§
Â ®
Ġà¤¦ à¤ĸà¤²
Ġà¤² à¤Łà¤ķ
Ġà¥§à¥¯ à¥«à¥«
à¤ıà¤² à¤ĵ
ri ve
Nepal ese
Ġd o
Ġà¥¯à¥®à¥« à¥«à¥¦
l t
Ġà¥¤ ....
Ġà¤ħ à¤¨à¤ķ
à¤ī à¤¦à¤Ľ
à¤ĩ à¤¥
Ġà¤ħà¤¨ à¤ľ
à¤¨à¤® à¤²
à¤ħ à¤«à¤°
à¤Ĺà¤¤ à¤Ńà¤¨
qu o
Ġà¤ħ à¤²à¤ķ
Ġà¤¯ à¤²
à¤ĺ à¤¤
à¥« à¥©à¥©
Ġà¤¬à¤¸ à¤Ń
à¤Ĺà¤® à¤Ĺ
re n
Ġà¤¤à¤² à¤¸à¤®
ĠK c
à¤ķ Tags
Ġà¤¡ à¤Ļ
à¥¨à¥¦ à¥«à¥Ń
Ġà¤Ĳ à¤°à¤²
Ġà¤¨à¤ľ à¤°à¤¬à¤¨
Ġà¥¨à¥¯ à¥®
Ġm p
à¥ĩà¤Ĥ ,âĢĻ
ĠB ish
ĠI OS
à¥©à¥¦ à¥¨
ME NT
9 6
P al
P DF
b it
Ġà¤ļ à¤ĸ
Ġà¤¶ à¤¤à¤µ
Ġà¤Ĩà¤° à¤ª
âĢĿ -
à¤ıà¤² à¤ª
ĠL im
lo c
8 2
à¤¯ à¤«
à¤¬ à¤¨à¤²
à¥Ĥ !
Ġà¤ı à¤°à¤ª
à¤²à¤¯à¤® à¤§
Ġà¤¹à¤¸ à¤¨à¤²
ĠS ar
ĠT ype
ro ws
à¤¯à¤£à¤Ĺà¤¢ à¤¬
à¥©à¥¬ à¥¨à¥¯
à¤° m
à¤Ĺ à¤ĸà¤¬à¤°
à¤µà¤¨ à¤ļà¤¨
Ġt r
à¥¯à¥¬ à¥©à¥¨
ĠAd min
c es
k y
à¥¤ ,
à¤ķà¤® à¤£
Ġà¤Ĩà¤ĩ à¤¡à¤²à¤²
ĠNews laya
Ġà¥¨à¥® à¥©
iz e
ĠSh restha
à¥¯à¥®à¥¬ à¥§à¥¦à¥®
w as
à¤£ à¤ķà¤²
Ġà¤Ĩà¤¸ à¤¯
à¥¯à¥® à¥§à¥¯à¥¦à¥¬
à¥¦à¥© à¥Ńà¥¦à¥¦
Ġà¥¯à¥®à¥ªà¥¨à¥« à¥¦à¥©à¥Ńà¥¦à¥¦
à¥¯à¥®à¥¬à¥§à¥¦à¥® à¥¯à¥¬à¥©à¥¨
à¥¯à¥®à¥§à¥¯à¥¦à¥¬ à¥©à¥¬à¥¨à¥¯
Ġ z
à¤¯ à¤°à¤µ
Ġà¤ıà¤¸ à¤Ī
ĠM icrosoft
à¤µà¤¦ à¤¹à¤®
ou th
à¤Ľà¤²à¤« à¤²à¤ķ
8 3
à¤¸ à¤Łà¤°
à¤¬ à¤ľà¤¸
à¤ŀ à¤¸à¤¹
à¤ħ à¤ľà¤¯
Ġà¥¨à¥¦ à¥©
à¤Ĥ. -
Ġà¥§à¥Ń à¥Ń
ĠS ha
à¤¾âĢ¦ âĢĻ
G L
à¤µ à¤ªà¤°
à¤Ł à¤°à¤µ
Ġà¤¨ à¤µà¤¸
à¤Ī à¤¨à¤¬
Ġà¤ħà¤ª à¤ľà¤¸
Ġà¥§à¥¯ à¥«à¥¯
Ġà¥§à¥¯ à¥ªà¥¯
ĠK atha
à¤¤à¤¹ à¤Łà¤²
s ahity
à¤ķ à¤ªà¤¨
à¤¡ à¤¤à¤°
Ġà¤¯ à¤®à¤¬à¤¹
à¥¯ à¥ªà¥Ń
à¤ĩà¤Ł à¤¹
ĠC ham
ou nc
ia tion
vad in
à¥Ī à¤¾
à¤¬ à¤¤à¤¬
à¤¡ à¤£
Ġà¤ıà¤ķ à¤¦à¤²
Ġà¥¨à¥¦ à¥®
Ġà¥§à¥¯ à¥«à¥ª
à¤¤à¤ķà¤® à¤§
Ġà¤Ńà¤°à¤¤ à¤¬à¤¹
Ġà¤¨à¤Ńà¤ĩ à¤ķà¤¨
ĠFe wa
S T
Ġ out
à¤Ł à¤µà¤¯
à¤ľ à¤°à¤¬
Ġà¤µ à¤ļà¤¨à¤®
à¤ĩ à¤ªà¤®
à¤ĩ à¤¸à¤°
à¤ħ à¤°à¤¨
à¤ĵ à¤¨à¤²
Ġà¤Ĩà¤¦ à¤¤
à¤¸à¤µ à¤¹à¤°
ĠO p
el come
Ġk o
à¤²à¤Ĺà¤° à¤¹à¤°
Ġà¤¨ à¤Ńà¤°
Ġà¤Ĩ à¤¸à¤®
à¤µà¤° à¤¨
à¤¸à¤¦ à¤Ń
Ġà¤ĺà¤° à¤Łà¤¹à¤°
à¥¨à¥¦ à¥«à¥ª
Ġà¥¤âĢĻ ,
Ġà¥¨à¥« à¥¦à¥¦
Ġà¥¦ à¥§à¥Ń
at n
à¤¤à¤°à¤ķ à¤²
Ġà¥«à¥« à¥«
ĠIn formation
à¥«à¥® à¥ª
blog spot
ĠHamroS oft
GC DP
à¥ĭ à¥į
à¤¸ à¤ħà¤°
à¥Ĥ &
Ġà¤ħà¤¨ à¤¶à¤¨à¤²
à¤¹à¤ķ à¤ª
st ate
ĠS id
à¤ıà¤² à¤ıà¤¨
Ġadmin Leave
Ġcryptocurrenc y
S P
à¤® à¤°à¤²
à¤¸à¤¸ à¤«
ĠS H
ol i
Ġ6 0
à¤īà¤¥ à¤¹
à¤Ĺà¤Ń à¤Ļ
oh ori
ĠSu vadin
Ġà¤¬à¤¬à¤°à¤®à¤¹à¤² à¤¸
Article s
à¥į ',
Ġà¤§ à¤®à¤¨
à¤°à¤ķà¤°à¤£ à¤¬
) (
à¤ĸ à¤¬à¤°à¤®
à¤Ĺà¤® à¤¨à¤ķà¤°
Ġà¤Ĩà¤® à¤¹à¤¡à¤¤
à¤¿. )
âĢĭ âĢĭ
à¤Łà¤°à¤² à¤Ĺ
Ġà¥§à¥® à¥©
Ġà¥§à¥Ń à¥®
à¤¯à¤Łà¤¨ à¤¬
à¥©à¥¦ à¥©
à¥§à¥« à¥ª
Ġà¥§à¥¯à¥¬ à¥ª
à¤Ľ à¤Ł
à¤ľà¤¨ à¤¦
à¤®à¤¨ à¤¦
Ġà¤īà¤ł à¤¬à¤¸
ang adhi
hak han
time à¤®
ĠPra vas
A uthor
D arpan
G O
d ing
o x
Ð ¾
à¤¨ à¤Łà¤®
à¤¨ à¤°à¤µà¤²
à¤ĺ à¤¬à¤¹
à¤Ŀ à¤«
Ġà¤ĵ à¤¤à¤ª
Ġà¤ĺà¤° à¤Ĺ
à¤ıà¤¨à¤Ĩà¤°à¤ı à¤¨à¤²
7 6
w or
à¤Ĺ à¤ĸ
à¤ľà¤¨ à¤¶à¤ķ
Ġà¤¬à¤² à¤°à¤¹à¤°
à¤ľà¤¸ à¤ħà¤¨
à¤µà¤°à¤£ à¤¸à¤®
Ġp assword
O ID
à¤¤ à¤µà¤²
à¥ģ à¥ģà¤ģ
Ġà¤¶ à¤°à¤¤à¤¸
à¤¦à¤¨ à¤¸à¤¹
à¤°à¤ľ à¤ª
ion line
Ġv s
ĠLy rics
à¤¨ à¤Łà¤ķ
Ġà¤¸ à¤¯à¤°
à¤ª à¤ł
à¤°à¤² à¤¯
à¤Ŀ à¤Łà¤¬
Ġà¤ħà¤¸ à¤Ń
à¤µà¤® à¤§
à¤¡à¤® à¤§
à¤Ĩà¤° à¤Ĩà¤°
ĠS ystem
ĠM aj
ĠK ar
D C
Ġà¤ª à¤¯
Ġà¤Ĺ à¤¹à¤ķ
à¤°à¤¸ à¤µ
à¤ļà¤¨ à¤µ
Ġ! (
Ġà¤¸à¤Ļ à¤ĸ
ak a
à¤¬à¤¹à¤¸ à¤¸à¤¬
9 2
L O
o khabar
Ġà¤® à¤°à¤¹
Ġà¤ıà¤® à¤Ł
ĠA uth
Ġà¤°à¤® à¤ªà¤®
Ġà¥ªà¥¦ à¥Ń
Ġà¤ĸà¤ªà¤¤ à¤ķ
à¤ľà¤¸à¤® à¤§
ĠSand esh
Ġà¤¬ à¤£
à¤Ĩ à¤¤à¤®
âĢĿ à¥¤
Ġà¥§à¥¯ à¥«à¥Ń
à¤®à¤£ à¤ª
CI AL
angu age
# ...
F ree
f m
w ood
à¥« à¥¨à¥ª
Ġà¤ķà¤² à¤µ
Ġà¤¬à¤² à¤ª
Ġà¥¨à¥§ à¥«
ĠS ch
à¤¸à¤¹à¤° à¤®
à¤¯à¤¸à¤¬ à¤ĸà¤¤
** **
à¤Ł à¤Ľ
à¥¨à¥¦ à¥¦à¥¬
ĠS ur
à¥§à¥¦ à¥©
à¥ĭ? '
à¤¾à¥Īà¤Ĥ âĢĵ
A Y
Ġ ÃĹ
à¥ĩ ......
à¥ģ ]
Ġà¤¹ à¤£
à¤ĩ à¤¬à¤°à¤ķ
à¥Į à¤ĥ
à¤²à¤® à¤¹
al s
em s
à¤ĩà¤« à¤®
à¥Įà¤ģà¥¤ âĢĿ
aud el
Ð ¸
à¤¨à¤¨ à¤¸à¤ķ
Ġà¤ĺà¤° à¤Ńà¤¨
al y
à¤¾à¥ĩ ...
er a
à¤ªà¤£ à¤²
à¤¸à¤µ à¤¬
ine ws
Ġà¤¸à¤°à¤¸ à¤°
Ġà¤ħà¤µà¤¶ à¤°à¤®
à¥¨à¥¦à¥¦ à¥¯
Ġà¤ıà¤«à¤ı à¤®à¤®
Ġà¥¯à¥®à¥«à¥§à¥§ à¥¯à¥ªà¥Ń
rend ing
Ġà¥¯à¥®à¥«à¥§à¥§à¥¯à¥ªà¥Ń à¥¨à¥¦
à ¯
à¤® à¤¸à¤°
à¤¸ à¤µà¤¸
Ġà¤¥ à¤¬
à¥ĭ, âĢľ
ĠS PE
il m
à¤ķà¤®à¤² à¤ª
à¤Ĭ à¤®
-- -
Ġà¤ıà¤«à¤ı à¤®à¤²
l and
à¤¤ à¤¡à¤®
à¤ī à¤ķà¤²
Ġà¤«à¤° à¤µà¤°
ĠC INE
à¤ķà¤¸ à¤ª
à¤ħà¤¸ à¤«à¤²à¤¤
and esh
Ġb ir
ĠSh ort
sar okar
T O
à¤¦ à¤µà¤¸à¤¹
à¤Ł à¤ĩà¤¨
à¤ģ ?
Ġà¤¶ à¤µà¤¦
à¤²à¤ķ à¤¬à¤¸
à¤µà¤¤ à¤¬
an am
à¤¯à¤Łà¤ķ à¤¸
à¥Ģ) ...
à¤ıà¤² à¤Ł
Ġc an
à¥¨à¥¦à¥¦ à¥®
agarik news
ĠLo ve
à¤ķ à¤µà¤°
à¤¦ à¤°à¤Ń
Ġà¤® à¤°à¤®
à¥Ĥ ]
à¤ķà¤° à¤µà¤°
à¤ĩà¤² à¤¨à¤®
Ġà¤Ĩà¤ĩ à¤ĵà¤ıà¤®à¤ķ
à¥§à¥¦ à¥§
24 8
all s
à¤ı à¤¬à¤®
à¤¡ à¤¹à¤²à¤®
à¤¬à¤° à¤Ĺ
à¤§à¤¨ à¤¦
Ġà¤ıà¤® à¤Ĩà¤Ī
Ġà¥¨à¥¯ à¥«
ĠO F
ra ph
Ġà¤ĵà¤Ń à¤°à¤²
à¤¯à¤ľà¤¨ à¤¸
hak i
IC E
DR OID
R aj
à¤® à¤µà¤²
à¤¤ à¤ªà¤°
à¤¬ à¤°à¤¤
à¤§ à¤Ĺ
à¤ģ âĢĿ
Ġà¤®à¤¨ à¤ª
à¥¨à¥¦ à¥«à¥¯
re ad
Ġà¤ıà¤¨ à¤Ĩà¤Īà¤¬
Ġà¤ıà¤ª à¤¹à¤°
ter s
à¥Ģ' ,
Ġà¥¯à¥®à¥ª à¥§à¥©
Ġà¥Ńà¥ª à¥ª
ĠAN DROID
à¥§à¥Ńà¥¯ à¥§à¥ª
ĠCINE MA
g str
à¤° à¤¯à¤¸
Ġà¤¨ à¤ĩ
Ġà¤ĸ à¤²à¤¬
Ġà¤ľà¤¨ à¤¤à¤¨
Ġà¤¸à¤ķ à¤²
Ġà¥¨à¥§ à¥ª
ang e
Ġà¤¹à¤Ļà¤ķà¤Ļ à¤µ
ĠEconom y
Ġà¤ħà¤¹à¤®à¤¦ à¤²
à¤¾ à¥ĭ
à¤¨ à¤ı
Ġà¤¨ à¤Ĩà¤Ī
à¤§ à¤¡
à¤ļ à¤°à¤¨
à¥ĩ, âĢĿ
Ġà¤Ĩà¤Ī à¤ªà¤°
à¤Ĩà¤Ī à¤ıà¤¨à¤ľ
Ġà¤ľà¤¨à¤¸ à¤¤
Ġà¥©à¥ª à¥ª
ort med
ðŁ ı
Ġà¥¯à¥®à¥«à¥§à¥¦ à¥§à¥Ńà¥¯à¥§à¥ª
ĠAuth ortmed
ĠAuthortmed news
L IVE
à¤° à¤¢
à¤ı à¤Ĩà¤Īà¤ľ
à¤¬ à¤¬à¤Ī
Ġà¤¦ à¤°à¤¹à¤°
Ġà¤ľ à¤¯à¤¶
Ġà¤ªà¤° à¤«
à¤ĺ à¤°à¤Ń
Ġ3 6
Ġarticle à¤Ń
à¥ªà¥« à¥¬
AN G
ĠWebs ite
ĠReg mi
B E
à¤² Leave
Ġà¤Ĺ à¤Ĺ
à¤µà¤ķ à¤ªà¤²
à¤¸à¤¬ à¤®
B est
Ġ view
à¤¿ ....
à¤® à¤ªà¤°
à¥§ à¥©à¥¦
à¤¸à¤¨ à¤ªà¤Ľ
Ġà¤ħà¤ª à¤ļ
à¤²à¤µ à¤¦
Ġà¤ªà¤² à¤¹à¤°
Ġà¤¨à¤¬ à¤ľ
Ġà¤Ĩà¤¸ à¤¨à¤®
aw a
,, ,,
ĠSPE CIAL
o y
à¤¨ à¤ľà¤°
à¤¦ à¤²à¤Ĺ
Ġà¤® à¤ľà¤µ
à¤ļ à¤£
à¤¥ à¤¸à¤¹
à¤ł à¤¤à¤®
Ġà¤ıà¤ķ à¤¹à¤ª
à¥« à¥§à¥¯à¥¯
à¥Įà¤Ĥ !
à¤Ĩ à¤µà¤°à¤£
Ġ- '
à¤¸à¤¦ à¤¸à¤®
le t
Ġà¤¨à¤Ĩ à¤īà¤²
Ġà¤¨à¤Ĺ à¤ı
à¤ıà¤¨à¤ı à¤¨à¤²
aya i
Ġartha sarokar
Ġarthasarokar news
C ont
à¤Ł à¤Ńà¤°
à¤¶ à¤²à¤ķ
Ġà¤ı à¤ŀ
Ġà¤ĸà¤° à¤ĸà¤ľ
à¥¨à¥¦ à¥ªà¥Ń
à¤¤à¤°à¤£ à¤¸à¤®
Ġà¤¦à¤¶ à¤µà¤°
ĠC he
à¤Łà¤¬à¤² à¤ª
à¥§à¥¨ à¥¯
à¥Ńà¥¨ à¥¬à¥§
Fe atured
b u
à¤ī à¤Łà¤ķ
à¤ĺ à¤°à¤¦
Ġà¤ıà¤ķ à¤ªà¤Łà¤ķà¤®
à¤Ĺà¤¤ à¤¬
Ġà¤ªà¤¦ à¤µ
ĠP r
ĠOff icer
Ġà¤²à¤ĸà¤¨ à¤ī
And roid
Ġà¥¯à¥®à¥«à¥§à¥§à¥¨ à¥Ńà¥¨à¥¬à¥§
à¥«à¥§à¥¯à¥¯ à¥§à¥¦à¥®
R ed
j ect
à¤° à¤ľà¤¨à¤®
Ġà¤Ńà¤ı à¤¬à¤®
Ġà¤ħà¤ª à¤¶à¤¬
Ġà¤¸à¤¡à¤ķ à¤¦
ĠP hone
à¥ĩà¤ģ à¥¤âĢĻ
Ġà¥¯à¥®à¥« à¥Ńà¥¦
à¥¬à¥® à¥ª
Ġi mage
ms gstr
ĠTele vision
Ġà¤¬à¤¬à¤°à¤® à¤¹à¤²à¤®
haka haki
à¤ļ à¤¸à¤¹
à¤°à¤ķ à¤¸
âĢĵ ...
à¤ķà¤° à¤ļ
à¤µà¤² à¤¸
à¥¨à¥¦ à¥¨à¥¯
Ġà¤Ĩà¤¶ à¤²
er n
à¥Ģ. )
ĠW icket
Ġ20 72
ïģ ¶
iss ion
âĢ ı
à¥Ĥ à¤ĥ
Ġà¤ı à¤ıà¤¨à¤ı
Ġà¤ĺ à¤®à¤¨
à¤ªà¤¨ à¤¸à¤¹
Ġà¤Ŀ à¤Ŀà¤²
Ġà¥§à¥¯ à¥¨
à¤ļà¤² à¤¨à¤ķ
or s
ĠR SS
à¥§à¥¯ à¥§à¥®
Ġvis it
à¤ľà¤¨ à¤Ĩà¤¨
Ġà¤ıà¤ķ à¤®à¤¹
à¤¯à¤¤ à¤µà¤¶
à¤ĩà¤¨ à¤¦
ur ch
Ġarticle à¤¦
Ġà¤®à¤¦à¤¨ à¤¸
hakhan chi
ĠWicket Nepal
à¤¯ à¤¯à¤®
à¥Ģ ]
Ġà¤¹ à¤°à¤£
à¤£ à¤Ń
à¤¬à¤¸ à¤ª
à¤¨à¤¦ à¤¹
à¥§à¥§ à¥¯
ust a
f n
Ġà¤ªà¤° à¤²
Ġà¤ĺ à¤¨à¤¤
à¤²à¤¯ à¤Ĺà¤¤
à¤°à¤µ à¤®à¤¯
à¤ĩà¤« à¤Ł
Ġà¥ªà¥© à¥¯
j illa
Â £
Ġ à¥ĩ
à¤ĩ à¤Ńà¤ķ
à¤ħ à¤ªà¤²
Ġ( ...
à¤ķà¤² à¤¹à¤°
à¤ĸà¤° à¤ª
à¥¨à¥¦ à¥«à¥¦
Ġà¤Ľà¤²à¤«à¤² à¤¸à¤®
à¤¹à¤¤ à¤¸
à¥§à¥¦ à¥«
ra j
A J
Ë Ī
Ġ à¥į
Ġ à°
Ġà¤Ľ à¤°à¤ªà¤¸
Ġà¤¸à¤® à¤ªà¤¨
Ġà¤Ńà¤ı à¤¬
Ġà¤Ľà¤²à¤«à¤² à¤¹à¤°
ĠN ame
ab il
Ġà¤Ĺà¤ı à¤Ľ
à¤µà¤¯à¤® à¤²
Ġà¤Ĩà¤īà¤Ł à¤¸
f acebook
à¤¬ à¤µ
à¤²à¤® à¤ĸ
à¤Ŀ à¤ª
Ġà¤ĺà¤° à¤Ĩ
Ġà¤ªà¤Łà¤ķ à¤Ńà¤¨
on y
à¤²à¤¸ à¤ĸ
à¤īà¤ªà¤ķ à¤°à¤£
ĠWord Press
H o
à¤ķ à¤ªà¤ķ
à¤¯ à¤Ńà¤°
à¤· à¤ªà¤¨
à¤ī à¤¡à¤²
Ġà¤ĸ à¤°à¤ķ
al ent
Ġà¤Ńà¤° à¤¸à¤ķ
Ġà¥¦ à¥ªà¥¯
ĠC enter
at s
ht ml
à¥Ĥà¤ģ ,
ot ang
ĠAd hikari
ĠSer vice
E uropeNepal
à¤° à¤ł
à¤ª à¤Ń
Ġà¤¤ à¤²à¤¤
à¤Ī à¤µà¤¸
à¤Ī à¤ĵà¤ķ
à¤°à¤£ à¤®à¤§
Ġà¤Ĩà¤° à¤¨
Ġà¤¸à¤° à¤°
ĠT aste
Ġ) ,
201 2
à¤ªà¤¨à¤² à¤Ĺ
up ane
iz ation
und ra
g hakhanchi
q ue
à¤¹ à¤ªà¤¥
à¤¦ à¤ĸ
à¤ľ à¤Ńà¤¨
Ġà¥§à¥Ń à¥¯
Ġà¥¨à¥® à¥¨
bar i
à¤¯à¤Ł à¤ķà¤®
à¤£à¤Ĺ à¤Ļ
Ġà¤ķà¤ļà¤¨à¤ķ à¤µà¤²
à¤¯ à¤¡à¤Ńà¤¨
à¤¬ à¤Īà¤¸
à¤Ľ à¤®
à¤ī à¤ªà¤¸
à¤ĺ à¤°à¤²
à¤°à¤¹ à¤ªà¤Ľ
Ġà¥¨à¥¦ à¥¨
Ġà¤ķà¤® à¤²à¤¨
Ġà¤ĵ à¤ļ
Ġà¤ĸà¤° à¤¨
à¤µà¤¤ à¤¨à¤ķ
Ġà¥¨à¥© à¥«
Ġs ource
ĠFe atured
Ġà¤ľà¤®à¤ĺ à¤Łà¤ķ
ĠDh angadhi
Â ķ
à¤¾ ~
à¤¨ à¤¤à¤ķ
Ġà¤¨ à¤¢
à¤°à¤¦ à¤¶à¤¨
à¤¹à¤ķ à¤µà¤°
Ġà¥§à¥¯ à¥«à¥¬
à¤¥à¤² à¤¸
Ġà¤¦à¤¶ à¤µà¤Ł
Ġà¥¨à¥© à¥¨
ma t
Ġs et
oo ter
ris m
Ġà¤Ĩ à¤¦à¤¨à¤ª
à¤ĩ à¤ħà¤ķ
à¤¸à¤® à¤¯à¤²
Ġà¤ľà¤¨ à¤īà¤¤
à¤µà¤°à¤£ à¤µ
Ġà¤Ĺà¤£ à¤ª
ĠS hare
à¥§à¥¨ à¥®
Ġà¤¬à¤ķ à¤ªà¤¤
ig h
Ġ8 0
A K
R V
Ġà¤Ĺ à¤®à¤Ĺà¤¢
Ġà¤µ à¤¨à¤®à¤¨
à¤ıà¤¨ à¤Ĩà¤Ī
Ġà¤¦à¤² à¤¦à¤²à¤®
Ġà¤¤à¤²à¤¬ à¤²
Ġ3 9
Ġà¤ľà¤Ĺà¤¤ à¤ª
Ġà¤ ģ
à¥ĭ &
à¤ĩ à¤ıà¤«à¤ı
à¤īà¤¨ à¤¤
à¤Ŀ à¤²à¤¨
ĠC OR
Ġm y
ĠW eb
Ġà¤¦à¤®à¤ķ à¤¸
Ġà¤Ĩà¤ĩà¤¨ à¤¸à¤ķ
Ġ< /
K R
Ġ Ã
Ġà¤¬ à¤µ
à¤Ļ à¤ķà¤°
Ġà¤§ à¤°à¤§à¤°
à¤ķà¤² à¤°
à¤Ĺà¤¤ à¤°à¤¤
à¤§à¤¨ à¤Ń
Ġà¥§à¥§ à¥¦à¥¦
Ġ. ::
à¤¯à¤ľà¤¨ à¤¬
ĠPur i
à¥«à¥©à¥© à¥ªà¥©à¥«
F l
à¤¡ à¤®à¤²
Ġà¤ī à¤¤à¤°
à¤¾, ...
à¤²à¤¨ à¤ľ
Ġà¤¹à¤° à¤°
Ġà¤¬à¤¹ à¤®
ĠN agarik
ĠH el
x y
à¤ı à¤«à¤¬
à¤Łà¤¨ à¤ªà¤Ľ
à¤ıà¤® à¤Ĩà¤°
ra z
à¤¾à¥¤ à¥¤
Ġà¥®à¥® à¥¦
Ġ_________ ___
i ri
à¤¾ ï¿½...
à¤¬ à¤ķà¤°
Ġà¤µ à¤¶
à¤°à¤® à¤¤
à¤ĺ à¤²à¤Ĺ
Ġà¤ľà¤¨ à¤Ĺà¤£à¤¤à¤¨
à¤Ĺà¤° à¤¨
Ġà¥¨à¥¦à¥Ń à¥Ń
à¤¨à¤¸ à¤ªà¤Ľ
Ġà¤Ĩà¤ĩ à¤¬
Ġà¤ľà¤® à¤°à¤ķà¤Ł
à¤ľà¤¦ à¤£
Ġà¥¨à¥© à¥¬
Ġp age
Ġà¥¦à¥« à¥Ń
oc iety
alk rishna
Vide os
by wiki
tar ai
/ âĢĵ
S ab
à¥ĭ ï¿½
Ġà¤ª à¤ľ
à¤ļ à¤²à¤¸
à¤Ń à¤°à¤¬
âĢ ķ
Ġà¤ķà¤® à¤²à¤²
à¥ģà¤ģ à¥¤âĢĻ
à¤®à¤¦ à¤¨à¤ķ
ĠR ai
à¤¶à¤¬ à¤£
Ġ3 4
im an
Ġà¤¡à¤Łà¤ķà¤® à¤¸
ya h
10 4
âĹ ı
à¤µ à¤¶à¤¤
à¤« à¤£
Ġà¤¯à¤¸ à¤ĸ
Ġà¤Ī à¤¬
ĠR E
ĠR ev
à¤¾à¥¤ âĢĿ
Tag ged
POR ATE
d m
â Ī
Ġà¤° à¤Ļà¤®
Ġà¤® à¤¤à¤®à¤§
Ġà¤µ à¤¶à¤®
à¤ļ à¤®à¤§
à¤ĩ à¤¤à¤°
Ġà¤ıà¤ķ à¤ĸ
à¤®à¤¤ à¤ª
Ġà¥§à¥¯ à¥§
à¥§à¥¦ à¥Ń
ed y
ĠB RT
Ġà¤ªà¤¸à¤² à¤¦
à¥©à¥® à¥©
ere d
Ram kshrestha
ĠCOR PORATE
Ġ id
Ġ ram
Ġà¤µ à¤ļà¤¨à¤ķ
à¤ī à¤§
à¤ī à¤Łà¤°
Ġà¤¸à¤® à¤¶
Ġ? âĢĻ,
à¤²à¤² à¤²
Ġ: ...
à¤ķà¤°à¤£ à¤¦
Ġà¥® à¥«à¥¦
Ġà¤®à¤¦ à¤¤à¤®
ĠB est
ĠN RNA
à¤¯à¤°à¤ķ à¤ª
ama k
Ġw h
ĠBud dha
s urya
ã ģ
à¤² à¤Ĺà¤²
à¤· à¤¯à¤ª
Ġà¤Ľ à¤²à¤ķ
à¤Ī à¤ªà¤Ľ
à¤ī à¤ªà¤¹
Ġà¤®à¤¤ à¤¸à¤°
ar o
it es
à¤ĸà¤¨ à¤¨à¤ķ
ol low
Ġà¤ıà¤« à¤¡
Ġà¤¨à¤ļ à¤¢
à¥«à¥¯ à¥§à¥«
Ġn o
M iss
T rending
à¤ª à¤¯à¤®
à¤¬ à¤Łà¤°à¤«
à¥Į /
à¤²à¤ķ à¤µ
Ġà¤Ĳ à¤ľ
Ġs lider
Ġc l
âĢ¦âĢ¦ .
ĠY ear
ĠSh ow
ounc il
C SS
M T
U P
à¤¯ à¤µà¤ķ
à¤¸ à¤ĸà¤¬à¤°
à¤¹à¤° à¤¬
à¤¸à¤² à¤§
à¤Łà¤® à¤£
Ġà¤¨à¤Ĺà¤°à¤ª à¤²
Ġà¤ıà¤¨à¤Ĩà¤°à¤ıà¤¨ à¤¹à¤°
à¥©à¥© à¥Ńà¥©à¥¦
for m
0 75
F iled
à¤® à¤ĺà¤°
Ġà¤ķ à¤ķà¤ª
à¤·à¤£ à¤Ńà¤°à¤®
à¤¯à¤Łà¤ķ à¤¬
à¤¸à¤µ à¤Ł
ĠE SD
Ġà¤°à¤£ à¤ľ
Ġb ig
ĠSp y
m nt
à¤ķ à¤ľà¤¨
à¤¬ à¤²à¤¬
à¤Ń à¤²à¤ª
à¤ī à¤ªà¤¦
à¤ħ à¤ł
en g
à¥Ģ) âĢĵ
ik o
Ġà¤¡à¤² à¤°à¤²
à¤Ĳ à¤¨à¤ķ
à¥¨à¥¦à¥¦ à¥§
Ġ200 8
IE W
ich hane
O UR
Ġà¤¸à¤® à¤¦
à¤¯à¤ķ à¤Ńà¤¨
à¤ħ à¤¸à¤®
Ġà¥¬à¥¦ à¥Ń
us e
à¥«à¥« à¥©à¥©à¥Ńà¥©à¥¦
à¥§à¥Ńà¥¦ à¥¨à¥¨
Ġà¥¯à¥®à¥ªà¥§à¥ª à¥§à¥Ńà¥¦à¥¨à¥¨
' âĢ¦
H ow
y v
à¤² à¤¤à¤ª
Ġà¤ķ à¤Łà¤°
Ġà¤ī à¤¸à¤¬
à¤ĺ à¤µ
Ġà¥¨à¥ª à¥¯
à¥Ńà¥« à¥¦
Ġà¥¬à¥¦ à¥«à¥¯à¥§à¥«
ĠG a
ust ry
à¤¾? âĢĻ
Ġà¥¬à¥¦à¥«à¥¯à¥§à¥« à¥§à¥§à¥ª
T itle
h al
n agariknews
à¥ĩ âĢľ
à¥ĭ à¤¾
à¤¸ à¤ł
Ġà¤¬ à¤Ĺà¤¨
à¤ĸ à¤¤à¤°
à¥Ĥ /
à¤¨à¤ķ à¤¤
à¤²à¤¨ à¤¤à¤°
à¤®à¤² à¤ª
in ter
Ġà¤ļà¤° à¤¨
Ġà¤¸à¤¡à¤ķ à¤¸à¤®
ti k
à¤µà¤ķà¤ª à¤¬
Ġà¤¢à¤ķ à¤¢à¤ķ
à¤¹à¤£ à¤¬
mnt v
B alkrishna
à¥ĩ ::
à¤² à¤ļà¤°
à¤Ł à¤ı
à¤ł à¤¯à¤ķ
à¤Ĺà¤° à¤¬
à¤Łà¤° à¤¨à¤²
Ġà¥¨à¥¬ à¥¯
à¥¦à¥© à¥¯
art ment
bo ard
Ġà¤¶à¤ª à¤¥à¤ķ
ĠBas kota
â ĭ
à¤¾ à¥ĥ
Ġà¤ª à¤§
à¤ľ à¤ľà¤¸
à¥¯ à¥¦à¥¦
à¤°à¤¬ à¤ľ
Ġà¥§à¥¯ à¥§à¥ª
Ġà¥§à¥® à¥®
ĠS harma
ĠR ani
Ġà¤ĭà¤£ à¤²
Ġà¤®à¤Ļ à¤¸
is ode
à¥Įà¤ģà¥¤ "
Ġ200 7
az z
à¤¨à¤¸à¤ªà¤Ł à¤²à¤®
5 00
f ilmy
u ment
à¤® à¤µà¤¤
Ġà¤Ĺ à¤ĩà¤¯
à¤Ł à¤¶
Ġà¤Ĩ à¤Ļà¤¦
à¥Ĥ à¥°
à¤°à¤®à¤£ à¤ħà¤ĺ
ĠF ooter
Ġà¤ĵà¤® à¤¨à¤ķ
set okhabar
D S
H aw
J Y
f ere
v es
Ġ ro
Ġà¤¹ à¤ķà¤¸
à¤· à¤ľà¤¤
à¤¡ à¤¹à¤²
à¥Ĥ âĢĻ,
Ġà¤ªà¤° à¤ľ
à¥ĩà¥¤ '
à¥§à¥¦ à¥¨
à¤ħà¤ª à¤¹à¤°à¤£
ĠG har
à¤ļà¤¨à¤² à¤Ĺà¤¤
,âĢĿ âĢĵ
Ad dress
O L
à¤¸à¤ķ à¤®
à¥§à¥¯ à¥§à¥«
à¤¦à¤¶ à¤°à¤¥
à¤ĩà¤Ń à¤°à¤ķ
ĠV is
oc iation
à¤¨à¤ħ à¤Łà¤°
u x
à¤® à¤£à¤ķ
à¤¶ à¤Ĺà¤¤
à¤Ĺà¤® à¤¯
à¤ıà¤¨ à¤Ĩà¤°à¤Ł
à¤µà¤¦ à¤¹à¤ķ
ri es
de y
ĠAr un
à¤¿âĢ¦ (
ĠEng ine
Ġsama j
âĭ Ļ
à¥ĩ ....
Ġà¤ıà¤ķ à¤ł
ĠM ahal
à¤§à¤¸ à¤¤à¤ķ
She khar
chha khabar
ĠNamaste filmy
yah oo
JY OT
B ichar
à¤¨ à¤Ĺà¤¨
Ġà¤Ĩ à¤°à¤¬
à¤Ń à¤°à¤¸
à¤ī à¤ªà¤²
à¤¸à¤¨ à¤¸à¤¤
à¤ķà¤ķ à¤ķ
à¤¤à¤² à¤¤
à¤¸à¤¦ à¤®à¤§
Ġà¤ıà¤® à¤Ń
Ġ, âĢĻ
à¤°à¤ľ à¤¤
à¤ªà¤£ à¤®
à¤°à¤ĸ à¤¨
à¤ıà¤ľ à¤¤
ĠL ocal
à¤¶à¤¹à¤° à¤ķ
ĠV J
ĠY our
if est
T A
b ir
k chhakhabar
à¤ĸ à¤Ĺà¤¨
à¤ļà¤¨ à¤¦
Ġà¤ªà¤¤ à¤¨à¤ķ
à¤Ĺà¤® à¤¬
à¤ĩà¤¡ à¤¬
à¤ªà¤¸ à¤²à¤®
à¤ıà¤¨à¤ı à¤ļà¤¸
ĠPro gram
Sam undra
Sab anam
Haw dey
JYOT IE
C A
à¤² à¤¸à¤°
Ġà¤¬ à¤®à¤¬
Ġà¤Ĩ à¤łà¤ķ
à¤Ī à¤Łà¤°
à¤Ī à¤¥à¤°
à¤£ à¤ĺ
Ġà¤§ à¤¨à¤¸
à¤Ĺà¤° à¤¸
Ġà¤ħà¤µ à¤¯à¤µ
ĠNepal D
à¤ķà¤¸ à¤¤
à¤ĩà¤ķà¤² à¤¯
ĠL ist
ĠFor um
h w
à¤® à¤¦à¤ķ
Ġà¤Ń à¤Łà¤°
à¤¶ à¤²à¤Ĺ
Ġà¥¨à¥Ń à¥Ń
à¤ħà¤ª à¤¹à¤°à¤£à¤®
Ġ3 8
ri end
_ à¥¤
o ve
v Z
à¤¦ à¤Ńà¤®
à¤Ł à¤īà¤ªà¤Ĺ
Ġà¤¨ à¤¢à¤²
à¤Ļ à¤ľà¤¸
à¤Ŀ à¤¨à¤²
Ġà¤ĩ à¤¦à¤ķ
à¤·à¤ķ à¤¦
à¤·à¤§ à¤°à¤²
Ġà¥¨à¥¬ à¥«
Ġà¤¨à¤µ à¤²à¤ķ
ay ak
Ġà¤ıà¤² à¤¡
à¤ħà¤¨à¤¶à¤¨ à¤°à¤¤
ðŁı ¢
H amro
S oftware
à¥į ï¿½
à¤¹ à¤¨à¤®
Ġà¤® à¤²à¤²
Ġà¤Ń à¤°à¤£à¤ª
in anc
Ġà¥§à¥¯ à¥§à¥Ń
Ġà¤Ńà¤ĩà¤°à¤¹ à¤ķ
à¤µà¤ª à¤¦
à¤®à¤¸ à¤Ļà¤ķ
à¤Ĺà¤®à¤¨ à¤ªà¤Ľ
ic a
Ġin ter
ĠSp ins
âĻ ¦
S ept
â ľ
Ġ x
à¤¹ à¤²à¤¯
à¤¶ à¤Ĺ
Ġà¥ª à¥¨à¥¦
à¤°à¤ļ à¤²à¤¨à¤ķ
Ġà¥¨à¥« à¥¬à¥¨
ĠS ud
à¥ĭâĢ¦ .
Ġà¤ħà¤°à¤¬ à¤¬
à¤ªm à¤¬
ures h
) !
g a
à¤¨ à¤ĩ
à¤°à¤¤ à¤¸à¤®
à¤ħ à¤«à¤ķ
Ġà¤ĩ à¤¨à¤ķ
à¤ķà¤ķ à¤¬
le ge
Ġà¥¨à¥© à¥©
Ġà¤Ńà¤µà¤¨ à¤Ń
ol ly
ĠDi ary
K hoj
M O
a vi
s o
Ġà¥ Ĥ
à¤¶ à¤°à¤¬à¤¹
à¤ħ à¤ªà¤ķ
à¥Įà¤Ĥ âĢĿ,
Ġà¤ĵ à¤¯
Ġ- "
Ġà¤¸à¤¡à¤ķ à¤ª
am b
ĠâĢİ [
ob ile
ĠComm er
x as
Ġà¤¸ à¤Ĺà¤°
à¤¶ à¤Ĺà¤°
Ġà¤ıà¤ķ à¤¬
à¤µà¤ķ à¤¬
à¤ķà¤¨ à¤¸à¤®
Ġà¤ıà¤¸ à¤ıà¤¸
ĠP usta
Ġà¤°à¤ľà¤¤à¤ª à¤Łà¤®
sahity asansar
' à¥¤
9 1
Ġà¤¨ à¤§
à¥Į .
à¤¤à¤ķ à¤¸à¤®
à¤ħà¤¨ à¤¸à¤¨
à¤ıà¤® à¤ĵà¤¯
ne w
ĠB i
ing er
tic es
am ity
Ġà¤¬à¤¹à¤¸ à¤ªà¤Ľ
ok es
ĠSh uk
ĠPre na
vZ g
S E
à¤¹ à¤ħà¤ĺ
à¤¹ à¤¬à¤¹
Ġà¤Ľ à¤łà¤²
Ġà¤¯à¤¸ à¤¦
à¥Įà¤ģ '
Ġà¤ħà¤µ à¤¶à¤°
Ġà¤Ĩà¤® à¤°
Ġà¤Ĩà¤ĩ à¤ıà¤¸à¤ķ
à¥§à¥¬ à¥ª
Ġà¤¨à¤ĸ à¤¸
khabar d
ener gy
kh otang
GL yv
dm vZg
dmvZg GLyv
S uresh
s a
Ä «
à¤¤ à¤Ľ
à¤¥ à¤¦
à¤ĺ à¤Łà¤¸
Ġà¤§ à¤µà¤¨à¤²
à¤ªà¤® à¤¤à¤ķ
Ġà¥« à¥¨à¥«
Ġà¥¯ à¥«à¥¦
at ing
à¤°à¤ŀ à¤¨
F eb
Ġà¤ķà¤¸ à¤ľ
ĠB iz
Ġ8 8
à¤Ńà¤ªà¤¤ à¤¨à¤²
app y
Pat rika
! '
à¤° à¤Ŀ
à¤¹ à¤Ńà¤¨
à¤ĸ à¤¶
à¥Į âĢĮ
Ġà¤« à¤®
à¤°à¤² à¤²
ĠC ouncil
Ġà¤¶à¤°à¤¦ à¤²
umbin i
Info box
P ublished
à¤¾ ï¿½
Ġà¤¨ à¤¤à¤®à¤¸
à¤Ń à¤Ī
à¤ĩ à¤¬à¤°à¤®
à¤¤à¤° à¤Ĩà¤§
à¤¤à¤° à¤Ĺà¤¯
à¤ĩà¤¨ à¤¸à¤®
à¤Ĩ à¤ĩà¤²
à¤µà¤¨ à¤µ
à¤¹à¤ķ à¤¬
Ġà¤ħà¤® à¤°à¤¬à¤¹
Ġà¤ħà¤« à¤°à¤ķ
Ġà¤¨à¤ľ à¤°à¤¬
à¥ĩ? -
Ġà¤ĺà¤Łà¤ķ à¤¹à¤°
ĠBRT Nepal
T S
à¤¨ à¤°à¤¹
Ġà¤¦ à¤¨à¤ķ
Ġà¤§ à¤µà¤¨
Ġà¤Ńà¤ı à¤Ńà¤°à¤ķ
an j
Ġà¤ıà¤¸ à¤Ł
ĠC rime
à¥ĭ) -
à¤Łà¤°à¤® à¤§
à¤°à¤¨à¤Ĺà¤° à¤²
Ġ.... ....
Ġà¤ķà¤¦à¤° à¤ªà¤¤
ĠHamro khotang
Ch urch
r g
à¥ª à¥¨à¥®
à¤ĩà¤¨ à¤ª
à¤Łà¤² à¤°à¤²
Ġà¤ĺà¤° à¤¨à¤ľ
à¤Ĩà¤° à¤¡
à¤¸à¤¨à¤² à¤Ĺ
ur al
cha utari
Ġsp ins
à¤¹ à¤Łà¤ķ
Ġà¤ĺ à¤°à¤¬à¤¹
à¤µà¤¨ à¤ªà¤Ľ
à¤®à¤¤ à¤µ
à¤ĥ -
Ġà¥§à¥® à¥Ń
Ġà¤ĭ à¤¦
à¤Ĺà¤¬ à¤®
ĠOnline Patrika
Ġ4 3
à¥¦à¥¬ à¥ª
ðŁ Ĵ
olly wood
i i
à¤· à¤¯à¤¸à¤®
Ġà¤Ľ à¤°à¤ª
Ġà¤ĸ à¤°à¤¦
à¥Įà¤Ĥ __
à¤²à¤¨ à¤§
à¤ĩà¤² à¤Łà¤¬
Ġà¤Ĺà¤ł à¤¨à¤¸
Ġà¤Ĩà¤ĩ à¤¯
Ġà¤¨à¤ª à¤ļ
à¤ĩà¤° à¤²à¤ķ
à¤Łà¤ª à¤¬
op le
id ent
Ġà¤µà¤ļà¤¨ à¤¬à¤¦
Ġ98 56
taj yoti
ĠTim e
Ġworld amity
khabard abali
E N
O s
à¤Ĺ à¤Ĺà¤°
Ġà¤Ĺà¤° à¤°
à¤§ à¤®à¤²
à¤Ń à¤ıà¤°
à¤ĺ à¤ħà¤¨
Ġà¤ħà¤§ à¤¬
à¤ķà¤°à¤£ à¤¤à¤°
tic s
à¤£à¤ª à¤¦à¤ķ
ĠIn s
ĠInd ustry
Ġha ve
ĠTou rism
ifest yle
t ulsip
à¤¦ à¤¯à¤µ
à¤Ĺ à¤µà¤¶
Ġà¤¬ à¤Łà¤®
à¤¬ à¤¤à¤¸
Ġà¤¬à¤° à¤«
à¤Łà¤® à¤¬
Ġà¥«à¥¦ à¥§à¥¦
à¤¯à¤ª à¤°à¤ķ
Ġà¤¸à¤² à¤¹
à¥§à¥¨ à¥¬
à¥ģà¥ģ à¥ģ
à¤Ĩà¤¤ à¤Ļ
ĠTe xas
uc k
ĠBlogger s
Ġà¤¤à¤¡à¤ķ à¤Ń
r uth
Ġà¤¸ à¤ĸà¤°
à¤Ĥ -
Ġà¤ľà¤¨ à¤²
à¤Ĩ à¤ķà¤¸
à¤¤à¤¨ à¤§
à¤®à¤² à¤¤
Ġà¤®à¤² à¤¦
Ġà¥§à¥¯ à¥ªà¥¨
à¤¨à¤ª à¤ŀ
Ġà¥¨à¥§ à¥®
ĠNepal Church
à¤ľà¤¦ à¤°à¤²
ĠS w
ĠS oftware
or ies
ĠR ed
Ġà¥¯à¥® à¥§à¥®
ap t
St ory
à¤ķ à¤¥à¤°
Ġà¤¸ à¤²à¤²
à¤Ĩ à¤ªà¤¸
à¤¾à¤Ĥ à¥Ī,
à¤°à¤¶ à¤®
Ġà¤¸à¤®à¤¯à¤¸à¤® à¤¯à¤®
à¥¦à¥¬ à¥¨
à¤¤à¤²à¤¹à¤° à¤¬
tulsip urkhabar
A G
T h
b c
Ġ entertainment
Ġà¤¨ à¤ĸà¤°
à¤ľ à¤¤à¤°
à¤ļ à¤ķà¤¤
à¤Ī à¤ľà¤°
à¤ĵ à¤ıà¤¸à¤¨
Ġà¤¦à¤² à¤ľ
Ġà¥¨à¥§ à¥©
Ġ[ ..
à¤Ĩà¤Ī à¤ıà¤®
Ġop tion
ĠCham ber
inanc ial
8 4
c aption
h ya
à¤¸ à¤¥
Ġà¤¤ à¤¶
à¤« à¤¯à¤¸à¤ķ
Ġà¤¥ à¤¦
à¤łà¤® à¤¡
à¤²à¤® à¤¤
Ġà¥« à¥§à¥¨
Ġà¤ıà¤® à¤Ĩà¤°à¤Ĩà¤Ī
à¤°à¤Ń à¤²
à¤°à¤ļ à¤²à¤¨à¤²
ĠNe upane
à¤¯à¤¯à¤¨ à¤¶
ĠB FM
ĠL ifestyle
Ġ3 7
ak het
t y
Ñ ģ
à¥į à¥Ī
Ġà¤¬ à¤Ĺà¤²
à¥Į à¤¾
Ġà¥Ń à¥©à¥¦
à¥¨à¥¦ à¥«
ĠS ec
Ġà¥¨à¥© à¥ª
har es
à¥Ģ: :
pl ay
fn l
ĠCommer ce
L ive
T ER
W ik
à¤ĩ à¤·
à¥ĭà¥¤ [
à¤ķà¤° à¤¶
Ġà¤ĵ à¤łà¤ķ
à¥¨à¥¦ à¥«à¥«
Ġà¤ħà¤Ŀ à¤¸à¤®
à¤Ĺà¤²à¤¬ à¤ľ
Ġà¤ĩà¤® à¤°à¤ľ
à¤Ĩà¤Ī à¤¤à¤µ
ag ro
ĠB had
Ġà¤Ľà¤ł à¤ªà¤°
ĠRep ublic
P ro
Q L
b id
c lick
t en
à¥ģ à¥ĩ
Ġà¤¸ à¤°à¤¹à¤°
à¤¹ à¤²à¤¯à¤ķ
Ġà¤¦ à¤²à¤¬à¤²
Ġà¤ĵ à¤®à¤¬à¤¹
à¤ľà¤² à¤¸à¤®
Ġà¥§à¥® à¥ª
ĠA ward
ĠB e
ĠN RN
ĠI s
Ġà¥©à¥¨ à¥ª
Ġà¥©à¥ª à¥¦
te rest
pl ate
ĠNet work
s u
à¤ķ à¤¨à¤¸
à¤¦ à¤¹à¤®
à¤¦ à¤¤à¤¹à¤°
à¤Łà¤¨ à¤¦
Ġà¤ħà¤¹ à¤Ļ
ic s
Ġà¥©à¥ª à¥¬
Ġe kantipur
og har
por ary
over n
n ce
à¥ģ ),
Ġà¤Ĩ à¤¦à¤¨
à¤Ī à¤ıà¤¨
à¤ī à¤«
à¤¾à¥¤ '
Ġp r
Ġc ountry
ut e
Ġh imal
03 24
arth ik
A pp
Ġ energy
à¤¶ à¤£
à¤²à¤ķ à¤¨
Ġà¤ľà¤¨ à¤Ĩà¤ķ
à¥Įà¤Ĥ à¤ģ,
à¤«à¤² à¤¸
ĠA aja
le ct
ĠD ohori
Ġà¤ĭà¤£ à¤¦
Ġà¤ķà¤ł à¤ª
up rakash
uk uprakash
Ġvide os
D igital
M ar
Ġà¤ Ĥ
Ġà¤Ń à¤¸
à¤ļ à¤°à¤£à¤ķ
à¤ī à¤ªà¤Ľ
à¤Ĩ à¤·
à¤·à¤ķ à¤¤
Ġà¥§à¥¯ à¥«à¥§
à¤¹à¤® à¤§
ĠC an
ĠO FF
ĠH am
à¥Įà¤ģà¥¤ '
11 7
âĢ¦âĢ¦ ..
ins ahitya
kal insahitya
H ere
à¤¨ à¤ħà¤Ĺ
à¤µ à¤ļà¤°
Ġà¤¨ à¤Ļà¤®
Ġà¤° à¤¸à¤®
à¤¦à¤° à¤¬à¤¨
Ġà¤¦à¤² à¤µ
Ġà¥¦ à¥Ńà¥¬
à¥§à¥¬ à¥«
ĠL IVE
pur i
à¤¦ à¤ľà¤¸
à¤Ń à¤ħà¤µà¤¸à¤°à¤®
à¤ĸ à¤¤à¤°à¤¨
Ġà¤Ńà¤¯ à¤Ļ
à¤¤à¤°à¤£ à¤ªà¤Ľ
Ġà¤Ĩà¤ĩ à¤ĵà¤¸
à¤¾) :
ne d
à¥§à¥¨ à¥«
Ġb lockchain
Ġ06 15
L GCDP
N O
à¥ĩ à¥Ī
Ġà¤¨ à¤°à¤ª
Ġà¤¨ à¤Ĺà¤£
Ġà¤ĸ à¤ªà¤Ł
Ġà¤¸à¤¹ à¤®
à¤ķà¤® à¤¸
Ġà¤¢ à¤°
ad e
ĠR ast
à¥ģà¥ģ à¥ģà¥ģ
as y
Ġ98 4
Samachar pati
248 12
Ġ9856 0324
Ġ0615 24812
Ġ98560324 86
T im
t or
w in
à¥ģ ',
à¤ı à¤ı
à¤ı à¤ĩà¤®
Ġà¤µ à¤¤à¤¨
à¤ªà¤¤ à¤®
à¤²à¤¬ à¤¡
Ġà¥¯ à¥¨à¥¦
à¤¿à¤ģ à¤Ĥ
à¤¸à¤¹ à¤¸à¤ļ
à¤ľà¤¯ à¤ªà¤Ľ
Ġà¤Ĩà¤ĩ à¤Ń
ĠS U
Ġl l
à¥¨à¥© à¥¬à¥¯
ya i
Ġch ukuprakash
Ġà¤Ŀà¤® à¤Ŀà¤®
ĠBha g
oun ter
M G
R L
X I
i ya
l ondon
à¤¤ à¤Ĺà¤¢
à¤¶ à¤ľà¤¸
à¤Ĺà¤² à¤ªà¤¨
al d
Ġà¥¨à¥¨ à¥®
ĠI S
et ail
?? ?
ĠRa mail
o on
à¤¦ à¤ħà¤¨
à¤· à¤ļà¤¨
Ġà¤ľ à¤¦
Ġà¤ľ à¤ķà¤¡
âĢ ļ
à¤ĸ à¤¨à¤µ
à¤ľà¤¨ à¤°à¤²
à¤°à¤¬ à¤®
à¥Īà¤Ĥ à¤Ĥ
à¤¨à¤¯ à¤¬
à¤ªà¤¦ à¤¯
à¥ĩà¤ģ -
em porary
à¥ĭ? ?
Ġà¤°à¤Ļ à¤°
Ġà¤ıà¤ħ à¤°à¤ķ
à¤¶à¤°à¤¦ à¤²
ðŁĺ Ĥ
ĠAss ociation
M IS
R abin
S et
W W
à¤¸ à¤¯à¤ķ
à¤¹ à¤Łà¤®
Ġà¤¬ à¤ĺ
à¤ľ à¤ĺ
Ġà¤Ĺà¤° à¤¨
Ġà¤ı à¤²à¤¨
à¥ĥ à¤¿
à¤¶à¤¨ à¤µ
ĠA arthik
ĠSt ud
ion s
ĠPra sad
Sp ecial
ĠPo ems
D M
d it
à¤¹ à¤ľà¤¸
Ġà¤ķ à¤ªà¤²
Ġà¤¤ à¤Ĺà¤¡
à¤Łà¤ķ à¤¹
à¤°à¤®à¤£ à¤¸
Ġà¤Ĩà¤ĩ à¤ĵà¤ıà¤®
Ġà¤Ĩà¤ļ à¤°à¤£à¤®
ra bar
Ġ10 2
Ġà¤²à¤¹ à¤¡
Ġà¤¬à¤ĸ à¤¤à¤®
ID EO
Ar tist
ĠðŁ Ļ
à¤¸à¤²à¤² à¤²
ĠTexas Nepal
R O
p ost
à¥ĭ Ã·
Ġà¤ª à¤Ĺà¤°
à¤ª à¤Łà¤®
Ġà¤ı à¤¨à¤ķ
Ġà¤ķà¤® à¤²à¤¸
Ġà¥ª à¥¨à¥«
Ġà¤ªà¤¢ à¤¦
Ġà¤ļà¤°à¤£ à¤¸à¤®
à¥ĩ) :
à¤ıà¤« à¤ıà¤²
ĠG lam
ve st
Â« à¥ĩ
IM A
Ġà¤¸à¤¦à¤¨ à¤¬
Ġà¤¦à¤®à¤ķà¤² à¤²
8 1
S ee
à¤ģ :
à¤¸à¤¦ à¤¸à¤¹
à¥¨à¥¦ à¥ªà¥¯
à¤ıà¤® à¤ıà¤²
Ġon e
à¤Ĺà¤®à¤¨ à¤¬
Ġs ays
à¤®à¤µ à¤¹
Ġ4 4
:: âĢĵ
à¥«à¥® à¥¨
Ġà¤ķà¤¦ à¤®à¤®
I I
L P
à¤Ł à¤Ĺà¤°
à¤ľ à¤¯à¤®
à¤°à¤® à¤¯
Ġ, âĢĺ
à¤ıà¤¸ à¤ıà¤¸
Ġin box
________ ____
âĢİ ;
4 00
L inks
~ ~
à¤¾ âĢĮà¤Ĥ
à¤ª à¤²à¤¬
à¤¡ à¤ķà¤®
à¤ļ à¤°à¤£à¤®
Ġà¤ĸ à¤¤à¤®
à¥¦ à¥ªà¥¬
à¤ªà¤® à¤¤
à¤®à¤ķ à¤¨
à¤ĥ :
à¤ķà¤ª à¤Łà¤ķ
à¤ĩà¤² à¤¸
à¤¸à¤° à¤¸à¤®
à¤¨à¤Ĺà¤° à¤¸à¤Ń
th e
à¥§à¥¯ à¥¯à¥®
à¥¨à¥« à¥¨
oft ruth
ĠUS B
Ġà¤ıà¤®à¤ı à¤¡à¤¬
y n
à¤ª à¤µà¤¨
à¤§ à¤µà¤¨
ĠâĢ º
ir an
à¤ıà¤Ī à¤µ
à¤ĩà¤ı à¤ħà¤¨
av a
Ġup load
Ġà¥¯à¥®à¥«à¥«à¥¦ à¥¨à¥¯
à¤¶ à¤ªà¤¤
Ġà¤ı à¤¡à¤²
à¤łà¤ķ à¤¦
vi es
Ġle ading
Upd ate
ĠShuk rabar
P lease
à¤ª à¤ħà¤ĺ
Ġà¤¬ à¤°à¤®
à¤· à¤ªà¤¤
à¤· à¤°à¤¸à¤¹
Ġà¤µ à¤£
Ġà¤Ĩ à¤¹à¤¤
à¤ļà¤¨ à¤¤
à¤ĵ à¤¶
à¤¥à¤² à¤¦
Ġà¤Ī à¤¦
ĠS im
Ġà¤ľà¤¹ à¤¦
Ġà¤Ĩà¤Ī à¤ıà¤«à¤¸
ĠL a
ub ai
word oftruth
à¤ıà¤¯à¤° à¤ª
ĠPl an
ĠUpd ate
Ġà¥¯à¥®à¥«à¥«à¥¦à¥¨à¥¯ à¥©à¥®à¥©
à¥Ģ ......
Ġà¤µ à¤²à¤¤
à¤Ī à¤¬à¤¸
Ġà¤ĺ à¤°à¤¤à¤°
à¥ª à¥¨à¥¦
à¤µà¤° à¤«
Ġà¥©à¥¦ à¥¨
Ġà¥¨à¥¯ à¥¯
Ġà¤²à¤¹à¤° à¤®
ane pal
ĠDep artment
ĠRev olution
à¤° à¤Ĩà¤²
Ġà¤ķ à¤ªà¤°
Ġà¤¨ à¤ķà¤®
Ġà¤µ à¤¦
à¤¶ à¤ªà¤¥
à¤Ī à¤ıà¤®à¤Ī
Ġà¤¤à¤° à¤¹à¤°
à¤²à¤¨ à¤¤
à¥Īà¤Ĥ âĢĵ
à¤ĩà¤Ł à¤¸
Ġà¥§à¥® à¥®à¥§
à¤ľà¤ª à¤¥
ĠB ar
ĠH alk
Ġs c
à¤ĩà¤¬ à¤°à¤²
à¥©à¥® à¥¦à¥©
if orn
Ġi OS
Ġbir tajyoti
à¤¯ à¤¦à¤°
Ġà¤¨ à¤µà¤µ
à¥§ à¥¨à¥¦
à¤§à¤¨ à¤ªà¤¤
Ġà¤¹à¤° à¤«à¤¹à¤°
à¤ıà¤¨ à¤ıà¤®à¤ı
Ġà¤«à¤° à¤«
Ġà¤¦à¤² à¤¦
Ġà¥¨à¥¯ à¥¦
ine pal
à¤ıà¤« à¤Ł
Ġà¥©à¥® à¥¦
Ġnews agro
ĠU p
london nepalnews
P hoto
É Ļ
Ġ à®
à¤¨ à¤ªà¤²
Ġà¤¹ à¤²à¤²
à¤§ à¤Ńà¤¨
à¤¶ à¤²à¤²
Ġà¤¤ à¤¬à¤²
à¤ĸ à¤¸à¤®à¤ķ
Ġà¤« à¤Ļ
à¤°à¤¸ à¤ĺ
Ġà¥© à¥Ńà¥¬
à¤ªà¤ķ à¤ª
Ġà¤®à¤¤ à¤¬
à¤Łà¤² à¤¸à¤®
Ġà¤īà¤ł à¤¦
à¤²à¤µ à¤¹à¤°
à¤ķà¤Ł à¤¹à¤°à¤ķ
ĠN umber
ch ana
Ġ8 7
ĠUrja Khabar
iforn ia
à¥ Ĩ
à¤°à¤® à¤²à¤Ĺ
Ġà¤¬à¤² à¤°à¤²
Ġà¤¹à¤¤ à¤ªà¤¤
Ġà¤Ĳ à¤¡
ĠP u
à¥§à¥¦ à¥¯
ch anda
à¤¤à¤°à¤® à¤¹
à¥¯à¥® à¥¨à¥©à¥¬à¥¯
ĠBI KR
ïĢ ł
Ġà¥¯à¥®à¥ªà¥¯ à¥¯à¥®à¥¨à¥©à¥¬à¥¯
ĠBhat tarai
ĠAarthik news
à¥©à¥®à¥¦à¥© à¥©à¥¦à¥¨
ĠBIKR AM
d a
à¤¹ à¤Ļ
à¤· à¤°à¤¸
Ġà¤¯ à¤ļ
à¤ĺ à¤°à¤¸
Ġà¥§à¥© à¥©à¥¬
Ġà¥¨à¥ª à¥¬
à¤ĩà¤ķà¤² à¤¬
à¤¯à¤Ł à¤ķà¤®à¤§
à¤Łà¤µà¤² à¤¸
Ġà¤ļà¤ķ à¤ļà¤ķ
Ġà¥©à¥Ń à¥¦
à¥¦à¥¬ à¥«
What Links
ĠSid ha
WhatLinks Here
E P
t ing
Ġ qu
à¤§ à¤µà¤°
à¤²à¤ķ à¤¦à¤²à¤ķ
revi e
Ġà¥©à¥¯ à¥ª
Ġà¤ľà¤¯à¤¨ à¤¨
à¤Ĩà¤ĩ à¤ĵà¤¸
ĠPost s
à¥¤à¥¤ à¥¤à¥¤
ĠNE EL
ĠSp ort
à¤¿! âĢĻ
Ġà¤¹à¤¤à¤ķ à¤¡
Ġà¤Ľà¤°à¤ª à¤·
ĠGlam our
ĠNEEL IMA
E ng
n ing
à¤¨ à¤°à¤ª
à¤¨ à¤ıà¤ľ
à¥ģ à¤¿
Ġà¤ķ à¤ļà¤²
à¤°à¤® à¤ĸ
à¤¤à¤® à¤¯
à¤ĩà¤² à¤Łà¤¹à¤°
à¤ĺà¤° à¤ªà¤°
Ġà¤«à¤² à¤¹à¤°
Ġà¥¯à¥® à¥¬à¥¨
Ġs up
Ġs oftware
Ġà¥©à¥¬ à¥®
Ġà¥¯à¥¯ à¥¦
Ġà¥¯à¥¯ à¥¯
à¤ĺà¤Ł à¤¨à¤®
à¥ĭâĢĿ âĢĵ
ĠInd ia
ĠAc count
do or
azz ako
Ġ[.. ]
S ep
] ,
à¤§ à¤§
Ġà¤Ĩ à¤Ļà¤¬
à¤Ī à¤ªà¤²
à¥¤ (
âĢĻ âĢ¦
à¥¬ à¥§à¥©
à¤·à¤£ à¤²à¤Ĺ
à¤¡à¤® à¤Ľ
Ġà¥¨à¥§ à¥¦à¥¦
ĠA j
à¤²à¤¨à¤² à¤Ĺ
Ġ5 5
Ġà¤Ĺà¤Ĺà¤¨ à¤ļ
ers e
ĠCal ifornia
S A
à¤¯ à¤¨à¤®à¤¨
à¤¬ à¤ĩà¤ķ
à¤ļ à¤ĺà¤°
à¤ħ à¤°à¤²
Ġà¤Ĩà¤¯ à¤¶
à¤ľà¤ķ à¤¸à¤®
à¤²à¤¤ à¤¦
ĠM p
Ġà¥¨à¥Ń à¥¬
Ġà¥¯à¥® à¥¬à¥¦à¥¦
Ġ7 0
Ġà¥¯à¥®à¥« à¥¬à¥¦
ĠAs ia
R A
à¤° à¤ĸà¤ķ
à¥ĩ Â¥
Ġà¤µ à¤µ
Ġà¤¸à¤® à¤¬
Ġà¤ı à¤Łà¤®
à¤¶à¤ķ à¤°
Ġà¤ıà¤® à¤µ
Ġà¥§à¥§ à¥§à¥¨
Ġà¤Ī à¤¯à¤°
à¤Ńà¤µ à¤¨à¤ķ
à¤¯à¤¬ à¤®
ĠT att
Ġp er
à¥§à¥® à¥¦
Ġà¤īà¤ªà¤ķà¤°à¤£ à¤¬
Ġà¤ĸà¤¬ à¤°à¤¸
Ġà¥¦à¥« à¥©
Ġ.. !
ĠJan ata
ĠCh eck
ĠSama j
ON G
ĠSa ve
à¤Ł à¤¬à¤¹
à¤¡ à¤¢
à¥¤ âĢľ
Ġ? /
à¥¨à¥¦ à¥©à¥¬
Ġà¤ħà¤« à¤°à¤®
à¥ĩâĢĵ âĢľ
à¤¨à¤Ń à¤µà¤¨à¤¸
Ġb ahadur
time à¤ħà¤¸
à¤ī à¤·
à¤Ļ à¤Ĺà¤¤
à¤¾à¤Ĥ à¤Ĥ
à¤¡à¤ķ à¤¨
à¥¨à¥¦ à¥«à¥©
Ġà¥§à¥® à¥§à¥¬
Ġà¤Ĺà¤£ à¤°
Ġà¤Ńà¤Ī à¤¦
il ak
Ġà¤°à¤¨ à¤Ń
ĠB AR
Ġs ocial
à¥§à¥ª à¥ªà¥¯
ĠG ork
Ġà¤®à¤¦à¤¨ à¤ª
ici al
Ġhimal ayakhabar
Ġà¤ľ à¤¯à¤¦
à¤Ī à¤ªà¤¨
à¤ĸ à¤²à¤¨à¤ķ
à¤ľà¤¨ à¤¸à¤Ļ
Ġ? âĢ¦
à¤·à¤£ à¤¸à¤¹
Ġà¤«à¤°à¤ķ à¤ªà¤¨
Ġp re
ĠG ate
Ġ5 9
ĠBik ash
Ġà¤ıà¤¸à¤Ī à¤Īà¤®
iman haru
d en
ï ¸
Ġà¤¹ à¤ķà¤µ
Ġà¤ľ à¤¯à¤¸à¤µ
Ġà¤ĸ à¤¦
à¤¯à¤® à¤¸à¤®
à¤Ĩ à¤īà¤¦
à¤ķà¤° à¤¨à¤Ĺà¤°
à¤¤à¤¨ à¤Ĺà¤°à¤®
à¤¦à¤° à¤¨à¤Ĺà¤°
à¥§à¥¦ à¥ª
à¤¤à¤µà¤¨ à¤¸
Ġà¥¯à¥® à¥¬
à¤ģà¥¤ '
are k
Ġeconom ic
à¤¶à¤¨ à¤ª
Ġà¥§à¥¯ à¥©à¥®
à¤ķà¤¨ à¤ªà¤Ľ
Ġà¤Ĩà¤ĩ à¤ıà¤¸à¤²
ĠP ublic
Ġà¥¨à¥® à¥§
il a
à¤Ĭ à¤²
Ġà¥©à¥¬ à¥ª
Ġ4 2
Ġ_____ ___
) /
T amang
Ð ²
Ġà¤ı à¤¦
à¤®à¤¨ à¤ªà¤°
Ġà¥¨à¥ª à¥©
ĠH ow
ĠH arek
ĠL umbini
Ġf ree
DI YA
ĠBAR DIYA
ï¸ ı
m al
à¤° à¤ĵà¤Ł
à¤ķ à¤ªà¤®
à¤¦ à¤ļ
Ġà¤ķ à¤¥à¤²
à¤Ĺ à¤ķà¤²
à¤¶ à¤§
à¤ļ à¤®à¤¤
à¤Ļ à¤ĺ
Ġà¤ıà¤ķ à¤¸à¤°
Ġà¤®à¤¹ à¤ľ
à¥ĭà¥¤ ...
à¤Łà¤² à¤°à¤ķ
à¤ļà¤ķ à¤¸à¤®
Ġà¤Ī à¤ľà¤°
ĠP rofile
à¥¦à¥¦ à¥§
Ġà¤²à¤¡ à¤¨
à¥° ]
âĢĶâĢĶ âĢĶâĢĶ
ĠHalk aro
P os
f ul
n r
à¤° à¤«à¤¤
à¤ķ à¤¤à¤²
à¤² à¤īà¤ªà¤°
à¤·à¤ķ à¤¸à¤¹
Ġà¤Ŀ à¤¨à¤ķ
Ġà¤ªà¤¦ à¤ħà¤¨
Ġ' ...
ĠB r
Ġà¥©à¥© à¥«
et a
ĠW elcome
à¤ģà¥¤ âĢĿ
à¤ĸà¤¬à¤° à¤¡
Ġà¤ķà¤¨à¤ķ à¤®à¤£
ĠYou th
à¤¤ à¤µà¤°
Ġà¤¨ à¤«à¤¸
à¤§ à¤°à¤¤
Ġà¤Ľ à¤¯
Ġà¤¸à¤® à¤ª
Ġà¤ı à¤¨à¤²
Ġà¤¬à¤¢ à¤¯
à¤Łà¤° à¤ªà¤¨
Ġà¤Ĩà¤Ī à¤®
il y
à¤¦à¤µà¤² à¤Ĺ
am es
Ġarticle à¤Ĺ
ff ic
hi v
ĠCh and
ĠBhad ra
I F
à¤² à¤°à¤¬
à¤¡ à¤¨à¤µ
à¤¥ à¤²à¤Ĺ
à¤Ī à¤®à¤¨
à¤°à¤¤ à¤Ĺà¤¤
à¤°à¤µ à¤£à¤ķ
à¤¤à¤² à¤¹à¤°à¤²
à¤²à¤¤ à¤¸
Ġà¥¦ à¥©à¥¬
Ġà¤ıà¤¨ à¤¡
Ġà¥§à¥¬ à¥¦à¥¦
ĠP aschimnepal
à¥©à¥¦ à¥©à¥¦à¥©
Ġs ite
à¤®à¤¨à¤Ĺà¤° à¤¸
ot s
ĠCont emporary
Sajha online
Ġà¤²à¤ĸà¤¨ à¤īà¤®
à¥¯à¥¯ à¥©à¥¦
ĠEp isode
ĠGur kha
Ġram kshrestha
fere nce
E AT
b s
d hani
w ar
à¥Ģ ....
à¤¶ à¤¬à¤¨
à¤Ĥ )
à¤¡ à¤ĸ
Ġà¤ľ à¤£
à¤ĸ à¤¨à¤¬
Ġà¤¶ à¤µà¤¯
à¤¯à¤ķ à¤¸à¤®
à¤¤à¤° à¤īà¤¨
à¤Ĩ à¤Ĺà¤¨
Ġà¥§à¥¯ à¥¨à¥¦
Ġà¤ıà¤¸ à¤ľ
ĠM azzako
ĠT haru
ĠB a
à¤Ĭ à¤²à¤²
à¥ĭâĢĻ âĢĵ
ĠCom puter
à¥įâĢĻ âĢĵ
âĢį à¥į
âĢ¦âĢ¦ âĢ¦
ĠPow ered
ĠAsh ok
M edia
U T
à¤¾ !!!
à¤ķ à¤ķà¤°
à¤Ī à¤Ļ
à¤ķà¤ķ à¤¸
Ġà¤¨à¤® à¤ľ
à¥¨à¥¦ à¥¨à¥®
à¤°à¤¥ à¤®à¤¤
OR E
Ġà¤¦à¤®à¤¨ à¤¨
ult ure
gu ys
Ġà¥¯à¥®à¥¬à¥¦à¥¦ à¥©à¥¦à¥©à¥¦à¥©
Tamang guys
L ist
à¤ķ à¤¤à¤ķ
à¤¡ à¤ªà¤¸
Ġà¥« à¥¨à¥¬
à¤¬à¤° à¤ª
à¤¦à¤° à¤ĸ
ĠP op
Ġà¥¯à¥®à¥ª à¥ªà¥¨à¥®
Ġà¤²à¤ĸà¤¨ à¤īà¤¸
,, ,
iti ve
à¤½ à¤½
ĠPl ay
Ġà¥¯à¥®à¥ªà¥ªà¥¨à¥® à¥¯à¥¯à¥©à¥¦
d amak
g lobal
u v
u ct
à¤¨ à¤ĩà¤ļ
à¤¯ à¤°à¤¸à¤¹
à¤µ à¤Ńà¤ķ
Ġà¤° à¤¥à¤ķ
Ġà¤¬ à¤¨à¤®
Ġà¤ħà¤¬ à¤¤
in f
Ġà¤Ńà¤° à¤¥
à¤ģ, '
Ġ4 9
à¤°à¤ľà¤¨ à¤ª
à¤¯à¤¯à¤¨à¤ķ à¤°
Ġw ag
Ġ98 5
Ġpl ay
ĠTer ms
- '
à¤ª à¤ªà¤¤
à¤Ī à¤ľà¤¸
Ġà¤¯ à¤®à¤¨à¤¸
à¤¤à¤° à¤¸à¤°à¤ķ
Ġà¤²à¤Ĺ à¤¨à¤Ĺ
Ġà¤īà¤¦ à¤¯à¤®
à¤µà¤¤ à¤§
in ing
Ġà¥¨à¥© à¥®
à¥ĭ) :
à¤Ĩà¤Ī à¤ıà¤²
à¤¹à¤°à¤£ à¤²
Ġf ile
Ġà¥«à¥ª à¥¯
Ġà¤Ĺà¤Ī à¤¸à¤ķ
Ġà¤ĸà¤µ à¤°à¤¦
pu ch
L o
à¤¿ &
à¤¦ à¤Ńà¤¨
à¥Ī ",
à¥§ à¥§à¥¦
à¥Įà¤Ĥ ',
Ġà¤ķà¤° à¤¹à¤°
Ġà¤¹à¤ľ à¤°
Ġà¤ħà¤® à¤°à¤ª
à¥¨à¥¦ à¥¨à¥¨
Ġà¥§à¥¯ à¥«à¥¨
à¤Ĺà¤ł à¤¨à¤¦
à¤ļà¤² à¤ĸ
à¤ĸà¤ķ à¤¸
à¤¡à¤° à¤°
ĠO ut
rad e
Ġmero jilla
R Ho
c l
p XI
à¤ĩ à¤ĵà¤ķ
Ġà¤ıà¤ķ à¤¥
om an
à¤°à¤®à¤£ à¤¸à¤®
Ġà¥§à¥ª à¥§à¥«
Ġà¤®à¤¦ à¤¨à¤²
à¤¤à¤¹ à¤Łà¤¬
Ġb is
à¥¤âĢĿ âĢĶ
ĠV otes
pl RHo
chha puch
pXI plRHo
à¤¸ à¤¤à¤²
Ġà¤¤ à¤ľà¤¬
à¤īà¤¨ à¤¤à¤°
à¤ªà¤¨ à¤¹
à¤Ĺà¤° à¤¸à¤¹
à¤£à¤¯ à¤¬à¤®
à¤¨à¤µ à¤¹
vi de
à¥įâĢĮ :
à¤Ĩà¤ī à¤Łà¤ķ
à¤Łà¤ªà¤Łà¤ķ à¤ķ
Hamro damak
c le
Ð ½
Ø §
à¤¨ à¤°à¤¬
à¤¯ à¤Ĺà¤¢
Ġà¤° à¤¸à¤²
à¥Į !
à¤¯à¤ķ à¤¦
à¤Ĩ à¤ı
Ġà¥« à¥¨à¥®
à¤ıà¤¨ à¤ıà¤«à¤ª
Ġà¤Ĺà¤ł à¤¨à¤²
à¤ľà¤¯ à¤Ń
à¤¾... âĢĻ
ma g
AT A
ĠRaj dhani
à¤°à¤Ĩ à¤µà¤¸
raz esh
Ġà¥«à¥¦à¥§à¥¦ à¥«à¥®à¥¨
ĠTharu wan
O ctober
n n
Ġà¤¨ à¤ħà¤Ł
à¤ļ à¤ªà¤Łà¤ķ
à¤£ à¤ľà¤¯à¤¨
Ġà¤¸à¤¹ à¤¬
à¤®à¤² à¤ļ
à¤·à¤¦ à¤¹à¤°
à¤®à¤° à¤¨à¤²
à¤ĺà¤° à¤¸à¤®
ĠN O
is e
à¥ĭâĢ¦ âĢĻ
Ġà¥¦à¥« à¥«
ris ti
Ġà¤¨à¤¯à¤¨ à¤°
à¤ħà¤µà¤¤ à¤°à¤£
fe j
h im
Ġà¤ ĳ
Ġà¤¸ à¤°à¤®
à¤· à¤¡
Ġà¤Ĩ à¤¶à¤¨
Ġà¤ľ à¤¯à¤¸
âĢ ¡
Ġà¤¥ à¤®à¤¨
à¤·à¤ķ à¤¸à¤®
Ġà¤Ŀ à¤¸à¤Ļ
Ġà¤ļà¤² à¤¨à¤ķ
à¤Īà¤ķ à¤²à¤ķ
Ġà¤Ĺà¤ł à¤ľ
à¤¾) à¥¤
Ġà¥¨à¥¨ à¥ª
Ġm edia
ĠL ife
Ġ12 7
Ġne fej
chhapuch hre
Ġnefej hakahaki
I nd
T ilak
o ices
à¤² à¤ľà¤µ
à¤¸ à¤ĸà¤°
à¤¹ à¤²à¤²
à¤¦ à¤Ļ
à¤ıà¤ķ à¤¸
à¤ĸ à¤°à¤¬
à¤ªà¤¤ à¤¯
âĢĵ $
à¥® à¥¦à¥¦
à¥® à¥¨à¥¨
Ġà¥ª à¥©à¥¦
th day
Ġà¤łà¤Ĺ à¤¹à¤°
Ġarticle à¤¯
Ġ5 2
à¤Īà¤ķà¤² à¤²
Ġà¤¦à¤²à¤® à¤§
Ġsong s
Ġ im
Ġà¥¤ .....
à¤¯à¤ķ à¤®à¤¨
à¤µà¤® à¤¯
à¤ľà¤Ĺ à¤¦à¤®
ĠP S
ĠM O
à¤Īà¤¨ à¤²à¤ķ
Ġà¤¹à¤² à¤ļ
Ġà¤°à¤£ à¤Ń
ast er
K S
à¤¯ à¤¦à¤ķ
Ġà¤¨ à¤¬à¤°
à¤§ à¤²à¤Ĺ
à¤¡ à¤¸à¤²
Ġà¤² à¤ķà¤°
à¤ĩ à¤ľà¤¸
... '
ĠP audel
ĠR ikoooo
ĠK ura
à¤µà¤Ń à¤°à¤®
Ġ5 1
Ġà¤ķà¤²à¤® à¤ķ
AR E
Ġà¤Ĩà¤¸à¤¨ à¤¬
à¥«à¥¨à¥« à¥¦à¥©à¥¯
à¤²à¤°à¤¸ à¤¨à¤²
Ġà¥¯à¥®à¥§à¥® à¥«à¥¨à¥«à¥¦à¥©à¥¯
Ġà¥¯à¥®à¥¬à¥¨ à¥§à¥ªà¥ªà¥¯
Ġà¥¯à¥®à¥¬à¥¨à¥§à¥ªà¥ªà¥¯ à¥Ńà¥«
8 00
k e
à¤ª à¤Łà¤²
à¤Ĺ à¤Ľ
Ġà¤¸à¤° à¤Ĺà¤®
Ġà¤Ĳ à¤¯
Ġà¥¨à¥« à¥§
Ġà¥¨à¥« à¥Ń
ĠP h
ĠP aschim
Ġà¤Ńà¤Ī à¤°à¤¹à¤¨
ĠE P
har pal
à¥Ģà¥¤ à¥¤
ĠMa chhapuchhre
ĠQ u
ĠDar ji
ĠAj ako
à¤° à¤Ĺà¤®à¤¨à¤ķ
à¥ĭ [
Ġà¤§ à¤¤
à¤¤à¤° à¤ĸ
à¤ķà¤² à¤¨à¤²
à¤®à¤¨ à¤¨
Ġà¥¨à¥¨ à¥Ń
Ġà¤ĸà¤¸ à¤Ĩà¤°
Ġà¥©à¥« à¥Ń
ĠJ okes
ĠRead ing
Ġà¤ıà¤« à¤Ł
Ġw ill
à¥ĭâĢĿ -
\\ '
Ġonline harpal
ĠâĢĭ âĢĭ
Ġsama kalinsahitya
P in
S cience
Ã ŀ
à¤ķ à¤Ĩà¤īà¤Ł
Ġà¤¬ à¤°à¤¹
Ġà¤¦ à¤ľ
à¤ļ à¤ªà¤²
Ġà¤¤ à¤£
à¤¸à¤ķ à¤¸à¤¹
Ġà¤¤à¤° à¤ĸà¤°
à¤¦à¤¨ à¤ªà¤Ľ
Ġà¤¸à¤¡à¤ķ à¤ħà¤¨
Ġà¤°à¤ķà¤® à¤¹à¤°
Ġà¥¨à¥§ à¥¨
ĠS ociety
à¤ªà¤£ à¤µ
ĠT amang
Ġp ar
à¤µà¤°à¤² à¤Ĺ
à¥ĩ? âĢĿ
ĠW WW
os c
Ġd ay
Ġk ey
ĠMo vies
Fl ash
Ġà¤¤à¤¡à¤ķà¤Ń à¤¡à¤ķ
w al
à¥Ī à¥¤à¥¤
Ġà¤Ń à¤Ĺà¤¤à¤²
Ġà¤¹ à¤ķà¤¬
à¤Ĩ à¤Ĭ
Ġà¥¨à¥¬ à¥®
ĠO ur
à¤ĩà¤ķà¤² à¤¸à¤¹
el d
Ġs ex
à¤ıà¤ļ à¤ª
ïģ ¬
à¥§à¥¨à¥© à¥ªà¥«
ĠCol lege
Ġfe el
j ob
à¤® à¤ľà¤¨à¤®
à¤¤ à¤µà¤°à¤£
à¥Ī âĢĶ
Ġà¤¨ à¤¡
à¤ı à¤¶à¤¨à¤²
Ġà¤µ à¤¸à¤ª
Ġà¤¤ à¤Ļà¤¨
Ġà¤² à¤ľà¤®
à¤ī à¤Ĩà¤®
Ġà¤°à¤¹ à¤¨à¤¸à¤¹
à¤°à¤¹ à¤¸à¤¨
à¤Ŀ à¤¤
à¥¨à¥¦ à¥¨à¥¬
à¥¨à¥¦ à¥ªà¥«
ti g
st all
à¤¤à¤°à¤ķ à¤¹à¤°
ab e
ow er
à¤ħà¤Ĺ à¤·
ĠâĢİ âĢ¡
ans l
IS O
ĠMa ha
cri pt
ĠRes p
ĠGate way
H AT
p at
à¤¤ à¤Ńà¤£
à¤¯ à¤²à¤¯à¤¹à¤°
Ġà¤ķ à¤²à¤¬
à¤· à¤ħà¤¨
à¤ļ à¤²à¤Ĺ
à¤£ à¤¹à¤¤
Ġà¤ĸ à¤²à¤ª
Ġà¤« à¤¯
à¤¯à¤¤ à¤¹à¤ķ
à¤²à¤¨ à¤Ĺà¤°
en cy
Ġà¥©à¥ª à¥«
Ġà¤ħà¤¨à¤¸à¤¨ à¤¸
age ment
ĠRe view
Ġ--- -
ĠCol lection
Ġà¥ªà¥ªà¥©à¥¨à¥© à¥®à¥¦
LO G
A pr
G lobal
P oint
k i
t witter
Ġà¤ķ à¤¡à¤°
Ġà¤ħ à¤Ĺà¤°
Ġà¤ªà¤° à¤¸à¤®
à¤ħ à¤¸à¤¹
à¥ģà¤ģ '
à¤µà¤¨ à¤Ĺà¤°
Ġà¤Ķ à¤·à¤¤à¤®
à¥ģ, ..
à¤ıà¤¸ à¤ıà¤ķ
Ġà¤Ĩà¤ĩ à¤ıà¤²
Ġà¥©à¥§ à¥Ń
ĠB N
ĠB is
ĠH ouse
à¥§à¥¬ à¥¦
à¤Ĳ à¤¨à¤®
Ġcom plete
ee k
Ġ_________ ________________
atn agar
Ġbig news
Ġà¤¸ à¤ľà¤¨
Ġà¤ķ à¤Łà¤ķ
à¤®à¤ķ à¤ķ
in es
Ġà¥¨à¥¬ à¥ª
ĠB ag
à¤¯à¤Ł à¤¨à¤²à¤Ĺ
Ġc hat
Ġà¤°à¤¹à¤° à¤ķ
TM L
ĠEngine ering
Ġà¤¹ à¤°à¤¹
Ġà¤¡ à¤Ĺà¤®à¤Ĺ
Ġà¤®à¤¨ à¤Ľ
à¤¯à¤¤ à¤ħà¤¨
à¤ĩà¤¨ à¤¸à¤ķ
à¤ĵ à¤ľ
Ġà¤§à¤¨ à¤ŀ
ĠC har
Ġà¤Ĺà¤£ à¤²
Ġà¥¨à¥¨ à¥¬
le y
Ġà¤Ńà¤°à¤® à¤Ĺ
Ġà¤¨à¤Ĺ à¤¦à¤ķ
ĠComm un
! "
b razesh
r oll
ã Ĥ
Ġ ï»¿
à¥Ģ à¥į
Ġà¤ı à¤«à¤ķ
Ġà¥¨à¥¦ à¥¯
Ġà¥© à¥Ńà¥«
à¤¦à¤¨ à¤¹
Ġà¤ªà¤¦ à¤§
Ġà¥¨à¥¯ à¥§
Ġà¥¨à¥© à¥Ń
ĠE RV
Ġ4 7
us s
Ġ9 7
11 8
. (
P ol
f l
à¥į ï¿½...
Ġà¤¸ à¤¸à¤®
à¤£ à¤¶
Ġà¤ļà¤² à¤ħà¤ļà¤²
Ġà¥Ń à¥Ńà¥¦
Ġà¥¯ à¥Ńà¥ª
à¤Łà¤® à¤¸
à¤¬à¤² à¤°
Ġà¤¸à¤¡à¤ķ à¤¸
Ġà¥§à¥® à¥¦à¥¦
ĠC asino
Ġà¤Ĺà¤łà¤¨ à¤ħà¤ĺ
ĠM etropolitan
Ġà¥©à¥« à¥¦à¥¦
as hi
Ġf inancial
à¥«à¥§ à¥¦à¥¦
AL A
ĠRe lease
à¤² à¤ĸà¤°
Ġà¤Ń à¤ľà¤¨à¤ķ
à¤ģ )
Ġà¤¤ à¤Ľ
à¤¥ à¤ħà¤¨
à¤ĩà¤¨ à¤ĸà¤¬à¤°à¤ķ
à¤Ĩ à¤®à¤¨
Ġà¤Ķ à¤ł
Ġà¤Ĩà¤īà¤¨ à¤²
Ġà¤ķà¤ª à¤Ł
Ġà¥¨à¥® à¥®
ĠS earch
Ġà¥¨à¥¬ à¥¬
Ġà¤Ĩà¤ł à¤¦
à¤¶à¤¸ à¤ŀ
Ġà¥©à¥© à¥®
el f
id th
Ġs er
âĢ¦âĢ¦ âĢ¦.
Ġ..... ,
qu ot
Ġal so
I R
P ay
V ER
n i
Ġà¤¬ à¤Ĺà¤°à¤ķ
à¤· à¤°à¤ķà¤°
à¥Į ?âĢĿ
Ġà¥Ń à¥¨à¥¦
à¤°à¤®à¤£ à¤ª
Ġà¥§à¥¯ à¥ªà¥¬
à¤ħà¤¸ à¤Ī
id a
à¤°à¤¹à¤£ à¤ªà¤Ľ
ri b
Ġà¤ħà¤ľ à¤¯à¤²
our ces
ĠEx pl
ĠSub edi
Ġmo vie
à¥«à¥¨à¥ª à¥«à¥®à¥ª
ĠSamaj Khabar
p oo
Ñ Ĥ
à¤¸ à¤ªà¤¤
Ġà¥ ł
Ġà¤Ń à¤¬à¤¨
à¤¥ à¤ľ
Ġà¤ī à¤Ł
Ġà¤¶ à¤¶à¤ķ
à¤ħ à¤µà¤²
à¤¾, âĢ¦
à¤®à¤® à¤¯
à¤ıà¤¨ à¤ıà¤«
Ġà¥©à¥¦ à¥«
ĠM t
Ġà¤¦à¤¸ à¤Ĺà¤ľ
Ġà¤¸à¤¸ à¤«
à¤¨à¤Ń à¤°à¤®
Ġà¥«à¥© à¥¬
ĠEd u
ĠSud ur
ĠHarek pal
> </
l ing
à¤¸ à¤ħà¤ª
à¤µ à¤ªà¤°à¤°
Ġà¤® à¤°à¤ķ
à¤ı à¤¯à¤°à¤²
Ġà¤¤ ÅĴ
Ġà¤¯ à¤®à¤¦
Ġà¤Ŀ à¤µ
à¤ªà¤ķ à¤ľ
Ġà¤Ľà¤² à¤Ľ
Ġà¥¨à¥« à¥®
ĠS LC
à¤ıà¤² à¤ı
ĠF m
ĠF ile
Ġp e
00 00
har i
Ġà¤ıà¤ļ à¤Ł
à¤¯à¤ľà¤¨ à¤¹à¤°
z e
à¤¦ à¤¯à¤¬
Ġà¤Ł à¤¹à¤²
Ġà¤ļà¤°à¤£ à¤µà¤¦
Ġà¤Ĩà¤Ī à¤ĵà¤¸
at ures
har a
Ġà¤ħà¤ľ à¤¯à¤®
Ġà¤¹à¤¨ à¤¨à¤ķ
ark i
ĠTe am
Khoj Online
O C
g et
Ã ¥
à¤¦ à¤¤à¤¬
Ġà¤¨ à¤²à¤¸
à¤¡ à¤µà¤°
à¤ĸ à¤®à¤¦
à¤« à¤¸à¤®
à¤°à¤£ à¤¬à¤¸
Ġà¤®à¤¨ à¤Ńà¤°
Ġà¤¸à¤®à¤¯ à¤ħà¤Ĺ
Ġ[ âĢ¦
Ġà¤¨à¤¬ à¤¦à¤²
ĠâĢ¦ (
Ġp ic
Ġarticle à¤ľ
ĠV IEW
ĠY OUR
Mo vie
** *
Ġà¤ıà¤®à¤ı à¤ıà¤ļà¤ķ
Ġà¤Ńà¤Ĺà¤¤ à¤¸
ĠKar tik
à¤¯ à¤¶à¤¨à¤²
à¤§ à¤¸à¤¹
à¤¨à¤ķ à¤ķ
à¤ļà¤¨ à¤¤à¤°
à¤Ĩ à¤µà¤§
Ġà¤īà¤¦ à¤¯à¤ķ
Ġà¤ķà¤² à¤°à¤ķ
à¤ľà¤¯ à¤¬
ĠA artha
Ġà¤ªà¤ļ à¤¹à¤¤
Ġà¤¨à¤Ĺ à¤ıà¤°
Ġà¤ľà¤¨à¤¸à¤® à¤°
Mo bile
Ġpolitic al
Ġà¤¦à¤²à¤¬à¤² à¤¸à¤¹
D r
P O
à¤° à¤°à¤²
à¤® à¤·
à¤ª à¤¥à¤®
Ġà¤Ĺ à¤ŀ
Ġà¤° à¤«à¤¤
à¤¶ à¤°à¤®
à¤¨à¤® à¤Ĺà¤°
à¥§ à¥¦à¥¦à¥¦
à¤²à¤¯ à¤¤à¤°
Ġà¤ħà¤µ à¤Ĺ
à¥¨à¥¦ à¥¦à¥¦
à¥¨à¥¦ à¥ªà¥¨
Ġà¤¸à¤¤ à¤¹à¤ķ
Ġà¤Ī à¤Ļ
ad esh
ĠS ANG
à¤¥à¤²à¤® à¤§
ĠK ush
à¤°à¤¹à¤£ à¤²
ĠW IC
Ġarticle à¤ļ
à¤°à¤¨à¤Ĺà¤° à¤¸
Ġe mail
sp an
ers ion
rad i
ĠTra ffic
à¤¸ à¤°à¤¦
à¤ĸ à¤°à¤¸
à¤¸à¤ķ à¤ķà¤¹
âĢĻ âĢĶ
à¤¤à¤ķ à¤¸
à¤µà¤¨ à¤Ńà¤°à¤ķ
Ġà¤ľà¤® à¤²à¤®
ĠS A
Ġà¤ĭ à¤Ĺ
ic ha
à¤¨à¤Ń à¤µà¤¨
Ġà¤¡à¤² à¤°à¤¬à¤°
Ġ9 2
ĠFl ash
???? ????
à¤¦ à¤°à¤®à¤£
à¤ļ à¤ķà¤°
Ġà¤ľ à¤¶
à¤Ń à¤¡
Ġà¤®à¤¨ à¤¦
à¤¸à¤² à¤µ
Ġà¥ª à¥Ńà¥«
à¤²à¤Ĺ à¤°à¤ķ
Ġà¤¬à¤¹ à¤¸à¤¹à¤°
à¤®à¤ļ à¤°
Ġà¤ľà¤Ĺ à¤ľà¤Ĺ
Ġà¥«à¥¬ à¥«
à¥į: -
alent ine
ĠNepalD ubai
Eng lish
à¥ĩ [
à¤« à¤²à¤²
Ġà¤ľà¤¨ à¤ªà¤¦
Ġà¤¬à¤¢ à¤µ
Ġà¤ł à¤£
an sp
re am
à¤¯à¤Łà¤¨ à¤¸à¤®
le ss
Ġà¤Ĺà¤¨ à¤Ĺà¤¨
ĠH uman
ak ot
à¤ļà¤¥ à¤°à¤²
ala xy
ATION AL
ĠEdu Khabar
B l
p erson
à¤¨ à¤Ĺà¤łà¤¨
Ġà¤ħ à¤¡à¤ķ
à¤ĩ à¤ıà¤¸
à¤īà¤¨ à¤Ń
à¤²à¤® à¤¸
à¤°à¤¹à¤° à¤ķ
om a
à¤ªà¤² à¤Ĺà¤¤
à¤²à¤µ à¤¬
Ġà¥¨à¥§ à¥¯
ĠC HO
à¥§à¥§ à¥®
Ġà¥Ńà¥« à¥Ń
Ġ5 3
Ġd es
Ġà¤¸à¤¡à¤ķà¤² à¤Ĺ
à¤¾& #...
à¥ĩ &
à¥ĩ à¥ģ
à¤¸ à¤¯à¤®
à¤Ł à¤Ļ
à¤¹à¤° à¤¹à¤°
à¤¯à¤ķ à¤°à¤£à¤ķ
Ġà¤ĩ à¤¸à¤¹
Ġà¤¸à¤¦ à¤¶
Ġà¤¬à¤² à¤Ńà¤¦
ĠP er
Ġà¤īà¤¡ à¤¨
ĠA ction
Ġà¥¨à¥© à¥¯
Ġà¤Ĩà¤Ī à¤¸à¤²
ĠE mb
à¥§à¥§ à¥«
ĠK C
ol s
à¤µà¤¸à¤® à¤ķ
Ġà¤Ĩà¤īà¤Ł à¤¡
Ġà¥¯à¥®à¥ª à¥¨à¥¬
AR T
Ġà¤¸à¤¨à¤® à¤ķ
Ġà¤ħà¤®à¤¨ à¤ļà¤¯à¤¨
] ]
m à¤¹à¤°
à¤ķ à¤¨à¤¸à¤¹
à¥ģ à¥Ĥ
Ġà¥© à¥§à¥¦
Ġà¤®à¤¤ à¤¸
Ġà¤ķà¤ª à¤¨à¤®
en u
ĠK h
ur y
Ġs y
Ġre s
........ ........
âģ ł
Ð »
à¤® à¤ĸà¤°
à¤· à¤Ŀ
à¤ļ à¤ªà¤Ľ
Ġà¤² à¤¦
à¤ī à¤§à¤¨à¤ķ
à¤Ĩ à¤ªà¤°
Ġ? ,âĢĻ
Ġà¤¬à¤² à¤°à¤ķ
à¤łà¤ķ à¤ħà¤ĺ
Ġà¤Ĩà¤ĩ à¤ĵà¤ıà¤®à¤²
il ot
ĠK hane
Ġà¤ıà¤¸à¤ıà¤® à¤ıà¤¸à¤¬
i ber
w ala
à¤£ à¤ľà¤¸
à¤¯à¤® à¤ª
... )
Ġà¤¦à¤² à¤¸à¤¹
à¤²à¤° à¤¸à¤ķ
Ġà¥¨à¥® à¥¬
à¤ħà¤¸ à¤«à¤²
10 5
Ġà¤µà¤ļà¤¨ à¤¹à¤°
Ġà¤Ĩà¤Ļ à¤Ľ
ðŁ ĳ
time à¤«
had ing
Ġà¤ıà¤®à¤ı à¤ıà¤ļ
ĠKhelkud nepal
Ġà¥¯à¥®à¥«à¥§à¥¨ à¥ªà¥®à¥©à¥©à¥¦
ĠCHO ICE
E C
E p
J un
Ġà¤¬ à¤¯à¤¸
à¤ı à¤ļà¤¸
à¤§ à¤ħà¤¨
à¤ģ âĢĶ
à¤Ī à¤Ĺà¤°
Ġà¤¸à¤ķ à¤¨
à¤¤à¤ķ à¤ª
à¤ĵ à¤Ī
Ġà¤¸à¤¨ à¤«
Ġà¥§à¥¯ à¥©à¥ª
er gy
Ġà¤¶à¤¹à¤° à¤¸
Ġ4 6
Ġ4 22
à¥¨à¥§ à¥§à¥¨
Ġà¤¡à¤² à¤°à¤¸
Ġ7 5
à¤£à¤¨ à¤Ĺà¤°à¤®
ĠAd d
ĠSam b
ĠFl op
ĠSand es
Ġu pd
B A
g o
Ġà¤¸ à¤Ŀ
Ġà¤ķ à¤°à¤£à¤ķ
Ġà¤ħ à¤ıà¤ķ
Ġà¤ľ à¤¯à¤¬
Ġà¤Ł à¤¨à¤¸à¤®
à¤Łà¤ķ à¤¬
à¥¨à¥¦ à¥©
Ġà¥§à¥¯ à¥¦à¥¦
Ġà¤Ĳ à¤¨à¤¸
Ġà¤Ĳ à¤¨à¤¬
ĠH or
Ġà¤¶à¤µ à¤¹à¤°
à¤¯à¤£à¤Ĺà¤¢ à¤¤à¤°
à¥¯à¥® à¥¦
à¤ĭ à¤ļ
Ġ_________ _
Ġà¥¬à¥¦à¥Ń à¥¨à¥«à¥¨
Ġà¥¬à¥¦à¥Ńà¥¨à¥«à¥¨ à¥§à¥«à¥ª
B L
J am
à¤¨ à¤Ńà¤¯
à¤µ à¤²à¤¬
Ġà¤µ à¤¨à¤¹à¤°
à¤§ à¤¹à¤¸
à¤¥ à¤¬à¤¹
Ġà¤ħà¤¨ à¤ªà¤¢
à¤ħ à¤¢
à¥ģà¤ģ à¤ģ
à¥ĭ, "
à¤¶à¤¨ à¤¸à¤¹
à¤¦à¤² à¤¸
Ġà¥¦ à¥¦à¥Ń
Ġà¥¨à¥ª à¥ª
ĠO N
ĠF ore
ĠK har
of f
Ġà¥ªà¥ª à¥«
à¥¨à¥¦à¥¦ à¥ª
à¤ĩà¤°à¤¸ à¤¬
rik e
Ġà¤Ŀà¤ķ à¤Ŀà¤ķ
Ġà¤Ĩà¤°à¤ıà¤¸ à¤Ĩà¤Ī
ĠMak alu
ĠBi hani
" >
O n
e ap
à¤ķ à¤ªà¤¤
Ġà¤ķ à¤Ń
Ġà¤ķ à¤¦à¤ķ
à¤Ĺ à¤ľà¤¬
Ġà¤ĺ à¤¤à¤²
à¤µà¤ķ à¤°à¤£
Ġà¤ħà¤® à¤¨à¤²
al chautari
ĠP an
ĠM r
en se
Ġà¥©à¥§ à¥«
ĠK UR
Ġb log
ir l
Ġà¥Ńà¥© à¥Ń
Ġa ams
ĠNo tices
ĠAct ress
ĠðŁĻ Ĥ
Ġaams anchar
M C
S AN
à¥į &
Ġà¤¸ à¤¸à¤ķ
Ġà¤¨ à¤īà¤¡
à¤ļ à¤ħà¤¨
Ġà¤Ĩ à¤¯à¤¤à¤¨
à¤£ à¤Ńà¤¨
à¥Ĥ (
à¤¾à¤ģ ?
à¤°à¤¤ à¤¨
à¤²à¤Ĺ à¤¬
à¥ĭ) à¥¤
à¥ĩà¤Ĥ âĢĵ
it s
am ichhane
à¥§à¥© à¥¨
Ġà¤ıà¤« à¤ľ
de v
Ġà¤¨à¤Ĺ à¤ª
iv er
pl ication
Ġst yle
Lo ading
N ATIONAL
U ser
l ab
à¤¸ à¤°à¤¹à¤ķ
à¤¹ à¤®à¤²
à¤¦ à¤ķà¤®à¤§
Ġà¤Ĺ à¤±
à¤ľ à¤°à¤¹à¤°
Ġà¤®à¤¹ à¤¤à¤®
à¤ļà¤¨ à¤ľà¤Ļ
Ġ! )
Ġà¤¹à¤° à¤ª
Ġà¤ľà¤¸ à¤ª
Ġà¤ħà¤µ à¤¦
à¤ıà¤® à¤Ĩà¤Ī
Ġà¤Ĳ à¤¨à¤µ
201 0
ĠKhabar sansar
Set oghar
s atta
à¤¸ à¤¤à¤¬
Ġà¤ķ à¤Łà¤¨
Ġà¤Ĩ à¤Īà¤²
à¤°à¤¤ à¤Ńà¤¨
Ġ( "
à¥¯ à¥¨à¥ª
Ġà¤ĵ à¤¬à¤°à¤®
à¤ĵ à¤Ŀ
Ġà¤ĺà¤Ł à¤¦
Ġà¤Ĩà¤Ī à¤ĵà¤ıà¤®à¤ķ
if i
Ġsp orts
ĠLok satta
Pat an
Ġbis alchautari
c red
d h
à¤¸ à¤°à¤µ
Ġà¤¨ à¤°à¤¨
à¤¬ à¤¤à¤²
à¤¦à¤¨ à¤Ĺà¤°
Ġà¤ıà¤¸ à¤¸
à¤¾) ....
ĠS m
ĠE com
à¥§à¥§ à¥¬
Ġà¤ľà¤¨à¤ª à¤¥
Ġà¤Ĺà¤ı à¤Ľà¤¨
Ġà¤Ńà¤ĩ à¤ıà¤²
à¥ĩ' ,
à¤°à¤µà¤ļà¤¨ à¤¹à¤°
NT V
Inter national
g roup
p e
à¤¤ à¤ĺ
à¤ª à¤¤à¤°
à¤¦ à¤¬à¤ķ
à¤¦ Tags
à¤µ à¤Ĺà¤¨
à¤¡ à¤¨à¤¦
à¤ıà¤ķ à¤µà¤Ł
Ġà¤² à¤¤à¤®
Ġà¤ľ à¤¤à¤¨
à¤« à¤°à¤µ
Ġà¥« à¥¨à¥§
à¤Ĺà¤² à¤ªà¤¨à¤ķ
Ġà¤ıà¤® à¤ıà¤²
Ġà¤ªà¤¦ à¤®à¤°
à¥¨à¥¦ à¥¦à¥«
ĠC up
ad min
Ġà¤¹à¤² à¤Ń
Ġà¤ĸà¤¸ à¤ĸà¤¸
ic has
à¤Ĭ à¤ķ
à¥§à¥§ à¥Ń
Ġp ress
Ġà¤®à¤Ĺà¤° à¤¸
20 71
ĠRep or
Ġnepal ichas
hak t
ĠĠĠĠ ĠĠĠĠ
==== ====
Miss ile
ĠPaschim news
Ġnepalichas o
K iran
à¤ľ à¤°à¤¸
Ġà¤¹ à¤²à¤µ
à¤¡ à¤°à¤¶
à¥Į âĢĻ,
à¤¸à¤® à¤¸à¤®
Ġà¤ħà¤¸ à¤¦à¤ķ
à¤Łà¤° à¤ľà¤¸
à¤¤à¤¨ à¤¦
Ġà¥Ń à¥ªà¥¦
à¤µà¤² à¤¡
in ation
Ġà¥«à¥¦ à¥§
ti es
ĠNews Missile
it ation
Ġà¤¨à¤Ĩ à¤ıà¤°
à¥¯à¥® à¥«à¥§à¥¦à¥¦
Ġà¤ĸà¤¬ à¤°à¤¬
ĠEn ergy
OR Y
Ġà¤Ĩà¤ĩà¤ıà¤® à¤Īà¤ķ
iti es
à¤ķà¤ħ à¤ªà¤®
ĠBo x
. /
D O
S inger
u to
à¤Ń à¤ıà¤®
à¤Ľ à¤¬
à¤°à¤¹ à¤¯
à¤²à¤® à¤Ł
à¤¶à¤ķ à¤¸à¤®
al ign
om en
re at
à¤¸à¤¹à¤° à¤²
ĠD alit
Ġà¤¶à¤ªà¤¥ à¤¸
Ġst ory
ĠAm er
ek ha
ĠRight s
y al
à¤ķ à¤ĸ
à¤ķ à¤Łà¤°
à¤ķ à¤«à¤°
Ġà¤¬ à¤¥à¤¨
à¤¬ à¤®à¤²
Ġà¤Ľ à¤¡à¤ķ
à¤¥ à¤°à¤®
à¤°à¤¤ à¤Ńà¤°
à¥ģà¤ģ âĢĵ
Ġà¤ĩ à¤ĸ
à¤¯à¤° à¤«à¤ķ
Ġà¤īà¤¦ à¤¯à¤²
à¤¤à¤² à¤ª
Ġà¤Ĩà¤Ĺ à¤¨à¤®
à¤ķà¤Ł à¤¹à¤°à¤²
ĠO ne
ĠK al
à¥§à¥ª à¥ª
à¥Ńà¥¬ à¥§
ub ble
à¥ĢâĢ¦ âĢĻ
36 0
Ġà¤ıà¤¸à¤ıà¤® à¤ıà¤¸à¤®
loc ation
R ekha
T r
p re
à¤° à¤Ĺà¤®à¤¨
à¤¤ à¤ĭà¤·
à¥Ģ âĢľ
à¤§ à¤ľà¤¸
Ġà¤ľ à¤¯à¤¤
à¤ķà¤® à¤Ĺ
à¥įà¥¤ à¥¤
Ġà¤ĵ à¤¡à¤ķ
à¤ķà¤ª à¤Ł
à¤µà¤°à¤£ à¤¸
à¤ĺà¤° à¤ĺà¤°à¤®
Ġà¤¤à¤² à¤¦
ĠB aj
Ġà¥©à¥¨ à¥§
Ġà¤®à¤¨à¤® à¤¸
ĠW eek
Ġ9 5
ĠJan am
han k
Ġan y
BS C
1 01
H P
s App
{ {
Â Ķ
à¤¨ à¤·
à¥ĩ à¤¿
à¤® à¤¥à¤¨
à¤Ł à¤µà¤¨
à¤Ł à¤ħà¤ĺ
à¤¡ à¤ĺà¤Ł
à¤ĩ à¤²à¤¨
à¤¾, ..
à¤ļà¤¨ à¤Ńà¤¨
Ġà¤ħà¤ª à¤Ń
Ġà¥§à¥§ à¥©à¥Ń
Ġà¤ħà¤¦ à¤®
à¤ªà¤Łà¤ķ à¤ªà¤Łà¤ķ
Ġà¥¨à¥¨ à¥¯
ĠS ID
à¤Ķ à¤ªà¤¨
Ġà¤¶à¤¹à¤° à¤Ń
à¥§à¥§ à¥©
à¤¤à¤°à¤® à¤¨
à¥ģ: :
Ġà¤ħà¤¨à¤¶à¤¨ à¤¸
ut am
Ġà¤ķà¤²à¤® à¤²
Ġà¥¯à¥®à¥¦ à¥Ńà¥¦
Ġà¤ľà¤¯à¤¨à¤Ĺà¤° à¤¦
ĠPre mi
ĠEcom ony
s v
à¤¤ à¤§
à¤« à¤ª
à¥ĥ à¤¾
à¤ĺ à¤°à¤¤
à¤ªà¤¤ à¤²
à¤°à¤¬ à¤¸
à¤®à¤Ĺ à¤¨
ĠS ource
ĠâĢ¦ âĢ¦.
Ġà¥ªà¥¯ à¥¯
Ġà¤°à¤Ļ à¤¹à¤°
à¥į- '
à¤¡à¤°à¤¸ à¤Ł
An il
B log
s w
v ara
à¤¨ à¤°à¤ķà¤°
à¤® à¤°à¤¨
Ġà¤ķ à¤°à¤¸à¤¹
Ġà¤® à¤°à¤£à¤ķ
Ġà¤µ à¤§à¤¶
à¤Ī à¤ıà¤«à¤ı
Ġà¤¸à¤® à¤¤à¤²
à¤ŀ à¤¦
à¤°à¤² à¤¯à¤ķ
Ġà¤Ĩà¤µ à¤Ń
à¤ľà¤¸ à¤ľ
à¤Ĩà¤° à¤ıà¤²
Ġà¤¦à¤¶à¤ķ à¤Ń
em e
oo s
Ġw e
Ġà¥¯à¥®à¥« à¥¨à¥¦à¥¨à¥¯
ï»¿ (
All Pages
ves tig
ĠKUR A
U M
g ar
n ap
r ome
Ã ¤
Ã ©
à¤² à¤Ļà¤ķ
Ġà¤µ à¤¨à¤ª
Ġà¤ªà¤° à¤¯
à¤°à¤¸ à¤¤
à¥© à¥«à¥¦
à¤µà¤° à¤ľà¤¸
à¥Ģ, âĢ¦
Ġà¤ħà¤ª à¤¸
Ġà¤Ĩà¤® à¤¸
Ġà¤ħà¤« à¤ķ
à¤Ĩà¤Ī à¤ĵà¤ıà¤®
Ġà¥©à¥§ à¥®
ĠE v
ĠI I
Ġà¤ľà¤¬ à¤ľ
em plate
ĠG o
à¤¾à¥Īà¤Ĥ à¥¤
Ġà¥ªà¥¬ à¥¦
à¤¿à¥¤ '
Ġà¤ıà¤ķà¤ªà¤Łà¤ķ à¤ķ
ĠSt ories
had a
à¤¡à¤°à¤¸ à¤Łà¤¸
Ġ??? ?
à¤ĵà¤ı à¤®à¤®
ulsip ur
Ġà¤ĸà¤Łà¤¨ à¤ªà¤Łà¤¨
N I
S ite
s ub
à¤¿ Â«
à¤¿ à¥¤âĢĿ
à¥ĩ à¥ĥ
Ġà¤° à¤¸à¤ķ
Ġà¤¹ à¤¡à¤¬à¤¡
à¤¡ à¤Ľ
à¤ī à¤¥à¤ķ
à¤µà¤¨ à¤ľà¤²
à¥įà¥¤ [
à¤¡à¤ķ à¤¨à¤ķ
Ġà¤ĺà¤° à¤«
Ġà¤¢ à¤²à¤®
à¤ľà¤¯ à¤¬à¤¹
ĠS lot
Com ments
pan y
RI BE
p ra
y antra
Ġ revie
à¤¹ à¤¸à¤ª
à¤Ń à¤¸à¤°
à¤°à¤® à¤¬à¤¹
à¤°à¤¤ à¤ľà¤¸
à¤Ĩ à¤®à¤®
à¤Ĩ à¤®à¤¸
à¤ķà¤° à¤¨
Ġà¥¯ à¥©à¥¦
Ġà¤§à¤¨ à¤ªà¤¤
à¤Ĺà¤ł à¤µà¤¨
ĠC ent
ĠP anta
Ġà¤ıà¤² à¤ıà¤²à¤¬
à¤Ĳ à¤¯
Ġà¤ªà¤Łà¤ķà¤ªà¤Łà¤ķ à¤ķ
ES T
May or
S lot
c a
l ight
s c
à¤¡ à¤Ńà¤°
âĢ ²
à¤¨à¤µ à¤²à¤®
Ġà¥¨à¥Ń à¥¨
ĠD ate
à¥ĭ... !
ĠN F
Ġà¥ªà¥« à¥®
Ġà¤°à¤¹à¤° à¤®
ĠSp ecial
à¥¬à¥§à¥¯ à¥¯à¥¨
ĠGe et
osc ope
à¥¯à¥®à¥«à¥§à¥¦à¥¦ à¥¨à¥§à¥§à¥¨
Ġà¥¯à¥®à¥¦à¥Ńà¥¦ à¥¬à¥§à¥¯à¥¯à¥¨
Ġà¥¯à¥®à¥«à¥¨à¥¦à¥¨à¥¯ à¥®à¥¨à¥¨
G o
Ġà¤¬ à¤¬à¤Īà¤®
Ġà¤® à¤²à¤¯
Ġà¤¶ à¤®à¤¸
à¤ªà¤° à¤¹à¤°
Ġà¤ķà¤® à¤²à¤µ
à¤µà¤° à¤Ń
ĠT ulsipur
à¤Ĺà¤®à¤¨ à¤¸à¤®
Ġp ra
Ġà¥¯à¥® à¥¨à¥ª
Ġà¤Ĺà¤¹ à¤Ńà¤°
à¤ıà¤ļ à¤Ĩà¤ĩà¤Ń
Ġn ational
Ġus e
ĠPay Pal
ĠTraffic Jam
Patan Mayor
ĠSID HA
PatanMayor Babukrishna
P ER
P athi
d f
Ã ¶
à¤° à¤ĺà¤°
à¤ľ à¤®à¤²
à¤ľ à¤¬à¤²
Ġà¤ħ à¤ªà¤ķ
à¤²à¤ķ à¤ª
à¤ľà¤² à¤ª
Ġà¥¨à¥« à¥¨
ha te
ĠC H
st er
ad o
Ġà¥¨à¥® à¥«à¥ª
ĠA S
Ġà¤ĸà¤¨ à¤ľ
à¤ĩà¤¡ à¤¸
ĠB eniOnline
ic o
à¥§à¥« à¥«
Ġ9 6
Ġà¥¬à¥® à¥ª
20 73
Ġà¤²à¤¹ à¤¡à¤®
Ġà¤Ĩà¤ĩà¤ıà¤® à¤Īà¤²
St rike
ĠBN NTV
ĠSANG A
Pathi vara
S u
a ur
à¤ľ à¤²à¤¬
à¤¶ à¤µà¤²
Ġà¤ľ à¤¯à¤ľ
à¤Ī à¤ıà¤®
à¤ĩ à¤ıà¤°
à¥¦ à¥¨à¥¯
Ġà¤Ŀ à¤¯
Ġà¤Ŀ à¤²à¤®à¤²
à¤ķà¤°à¤£ à¤ħà¤¨
ĠS e
à¤ıà¤² à¤¡
ur ity
à¤¿? âĢĻ
ĠâĢĻ âĢĻ
os e
âĢįâĢįâĢįâĢį âĢįâĢįâĢįâĢį
ĠSup er
r ol
Ġà¤µ à¤¦à¤²
à¤Ń à¤¶
Ġà¤« à¤¸à¤²
Ġà¤« à¤¨à¤ª
à¤ľà¤¨ à¤¹
à¥« à¥¬à¥¦
à¤¯à¤° à¤ªà¤Ľ
Ġà¤Ĩà¤ľ à¤²
à¤¯à¤¯ à¤°à¤¤
Ġà¤ľà¤¨à¤¸ à¤ĸ
ĠL angtang
ĠV IDEO
à¤¸à¤« à¤°à¤®
Ġ14 9
NEPAL I
Ġop en
ĠChe ats
ĠSidha Rekha
a ul
à¤¤ à¤ĵà¤Ł
Ġà¤¸ à¤ĺà¤°
à¤¦ à¤¹à¤ķ
Ġà¥¤ âĢĵ
Ġà¤¹ à¤°à¤¤
à¤Ń à¤²à¤²
à¤ł à¤µ
à¥¨ à¥§à¥ª
à¤Ĩ à¤ĩà¤ıà¤ķ
Ġà¤ĩ à¤²à¤®
Ġà¥ª à¥¦à¥¦à¥¦
à¤¬à¤° à¤Ńà¤¨
à¤ªà¤ķ à¤¬
Ġà¤¸à¤¯ à¤°à¤®
à¥¨à¥¦ à¥©à¥¦
à¤¸à¤° à¤ľà¤¸
ou d
Ġà¥©à¥§ à¥¨
ing back
ĠL e
ak i
Ġà¤Ĺà¤ľ à¤²à¤²
ess age
à¤Ĩà¤ĩ à¤ıà¤¨à¤ľ
12 3
à¥ĩâĢ¦ .
ĠCh risti
ist ration
Ġn ayak
Ġà¤ıà¤¨à¤Ĩà¤°à¤ı à¤¨à¤®
Ġra j
BSC RIBE
A C
à¤² à¤Ŀà¤£
Ġà¤¹ à¤µà¤¨
à¤ļ à¤ļ
à¤Ī à¤¸à¤°
Ġà¤ł à¤¹
à¤ªà¤® à¤§
on us
Ġà¥¦ à¥¨à¥¯
ĠP erson
Ġà¤Ńà¤Ī à¤¹
ĠB id
à¥©à¥¦ à¥¯
Ġà¥ªà¥¯ à¥«
Ġà¤¶à¤°à¤¦ à¤¸
Ġà¤²à¤ĸ à¤¨à¤ª
ĠX S
ĠSu chana
ĠTem al
hakt apur
O ff
P ingback
à¤¨ à¤°à¤¸à¤¹
Ġà¤Ń à¤¯à¤®
Ġà¤ħ à¤Łà¤®
Ġà¤ıà¤ķ à¤¤à¤²
in n
Ġà¥¨à¥ª à¥¨
ĠN ar
à¤ľà¤¬ à¤ľ
Ġ3 00
Ġà¤ĵà¤® à¤¨à¤®
ĠMH Z
ĠSU BSCRIBE
hate ver
' -
P L
b ubble
v ices
Ð º
Ñ ĭ
à¤® à¤¶à¤ķ
Ġà¤Ĺ à¤ĩà¤°
à¤ı à¤¥
Ġà¤Ńà¤¨ à¤¨
Ġà¤ªà¤° à¤¬
à¤²à¤ķ à¤¸à¤®
à¤Ĩ à¤ĩà¤¨
Ġà¤ł à¤¨
à¤¶à¤¨ à¤°à¤¤
Ġà¤ķà¤² à¤°à¤®
Ġà¤ĩà¤¨ à¤¬à¤ķ
Ġà¤¸à¤Ļ à¤Ĺ
à¤¯à¤ķà¤° à¤¥
it ra
out line
Ġnews nepali
ip s
Ġà¤²à¤¨ à¤Ł
à¤ħà¤ķ à¤¬à¤°
16 0
ack p
Ġà¤®à¤¹ÅĴ à¤µà¤ķ
ĠBI G
ĠðŁĺ Ĥ
ISO DE
M ail
à¥ĩ à¥°
à¤¤ à¤µà¤ķ
à¥Ģ à¥ĩ,
à¤µ à¤Īà¤ķ
Ġà¤° à¤Ļà¤²
Ġà¤¹ à¤¬à¤®
Ġà¤µ à¤¦à¤°
à¤ļ à¤¯à¤®
Ġà¤ħà¤¨ à¤¸à¤¨à¤²
à¤°à¤¦ à¤¹à¤®
à¤¯à¤° à¤ª
à¤¯à¤° à¤Ĺ
à¤¡à¤² à¤¦
à¤¦à¤ķ à¤¸
Ġà¤°à¤¹à¤¨ à¤¸à¤ķ
à¤ıà¤¸ à¤ıà¤®à¤ıà¤¸
à¤²à¤¤ à¤¸à¤®à¤ķ
à¤¯à¤£ à¤¬à¤¹
à¤Ĺà¤¢ à¤®
ur n
ĠL et
ak sh
Ġarticle à¤¶
201 1
Ġà¥«à¥¬ à¥©
Ġà¤ıà¤ļ à¤µ
ĠPart y
Ġà¤®à¤°à¤¹ à¤ł
B RE
s amachar
Ġà¤Ń à¤¡à¤ķ
à¤ļ à¤²à¤¤
à¤Ń à¤«à¤²
Ġà¤ļ à¤ķà¤®à¤¨
Ġà¤ı à¤ı
à¤ħ à¤¨à¤¸
Ġà¤§ à¤°à¤®à¤°
à¥ĩ, "
à¤µà¤² à¤Ĺà¤¤
à¤ľà¤® à¤¹à¤²
à¤¨à¤ª à¤¶
ou del
Ġà¥¨à¥¬ à¥¨
Ġà¤Ĩà¤ł à¤µ
ĠH TML
ĠL ink
ĠW ag
Ġw hatever
à¤¸à¤¡à¤ķ à¤¬
uk u
had ka
alk hel
ator s
les o
xx x
ĠBir atnagar
ĠMotivate news
ĠPu leso
ĠEP ISODE
6 49
j al
Â ¨
à¤ķ à¤¡à¤®
à¥ĩ âĢĿ,
Ġà¤ª à¤²à¤®
à¤µ à¤°à¤¤à¤°
à¥Ī âĢĻ,
Ġà¤ªà¤° à¤¹
à¤Ŀ à¤µ
âĢĵ âĢľ
à¤ĩà¤¨ à¤¸à¤¹
à¤Łà¤ķ à¤ĺà¤°
à¤¤à¤ķ à¤£
à¤§à¤¨ à¤Ńà¤¨
Ġà¤°à¤ķà¤® à¤Ńà¤¨
Ġà¥©à¥¦ à¥Ń
Ġà¤®à¤¦ à¤¤à¤²
ch ment
à¥§à¥ª à¥¦
is p
à¥Ģ... âĢĻ
ĠIn vestig
Ġà¤Ķà¤¸à¤¤ à¤Ńà¤¨
Ġ6 4
Ġà¤ľà¤¯ à¤²à¤²
Ġch alkhel
Ġus er
ĠDoc tor
ĠBikash News
) ::
M an
b ud
b all
n ath
p ing
à¤¨ à¤ļà¤¨
à¤¨ à¤¥à¤²
à¥ĩ ~
à¤¯ à¤¶à¤¨à¤ķ
Ġà¤« à¤²à¤®
à¤ľà¤¨ à¤¬à¤°
Ġà¤ľà¤¨ à¤ħà¤¦
Ġà¤ĩ à¤¨à¤¸
à¤°à¤¬ à¤¹à¤¨
à¥įà¥¤ âĢ¦
Ġà¤īà¤¦ à¤¯à¤¬à¤¹
in od
Ġà¥ªà¥¦ à¥®
à¤®à¤ª à¤Ł
ik hel
vi s
à¤°à¤¸à¤® à¤£
à¤¤à¤¸ à¤Ļ
lo ts
ĠJAN ATA
etail s
3 00
I G
W q
b ooks
k ing
à¤° à¤Ĭ
à¤Ĺ à¤ķà¤®
Ġà¤° à¤ª
Ġà¤ľ à¤µà¤ķ
Ġà¤ı à¤¨à¤°
Ġà¤¯à¤¸ à¤ħà¤Ĺ
Ġà¥« à¥©à¥¦
à¤¸à¤¨ à¤ħà¤¨
Ġà¤Ĩà¤µ à¤°à¤®
à¤¸à¤¦ à¤ħà¤¨
à¤ķà¤°à¤£ à¤²à¤Ĺ
à¥¨à¥¦ à¥®à¥¯
an agar
ĠP ana
Ġà¥¨à¥® à¥Ń
en ti
à¥ĩà¤Ĥ '
Next à¤ª
Ġin d
à¥¦à¥¬ à¥¬
Ġà¥«à¥ª à¥¦
ati ka
Ġ_________ __
ĠPe ace
ãĥ »
erse ys
à¤¯ à¤µà¤²
Ġà¤ľ à¤ľà¤¹à¤°
à¤¹à¤° à¤¸
à¤īà¤¨ à¤Ńà¤¨
à¤¨à¤ķ à¤¥
à¤µà¤¨ à¤¨
à¤®à¤ķ à¤¸
à¥įà¥¤ (
à¥Ģ, âĢĻ
à¤Łà¤® à¤°
à¤²à¤Ĺ à¤Ļ
Ġà¥¨à¥« à¥©
ĠP assword
le x
Ġà¥¨à¥¬ à¥©
à¥Ńà¥« à¥©
ri ya
Ġb ack
à¤¼ à¥ĩ
ĠCh itwan
led ge
bin od
Ġte xt
ĠMaj door
S un
U D
w o
Ñ Ģ
Ġ }
à¤¸ à¤«à¤°à¤ķ
à¤Ī à¤ħà¤¨
à¤Ľ à¤ľà¤¸
Ġà¤ļ à¤¹à¤ķ
Ġà¤ľà¤¨ à¤¦à¤¬
Ġà¤§ à¤°à¤®à¤ª
Ġà¤¸à¤¹ à¤²
à¤ĩà¤°à¤¹ à¤¦
al ity
ĠR adi
ĠT ax
à¤¸à¤ª à¤¥
ĠH igh
ĠW all
à¥¨à¥¦à¥¦ à¥¨
ïĥ ¼
o to
Ë Ĳ
à¤² à¤·
Ġà¤° à¤Ľ
Ġà¤ļ à¤¡à¤ķà¤¨à¤ķ
Ġà¤ħà¤¨ à¤Ł
à¤¢ à¤Ĺ
âĢĵ âĢĵ
à¤¾, âĢĿ
Ġà¤Ĩà¤¯ à¤¬
Ġà¤ĩ à¤ĵà¤¨
Ġà¥ª à¥Ńà¥¦
à¤°à¤®à¤® à¤®
Ġà¤ħà¤Ĺ à¤®à¤µ
à¥į, -
Ġà¤ħà¤® à¤°à¤ķ
Ġà¤Ĩà¤® à¤¦
à¤°à¤ª à¤¦
à¤¨à¤µ à¤¦
Ġà¤ıà¤¸ à¤ıà¤²
ĠB ato
à¥§à¥¯ à¥¯à¥¦
op er
à¥§à¥® à¥®
ĠIn c
Ġà¥ªà¥© à¥«
Ġ5 6
Ġà¥¬à¥ª à¥¦
Ġ.... .....
fo x
online khabar
rit ten
ĠSH ARE
Ġà¤ľà¤¯à¤ľ à¤¯à¤ķ
Ġ à
à¤® à¤Ĩ
à¤¦ à¤¤à¤ķ
Ġà¤Ĺ à¤Ł
Ġà¤¨ à¤ħà¤²
à¤ĩ à¤¬à¤ķ
à¤µà¤¸ à¤§
à¤µà¤¸ à¤¦à¤¸
ĠâĢĺ ,
Ġà¤¬à¤ľ à¤°
Ġà¤ĵ à¤®à¤°
à¤¦à¤¨ à¤°
Ġ! âĢ¦
Ġà¥«à¥¦ à¥«
à¥ĩà¥¤ à¥¤
Ġà¤¨à¤Ń à¤ĩà¤¦
ĠC ountry
Ġà¤Ĩà¤Ī à¤°à¤¹à¤¨
Ġà¤Ĩà¤Ī à¤ĵà¤ıà¤¸
Ġà¥©à¥© à¥¬
ĠJ ava
Ġ3 65
à¥ĭ? "
am al
Ġà¥ªà¥ª à¥¦
Ġà¥©à¥¯ à¥¦
ĠU RL
à¥¬à¥¯ à¥«
ĠFe atures
ĠCha utari
à¥įà¥Ģ à¥Ģ
N ote
S ex
T E
f g
Ġà¤ª à¤¯à¤°
Ġà¤ķ à¤£à¤¹à¤°
à¤¬ à¤°à¤¸à¤¹
à¤£ à¤ħà¤¨
Ġà¥¯ à¥©à¥¬
à¥¨à¥¦ à¥¦à¥©
Ġà¤Ī à¤ľà¤²
ne ct
à¤Ķ à¤²
ĠB ea
Ġs hare
âĢĭ âĢĶ
Ġà¤¥à¤° à¤¥à¤°
à¥¤' '
Ġà¤Łà¤® à¤Ł
ĠHor oscope
Ġ em
à¤° à¤¶à¤ķ
à¤Ĺ à¤µà¤¸
à¤ĩ à¤¸à¤¹
à¤ĺ à¤ľ
Ġà¤ªà¤¹ à¤²à¤¬
à¤°à¤µ à¤¦à¤²
Ġ- âĢľ
à¤·à¤§ à¤°à¤ķ
ĠS ang
à¤ĩà¤¡ à¤°à¤²
it t
ĠN i
Ġà¤ªà¤² à¤Ļ
el y
à¤ģ, âĢĿ
âĨĴ âĢİ
Ġd ata
Ġà¤¦à¤¹ à¤ļ
à¤°à¤ĺ à¤£
ĠSp ell
à¤ķà¤ł à¤ª
low job
Ġà¤Ľà¤²à¤ķ à¤ªà¤Ł
h k
i mage
à¤® à¤°à¤£à¤ķ
Ġà¤ķ à¤ļà¤ķ
à¤Ĺ à¤¸à¤®à¤ķ
à¤ı à¤Ĩà¤ĩà¤ľ
à¤¬ à¤®à¤§
Ġà¤µ à¤¸à¤²
à¤ıà¤ķ à¤ļ
à¤Ń à¤¹
à¤ī à¤¡à¤¸
à¤¯à¤ķ à¤¥
à¤°à¤£ à¤Ńà¤¨
à¥Įà¤Ĥ âĢ¦
à¤°à¤¬ à¤²à¤ķ
à¤ıà¤® à¤ıà¤ķ
Ġà¤ħà¤² à¤Ļ
Ġà¤¨à¤Ń à¤ĩà¤°à¤¹
Ġà¥©à¥¬ à¥¬
ĠIn f
à¤¾à¤ĥ âĢĵ
à¤Ĩà¤ĩ à¤¸à¤²
à¥įâĢ¦ .
end er
Ġà¤²à¤ĸà¤¨ à¤Ĭ
ĠTag s
alit pur
inf alls
D N
X X
e N
p ut
Ġà¤ħ à¤ķà¤®à¤ķ
à¤°à¤£ à¤¤à¤°
Ġ( -
Ġ( âĢĺ
Ġ( âĨĴâĢİ
à¤Ĩ à¤īà¤²
Ġà¤Ĩà¤¯ à¤°
Ġà¤ıà¤® à¤ıà¤®à¤ķ
re ate
à¤§à¤ķ à¤Ł
Ġà¥¦ à¥§à¥«
à¤¯à¤¯à¤¨ à¤¸à¤®
ĠC ategory
ĠâĢ¦ âĢĻ
ĠCom edy
à¥§à¥¬ à¥Ń
Ġl ike
us er
ĠV S
Ġd om
ĠÂ °
nb s
Ġà¤¸à¤ĸà¤° à¤ĸà¤£
List en
C asino
h ite
Ġà¤¨ à¤°à¤ķà¤®
Ġà¤¬ à¤¯à¤°
Ġà¤ľà¤¨ à¤¸à¤®à¤ķ
à¤°à¤¸ à¤Ĺ
à¤Ĩ à¤ªà¤¤à¤ķ
à¤¯à¤² à¤¹à¤°
Ġà¤®à¤¤ à¤¹à¤°
Ġà¤Ķà¤·à¤§ à¤¸à¤¹
à¤ĩà¤¨à¤² à¤Ĺ
ag di
Ġà¥©à¥© à¥©
à¥§à¥ª à¥®
ĠG en
im un
à¥¦à¥« à¥¬à¥¨
Ġ7 7
rows e
Ġà¥¯à¥®à¥ªà¥¨à¥¬ à¥©à¥ª
ĠBaj e
eN asha
A W
A p
s ep
s hares
à¤¯ à¤²à¤¯à¤¬
Ġà¤ķ à¤¬à¤°
Ġà¤¬ à¤¶
à¤ı à¤ıà¤¨à¤ı
à¤°à¤¹ à¤ª
à¤Ĩ à¤ĩà¤®
à¤·à¤£ à¤ª
à¤¾. ,
Ġà¥©à¥¦ à¥®
Ġà¥¦ à¥«à¥¦
à¤°à¤ľ à¤Ļ
Ġà¤µà¤¨ à¤ľà¤¨
Ġà¥¬à¥¦ à¥«
ak ar
Ġà¤ªà¤ļ à¤ªà¤¨
Ġ10 5
ani ya
Ġà¤Ĩà¤ĩà¤° à¤¨à¤ķ
ĠGu ide
Ġà¥¯à¥®à¥¨à¥ª à¥¦à¥«à¥¬à¥¨
Ġà¥¯à¥®à¥ªà¥¨à¥¬à¥©à¥ª à¥¨à¥¨à¥¦
Ġà¥¯à¥®à¥¨à¥ªà¥¦à¥«à¥¬à¥¨ à¥¨à¥¦
P l
S w
s apan
à¤ķ à¤łà¤®
à¤ĺ à¤ĸ
Ġà¤ĺ à¤Łà¤ķà¤ķ
Ġà¤§ à¤¨à¤¨
Ġà¤ķà¤® à¤Ł
à¤Ĩ à¤¬à¤¦
à¤Łà¤ķ à¤ĺà¤°à¤®
Ġà¤ħà¤¸ à¤¦
Ġà¤Ĺà¤¤ à¤¹à¤ª
à¤Ĺà¤¤ à¤¸
à¤®à¤¤ à¤ªà¤Ľ
à¤ľà¤ķ à¤¸
à¥į, "
Ġà¤¦à¤² à¤¦à¤²
ĠC ategories
à¤¸à¤µ à¤¸à¤®
à¤ĩà¤¡ à¤¹à¤°
ĠB ack
Ġà¤Ĺà¤² à¤¤à¤ķ
Ġà¥©à¥¨ à¥¬
ĠK oshi
ĠL og
nepal imanharu
ĠW atch
ĠU N
à¥¯à¥® à¥¦à¥®
ĠV oices
Ġà¤¬à¤Ł à¤®à¤²
Ġà¤Ľà¤ł à¤²à¤Ĺ
Ġ200 6
ind u
âĢ¦âĢ¦âĢ¦âĢ¦ âĢ¦âĢ¦âĢ¦âĢ¦
ĠAsh win
F i
M ero
l ive
à¤° à¤°à¤ķ
à¤¨ à¤Īà¤²
à¤² à¤Ľ
à¤ª à¤¥à¤²
Ġà¤ľ à¤¯à¤²
à¤¹à¤° à¤Ńà¤µà¤¨
Ġà¤¶ à¤°à¤¤
à¤Ĩ à¤Ń
à¤Ĩ à¤ªà¤¤
à¤§à¤¨ à¤Ĺà¤°à¤®
an tha
à¤ıà¤¸ à¤¨à¤®
Ġà¤¸à¤¤ à¤¬
à¤Īà¤² à¤¹à¤°
Ġp okhar
Ġà¥©à¥© à¥Ń
ĠG all
Ġà¥¯à¥¯ à¥©
sh ala
ues tion
à¤ª à¤Ļ
à¤¦ à¤µà¤®
à¤Ł à¤®à¤¨
Ġà¤° à¤¥à¤²
à¤ı à¤°à¤²
à¤¶ à¤®à¤ķ
à¤ļ à¤¬à¤°
âĢ ³
à¤īà¤¨ à¤ªà¤°
à¤°à¤¤ à¤¸à¤¹
à¤ĺ à¤°à¤ª
à¤¸à¤® à¤¯à¤¸
Ġà¤¬à¤¨ à¤²
à¥Ģ, ...
Ġà¤ĺà¤° à¤ĸ
à¥¨à¥¦ à¥©à¥ª
Ġà¤ıà¤¨ à¤ıà¤²à¤ľ
Ġà¥§à¥ª à¥¦à¥¦
Ġà¤Ĩà¤Ī à¤¬
Ġà¤Ńà¤µà¤¨ à¤¸
ore r
à¤īà¤ª à¤ľ
Ġà¤¹à¤ķ à¤ħà¤¨
à¤²à¤Ń à¤°à¤ķ
Ġà¤¡à¤² à¤°à¤¸à¤¹
Ġ9 9
Ġà¤¤à¤¬ à¤°à¤²
à¥¦à¥« à¥¬
ant s
à¥¦à¥¯ à¥¯
ire fox
Ġà¤ıà¤¸à¤ĩ à¤Īà¤ķ
à¤ıà¤¸à¤ĩ à¤ĩ
ek umar
ĠJournal ism
ĠKush mi
A man
Ġ char
à¤Ĺ à¤¸à¤Ļ
Ġà¤¨ à¤¬à¤²
à¤ı à¤Łà¤°à¤²
à¤£ à¤¹
à¤Ļ à¤Ĺà¤²
à¤Ĩ à¤°à¤Ń
à¤¬à¤¨ à¤¡
à¤²à¤¯ à¤Ńà¤¨
à¤¸à¤¨ à¤¤à¤°
Ġà¤®à¤² à¤Ļ
à¤¤à¤°à¤£ à¤¬
à¤µà¤¯ à¤¬
Ġà¤¨à¤Ń à¤ĩà¤¨
Ġà¤¤à¤¹ à¤ħà¤¨
à¥§à¥¯ à¥¦
à¥§à¥¬ à¥¨
à¤¦à¤¨à¤ķ à¤°
à¤ĸà¤¬ à¤°à¤²
Ġd ast
Ġà¥Ńà¥© à¥¬
ist s
à¥¦à¥ª à¥¯
à¤Ĩà¤ĩà¤ıà¤® à¤Īà¤ķ
ĠST ORY
Ġsam yantra
abe j
Ġdast abej
A l
M ah
S ar
c ont
à¥į à¥ĭ
à¥Ģ âĢĺ
à¤¹ à¤£à¤²
à¤§ à¤ľ
à¤ļ à¤¤à¤²
à¥Į '
à¤Ļ à¤®à¤¤
à¤Ŀ à¤¨à¤ķ
Ġ? !
à¤¤à¤¨ à¤Ĺ
Ġà¤Ŀ à¤ŀ
à¤°à¤Ń à¤°à¤¬
à¤¦à¤µ à¤ª
Ġà¥¦ à¥¨à¥¬
ha g
Ġ1 10
ĠT alk
ĠD in
à¤Ĩà¤Ī à¤ĵà¤¸
à¥ĭâĢĻ -
Ġà¤¨à¤Ńà¤ı à¤¤
à¥§à¥© à¥©
ĠG okar
Ġà¤ħà¤ľ à¤°à¤¬
Ġà¥Ńà¥® à¥¦à¥¦à¥¦
os s
np l
Ġt ra
Ġma in
Ġsh ort
str ing
à¤Ĩà¤ĩà¤ıà¤® à¤ĩà¤ķ
rg an
sapan asansar
G F
d aily
Ġ right
à¤° à¤Ĩà¤¨
à¤ķ à¤Ļà¤®
à¤¯ à¤°à¤¦
à¤¯ à¤µà¤¨
à¤µ à¤Ĺà¤¤
à¤Ł à¤ĩà¤£
à¤§ à¤°à¤£à¤¸à¤Ń
Ġà¤Ĩ à¤¸à¤ķ
Ġà¤ĸ à¤°à¤²
à¤ªà¤¨ à¤ªà¤Ľ
à¤Ĩ à¤Ł
à¥ĭà¥¤ )
à¥ĭà¥¤ âĢ¦
à¥Įà¤ģ ...
Ġ_ âĢĿ
à¤·à¤® à¤¯
ar n
Ġà¥¨à¥Ń à¥¯
à¤ĩà¤ľ à¤°à¤ķ
Ġà¤«à¤² à¤ª
ĠH AM
ok i
Ġà¥Ńà¥§ à¥§à¥¦
à¥ľ à¤ķ
Ġà¤¨à¤Ŀ à¤°
ls quo
now ledge
Pos itive
ĠInvestig ative
c ell
Ñ Ĩ
Ġ if
à¤° à¤ľà¤Ĺ
à¤² à¤ªà¤°
à¤® à¤°à¤¹
à¤¯ à¤°à¤¹
Ġà¤¸ à¤¥
à¤ª à¤¦à¤¨
à¤¡ à¤ªà¤¬
à¤Ī à¤ĵà¤®
à¤ĩ à¤ĺ
à¤ĺ à¤¨à¤®
Ġà¥§à¥¯ à¥©à¥©
Ġà¥§à¥¯ à¥ªà¥§
Ġà¤Ī à¤¶à¤ķ
à¤¦à¤® à¤ķà¤²
Ġà¥¨à¥¯ à¥¨
à¤µà¤¯à¤¨ à¤¤à¤°
Ġà¤¨à¤µ à¤µà¤°
Ġà¤ıà¤« à¤µ
Ġl ove
à¥į... !
Ġc ha
à¥¦à¥¬ à¥§
ank a
time à¤¸
ĠMusic al
ĠBiz shala
ĠCheck er
group media
npl groupmedia
H Q
U E
s k
Ġ hi
à¤¨ à¤Ļ
à¤¿ à¥Ĥ
à¤² à¤ªà¤¨
à¤² à¤¹à¤¨
à¤¹ à¤¬à¤°
à¤µ à¤īà¤ªà¤°
à¤Ł à¤ľà¤¤
Ġà¤µ à¤¡à¤²
à¤Ń à¤µà¤¸
à¥¦ à¥ªà¥®
Ġà¤®à¤¹ à¤¦
à¤¸à¤¨ à¤ĸ
à¤ĥ ,
Ġà¤¦à¤° à¤ª
in ance
à¤ıà¤® à¤¹à¤°
Ġà¤¨à¤ľ à¤°à¤ķ
à¤ļà¤° view
ĠC y
ĠC ons
ĠNepal ba
Ġà¤ħà¤«à¤° à¤ħà¤¨
ĠCh ish
AN K
ĠMy agdi
ĠSha h
ĠHel lo
Pol ice
ĠNepalba has
ĠChish ti
g t
u ff
à¤¨ à¤Ľà¤ķ
à¤¤ à¤¬à¤¦
à¤¹ à¤¥
à¤µ à¤ľà¤²
à¥Ī .....
à¤¡ à¤¸à¤ķ
à¤ī à¤°à¤Ļ
à¥ĥ '
à¥ĥ à¥ģ
à¤ľà¤¨ à¤ľà¤¤
à¤¸à¤® à¤ħà¤¨
Ġà¤ıà¤ķ à¤¹
à¤°à¤¸ à¤Ń
à¥¨à¥¦ à¥ªà¥¦
Ġà¤¦à¤² à¤¹à¤¨
ha bi
ĠA awaj
Ġà¥¨à¥¯ à¥ª
à¤Ķ à¤§
Ġà¤Ĭ à¤¬
à¤µà¤¨à¤ķ à¤¥
ch e
à¤¤à¤¸ à¤¯
ĠJ ob
ĠDec is
à¤¸à¤Ĺà¤¢ à¤®
Ġcryptocurrenc ies
Ġz oo
inter national
d dc
n y
Ġ time
à¤® à¤Ĺà¤łà¤µà¤¨
à¤£ à¤ıà¤¶
à¤¯à¤¸ à¤ħà¤Ĺ
à¤Łà¤° à¤µà¤°
Ġ! ::
om np
à¤ıà¤® à¤Ĩà¤°à¤¬
ic t
Ġà¥©à¥® à¥©
à¤ĩà¤« à¤¸à¤ķ
Ġw as
AL L
à¤¨à¤Ĺ à¤ŀ
Ġà¤Ĩà¤ĩà¤ıà¤®à¤Ī à¤Ń
Ġsa ve
A c
P npkhabar
T e
W O
d er
p ortal
Ġ ed
à¤² à¤ľà¤¨
à¤¡ à¤¬à¤°
à¤°à¤£ à¤²à¤Ĺ
à¤ĺ à¤°à¤¹à¤°
à¥§ à¥Ńà¥©
à¤°à¤µ à¤§
à¤²à¤¨ à¤µ
à¤·à¤ķ à¤°
à¤¤à¤°à¤£ à¤²à¤Ĺ
Ġà¥«à¥¦ à¥®
Ġà¥§à¥® à¥Ńà¥§
ĠP npkhabar
à¤ªà¤£ à¤ªà¤Ľ
Ġà¤µà¤¨ à¤ľà¤Ļ
à¤Ĩà¤Ī à¤ıà¤ķ
th ere
à¥ģà¥¤ à¥¤
ĠF ilm
ĠK O
à¥ģ. )
Ġà¤¡à¤² à¤°à¤¬
Ġà¤Ĺà¤¦ à¤Ĺà¤¦
rik oooo
Ġà¤²à¤µ à¤ľà¤®
urre nt
à¤¸à¤ı à¤ªà¤®
ĠBhag ya
Ġzoo omnp
M usic
P D
h ali
n o
p x
Ŀ ¤
à¥Ģ à¥¤âĢĻ
à¤µ à¤Ĺà¤£
Ġà¤ķ à¤Ĺ
Ġà¤¨ à¤¸à¤¦
Ġà¤µ à¤°à¤£
à¤§ à¤¸à¤°à¤ķ
à¤Ń à¤¨à¤ķ
à¤« à¤¡
à¤¢ à¤¦
à¤¨à¤² à¤¸à¤¹
à¤ħ à¤¨à¤ķ
à¤¯à¤¸ à¤¨à¤®
à¤°à¤µ à¤¹à¤¨à¤ķ
à¤·à¤ķ à¤¶
Ġà¥§à¥¯ à¥¨à¥©
à¤¨à¤ª à¤¦à¤µ
Ġà¤ıà¤¨ à¤ıà¤ļà¤ķ
ĠC IJ
Ġà¥¨à¥¨ à¥©
ĠS QL
ĠM al
à¤Ĺà¤¢ à¤ķ
ĠO li
ĠI ss
Ġà¤¸à¤¡à¤ķà¤® à¤§
Ġl og
Ġà¥©à¥¯ à¥¬
Ġre c
ĠÂ ĵ
ĠFl or
ock et
ĠSch ool
ĠChamber s
ĠOut line
B eniOnline
E M
a ve
m à¤ķ
p tion
à¥ĭ !!
à¤¤ No
Ġà¤¨ à¤ķà¤Ł
à¤ľ à¤Ĺà¤°
Ġà¤ħ à¤¥à¤°
à¤ĩ à¤¸à¤¨
à¤¯à¤ķ à¤ªà¤°
Ġà¤Ł à¤ªà¤ķ
Ġ! -
Ġà¥¯ à¥Ńà¥¦
à¤¶à¤¤ à¤¦
à¤Īà¤² à¤Ł
ĠC S
ĠA b
à¥Ģ) -
ma te
ĠT v
à¤°à¤Ĺà¤¤ à¤®
ĠF am
Ġà¥ªà¥© à¥ª
ĠV ir
ĠAr ghakhanchi
Ġà¥Ńà¥¬ à¥«
à¤¹à¤Ļà¤ķ à¤Ļà¤²
à¤¾à¥° âĢĶ
rou nd
Ġeconom y
kt op
ters nepal
G B
à¤¿ ......
à¤® à¤ªà¤¦
à¤¤ m
Ġà¤° à¤¤à¤¨à¤ª
à¤Ī à¤Ľ
Ġà¤¸à¤® à¤Ń
à¤īà¤¨ à¤¯à¤¤
Ġà¤§ à¤Ļ
à¤ķà¤ķ à¤¥
à¤ĵ à¤Ľ
Ġà¤ĺà¤° à¤¨
Ġà¥©à¥¦ à¥ª
à¤¾) -
ĠC A
ĠC C
ĠP rad
Ġà¥¨à¥® à¥¯
à¤ıà¤² à¤ıà¤¨à¤ķ
ĠD istrict
à¤¹à¤°à¤£ à¤¬
Ġà¥©à¥¯ à¥«
Ġ20 71
à¤ıà¤ļ à¤ĵà¤²
22 5
ho ol
Ġrep orts
end ar
NT ER
à± į
H em
m on
à¥į à¤¾à¤ģ
à¤° No
à¤Ĺ à¤§
Ġà¤° à¤¡à¤²
Ġà¤¬ à¤·
à¤ı à¤¨à¤®
à¤ı à¤¯à¤¤
à¤ĸ à¤ľà¤¨
Ġà¤¯ à¤¶à¤ķ
à¥Į "
à¤ħ à¤²à¤¨
à¤Ĩ à¤µà¤¦
à¤µà¤ķ à¤µ
Ġà¥« à¥Ńà¥«
à¤¸à¤² à¤¬
à¤¸à¤¨ à¤¯
Ġà¥¬ à¥§à¥©
à¤Ĺà¤² à¤¹à¤°
Ġà¥§à¥¦ à¥¯à¥®
Ġà¥¯ à¥§à¥¨
Ġà¤¢ à¤ķà¤®à¤ķ
Ġà¤īà¤² à¤Ļ
Ġà¤§à¤¨ à¤Ĺà¤¡
Ġà¤ıà¤¸ à¤ĵà¤ıà¤¸
ĠS k
Ġà¥¨à¥Ń à¥§
Ġà¥¨à¥¬ à¥§
à¥§à¥® à¥¨
Ġà¤¨à¤Ĩ à¤īà¤¦
he re
à¤·à¤¸ à¤°à¤¹
Ġ.... ........
uc ks
âĢįâĢį .
ĠEx am
ĠRo ad
cred i
K endra
n one
Ġà¤Ń à¤°à¤¤à¤²
à¤§ à¤°à¤£à¤¹à¤°
Ġà¤Ĩ Ã
Ġà¤ı à¤Ĩà¤°
Ġà¤Ł à¤¨à¤Ńà¤¨
Ġà¤¡ à¤°à¤®
à¤ĩà¤¨ à¤ħà¤¨
à¤®à¤² à¤°
Ġà¥§à¥© à¥¦à¥¦
ĠF al
à¤ļà¤¨à¤ª à¤¶
à¥¨à¥¨ à¥¨
à¤ªà¤Ł à¤¨à¤²
Ġarticle à¤Ĩà¤ľ
ul al
Ġà¥ªà¥® à¥¦
Ġd istrict
Ġ8 6
à¤¤à¤ľà¤¨ à¤¸
Ġà¤Ĩà¤¯à¤ķ à¤°à¤®
ĠDar az
ĠBir thday
ĠPremi um
) âĢĿ
C l
H I
Â ¤
Ġ rikoooo
à¥ĭ à¥ĩà¥¤
à¤¸ à¤Ī
à¤ı à¤ĩà¤²
Ġà¤Ľ à¤Ńà¤¨
à¤ĸ à¤¯
à¤ĸ à¤µà¤²
à¤ī à¤¥à¤²
Ġà¤®à¤¹ à¤¬
à¤µà¤¨ à¤ľ
à¤ĵ à¤Ń
Ġà¤¢ à¤¡
ĠP res
ch annel
Ġà¥ªà¥« à¥«
à¥¨à¥« à¥¬
à¤Ĩà¤¯ à¤Ĩà¤°
à¥ĭ- âĢĻ
ro ad
Ġà¤ıà¤ļ à¤Ĩà¤°
olitic s
abil ity
ĠChristi an
L B
r us
s em
s ajha
à ¸
à¤° à¤°à¤®
à¤¨ à¤Ńà¤µà¤¨à¤®
à¤ı à¤°à¤ķ
à¤§ à¤Ĺà¤®
à¤ī à¤¡à¤¬
à¤ĩ à¤¸à¤¹à¤°
Ġà¤®à¤¹ à¤®à¤¦
Ġà¤¸à¤¹ à¤ĩà¤ŀ
Ġà¥§à¥¯ à¥§à¥¯
Ġà¥¦ à¥¦à¥¦
ĠA v
Ġà¥¬à¥¦ à¥§à¥¦à¥¨à¥¨
ra ct
ĠB Y
ĠB EAT
ik habar
à¥§à¥¨ à¥Ń
à¥§à¥« à¥®
ĠL anguage
à¥Ńà¥¨ à¥Ńà¥«
à¤ªà¤Ł à¤¨à¤®
Ġà¤Ĩà¤¸ à¤¯à¤ķ
ĠâĢĻ ,
à¥ªà¥« à¥«
à¥¯à¥®à¥« à¥«à¥¦
ĠTe xt
ĠTop line
Ġà¤ļà¤®à¤ķ à¤¦
à¤ķà¤²à¤® à¤ķà¤°
Ġà¤ĺà¤°à¤ª à¤Ŀ
Ġan aly
ĠBo ard
à¤ĵà¤ªà¤¨ à¤°
à¤ħà¤¨à¤¸à¤¨ à¤°à¤¤
ĠSuchana Kendra
= âĢĿ
_ (
g ation
j e
à¤° à¤°à¤£
à¤¨ à¤Īà¤ķ
Ġà¤¤ à¤¬à¤®
Ġà¤Ĩ à¤ªà¤¨
à¥Ĥ âĢ¦.
Ġà¤ĸ à¤¨à¤¨
Ġà¤« à¤°à¤¹
à¤°à¤¹ à¤¦à¤¶
à¥ģà¤ģ âĢĻ,
Ġà¤ĩ à¤¤à¤°
Ġ: âĢ¦
Ġà¤Ĩà¤° à¤Ł
à¤ªà¤ķ à¤¸
Ġà¤¦à¤² à¤ª
Ġà¤Ĳ à¤¨à¤¬à¤®
Ġ201 9
Ġà¥«à¥¦ à¥¨
à¤ĺà¤° à¤Ĺ
ĠR s
Next à¤¨
Ġ5 8
à¤¾? âĢĿ
à¤Ĩà¤ł à¤°
ord er
ric orn
Ġà¤²à¤ĸ à¤ªà¤¤
à¤Ĩà¤®à¤¸ à¤ŀ
Ġà¥¬à¥¦à¥§à¥¦à¥¨à¥¨ à¥§à¥§à¥¯
ĠTopline Khabar
B rowse
à¤® à¤°à¤¬à¤¹
à¤¸ à¤¯à¤¤
à¤¸ à¤¸à¤Ń
Ġà¤¸ à¤ĩà¤¦
à¥Ī ::
à¥ĥ à¥į
à¤Ŀ à¤īà¤¨
à¤¯à¤¤ à¤¤
à¤®à¤¤ à¤¸
Ġà¤Ķ à¤¸à¤§
Ġà¤ıà¤® à¤Ĩà¤Īà¤Ł
ar row
à¥¨à¥¦ à¥©à¥«
à¤¨à¤µ à¤°à¤¹
à¤ıà¤¸ à¤¯
à¤¦à¤® à¤¯
à¤ļà¤° à¤°
ĠS ab
Ġà¥¨à¥Ń à¥®
Ġp ariyar
ĠH ub
à¥ģâĢĻ :
Ġl ife
ap ricorn
Next à¤¸
Ġarticle à¤¤
Ġ5 4
à¥¦à¥« à¥¨
à¤ķà¤¶ à¤ª
Ġto day
Ġ_________ ________
ĠUS D
wa online
ĠLim ited
à¤¹à¤ªà¤¥ à¤¸
ĠMaha ju
, <
> <
à¤² à¤²à¤ķ
à¤¸ à¤Ĩà¤°
Ġà¤° à¤¬à¤°à¤ķ
à¤§ à¤¬à¤¹
Ġà¤ķà¤® à¤²à¤¬à¤¹
à¤µà¤¨ à¤¹à¤°
à¤²à¤¯ à¤¶à¤®à¤¶
à¤Ĺà¤² à¤¦
Ġà¥® à¥¨à¥®
ar am
Ġà¥©à¥¦ à¥©
Ġà¥©à¥¦ à¥¯
Ġà¤¨à¤ª à¤¸
à¤µà¤¯à¤¨ à¤¸à¤®
op a
ĠL amichhane
à¤¿? âĢĿ
he alth
Ġâ ĸ
Ġa ir
Ġk rishna
US A
à¥įà¤ģ à¥ĩ
Ġà¤ıà¤ķà¤®à¤¤ à¤°à¤¹
á¹ Ń
Ġà¤ħà¤¨à¤ķ à¤¨
ĠRamail oo
ĠRepor tersnepal
y aka
à¤¦ à¤Ĺà¤°
Ġà¤Ń à¤ĩà¤¨à¤¨
à¤§ à¤¨à¤®à¤¨
à¤ıà¤ķ à¤®
Ġà¤ľ à¤Ĺà¤²
à¥Į !!!
à¤¸à¤ķ à¤¤
à¤¯à¤¤ à¤¹à¤°
Ġà¤Ĩà¤° à¤ıà¤¸à¤¡
Ġà¥¨à¥¦à¥Ń à¥®
Ġà¤īà¤® à¤°
Ġà¤ħà¤ª à¤°à¤®
Ġà¥¤âĢĻ -
Ġà¥¤âĢĻ âĢĵ
à¤·à¤¦ à¤¦
à¥Ńà¥© à¥¦à¥©
à¥©à¥¦ à¥Ńà¥¨à¥Ńà¥«
Ġs ystem
à¥§à¥ª à¥©
Ġà¤ħà¤Ļ à¤Ĺ
Nepal Police
à¤¨à¤¹ à¤ľ
Ġà¤Ńà¤ĩ à¤ķà¤¨
20 7
à¤¯à¤¦à¤² à¤¹à¤°
à¤ĩà¤ļ à¤¢
br it
ion al
ib eli
ĠSc reen
ĠFlor ida
Ġanaly tical
5 09
à¤¨ à¤Ĺà¤ª
à¥Ģ ?âĢĻ
Ġà¤¸ à¤īà¤²
Ġà¤Ĺ à¤ľà¤°
à¤Ł à¤ªà¤¨
à¤ı à¤¬à¤²
Ġà¤Ĩ à¤Ĺà¤°
Ġà¤² à¤Ńà¤°
à¤£ à¤¯à¤¸à¤¹
à¥Į ?âĢĻ
Ġà¤¥ à¤°à¤¹à¤°
Ġà¤¡ à¤¨à¤ķ
Ġà¥ª à¥§à¥«
Ġà¤ªà¤ķ à¤¡à¤®
à¤Łà¤² à¤¸
à¤®à¤¬ à¤°à¤£
à¤Ķ à¤¸à¤¤
Ġà¥©à¥§ à¥§
ĠB aniya
ik i
à¤īà¤ª à¤¸à¤ļ
à¥§à¥ª à¥©à¥®
à¤ıà¤ļ à¤Ĩà¤Īà¤Ń
22 2
oc ation
à¥¬à¥¬ à¥¬
mp ra
Ġà¥¯à¥®à¥«à¥§à¥¦ à¥Ńà¥Ń
Ġà¤ľà¤®à¤² à¤¸
Ġwag ering
ĠBag a
à¥¯à¥®à¥¦à¥® à¥©à¥¦à¥Ńà¥¨à¥Ńà¥«
brit ain
" .
Y j
à¤® à¤²à¤¬
à¤ı à¤Ļ
à¤¬ à¤¥
à¤¶ à¤¯à¤²
à¥Į âĢ¦
Ġ( ?)
Ġà¤ķà¤® à¤Ńà¤¨
à¤¯à¤¤ à¤¹à¤®
Ġà¤ĵ à¤®à¤®
Ġà¥¬ à¥©à¥¦
à¤¶à¤¨ à¤Ĺà¤°
à¤¨à¤¸ à¤Ł
à¤¸à¤¹ à¤µ
à¥Ī, âĢĻ
à¥ĢâĢĻ ...
à¥Ģ) à¥¤
Ġà¤ħà¤µà¤¸à¤° à¤¸à¤®
ĠD AY
ĠI t
ĠH appy
Ġl a
nepal click
Ġà¤ıà¤¡ à¤µ
Ġà¥¯à¥®à¥ª à¥¯à¥ª
nal ibeli
ĠBl ood
oot ball
NepalPolice HQ
mpra chanda
Ġà¥¯à¥®à¥«à¥§à¥¦à¥Ńà¥Ń à¥Ńà¥¬à¥§
C D
F L
p ro
à¥į ....
à¥į .....
à¤° à¤¯à¤®
à¤² à¤¸à¤¨
Ġà¤¸ à¤īà¤¦
à¤¦ à¤²à¤¬
à¤Ĺ à¤ªà¤¨
Ġà¤¹ à¤µà¤ķ
à¤¶ à¤¬à¤ķ
à¤Ĥ à¥į
à¤¡ à¤®à¤®
à¤°à¤ķ à¤¬
Ġà¤¶ à¤Ń
à¤ł à¤Ł
à¤Ļ à¤®à¤§
à¤¢ à¤¯
Ġà¤®à¤¹ à¤Ĺ
Ġà¤ĵ à¤°à¤²
à¤¤à¤® à¤®
à¤ĥ âĢĻ
Ġ- âĢĿ
Ġà¤ħà¤® à¤°à¤²
Ġà¥§à¥¯ à¥¨à¥ª
Ġà¥¨à¥« à¥¬à¥§
Ġà¤Ĩà¤ĩ à¤ı
à¤¥à¤ķ à¤¬
ĠB ut
Ġà¤¨à¤µ à¤Ĺ
à¥ĭ- âĢĺ
Ġà¥©à¥ª à¥§
à¥ªà¥® à¥«
wiki books
Ġà¤ĵà¤ĸà¤° à¤ª
kt m
ĠDecis ions
ĠBaga icha
P r
p o
Ð ·
à¥ĭ ::
Ġà¤¨ à¤īà¤¤
Ġà¤® à¤µ
à¤ļ à¤¯à¤²
à¤ļ à¤Łà¤®
Ġà¤ľ à¤«
à¤Ń à¤°à¤£à¤ķ
Ġà¤¯ à¤²à¤®
à¤°à¤® à¤Ńà¤¨
à¤Ļ à¤Ńà¤¨
à¤¢ à¤¨
âĢĻ ?
à¤Ĩ à¤¨à¤²
Ġà¥« à¥§à¥¦
Ġà¤Ńà¤ı à¤°à¤¹
à¤®à¤¨ à¤¬
Ġà¥ª à¥§à¥Ń
à¥Įà¤ģ âĢĿâĢĵ
à¤ĵ à¤ªà¤Ľ
à¤ķà¤°à¤£ à¤¸à¤¹
Ġà¤ªà¤¦ à¤µà¤¹
à¥¨à¥¦ à¥¨à¥«
à¤®à¤¹ à¤¤à¤²
à¤¯à¤¬ à¤¤
à¤¤à¤µà¤¨ à¤µ
à¤Ĩà¤Ī à¤«
ĠB ichar
ĠG overn
à¤ĭ à¤£à¤ķ
à¤¨à¤µà¤¤ à¤¸
od aw
D aily
M etropolitan
N RN
R es
T B
e ing
u de
à¤¦ à¤°à¤¸
Ġà¤° à¤ļà¤¯
à¤ľ à¤ħà¤Ń
à¤§ à¤Ļ
Ġà¤Ľ à¤ļà¤²
à¤ĸ à¤¤à¤ķ
à¤ī à¤¸à¤¹à¤°
à¤ĩ à¤®à¤¤
Ġà¤¶ à¤ĸ
à¤¨à¤ķ à¤¹à¤°
à¤¾, '
Ġà¤ħà¤° à¤°
à¤Ĩ à¤¨à¤ķ
à¥Įà¤ģ /
à¤¦à¤¨ à¤ªà¤¤
Ġà¥¯ à¥¨à¥®
Ġà¤ıà¤® à¤«
à¥¨à¥¦ à¥©à¥¨
Ġà¤¸à¤¹à¤Ń à¤Ĺ
er tif
Ġ1 20
Ġà¥¨à¥ª à¥®
ĠM as
à¤²à¤¨à¤ķ à¤°
at rad
Ġà¥©à¥§ à¥©
ag an
ĠB reak
à¥ĩâĢĻ âĢĵ
Ġà¤Ĩà¤ĩà¤ª à¤¡
Ġs e
à¥ĩ- âĢĻ
à¥§à¥Ń à¥¨à¥Ńà¥¨
ri st
à¤ĩà¤Ń à¤¸
ul a
Ġà¤°à¤Ĺà¤¤ à¤¬
Ġ8 2
à¤¨à¤Ľ à¤¹à¤°
IT E
Ġà¤ķà¤ļà¤ķ à¤ļ
J TV
P lus
y l
à¤¡ à¤¬à¤ķ
à¤ļ à¤®à¤¹
Ġà¤² à¤µà¤ľ
à¥Ĥ âĢ¦
Ġà¤¶ à¤Ł
Ġà¤ı à¤¸à¤°
Ġà¤ħà¤¨ à¤¦
Ġà¤¸à¤ķ à¤¸à¤ª
à¥įà¥¤ .
Ġà¤¦à¤° à¤Ńà¤¨
Ġà¥¯ à¥ªà¥¦
Ġà¥® à¥ªà¥«
Ġà¤ľà¤¸ à¤¸
à¤ķà¤ª à¤²
à¤¹à¤¨ à¤¦
re et
Ġà¥«à¥¦ à¥ª
Ġà¤Ĺà¤łà¤¨ à¤¬à¤¨
ĠS EE
Ġà¤ĺà¤°à¤® à¤§
ĠM P
Ġà¤°à¤® à¤Ŀ
Ġà¤°à¤¨ à¤Ĩà¤īà¤Ł
Ġà¥Ńà¥¦ à¥Ńà¥©à¥¦à¥©
ol ar
Ġl umbin
Ġà¤īà¤ªà¤ķà¤°à¤£ à¤¸à¤¹
Ġà¤ıà¤¡ à¤®à¤¨
iv il
ind a
ind i
PS JTV
CC NA
Ġà¥¯à¥®à¥ªà¥¯à¥ª à¥§à¥Ńà¥¨à¥Ńà¥¨
, -
7 25
D e
R ikoooo
i qu
Ã Ī
à¤ķ à¤ıà¤ķ
à¤² à¤ĺà¤°
à¤¸ à¤¦à¤¨
à¤ª à¤ªà¤¶
à¤ı à¤ªà¤¶
à¤§ à¤®à¤¤
à¤¥ à¤ªà¤¨
à¥Į à¥Īà¤ģ
à¤·à¤£ à¤Ńà¤¨
Ġà¤¸à¤¦ à¤°à¤ĸ
à¤¾à¥ĩ ?
ĠâĢľ âĢĺ
Ġà¥¦ à¥ªà¥«
Ġà¤ķà¤ª à¤¬
ĠC ell
st ha
ĠM ul
Ġà¥¨à¥¬ à¥Ń
Ġà¤Ńà¤µà¤¨ à¤¦
à¤µà¤¨à¤ķ à¤°
Ġp op
Ġà¤ªà¤¹à¤² à¤¹à¤°
ĠG O
Ġ4 1
Ġ4 46
Ġw idth
à¥«à¥« à¥«
Ġr at
ĠSa ura
Ġal ign
Ġà¤ıà¤¸à¤ıà¤® à¤ıà¤¸à¤ķ
? ,
d ip
h ot
Ġ over
à¤° à¤¯à¤ķ
à¥ĩ à¥ĭ
à¤¯ à¤ħà¤Ń
Ġà¤¸ à¤ĩ
à¤¦ à¤ķà¤®
à¤¾à¤ģ à¥Īà¤Ĥ
Ġà¤ıà¤ķ à¤¤à¤¨
Ġà¤¯à¤¸ à¤ħà¤°
à¤ħà¤¨ à¤§
à¤µà¤® à¤£
à¥¨à¥¦ à¥ªà¥ª
à¤ıà¤¸ à¤ĵ
st a
à¤ķà¤Ł à¤µ
or a
ĠK arki
el inews
Ġre g
ura s
à¤¼ à¥Ģ,
à¥į? âĢĻ
Ġ200 0
à¤ķà¤²à¤® à¤ª
ĠSa ajha
ĠCon ference
ĠTatt oos
him ire
b ag
j un
y ing
Â ĵ
à¤® à¤Ńà¤°
à¤µ à¤Ĺà¤°
à¤Ī à¤ľà¤ķ
à¤ĩ à¤ĵà¤²
à¤ĩ à¤Ĩà¤ıà¤ķ
à¥¤ ..
à¤Ļ à¤ķà¤ķ
Ġ( @
Ġ( âĢľ
Ġà¤ĵ à¤®à¤µ
Ġà¤ªà¤Ľ à¤¯
Ġà¤ħà¤¬ à¤ļ
Ġà¤®à¤² à¤¹
à¥¨à¥¦ à¥©à¥©
à¤²à¤¤ à¤Ń
Ġà¥©à¥¦ à¥§
ĠC ard
à¤²à¤¸à¤® à¤ķ
Ġà¥©à¥« à¥®
as i
Ġà¥«à¥« à¥¬
ĠW E
Ġb ut
Ġc mprachanda
lo em
à¤ħà¤« à¤¸
à¤ĩà¤ı à¤Ľ
ĠY atra
à¤¤à¤ľà¤¨ à¤¬
ours e
ĠMusic Khabar
ĠGur ung
lt ra
Ġà¤ħà¤µà¤¯à¤µ à¤¹à¤°
m edianp
à¤¨ à¤Ĩà¤¤
Ġà¤ª à¤¡à¤ķ
à¤ª à¤«
à¤Ł à¤ªà¤°
Ġà¤° à¤ľà¤¹à¤°
Ġà¤® à¤Łà¤°
Ġà¤Ĩ à¤Ĭà¤¨
Ġà¤ľ à¤¯à¤®
Ġà¤ķà¤° à¤ª
à¤¬à¤¨ à¤¶
à¤·à¤£ à¤¦
Ġà¤ĵ à¤¦
Ġà¥¯ à¥Ńà¥«
in i
à¤łà¤ķ à¤µ
ha online
Ġà¥¨à¥© à¥§
Ġà¤Ŀà¤¨ à¤Ŀà¤¨
à¤Łà¤µ à¤¯à¤°
ĠB u
à¥§à¥¨ à¥§
Ġp ay
Ġà¤¨à¤Ĩ à¤ıà¤®
à¤¶à¤µ à¤¬à¤¹
à¤¾à¥Ī âĢĮà¤Ĥ
à¤Ĩà¤ĩ à¤ıà¤²
Ġd i
han al
rs quo
NC CI
ĠJanam anch
R S
r at
Ġ our
Ġà¤ħ à¤ľà¤¬
Ġà¤Ľ à¤łà¤®
à¤« à¤°à¤¹à¤°
à¥Ń à¥¨à¥¦
à¤ĩà¤¨ à¤ħà¤ª
à¤°à¤¬ à¤¦à¤²à¤ķ
Ġ- ----
Ġà¥¯ à¥ªà¥«
Ġà¥® à¥§à¥¯
Ġà¥¦ à¥©à¥Ń
Ġà¥¨à¥® à¥ª
ou pat
à¤ĩà¤ľ à¤¤
à¤·à¤° à¤ªà¤Ľ
ust om
ist er
ys is
ass y
ĠEd itor
PA PER
ĠRadi oupat
ĠRadioupat yaka
. -
M e
Â º
à¤ķ à¤īà¤¤
à¤² à¤°à¤¸à¤¹
à¥Ī âĢľ
Ġà¤° à¤°
à¤ģ !
à¤¨à¤ķ à¤®
à¤°à¤£ à¤®à¤¨
à¤ľà¤¨ à¤ħà¤¨
Ġà¤ıà¤ķ à¤µà¤Ł
Ġà¤§ à¤°à¤£
Ġà¤ķà¤® à¤²à¤¬à¤ľ
à¤¦à¤µ à¤¦
Ġà¥¦ à¥¨à¥©
ĠD rive
Ġà¥©à¥¨ à¥Ń
ch ool
à¤Łà¤°à¤ķ à¤¹
ĠNepali Nepali
ol a
à¥§à¥© à¥¬
ĠW i
Ġà¥ªà¥¬ à¥«
à¥¦à¥© à¥¬
Ġà¤Ĺà¤¹à¤¨ à¤¤
à¤ĸà¤¬ à¤°à¤¸
à¤®à¤Ĺà¤° à¤ĸ
os h
Ġà¤Ľà¤ł à¤¸à¤®
Ġk B
ĠNEWS PAPER
iv ery
Ġà¤¸à¤¤à¤¹ à¤Ńà¤¨
time à¤ķ
ver y
ner gy
" ]
R C
g fnl
p age
à¤¤ à¤¤à¤²
à¤¯ à¤ļà¤¨
Ġà¤¨ à¤ľà¤®
à¤¡ à¤ªà¤¥
Ġà¤ī à¤¸à¤¸
Ġà¤§ à¤¨à¤¸à¤°
à¤°à¤¸ à¤ļ
Ġà¤ĩ à¤¯à¤°à¤ķ
à¤°à¤¯ à¤¶à¤ķ
à¥¨à¥¦ à¥©à¥®
Ġà¥¨à¥Ń à¥©
ĠB ook
Ġp hool
ĠK ey
el p
Ġà¥©à¥¬ à¥©
Ġà¤Ĺà¤Ĺà¤¨ à¤Ĺ
à¤®à¤Ĺà¤° à¤¢
Ġà¥®à¥Ń à¥®
Ġà¥¦à¥Ń à¥§à¥ªà¥©à¥®
28 0
Ġg oogle
ĠNEPAL I
ĠAp plication
Ġà¥¯à¥®à¥«à¥§à¥§ à¥®à¥¯
à¤¸à¤¯à¤ķ à¤¡
Ŀ¤ ï¸ı
Ġlumbin ionline
Ġà¥¦à¥Ńà¥§à¥ªà¥©à¥® à¥§à¥¨à¥®
E n
T T
s andesh
à¤® à¤¯à¤®
à¤µ à¤®à¤®
Ġà¤¨ à¤¹à¤ķ
Ġà¤ħ à¤²à¤¨
Ġà¤ħ à¤ľà¤°
à¤£ à¤µà¤¹
à¤ĩ à¤®à¤§
à¤°à¤¤ à¤ªà¤°à¤¸
à¤¯à¤® à¤Ń
à¤¤à¤° à¤ħà¤¨
Ġà¤®à¤¨ à¤µ
Ġà¤īà¤ª à¤Ĩà¤¯
à¤Ĩ à¤ĩà¤¤
à¤µà¤¨ à¤Ń
Ġà¤¨à¤Ĺà¤° à¤¹à¤°
à¤§à¤¨ à¤¤à¤°
Ġà¤¢ à¤ķà¤¨
à¥¨à¥¦ à¥¨à¥ª
Ġà¥§à¥¯ à¥©à¥Ń
Ġà¤ļà¤°à¤£ à¤²
Ġà¤ıà¤¨ à¤ıà¤®à¤¸
Ġà¤Ńà¤Ł à¤Łà¤°
en ing
le an
à¤Ķ à¤·
Ġm obile
ĠD ur
ra w
à¥§à¥¨ à¥¨
Ġà¥ªà¥« à¥Ń
à¥Ģ: -
ĠV alentine
ph one
Ġd el
Ġch eap
IC T
44 8
ĠExpl orer
Ġà¥¯à¥®à¥«à¥§à¥§à¥®à¥¯ à¥¦à¥¯à¥¯
W indows
à¤® à¤Ī
à¥ģ ?âĢĻ
Ġà¤¸ à¤¨à¤²
à¤¹ à¤¸à¤²
à¤Ĺ à¤¨à¤ª
Ġà¤ħ à¤²à¤¬
à¤£ à¤¦à¤²
Ġà¤ı à¤¯à¤°à¤®
à¥ĥ ...
Ġà¤§ à¤°à¤®
à¤¯à¤¸ à¤ĸ
à¤ķà¤² à¤¨à¤¬
Ġà¤ħà¤¸ à¤¦à¤²
à¤¯à¤¨ à¤Ĺà¤°
à¤¤à¤ķ à¤¹
Ġà¥ª à¥§à¥®
Ġà¥¯ à¥§à¥¦
Ġ' âĢĺ
in fo
à¤¨à¤µ à¤¯
ne ww
ĠNews portal
ĠM enu
ĠT rade
,âĢĻ âĢĻ
ĠD ahal
Ġà¥©à¥« à¥§
ab i
Ġà¤¶à¤µ à¤ªà¤°
à¥§à¥Ń à¥§
Ġà¤Ĺà¤ı à¤ľà¤¸
Ġl anguage
âĢį à¥ĩ
Ġk os
ĠTr ans
ĠBish nu
Ġà¥¯à¥®à¥«à¥Ńà¥¦ à¥©à¥¯
TER I
ĠStud y
, à¥¤
; <
Ù Ħ
à¥į à¥Į
à¤ķ à¤°à¤¤
à¤ª à¤¹à¤²
à¤µ à¤§à¤¨
Ġà¤Ĺ à¤²à¤²
Ġà¤° à¤¶à¤®
Ġà¤Ĩ à¤ŀ
Ġà¤ĸ à¤¤à¤¨
à¤ĺ à¤¶
à¤¸à¤ķ à¤¦
à¤²à¤¨ à¤¯
Ġà¤Ĩà¤µ à¤ľ
à¤ľà¤ķ à¤¬
Ġà¤ĩà¤¨ à¤ª
Ġà¤ªà¤Łà¤ķ à¤¦
ĠC ar
Ġà¤ĸà¤¬à¤° à¤ªà¤Ľ
ad han
Ġà¤¤à¤² à¤¤à¤²
Ġà¥©à¥¨ à¥©
Ġà¥©à¥© à¥¯
à¥§à¥ª à¥¨
Previous à¤ª
Ġà¥©à¥® à¥§
Ġà¤ħà¤°à¤¬ à¤ªà¤¤
à¤ıà¤ļ à¤ĵà¤ķ
à¤Ĳ à¤°
ist a
à¥¬à¥® à¥¬à¥¯à¥«
ĠEx clusive
ĠTra ck
HAT TERI
à¥¯à¥®à¥«à¥«à¥¦ à¥¬à¥®à¥¬à¥¯à¥«
ĠSaura haonline
neww iki
U r
W orld
d ari
m ons
à¤¿ Â·
à¤¯ à¤Ļà¤Ĺ
Ġà¤¸ à¤Ļà¤ķ
à¤µ à¤Łà¤¬
à¤¬ à¤Ń
Ġà¤®à¤¹ à¤¤à¤°
Ġ? ::
à¥Įà¤ģ ?
à¥į, âĢľ
à¤Łà¤² à¤µ
Ġ, âĢĿ
à¥Īà¤ģ à¤ģ
à¤¸à¤¸ à¤¹à¤°
à¥§à¥ª à¥¬
ia m
à¤¾? ??
Ġà¤¸à¤¯à¤ķ à¤¡
ï»¿ ï»¿
ind h
Ar ghakhanchi
ĠDe ep
) ]
B h
Ã ±
à¤¨ à¤¯à¤¸
à¤µ à¤Ľ
à¤Ł à¤ħà¤ªà¤®
Ġà¤¬ à¤°à¤¬à¤°
Ġà¤® à¤°à¤¨
à¤· à¤¯à¤µ
Ġà¤ļ à¤¸à¤ķ
Ġà¤ĸ à¤ŀ
à¤¨à¤® à¤Ĺà¤°à¤²
à¤¯à¤¨ à¤¤
à¤®à¤ķ à¤Ł
à¤¨à¤¸ à¤¸
Ġ- (
Ġà¥¯ à¥¬à¥¦
Ġà¤¸à¤®à¤¯ à¤¹à¤°
à¤Łà¤² à¤Ń
Ġà¤ĺà¤° à¤ĺà¤¡
à¤°à¤ª à¤Ļ
Ġà¤¸à¤¡à¤ķ à¤¬à¤¤
Ġà¤ħà¤« à¤°à¤²
Ġà¤Ī à¤¨à¤°
à¥Įà¤ģ, '
ĠP lus
ĠS o
à¤¡à¤° à¤¸à¤®
à¤¶à¤¬ à¤®
ĠK rishna
ĠL ama
à¥§à¥© à¥ª
Ġà¥«à¥® à¥¦
Ġà¤¤à¤¬ à¤°à¤¬
old er
lic ation
ĠSa f
ĠMan agement
G au
Q uestion
S e
c ast
s y
à¤ķ à¤°à¤µ
à¥ģ Ã·
à¤ļ à¤¹à¤ľ
Ġà¤² à¤Łà¤®
à¥Į âĢĮà¤Ĥ
à¤ªà¤¨ à¤°à¤¤
Ġà¤¸à¤ķ à¤¸à¤®
à¥ĭà¥¤ âĢĶ
Ġà¤¸à¤¡à¤ķ à¤Ľ
à¤¨à¤µ à¤¹à¤°
Ġà¥©à¥¦ à¥¬
Ġà¤®à¤¦ à¤°à¤²
Ġà¥©à¥« à¥¨
Ġà¥©à¥« à¥ª
à¤ıà¤« à¤ıà¤¨à¤¸
à¤īà¤ª à¤¶
à¤°à¤ķà¤°à¤£ à¤ªà¤Ľ
Ġà¤ıà¤¡ à¤ª
ĠV oice
ĠTh is
ĠTri b
Ġphool bari
W ord
n s
o ther
y e
Ġ ïĤ§
Ġà¤¸ à¤ī
à¤ı à¤Ĩà¤Ī
Ġà¤¹ à¤¡à¤°
à¤Ń à¤Ń
à¤ī à¤¸à¤Ń
Ġà¤ħà¤¨ à¤¬
Ġà¤Ł à¤¸à¤®à¤¸
à¤°à¤¦ à¤ªà¤Ľ
à¤Ĺà¤² à¤Ń
à¤¶à¤¨ à¤Ĺ
à¤ıà¤¨ à¤µ
à¤¿. "
ĠP AR
ĠM el
ĠM et
ra ft
Ġà¤ħà¤ĸ à¤µ
à¥ĭ... âĢĻ
à¤µà¤¶ à¤°
Ġs m
Ġà¤ıà¤² à¤Ł
Ġà¥Ńà¥« à¥¨
Ġ4 00
Ġà¥«à¥® à¥¬
Ġ7 4
Ġ* *
ĠSam loem
___ à¥¤
à¤¬à¤ĸ à¤¤à¤®
ĠDoc ument
ĠSar okar
ĠCommun ity
9 77
Q u
W akhet
à¤ļ à¤¤à¤¤
à¤Ľ à¤²à¤Ĺ
à¥Ĥ âĢĶ
à¥Ĥ ):
à¤ĺ à¤°à¤¨à¤ľ
à¤¨à¤² à¤¸
à¥Įà¤Ĥ Ã·
Ġà¤¸à¤°à¤ķ à¤°
à¤Ĩ à¤ĩà¤¯
Ġà¤Ĺà¤ł à¤¨à¤²à¤Ĺ
Ġà¥§à¥¯ à¥©à¥¬
Ġà¥§à¥ª à¥©à¥ª
à¤ļà¤¨à¤® à¤¯
Ġ) :
ĠF irefox
ch ing
à¥§à¥¬ à¥©
ĠJ wala
ous h
Ġl ok
Ġl ive
Ġà¤ıà¤¯à¤° à¤«
à¤ĭ à¤Ĺ
à¥įâĢĮà¥¤ âĢĶ
ĠGa utam
Ġà¤¬à¤°à¤¹ à¤¥à¤µ
ĠWeek ly
Ġkos elinews
d nn
j r
n ame
à¤® à¤°à¤¹à¤°
Ġà¤¸ à¤²à¤Ĺ
Ġà¤¸ à¤²à¤¬à¤²
à¤µ à¤īà¤ªà¤ķ
à¤Ĺ à¤°à¤¤à¤°
Ġà¤¹ à¤°à¤¬
Ġà¤ļ à¤ī
à¤īà¤¨ à¤ª
Ġà¤Ł à¤µ
à¤¯à¤¤ à¤²à¤Ĺ
à¤²à¤¯ à¤²à¤²
à¤°à¤§ à¤¨à¤®à¤¨
à¤¶à¤ķ à¤µ
à¥ĭà¥¤ âĢĺ
Ġà¤Ĩà¤° à¤Ĩà¤°
Ġà¤ĺà¤° à¤ħà¤Ĺ
Ġà¤ħà¤® à¤°à¤¤
à¤Ļà¤ķ à¤°à¤ķ
Ġà¤§à¤¨ à¤¯
Ġà¥§à¥® à¥§à¥ª
Ġà¥§à¥® à¥ªà¥¦
ha th
à¤Ĺà¤ł à¤¨à¤¸à¤®
à¤Īà¤¨ à¤¹à¤°
Ġà¤ķà¤µ à¤ļ
à¥§à¥« à¥¬
ur ance
à¥§à¥ª à¥«
ĠG ul
Ġà¤°à¤Ĺà¤¤ à¤¦
Ġà¥ªà¥¬ à¥§
ow k
ut a
10 6
IT Y
ee j
Ġv oice
Ġad j
à¥įâĢĿ âĢĵ
ĠMag h
Ġnew dnn
: )
H GH
M ain
S ource
U K
u ti
à¤® à¤¯à¤²
à¥Ī à¥¤âĢĻ
Ġà¤ľ à¤ľà¤²
à¥Ĥ à¥ģ
à¤¯à¤ķ à¤ħà¤¨
à¤Ļ à¤¥
Ġà¤ķà¤° à¤Ľà¤²
à¤Ĩ à¤¸à¤ª
à¥ģà¤ģ âĢĿ
à¤µà¤¨ à¤¸à¤®
à¤¸à¤² à¤¦
à¤¤à¤® à¤²à¤Ĺ
à¤¶à¤¨ à¤¬à¤®
Ġà¤ħà¤¹ à¤²
à¤µà¤¤ à¤¹à¤°
Ġà¤ıà¤¨ à¤Ń
ha i
ha p
Ġ1 000
Ġà¤¨à¤° à¤Ĺ
à¤ĩà¤® à¤Ł
Ġà¤¨à¤ķ à¤Ĩà¤īà¤Łà¤ķ
Ġà¥¤à¥¤ à¥¤à¥¤
Ġc ol
Ġà¥©à¥Ń à¥Ń
ff ere
ĠU ltra
Ġà¥ªà¥¯ à¥¦
ĠKhabar dari
ea ut
ĠHamro sandesh
Ġà¤ıà¤¯à¤°à¤¬ à¤¸à¤ķ
à¤¸à¤ı à¤ªà¤²
IK E
Ġnayak hoj
S ocial
S anchar
d ownload
g ing
à¥ĭ +
à¤¤ à¤¸à¤²
Ġà¤¸ à¤¸à¤°
Ġà¤Ĺ à¤¨à¤°
Ġà¤¨ à¤łà¤¹à¤°
à¤§ à¤¤à¤²
à¤¡ à¤µà¤ķ
à¤¡ à¤ļà¤¢
à¤ļ à¤¹
Ġà¤² à¤¹à¤¸
à¤Ľ à¤łà¤ķ
à¤ĩ à¤Ļà¤®
à¤°à¤² à¤®
à¤°à¤¹ à¤¦à¤ķ
Ġà¤īà¤ª à¤°à¤ķ
à¤µà¤² à¤¤
Ġ! ?
Ġà¤ħà¤® à¤°à¤ľ
à¤¸à¤¹ à¤¸
à¥¨à¥¦ à¥©à¥¯
à¤ķà¤¨ à¤¦
à¤ıà¤® à¤Ĩà¤°à¤ª
à¤Ĩà¤° à¤Ĩà¤ĩ
ch al
id ge
Ġà¤¦à¤® à¤¨à¤²
à¥ģ: -
Ġà¥«à¥¬ à¥®
à¤ıà¤¨à¤ı à¤¨à¤ķ
14 0
nal i
Ġwh en
ORE A
F S
g l
g raph
à¤¯ à¤¥à¤²
à¥ģ ....
à¤µ à¤£à¤²
à¤ľ à¤°à¤¨
Ġà¤¹ à¤¬à¤¨
Ġà¤Ĩ à¤¨à¤²
à¤°à¤® à¤¹
Ġà¤ĸ à¤µà¤°à¤²
Ġà¤ľà¤¨ à¤ıà¤ķà¤¤
à¤¦à¤¨ à¤¦
Ġà¥Ń à¥©à¥«
Ġà¤ĩà¤¨ à¤«
Ġà¤ªà¤¦ à¤®à¤²
ĠP hotos
ĠP oush
ĠM ad
ĠR el
à¥ĩà¤Ĥ -
Ġà¤¸à¤ª à¤¥à¤ķ
ĠB IS
ore x
Ġà¥©à¥« à¥«
ĠâĢ¦ âĢ¦..
à¥§à¥¬ à¥¯
ip er
Ġà¥ªà¥¬ à¥¨
Ġà¤Ľà¤ł à¤ªà¤Ľ
ĠPost à¤¸
à¤¨à¤¶ à¤Ł
Ġà¤²à¤¹à¤° à¤ķ
Ġà¤®à¤¸à¤² à¤¨
net work
EE P
ĠRes ources
Ġcon f
atta chment
ĠAmer ica
ĠFal gun
F NCCI
t ed
Ñ į
â ī
à¤® à¤²à¤¨
à¤¸ à¤Łà¤¨
Ġà¤ª à¤Ń
à¤µ à¤¬à¤¨
Ġà¤® à¤¸à¤°
à¤ı à¤ŀ
à¤Ń à¤¸à¤®
à¤ī à¤ĺ
Ġà¤ī à¤¸à¤°
Ġà¤¯ à¤¶à¤°
Ġà¤« à¤Ľà¤°
Ġà¤ıà¤ķ à¤¸à¤®
à¥Ń à¥§à¥¬
à¥Įà¤Ĥ "
à¤°à¤¦ à¤¸
à¤ĩà¤¨ à¤°à¤ķ
Ġà¤ĵ à¤ıà¤¸à¤¸
à¤ĺà¤Łà¤¨ à¤ªà¤Ľ
Ġà¥¦ à¥©à¥«
à¤Ļà¤® à¤¯
Ġm essage
ag ani
Ġà¤ĵà¤Ń à¤°à¤¹
ĠW ow
à¤ĩà¤¬ à¤²à¤¬
Ġ7 2
à¤¼ ,
à¥ªà¥¯ à¥Ńà¥¯
iv ing
Ġg o
od y
ĠReg d
Ġà¤®à¤¹Ã¬ à¤µ
Ġà¥¯à¥®à¥«à¥¬à¥¦ à¥¨à¥¬
Ġrevie ws
8 85
M in
[ âĢ¦]
i eld
m ission
o in
à¤¿ ï¿½
à¤² à¤ħà¤Ń
à¤¤ à¤Ł
à¥ģ .....
à¥Ģ à¥°
à¤¸ à¤ĩà¤¬
Ġà¤ľ à¤ľà¤®
Ġà¤¯ à¤®à¤ķ
à¥¦ à¥ªà¥Ń
Ġà¤ıà¤ķ à¤ĺà¤£
à¥¨ à¥§à¥¬
à¤°à¤¹ à¤ľ
à¤¸à¤¨ à¤§
à¤¸à¤¨ à¤ľà¤¸
Ġà¥¬ à¥¨à¥Ń
Ġà¥¬ à¥ªà¥«
Ġà¤ªà¤¦ à¤°
à¥¨à¥¦ à¥ªà¥©
Ġà¥§à¥¯ à¥§à¥§
on es
à¤°à¤¨ à¤µ
Ġà¥¦ à¥©à¥®
à¤¯à¤¯à¤¨ à¤¸
Ġà¥¨à¥¯ à¥Ń
ĠD own
ĠD ata
ag oon
à¥§à¥¯ à¥«
ĠH GH
âĢĭ à¥¤
un a
à¥¨à¥¯ à¥¬
ĠG B
Ġin formation
à¥¦à¥« à¥®
Ġ* **
Ġ15 0
à¤¸à¤¯ à¤ªà¤¤
ĠY ork
à¤¨à¤¨à¤Ĺà¤° à¤¸
az ar
ial s
à¥ĥà¥ĥ ...
by g
ĠTra ining
ĠIN F
A udio
A ries
V E
d v
à¤² à¤¤à¤µ
à¤² à¤ļà¤®
à¤¤ à¤ªà¤¨
à¤¬ à¤ľà¤°
Ġà¤¹ à¤ķà¤¹à¤°
à¤ħ à¤²à¤ķ
à¤ĩà¤² à¤¸à¤®
à¤®à¤¦ à¤¹
Ġà¤Ĩà¤ī à¤Łà¤°
Ġà¤Ńà¤ıà¤° à¤ªà¤¨
ĠP ram
à¤Īà¤¨ à¤ĸà¤¬à¤°
Ġm ost
ed ding
à¤°à¤ĸ à¤¬à¤¹
ĠL al
and ari
Ġarticle à¤¹
ul ation
Ġà¥«à¥ª à¥¨
tit ution
Ġà¤°à¤¹à¤° à¤¹à¤°
Ġd esh
Ġ7 9
à¥į? âĢĿ
Ġ25 0
Ġpolitic s
Tim es
Ġsup port
u le
u khabar
à ¦
à¤¤ à¤·
à¤¦ à¤µà¤°
Ġà¤¬ à¤Łà¤°à¤«
Ġà¤ľ à¤¸à¤¦
Ġà¤ī à¤§à¤®
Ġà¤ı à¤®à¤¨
Ġà¤ı à¤ļà¤¬
à¤ľà¤¨ à¤¸à¤¤
Ġà¤ıà¤ķ à¤²à¤ķ
Ġà¥© à¥Ńà¥¨
Ġà¤²à¤Ĺ à¤¨à¤®
Ġà¤ĩ à¤ĸà¤²
à¤µà¤¨ à¤¤
Ġà¤Ńà¤ı à¤ľà¤¤
Ġà¤īà¤¦ à¤¯à¤¸
à¥¨à¥¦ à¥¨à¥©
Ġà¤ķà¤ª à¤ħà¤¨
à¥Īà¤ģ âĢĵ
ĠNepal pati
ĠM ang
à¤¸à¤¹à¤° à¤¹à¤°
ĠD ulal
à¤ıà¤« à¤Ĩà¤ĩà¤¡
ĠCom pany
ĠJ anta
à¤²à¤ĸ à¤¬à¤°à¤¸
Ġd oc
ĠCh ild
05 45
ĠTe ch
time à¤ª
Ġsp ace
EE K
ĠBis was
Ġpe ople
Ġpokhar anews
â ĺ
à¤° à¤Ĺà¤¤à¤ķ
à¤¸ à¤īà¤²
à¤µ à¤¯à¤ķà¤°
Ġà¤° à¤Ĺà¤¡
Ġà¤Ĺà¤° à¤ı
Ġà¤¹ à¤°à¤®
Ġà¤Ľ à¤¡à¤®
âĢ ł
à¤ł à¤¨à¤²
à¤¾à¤ģ '
à¤ĺ à¤¢
à¤¸à¤ķ à¤µà¤°
à¥ª à¥«à¥¦
à¤¾à¤Ĥ ,
Ġà¤ĵ à¤®à¤¸à¤¤
à¤¦à¤µ à¤µ
Ġ... à¥¤
Ġà¥§à¥¯ à¥¦à¥©
à¤¤à¤°à¤£ à¤¸
Ġà¤®à¤¹à¤¤ à¤¸
à¤¨à¤µ à¤Ĺà¤ł
Ġà¤Ĩà¤ĩ à¤ıà¤¸à¤¸
ou ld
à¤µà¤¯à¤¨ à¤ªà¤Ľ
à¤¾- âĢĺ
ol agani
à¥§à¥© à¥®
Ġar bit
Ġà¥ªà¥¨ à¥Ń
Ġà¥«à¥© à¥¯
à¤Ĩà¤ĩ à¤µ
ug at
10 8
Ġd ec
Ġpro gram
Ġ; )
Ġfe ature
-------- --------
avi gation
Ġà¤¬à¤°à¤® à¤Ŀ
Ġà¤ħà¤Ĺà¤° à¤¬à¤¤
ĠSamb ad
B ay
F or
L E
P N
m à¤¦
y mail
à¤¨ à¤ªà¤ķ
Ġà¤¸ à¤¯à¤®à¤®
à¤Ĥ âĢĮ
à¤Ī à¤¹à¤ľ
à¤°à¤¸ à¤¦
à¤®à¤ķ à¤°à¤£à¤ķ
Ġà¤ĵ à¤®à¤¨à¤¸
Ġà¤¬à¤¹ à¤²
à¤®à¤¹ à¤¸
Ġà¤ıà¤¨ à¤Ĩà¤Ī
à¤£à¤® à¤¯
ĠB LOG
ĠE ss
ĠK OREA
Ġà¥©à¥© à¥¨
ing bo
ec tion
Ġf l
Ġà¥©à¥® à¥ª
ĠU ser
Ġ20 70
à¥©à¥© à¥¯
à¥ªà¥¬ à¥ªà¥¯à¥Ńà¥¯
à¤ıà¤ļ à¤ıà¤¸
Ġ8 4
08 0
à¤ļà¤ĸ à¤ªà¤¨
Ġà¥¯à¥®à¥«à¥¬à¥¦à¥¨à¥¬ à¥Ńà¥¨à¥§
C ounter
h it
h imal
k athmandu
z on
à ´
à¤¦ à¤°à¤¦
à¤Ĺ à¤¥
Ġà¤¬ à¤Ľ
à¤¡ à¤¦à¤°
à¤Ń à¤ľà¤¨à¤¸
Ġà¤¶ à¤¤à¤¬
à¤¯à¤ķ à¤Ĺ
à¤µà¤¸ à¤¹à¤°
Ġà¥« à¥Ńà¥¬
à¥įà¥¤ âĢĺ
âĢĿ :
à¤¶à¤® à¤¬à¤¹
à¤¹à¤¨ à¤¤à¤®
à¤¦à¤ķ à¤¬
Ġà¥¨à¥« à¥ª
ĠM er
ĠA R
ĠR is
el lo
Ġs u
à¤Łà¤¸ à¤²à¤ķ
Ġà¤¦à¤® à¤¨à¤®
Ġl ocal
Ġà¥ªà¥© à¥¨
Ġà¥©à¥¯ à¥§
Ġ5 7
ĠOff er
à¤µà¤ľ à¤¹à¤°
Ġà¤Ŀà¤² à¤Ŀà¤²
à¥ĩâĢ¦ âĢĻ
ĠCh rome
à¤¨à¤Ĺ à¤¯
28 1
nt c
ES S
ĠAs k
ĠCO VER
read bag
ux ury
ĠNi D
health news
4 11
D es
c al
c el
h ym
Ġ ge
à¤² à¤Ĩ
à¤¤ à¤¹à¤ķ
à¥Ģ à¤¾
à¤Ĺ à¤ľà¤µ
Ġà¤ħ à¤²à¤ķà¤¤
Ġà¤¹ à¤¦à¤²
à¤· à¤·
à¤§ à¤¶à¤®à¤¶
à¤ıà¤ķ à¤°
Ġà¤ľ à¤Ĺà¤ķ
à¤ĸ à¤ªà¤Ľ
à¤ī à¤¤à¤µ
à¥Ĥ ;
à¤°à¤ķ à¤¤
à¤ľà¤¨ à¤¬à¤¢
Ġà¤Ł à¤²à¤ķ
à¤ĩà¤¨ à¤°à¤¹à¤°
à¤µà¤¨ à¤ªà¤°
à¤¡à¤ķ à¤¹à¤°
à¤¤à¤® à¤°
Ġà¥§à¥¯ à¥§à¥®
à¤°à¤¨ à¤¦
Ġà¤ıà¤¨ à¤Ĩà¤°
Ġà¤Ī à¤®à¤°
à¤ľà¤¦ à¤°à¤µ
ĠS E
ĠS har
ĠS und
en n
Ġà¤ĭà¤£ à¤¸
à¤¾à¥¤ "
ĠN AB
ĠK as
Ġà¤ıà¤² à¤ıà¤²à¤¸
ĠJ ackp
à¤¯à¤°à¤² à¤Ĺ
Ġà¥©à¥ª à¥©
ĠâĢĿ ,
à¥ĭà¤Ĥ ,
Ġà¥®à¥Ń à¥¯
Ġnepal healthnews
Ġï¿½ âĢ¦
à¤¡à¤°à¤¸ à¤¨à¤²
aud a
bid hi
Ġupd ate
ĠðŁĺĤ ðŁĺĤ
% ),
f r
s i
à¤¨ à¤¶à¤ķ
à¥ģ &
à¤¦ à¤¯à¤¸
à¤Ĺ à¤Ĺà¤¨à¤²
à¤Ł à¤ľà¤¨
Ġà¤¬ à¤ķà¤®
Ġà¤® à¤ĸà¤¨
Ġà¤ħ à¤Ĺà¤²
à¤¡ à¤¥
à¤Ń à¤µà¤ª
âĢ °
Ġà¤¶ à¤¦
à¤ĺ à¤°à¤§à¤¨
à¤ħ à¤ľà¤¯à¤ķ
à¤ªà¤¤ à¤¨
à¤¸à¤¨ à¤Ń
Ġà¤¸à¤¯ à¤¬
Ġà¤ĺà¤° à¤Ľ
à¤®à¤¦ à¤¯
à¤¨à¤¬ à¤ľ
à¤¦à¤® à¤£
à¤Ńà¤ķ à¤°à¤ķ
à¤¤à¤°à¤ķ à¤ķ
Ġ) à¥¤
à¤¯à¤°à¤¤ à¤°
Ġà¥ªà¥ª à¥Ń
Ġb h
Ġb u
à¤¯à¤°à¤® à¤§
Ġ9 000
ati bidhi
Ġd ep
ĠPost à¤¨
Ġ11 4
à¤ĵà¤Ńà¤° à¤Ł
mer olagani
ĠHamroS andesh
ĠOp en
ĠShare Point
K AL
b ol
à¤¹ à¤Łà¤²
à¤µ à¤ĩà¤®
Ġà¤Ĺ à¤²à¤Ĺ
à¤ı à¤¹à¤°
à¤¬ à¤ĺ
à¤ļ à¤°à¤¸
Ġà¤Ĩ à¤ļà¤²
à¤Ī à¤¥
Ġà¤ļ à¤µà¤¨
Ġà¤« à¤ķà¤°
à¤°à¤¹ à¤¸à¤¹
à¤¤à¤° à¤ªà¤Ł
Ġà¤ĵ à¤ıà¤¸à¤¨
Ġà¥Ń à¥©à¥©
à¤®à¤² à¤¸
al es
Ġà¤ĩà¤¨ à¤¬
à¤¡à¤® à¤¹à¤°
Ġà¤Ĩà¤¶ à¤¯à¤²
Ġà¤Ĩà¤ĩ à¤ıà¤¸à¤ª
Ġà¥¦ à¥§à¥ª
Ġà¥¦ à¥ªà¥¨
ti l
st ock
ĠN Y
à¥§à¥¯ à¥©
Ġp lease
ch owk
Ġà¤®à¤Ĺà¤° à¤¸à¤¹
à¤¹à¤¦ à¤¬
ĠL ondon
Ġà¤¨à¤Ĩ à¤ıà¤ªà¤¨
Ġà¥©à¥® à¥®
Ġb l
à¤°à¤ľà¤¨ à¤¹à¤°
tit opati
Ġà¤ĸà¤ªà¤¤ à¤®
te st
74 1
ãĢ Į
Ġapp lication
Ġsy nergy
indh uli
R an
c ol
f er
v in
v ed
y ee
â ĩ
à¥į ),
à¤¿ âĢĺ
à¤² à¤ļà¤¸
à¤µ à¤ľà¤ķ
à¤µ à¤§à¤°
à¤Ĺ à¤ľà¤¨
à¤Ł à¤ļà¤¨à¤²
à¤ı à¤ıà¤®à¤¸
Ġà¤² à¤¯à¤°
Ġà¤¸à¤® à¤®
Ġà¤« à¤²à¤²
ĠâĢĺ âĢĻ
Ġà¤ħà¤§ à¤µ
à¤¬à¤¨ à¤¸
Ġà¤²à¤Ĺ à¤¨à¤Ł
Ġà¤ĩ à¤ķà¤®à¤°
Ġà¤¸à¤¯ à¤ľà¤¤
Ġà¥® à¥©à¥¦
ĠP ark
ĠA i
Ġà¥ªà¥¦ à¥«
Ġà¤Ĩà¤ļ à¤°à¤£à¤²
Ġà¤¤à¤¹ à¤Ńà¤¨
ĠT yp
ĠO rgan
ĠE there
ĠK hadka
à¤īà¤ª à¤µ
as on
à¥§à¥© à¥Ń
à¥Ģ... '
Ġà¥ªà¥¨ à¥¬
ir adio
Ġà¤Ĩà¤ĩà¤¸ à¤«à¤²
Ġ6 5
à¤Ĳ à¤¨à¤²
est er
ĠSan o
ĠBea ch
hath oki
D ev
I U
k ani
Ġ à¥Ģ
Ġ ãĥ»
Ħ ¢
à¤° à¤īà¤¨
Ġà¤¸ à¤¨à¤ķà¤²
à¤ª à¤µà¤¨à¤ķ
Ġà¤ķ à¤µà¤¯
Ġà¤Ĺ à¤Īà¤¨
Ġà¤® à¤Ĺà¤²à¤µ
Ġà¥¤ à¥ģ
à¤· à¤®à¤ķ
à¤¥ à¤°à¤²
à¤Ļ à¤¶
Ġà¤¸à¤¹ à¤¤
Ġà¤īà¤ª à¤ľà¤¹à¤°
à¥© à¥§à¥¬
à¤¿à¤ģ ,
à¤Ĺà¤® à¤¦
à¤¦à¤µ à¤ľ
Ġà¤ıà¤¨ à¤Ĩ
à¤ķà¤¸ à¤ªà¤®
à¤ľà¤° à¤ªà¤Ľ
es tiv
à¤¤à¤µà¤¨ à¤¦
à¤§à¤µ à¤¬
Ġà¤¸à¤¹à¤° à¤¸
ĠW ork
Previous à¤¨
Ġb lowjob
201 9
Ġ9 3
20 6
Ġ8 1
Ġà¤²à¤¹à¤° à¤²
Ġ.... ......
Ġà¤Ĩà¤ĩà¤¨ à¤ª
ev el
à¤µà¤²à¤¨ à¤¶
Ġac count
ĠTra vel
ĠGan esh
Ġpr int
ĠGork hali
Su ju
Ġsynergy fm
) "
C on
C apricorn
N ame
g adh
w ide
Ġà¤¸ à¤Łà¤°à¤ķ
à¤Ĺ à¤¨à¤¬
à¤Ł à¤ļà¤¨
Ġà¤® à¤ľà¤ķ
Ġà¤¦ à¤¹à¤®
à¤ļ à¤°à¤¬
à¤Ī à¤«à¤ķ
Ġà¤ı à¤ıà¤¸
à¤Ļ à¤Ľ
à¤¨à¤® à¤¤
Ġà¤¬à¤¨ à¤°
à¤ħ à¤²à¤°
Ġà¤§ à¤§à¤§
à¤µà¤¨ à¤ļà¤°
à¤¬à¤° à¤Ń
à¥¨à¥¦ à¥©à¥Ń
re t
Ġà¤¸à¤Ļ à¤ĺ
Ġà¥¦ à¥§à¥¦
Ġà¥§à¥Ń à¥¦à¥¦
ĠP al
à¤ľà¤¨à¤ķ à¤²
ĠM ic
à¤ªà¤¹ à¤ª
à¥Ńà¥© à¥Ń
à¤ĩà¤ľ à¤°à¤²
à¤®à¤ª à¤¶
Ġà¥©à¥« à¥©
à¥ĭ? )
Ġà¥¬à¥¬ à¥©
à¥ĭ' âĢĶ
Ġk b
ãĢ į
Ġg et
ĠTop ic
ĠUn ited
Ġà¤¸à¤¤à¤² à¤ľà¤²
ĠGe org
ĠCal endar
rows er
mal ayakhabar
vide o
ĠWE BS
L atest
T emplate
b b
à¤¨ à¤¹à¤¦
à¤¸ à¤Ńà¤°
à¤¦ à¤ľà¤¨à¤ķ
à¤°à¤¤ à¤µà¤°
Ġà¤ıà¤ķ à¤¬à¤°
à¤ķà¤² à¤°à¤¸
à¤ıà¤° à¤ª
à¥ģà¤ģ à¤Ĥ
Ġà¥¬ à¥¨à¥«
Ġà¥Ń à¥§à¥¬
Ġà¥Ń à¥Ńà¥Ń
Ġà¤¬à¤° à¤ĸ
Ġà¤ªà¤¦ à¤ķà¤¬
à¤°à¤®à¤£ à¤µ
Ġà¤ħà¤µ à¤ļ
à¤ļà¤ķ à¤¸
an esh
Ġà¥¦ à¥ªà¥ª
Ġà¥¨à¥ª à¥Ń
ĠT eej
à¤īà¤¤ à¤¸
ĠN irm
à¤¬à¤® à¤¹à¤°
Ġà¥©à¥¨ à¥¨
Ġà¤ľà¤¬ à¤ľà¤ķ
ĠK ala
ab atika
ĠL ek
Ġà¥ªà¥ª à¥®
Ġà¥ªà¥¯ à¥§
à¤Ķà¤·à¤§ à¤²
Ġ8 5
ĠHimal i
og raph
ath er
ĠAd v
Ġà¤Ĩà¤Īà¤ıà¤®à¤Ī à¤Ĩà¤Ī
ĠComm ission
ĠDin esh
9 25
A s
L S
W in
Y AL
a iko
c ident
k u
u ments
Ñ Ī
à¤° à¤ħà¤²
à¤² à¤Ńà¤²
Ġà¤ľ à¤ŀ
à¤ķà¤² à¤Ŀ
à¤¬à¤¨ à¤¬
à¥ģà¤ģ :
Ġà¤ħà¤¸ à¤Ļ
à¤¤à¤® à¤ª
à¤¶à¤¨ à¤¯
à¤ıà¤¸ à¤Ī
à¤ªà¤¦ à¤¬
à¤¶à¤² à¤Ł
Ġà¥©à¥§ à¥¯
Ġà¤¨à¤µ à¤Ĩà¤Ĺà¤¨
ĠK a
à¤ħà¤ª à¤µ
Next à¤ħà¤·
Ġarticle à¤«
Ġà¥¬à¥© à¥«
à¤¸à¤°à¤² à¤Ĺ
Ġw ord
Ġà¤«à¤¨ à¤«à¤¨
ĠCh hada
oc us
ĠTe st
Ġà¤ªà¤¥ à¤Ń
Ġr l
cri ption
ĠSer ver
asha in
ĠWhat sApp
à¯ į
Red dit
GF NL
) &
, ..
/ +
B ig
D v
P ublic
Y ub
f ont
p ng
t ra
à¤ İ
à¤¿ âĢį
à¤² à¤ŀ
à¤® à¤¶à¤®à¤¶
à¤¯ à¤¡à¤ķ
à¤¸ à¤ıà¤¸
à¤ī à¤Ńà¤¨
à¤Ĺà¤¤ à¤¸à¤®
Ġà¤īà¤¦ à¤¹
Ġà¥® à¥©à¥«
à¤Ĺà¤® à¤£
à¤ľà¤¸ à¤¬
Ġà¥§à¥¯ à¥©à¥¨
à¤ıà¤® à¤Ĩà¤°à¤ķ
ĠC re
ĠM aya
à¥§à¥« à¥¨
à¤¾âĢ¦ ..
ĠG himire
Ġà¥¬à¥¬ à¥¦
if ication
str ong
Ġ446 00
ĠAi ico
r ite
à¥ĭ à¥Ī
à¤¹ à¤µà¤²
Ġà¤Ĺ à¤¬
à¤¬ à¤ŀ
à¤¬ à¤¸à¤¹
à¤ļ à¤ĵà¤Ł
à¤ģ Ã·
Ġà¤ľ à¤²à¤¸à¤®
à¤Ī à¤ĺà¤£
à¤ī à¤ĺà¤°à¤®
Ġà¤¶ à¤µà¤¸
à¤ĺ à¤°à¤¸à¤²
à¤¢ à¤¸à¤¯
Ġà¥ª à¥§à¥§
Ġà¤ĵ à¤Ĩà¤°à¤ľ
Ġà¥¬ à¥¦à¥¦à¥¦
à¥¨à¥¦ à¥Ń
Ġà¤¸à¤¡à¤ķ à¤Ńà¤¨
Ġà¤Ī à¤¦à¤ķ
ĠC all
à¥ĩà¤ģ à¥¤'
Ġà¤Ńà¤µà¤¨ à¤¸à¤®
à¤ıà¤² à¤Īà¤¡
Ġà¤¸à¤¹à¤° à¤µ
ĠL ess
ĠL IKE
à¤Ĺà¤ľ à¤¬à¤ķ
ĠW omen
ro ss
Ġà¤Ĩà¤īà¤Ł à¤ª
20 72
Ġ7 6
Ġà¤Ĩà¤¯à¤ķ à¤°à¤ķ
ĠPra c
à¤ħà¤®à¤° à¤Ĺà¤¢
ĠCol or
fe ature
ĠResp onses
âĢĭâĢĶ âģł
' t
A ut
S outh
Y Kantipur
b us
t el
à¤¨ à¤¥à¤°
à¤¸ à¤ªà¤¹
à¤¦ à¤§
Ġà¤ķ à¤°à¤¤
Ġà¤¨ à¤¸à¤¹à¤¨
Ġà¤¬ à¤°à¤£
Ġà¤¬ à¤¯à¤²
à¤ľ à¤ĸà¤¬à¤°à¤®
à¥Įà¤Ĥ (
à¥Įà¤Ĥ ;
à¥ģà¤ģ à¥¤âĢĿ
à¤Łà¤¨ à¤°à¤®
à¤µà¤°à¤£ à¤ªà¤¤
re ti
à¤Ĥ. )
Ġà¥¦ à¥¨à¥®
Ġ1 12
ĠM ah
le tter
il i
ag s
ĠL ike
is ha
Ġà¤Ńà¤ĩ à¤Ĩà¤ıà¤ķ
Ġ10 7
ĠPost à¤ķ
Ġà¤²à¤¤ à¤ªà¤¤
Ġv otes
ĠAn ti
lin k
ïģ Ń
ĠAp ple
ĠArticle s
ĠPay pal
ĠMaj hi
Ġset opati
ĠKura kani
ĠGen re
odaw ari
2 20
F P
H D
l ist
à¤¨ No
à¤¯ à¤ľà¤¨à¤²
à¥ģ âĢ°
Ġà¤¸ à¤¬à¤¨
à¤¦ à¤Ļà¤µ
à¤µ à¤«
à¤Ī à¤¨à¤°
à¤¯à¤ķ à¤ª
à¤Ļ à¤Ĺà¤°
Ġà¤¸à¤¹ à¤¯à¤¤
à¤ķà¤® à¤¦
Ġà¥« à¥¨à¥ª
à¤ĵ à¤Ĩà¤°à¤®
Ġà¥Ń à¥§à¥¦
Ġà¤¬à¤° à¤¨
Ġà¤ĸà¤° à¤ĸà¤ľà¤¨
à¤ķà¤°à¤£ à¤ª
Ġà¤Ĩà¤® à¤ľà¤¨à¤®
à¤µà¤¤ à¤¬à¤¹
Ġà¤¦à¤² à¤Ńà¤¨
âĢľ ,
ĠA uto
à¤ıà¤² à¤ĩà¤¡
ĠD em
à¤Ĺà¤®à¤¨ à¤¸
à¤µà¤Ł à¤¸
ch in
ur s
Ġs o
Ġà¥ªà¥ª à¥¯
Ġà¥©à¥ª à¥Ń
à¥įâĢĮ à¥¤âĢĿ
Ġà¥¯à¥®à¥ª à¥Ń
à¤¦à¤¨à¤² à¤Ĺ
à¥ĪâĢ¦ âĢĻ
Ġà¤µà¤¯ à¤·
hik kh
Ġo ther
MT F
ĠWEBS ITE
- >
B ro
N avigation
b l
h G
m od
s bc
t m
y d
Ð ¹
à ½
à¤® à¤ľà¤¨
à¤® à¤ĺà¤°à¤®
Ġà¤ķ à¤²à¤ķà¤²
Ġà¤ı à¤¡à¤¸
à¤ĺ à¤ĺ
à¤¯à¤® à¤²à¤Ĺ
Ġà¤¡ à¤¯
à¤¾, ,
... à¥¤
à¤¯à¤¨ à¤¸à¤®
à¥Īà¤Ĥ âĢĻ
à¤¨à¤®à¤¨ à¤¤
à¤ĵ à¤®à¤®
à¤ĩà¤² à¤¨à¤ķ
Ġà¤¨à¤¹ à¤¸
à¤®à¤¹ à¤Ļ
à¤¤à¤µ à¤¨à¤²à¤Ĺ
à¤ĩà¤ķ à¤Ł
ĠA D
es hi
à¥ĩà¤ģ âĢĻ,
ĠB ab
ĠB hoj
à¤ĩà¤ķà¤² à¤¹à¤°
Ġà¤®à¤Ļ à¤ª
Ġà¤ĺà¤¨ à¤ĺ
ip p
Ġà¤ķà¤¦à¤® à¤µ
Ġà¥Ńà¥¬ à¥§
Ġk oseli
all a
Ġà¥¯à¥Ń à¥®
ers jr
27 80
à¤¡à¤°à¤¸ à¤Łà¤®
Ġà¤ıà¤¯ à¤°à¤¹
CL DM
ĠActor s
]] >
hym ersjr
Ġrl hymersjr
Yub ee
3 13
g oogle
v a
Ñ ĥ
à¥ĭ Â»
Ġà¤¸ à¤µà¤°
Ġà¤ª à¤Łà¤®
à¤Ł à¤¸à¤¬
Ġà¤¬ à¤°à¤¸
à¤ı à¤Īà¤¦
à¤ľ à¤¶à¤¬
à¤Ī à¤ıà¤²
à¤ĩ à¤Ĺà¤°à¤ķ
à¤²à¤® à¤¯
Ġà¤īà¤ª à¤ľà¤²
à¤°à¤¹à¤° à¤£
à¥Īà¤Ĥ -
Ġà¥ª à¥Ńà¥©
à¤Ĺà¤² à¤ľà¤¸
à¤Ĺà¤ķ à¤Ļ
à¤ķà¤°à¤£ à¤µ
à¤¸à¤¬ à¤®à¤°
à¤Ĥ. (
à¤ĩà¤Ł à¤¸à¤®
à¤¨à¤¬ à¤¸
Ġà¥§à¥¬ à¥¬à¥¦
ĠM iss
ĠA CI
Ġm YKantipur
il an
Ġà¤µà¤¨ à¤Ĺ
à¤ıà¤² à¤ıà¤²à¤¬
ra wan
ĠH ar
Ġà¤ıà¤« à¤¥
Ġà¥©à¥ª à¥®
Ġarticle à¤¡
à¥«à¥¦ à¥§
Ġà¥«à¥© à¥®
Ġà¤¬à¤¦ à¤°à¤ķ
ok hre
ĠPost à¤ª
à¥©à¥¯ à¥¯
oc ra
à¤µà¤Ĺ à¤Ńà¤°
Ġv ersion
Ġadd ress
ĠTO UR
Navigation à¤ĺà¤°à¤¸à¤²
5 66
7 20
B R
H S
L ink
S ansar
Ġ Ø
à¤² à¤°à¤¤
à¤® à¤°à¤ķà¤Ł
à¤¡ à¤¸à¤¨
Ġà¤¦ à¤Ī
à¤ģ âĢĿ,
Ġà¤ľ à¤¹à¤°
Ġà¤ĸ à¤°à¤¸
Ġà¥¨à¥¦ à¥®à¥«
à¤°à¤¹à¤° à¤²
à¤µà¤ķ à¤§
Ġà¥ª à¥§à¥¬
à¤¨à¤¸ à¤ĸà¤£
Ġà¤¬à¤² à¤¶
à¤¸à¤¬ à¤¹
à¤¨à¤Ĺà¤° à¤¦
Ġà¤Ńà¤ĩà¤°à¤¹ à¤¦
à¤ıà¤¸ à¤Ĩà¤°
ma h
il le
at ar
ĠD j
ĠN or
ĠN abin
ĠN ij
ĠâĢ¦ âĢ¦âĢ¦âĢ¦âĢ¦
ber g
Ġà¤¨à¤Ĩ à¤ĩà¤¸à¤ķ
Ġà¤¨à¤ĸ à¤Ł
à¥įâĢĻ :
Ġà¤ıà¤ķà¤¦ à¤¶à¤ķ
Ġ9 4
à¤¸à¤¡à¤ķ à¤¸
ut ter
Ġà¥Ńà¥¯ à¥«
ĠÂ ¤
à¤ķà¤Ń à¤°à¤¬
ast hya
ðŁ Ķ
Ġà¤ļà¤®à¤ķ à¤¤
Ġà¤ıà¤¡à¤® à¤£
à® ¿
ĠDis c
Pin terest
Ġà¤§à¤Ļ à¤§à¤Ļ
Ran orex
Ġãĥ» (
6 00
K hw
t em
v an
à¤° à¤ī
à¤¯ à¤ħà¤µà¤§
Ġà¤¬ à¤ł
Ġà¤¹ à¤Łà¤¨
à¤ıà¤ķ à¤ħà¤°
à¤Ī à¤ķà¤°
à¤Ń à¤·
à¤ĸ à¤ķà¤®
à¤ĸ à¤ľà¤¸
à¤ī à¤ľà¤°à¤ķ
Ġà¤¯ à¤Ļ
à¤« à¤ľ
à¤¾à¤ģ .
à¤Ļ à¤ķà¤²
à¤ľà¤¨ à¤Ĺà¤°
Ġà¤ĺ à¤°à¤¯
Ġà¥¨à¥¦ à¥®à¥¨
à¤Ĩ à¤µà¤¸
Ġà¥© à¥Ńà¥ª
à¤²à¤¯ à¤¨à¤ķ
à¤Ĺà¤¤ à¤¬à¤°
Ġà¤īà¤¤ à¤°à¤¦
Ġà¤ļà¤² à¤¨à¤®
ĠâĢĵ (
Ġà¤ıà¤¨ à¤ĵà¤¸
Ġà¤Ī à¤Ĩà¤Īà¤ı
ne y
ĠC UP
ĠS P
à¤¯à¤£ à¤¬
à¤Ĩà¤Ī à¤®
ĠB ASH
Ġà¤ħà¤¸à¤° à¤«
Ġà¤ľà¤¨à¤ķ à¤ķ
Ġà¤¦à¤²à¤² à¤Ĺ
à¤Ĺà¤¸ à¤Ĺ
11 0
à¤·à¤ķà¤® à¤§
Ġ6 06
AR O
Ġt op
Ġt ur
ist r
OR M
à¤¤à¤Ń à¤°à¤£
Ġma g
à° ¾
200 4
ĠðŁ ĳ
ĠSer ofero
ĠTr ansp
Ġà¤Ŀà¤ªà¤Ł à¤¬à¤¹
ĠVis it
AG E
M icrosoft
N GO
à¤¿ ]
à¤² à¤ħà¤¨à¤²
Ġà¤¨ à¤ķà¤²
Ġà¤° à¤Ń
à¤§ à¤¤à¤°
Ġà¤² à¤¯à¤²
Ġà¤² à¤ľà¤ķ
Ġà¤ľ à¤²à¤°
Ġà¤ļ à¤²à¤®à¤²
à¤°à¤£ à¤µà¤¸
à¤²à¤ķ à¤¬à¤¹
Ġà¤¬à¤¨ à¤¬
à¤°à¤² à¤Ĺà¤¤
Ġà¤Ĩà¤¯ à¤¤à¤°
Ġà¤ĩ à¤®à¤²
à¤Łà¤¨ à¤¢
à¤µà¤ķ à¤µà¤°
Ġà¤ĵ à¤łà¤²
Ġà¤ķà¤² à¤¹à¤°
ti m
à¤µà¤¦ à¤¤
Ġà¤Ĩà¤Ī à¤ıà¤²
ĠB el
à¥§à¥« à¥¯
Previous à¤ħà¤·
im edia
os it
Ġa ward
IM P
Ġà¤ħà¤ľà¤¯ à¤¶
ail able
okhar el
rof ess
Ġà¤ħà¤®à¤¨ à¤ļ
ĠIS O
Ġà¤¹à¤°à¤¤ à¤°à¤¹à¤²
Ġkoseli hk
Khw opa
ĠBASH YAL
, .....
A F
N S
b re
à¤¨ à¤¯à¤°
à¥ĭ âĢį
à¤² à¤Ńà¤ķ
Ġà¤¸ à¤¶à¤¤
Ġà¤ª à¤ķà¤²
à¤¦ à¤¯à¤¤
à¤µ à¤®à¤ķ
Ġà¤Ń à¤īà¤ķ
à¤ģ ;
à¤¥ à¤ļ
à¤¥ à¤«
Ġà¤Ĩ à¤Ŀ
à¤Ī à¤¡à¤®
à¤Ľ à¤¹
à¤Ļ à¤ķà¤®
à¥« à¥§à¥¬
... "
Ġà¤ĩ à¤¡à¤²
à¥ĩ, ...
à¤¯à¤° à¤«
Ġà¥Ń à¥§à¥¯
Ġà¤Ĩà¤® à¤®à¤¤à¤¦
Ġà¥§à¥§ à¥ªà¥«
à¤¨à¤µ à¤¬à¤¸
Ġà¥§à¥® à¥¬à¥¦
Ġ/ -
Ġon ly
Ġà¤ľà¤² à¤¦
à¥¨à¥« à¥¬à¥¨
Ġà¥«à¥« à¥©
à¤¨à¤Ń à¤ı
Ġb hikkh
à¥¨à¥¬ à¥¬
Ġà¤Ńà¤ĩ à¤µà¤°
Ġg fnl
one y
AD EEP
Ġà¤ľà¤¨à¤®à¤¤à¤¸ à¤Ļ
ĠMB BS
PR ADEEP
ĠUpd ates
Ġà¤®à¤°à¤¹ à¤Ł
ĠCy ber
P ur
s ide
à¤¸ à¤Łà¤²
à¤¹ à¤¶
Ġà¤Ĺ à¤¯à¤°
à¤Ł à¤¸à¤¨
Ġà¤¬ à¤¬à¤¨
à¤ı à¤ıà¤¨à¤Ĩà¤Ī
à¤§ à¤¦à¤ķ
à¤ļ à¤ĺà¤°à¤ķ
à¤¥ à¤¨à¤¬
Ġà¤Ĩ à¤ľà¤¨
à¤ĸ à¤¡à¤ķ
Ġà¤¶ à¤¯à¤¨
à¤ł à¤ľ
à¤ªà¤° à¤ª
à¥§ à¥§à¥¨
à¤°à¤¦ à¤¯
Ġà¤ĩ à¤¦à¤®
à¤²à¤¯ à¤²à¤ķ
à¤¯à¤° à¤¨
à¤ĸà¤° à¤¨
Ġà¤Ĩà¤® à¤¬
Ġ, âĢ¦
à¤ĩà¤ķ à¤¹à¤°
Ġà¤ħà¤² à¤ª
à¤¯à¤¸à¤® à¤ķ
à¤¨à¤ª à¤¹
Ġà¤Ī à¤Ļà¤²
ĠS O
ĠA ff
ĠR em
ĠD H
ay out
ĠK ha
ol angtang
ur i
à¤¦à¤¨à¤® à¤§
Ġà¥ªà¥« à¥¨
Previous à¤¸
Ġin aru
Ġà¥©à¥¯ à¥¨
à¤Ĩà¤Ĺ à¤ľà¤¨
à¥Ģà¤Ĥ ,
Ġà¥¯à¥®à¥ª à¥¨à¥¦à¥©
os urya
à¤Ĳ à¤²
Ġk ollywood
Ġt weet
ee ch
35 6
Ġà¤ĺà¤Łà¤ķ à¤¬
ĠSet osurya
à¤¶à¤°à¤¦ à¤¸
ĠAg ric
ĠRE G
radi olangtang
ĠNij gadh
Ġinaru waonline
E le
h en
à¤¸ à¤°à¤¸à¤°
à¤¦ à¤µà¤¨
Ġà¤® à¤²à¤Ĺ
à¤¡ à¤µà¤²
à¤¡ à¤¹à¤µ
Ġà¤² à¤Łà¤°à¤®
à¤Ī à¤¡à¤ķ
à¤Ī à¤¡à¤°
à¤Ļ à¤Ĺà¤£à¤®
à¤²à¤ķ à¤®à¤§
Ġà¤¡ à¤«
à¥© à¥ªà¥«
à¤·à¤ķ à¤ħà¤¨
à¤ĵ à¤ł
à¤ĥ ...
Ġà¤Ķ à¤¡
Ġà¤ħà¤ª à¤¬
Ġà¤Ĩà¤® à¤ª
à¤§à¤® à¤§
Ġà¤ıà¤¨ à¤ı
Ġà¤ıà¤¨ à¤ħ
ĠC over
à¤Ĺà¤¦ à¤°à¤¬
ĠP ri
ĠM ed
ĠM adh
à¥§à¥¯ à¥¯à¥¯
ĠH er
à¤¹à¤¦ à¤¸à¤®
ĠL ab
Ġf uku
and al
Ġà¥©à¥® à¥«
ir ala
Ġà¥Ńà¥ª à¥¯
à¤Ĩà¤ĩ à¤ıà¤«
Ġà¥«à¥¯ à¥©
os p
à¤¼ à¥ĭ
ear t
Ġà¥¯à¥© à¥Ń
à¤¹à¤ľà¤¨à¤ķ à¤°
ire d
à¤ķà¤²à¤ķ à¤¤
à¥Ģ! '
à® ¾
ĠBl iss
à¤°à¤®à¤Ń à¤Ļ
ĠCo infalls
Ġà¥¯à¥®à¥ªà¥§à¥© à¥«à¥®
âĪ Ĵ
ĠEv ents
ffere nt
H appy
J A
e f
p m
Ã ¡
Ġà¤Ĺ à¤¹à¤¤
Ġà¤Ĺ à¤«à¤ķ
à¤¬ à¤°à¤£à¤®
à¤¶ à¤¦à¤¤
Ġà¤¦ à¤¶à¤¨
Ġà¤¤ à¤®à¤¨
Ġà¤ļ à¤ļ
Ġà¤ħà¤¨ à¤«
à¤ħ à¤ľà¤®
Ġà¤¡ à¤¸à¤¨
Ġà¥¨à¥¦ à¥®à¥¦
à¤Ĩ à¤¯à¤®
à¤Ĩ à¤¯à¤ķà¤°
à¤µà¤° à¤ªà¤°
à¤µà¤ķ à¤°à¤ķ
Ġà¥« à¥¨à¥©
Ġà¥« à¥Ńà¥Ń
Ġà¥Ń à¥ªà¥«
Ġà¥® à¥©à¥®
Ġà¤ĺà¤° à¤ľ
al ysis
âĢ¦ âĢĿ
à¤¹à¤¨ à¤¬
ar s
Ġà¤¬à¤¹ à¤¶
Ġà¤«à¤° à¤°
Ġà¥§à¥¯ à¥ªà¥ª
an ing
Ġà¤ıà¤¨ à¤ıà¤«à¤¡
ĠC L
à¤Īà¤¨ à¤Ń
à¤ľà¤ª à¤¥à¤ķ
à¥ĩà¤Ĥ à¥¤âĢĻ
ĠD R
ĠD a
Ġp df
à¤ıà¤« à¤ıà¤¸
à¥§à¥ª à¥¯
un ction
à¥¨à¥ª à¥¦
Ġw atch
à¤Ĩà¤ĩ à¤ıà¤¨
ok anepal
Ġ# #
ill i
hat aru
hak al
à¤²à¤Ĺà¤° à¤²
ib ra
Ġà¤ļà¤¹à¤² à¤ªà¤¹
par adesh
Cont inue
ĠRast riya
ĠKala iya
Ġfuku okanepal
( (
A A
A E
M L
N Y
O MG
T K
f it
f riend
p ad
u z
Â ł
à¤ķ à¤§à¤®
à¤¹ à¤ľà¤¨
à¤µ à¤¯à¤¤
Ġà¤ķ à¤¢
à¤§ à¤¡à¤ķ
Ġà¤Ĩ à¤°à¤§à¤¨
à¤Ī à¤²à¤¬
à¤Ī à¤¨à¤¸
à¥« à¥©à¥¦
à¥ª à¥ªà¥¦
à¤¤à¤² à¤µ
Ġà¤Ńà¤¯ à¤µ
à¤¾. (
Ġà¤ªà¤¦ à¤¸à¤®
à¥¨à¥¦ à¥¨à¥§
Ġà¥¦ à¥§à¥¬
en a
ma i
à¤ĩà¤¡ à¤°à¤®
Ġà¥¬à¥¦ à¥®
ĠE lection
Ġà¥©à¥© à¥§à¥¦
ĠH it
em b
ter nal
Ġb haktapur
Ġc ons
ve y
ir ls
à¤°à¤ľà¤¨ à¤¨à¤ķ
Ġw ork
à¥¦à¥« à¥¯
16 5
hel kud
ĠMA IN
ASH ION
AK ING
ORM ATION
B inod
S cript
j aya
à¤ķ à¤°à¤¸à¤¹
Ġà¤ª à¤ļà¤²
Ġà¤¨ à¤°à¤ķà¤ķ
Ġà¤Ľ à¤ķà¤ª
à¤¥ à¤¸à¤¹à¤¯
Ġà¤ľ à¤ķà¤°
à¤Ń à¤¸à¤²
à¤¹à¤° à¤°
Ġà¤ı à¤®à¤²
à¤µà¤¨ à¤ªà¤¦
à¤²à¤¯ à¤ľà¤¸
Ġà¤Ĺà¤¤ à¤²
à¤²à¤¨ à¤¶
Ġà¤Ĩà¤° à¤¡
Ġà¥§à¥¦ à¥¦à¥¦à¥¦
à¥¨à¥¦ à¥ªà¥§
Ġà¤Ĩà¤ĩ à¤ĵà¤ıà¤®à¤®
à¤Ĺà¤¢ à¤¨
à¤¾- -
ĠB ip
à¤®à¤£ à¤¹à¤°
Ġp art
à¤¡à¤¬ à¤²à¤®
ĠJ hapa
à¥§à¥© à¥«
Ġà¥©à¥Ń à¥§
Ġab c
à¤®à¤¨à¤Ĺà¤° à¤ª
Ġ6 9
nd ra
ark endra
Ġk antipur
ree ti
200 9
Ġde v
Sp y
5 72
G anesh
K TM
m ol
Ġà¤Ĩ à¤Ľ
Ġà¤ľ à¤Ĺà¤°à¤¨
Ġà¤ıà¤ķ à¤¬à¤¦
à¤¨à¤² à¤¤
Ġà¤¸à¤¹ à¤¶
à¤ķà¤® à¤µ
à¤¸à¤² à¤¸
à¤°à¤µ à¤¬à¤¹
Ġà¥Ń à¥§à¥®
à¤®à¤² à¤µ
à¤¸à¤¹ à¤ļ
re ams
à¤ªà¤² à¤¡
à¤¨à¤µ à¤ª
ĠC ivil
à¥Ģ) :
__ à¥¤
à¤ķà¤¬ à¤ķ
ĠN TC
ĠF OO
id s
Ġs anch
Ġà¤¸à¤°à¤¸ à¤¹à¤¯
à¥§à¥ª à¥§
et auda
Ġarticle à¤²
Ġarticle à¤¸à¤°à¤ķ
Ġà¤¶à¤ªà¤¥ à¤ªà¤Ľ
anc y
à¤¸à¤« à¤°à¤²
sh ir
Ġ15 3
une s
Ġne ps
ey ond
ĠBl ue
à± ģ
Ġà¥¯à¥®à¥ªà¥§à¥© à¥Ńà¥§à¥¬
que st
byg den
ĠINF ORMATION
okhre l
Ġà¥¯à¥®à¥ªà¥§à¥©à¥«à¥® à¥©à¥¦à¥¯
Ġneps news
Ġà¥¯à¥®à¥ªà¥§à¥©à¥Ńà¥§à¥¬ à¥Ńà¥Ń
! )
H e
P ad
g poo
à¤° à¤ĺà¤Ł
à¤¯ à¤¡à¤®
à¥Ģ ï»¿
à¤ª à¤Ńà¤°
à¤¹ à¤¤à¤²
Ġà¤Ĺ à¤ĩà¤¦
Ġà¤Ń à¤°à¤£
Ġà¤µ à¤²à¤ķ
Ġà¤¦ à¤²à¤¨
à¤ĸ à¤Ńà¤°
à¤ĩ à¤¸à¤¬
à¤« à¤®à¤®
Ġà¤¶ à¤¡
à¤°à¤¤ à¤Ń
Ġà¤ĵ à¤¡à¤²
à¤¨à¤¸ à¤¨à¤²
Ġà¤®à¤¤ à¤µ
Ġà¤®à¤² à¤¹à¤°
à¤ĩà¤ķ à¤¬
Ġà¥¦ à¥ªà¥¦
ĠC ertif
à¤ĸà¤ķ à¤¦
à¤§à¤¨à¤ķ à¤°
Ġà¤Ĩà¤Ī à¤ĵà¤ıà¤®à¤²
ĠD EP
à¤ĸà¤¨ à¤¨à¤®
Ġà¥©à¥¨ à¥¯
Ġp hoto
à¤ıà¤« à¤®
à¤¡à¤¬ à¤ĸ
ĠW in
ĠW akhet
Ġà¥©à¥ª à¥¯
à¤ªà¤Ł à¤ªà¤²
Ġarticle à¤®à¤¹
Ġà¤łà¤¹à¤° à¤¸à¤¹
à¤ļà¤¨à¤² à¤Ĺ
Ġà¥¬à¥¬ à¥«
20 3
Ġà¤ķà¤¦ à¤®à¤ļ
Ġcom p
à¤°à¤ªà¤¥ à¤Ń
hak ka
Ġà¤Ŀà¤²à¤ķ à¤®
45 1
ĠEd ition
Ġne ed
ĠPre m
Ġà¤Ĩà¤Īà¤ıà¤¸ à¤ĵ
ĠWeb log
ĠSec urity
ART MENT
sajha samachar
estiv al
Ġsanch arkendra
B o
E ternal
S EE
T P
d uction
d uct
j apan
t al
v ani
à¤¾ Â¬
à¤¯ à¤Ŀ
à¤· à¤ļ
à¤§ à¤Ńà¤ķ
à¤ıà¤ķ à¤ªà¤²
à¤ıà¤ķ à¤¥à¤°
à¤Ī à¤«à¤²
à¤Ń à¤¨à¤²
à¤ĸ à¤²à¤¤
à¥¤ &
à¥Į _
Ġà¤®à¤¹ à¤Ń
Ġà¤Ł à¤ļà¤¸
à¤¤à¤° à¤ªà¤Ľ
à¤Ŀ à¤¨à¤®
à¤¯à¤¤ à¤¸à¤®
Ġà¤Ĩà¤¯ à¤¨
à¤°à¤µ à¤®
à¥Įà¤ģ à¤ģ
à¤ªà¤ķ à¤¦
Ġà¥® à¥¦à¥¦à¥¦
01 7
re p
Ġà¤Ĩà¤ĩ à¤ĵ
Ġà¥¦ à¥©à¥©
à¤²à¤¸ à¤ľ
Ġà¤¦à¤¶ à¤¹à¤°
Ġà¤¦à¤¶ à¤²à¤®
à¤¾âĢĻ -
ĠS ONG
ĠM ap
Ġà¤Ńà¤Ī à¤°
Ġà¤®à¤¦ à¤¦
à¥ĩà¤Ĥ à¤ģ
ĠD irect
ore a
à¥©à¥¦ à¥®
à¥§à¥« à¥Ń
id d
à¤Łà¤µà¤² à¤¦
à¥§à¥¬ à¥®
à¤²à¤Ń à¤¤
ri g
and ard
Ġà¤ķà¤¦à¤® à¤ª
à¥Ńà¥¦ à¥«
à¥Ńà¥¦ à¥¯
Ġre l
ama ya
Ġà¤®à¤¦à¤¨ à¤¬à¤¹
ĠV ol
11 5
Ġ6 2
ĠMun gpoo
Top ic
Ġ200 3
ĠDes ktop
ĠChand rag
Mail er
à¤°à¤Ĭ à¤¨à¤²
ĠTyp ing
/ âĢ¦
K Y
à¥į à¥°]
à¤° à¤Ĺà¤²
à¤¤ à¤¡à¤ķ
à¤¹ à¤µà¤°
Ġà¤ķ à¤Ľà¤²
Ġà¤ħ à¤¶à¤²
à¤ļ à¤ħà¤§
à¤¥ à¤²à¤¨à¤ľ
à¤Ī à¤°à¤¸
à¤Ī à¤Ĩà¤Īà¤ı
à¤ī à¤ĺà¤°
à¤ī à¤¥à¤µ
Ġà¤ªà¤¨ à¤¡
Ġà¤¸à¤¹ à¤¨à¤²
ĠâĢĺ ...
à¤²à¤¯ à¤¸à¤®à¤ķ
Ġà¥« à¥Ńà¥©
à¤·à¤£ à¤ľà¤¸
à¤¬à¤² à¤ª
Ġà¥§à¥¯ à¥¨à¥§
à¤µà¤ª à¤ŀ
ha ma
ĠS um
à¥Ńà¥ª à¥¦
à¥Ńà¥ª à¥ª
ĠD S
vi d
à¤ĩà¤ķà¤² à¤¸à¤®
ĠF ilmy
ĠF eaut
Ġà¤¬à¤¡ à¤¹à¤°
and ey
à¤¥à¤Ĺ à¤¨à¤ķ
à¥Ńà¥¦ à¥©
Ġà¥¬à¥® à¥¦
ig ned
15 9
Ġ& #...
Ġà¤²à¤¸ à¤ıà¤¨
ari us
Ġà¤°à¤ľà¤¤ à¤ľà¤¯à¤¨
ind ow
à¥¯à¥¯ à¥¯
ĠMero Khabar
Ġex am
tv channel
LP T
ĠKhar el
KAL IMP
ĠDEP ARTMENT
ĠFeaut red
KALIMP ONG
A Z
F ASHION
K helkud
W ritten
] )
s hi
à¤¾ à¤¼
à¤° à¤ı
à¤ķ à¤¯à¤ķ
à¤ķ à¤¨à¤²à¤Ĺ
à¤Ł à¤°à¤¤
Ġà¤¬ à¤¬à¤°
Ġà¤µ à¤ĸà¤¤
Ġà¤Ĩ à¤ĵ
.. !
à¤¢ à¤®
Ġà¤ĺ à¤°à¤¸à¤¹
à¤¯à¤® à¤ĸ
à¥« à¥«à¥¦
à¤Ŀ à¤Łà¤ķ
à¤¯à¤¨ à¤¦
Ġà¥¨à¥¦à¥Ń à¥¯
âĢĺ âĢĻ
à¤ıà¤¨ à¤ĵà¤¸
Ġà¥§à¥® à¥§à¥«
Ġà¤ıà¤¨ à¤ıà¤²
ĠS ap
à¤ķà¤µ à¤¹
ĠN AS
à¤°à¤¤à¤ª à¤Ł
à¤ĩà¤« à¤²à¤ķ
rom o
ot t
âĢį -
nd er
à¥ªà¥ª à¥©à¥¨à¥©
pl us
à¥ģâĢ¦ âĢĻ
Ġ...... Â»
por a
UN G
Ġà¥ªà¥ªà¥©à¥¨à¥© à¥®à¥®
Ġà¥ªà¥ªà¥©à¥¨à¥© à¥®à¥¬
Ġdesh paradesh
Khelkud sansar
à¥ªà¥ªà¥©à¥¨à¥© à¥®à¥¦
b as
g ork
ï ½
à¤° à¤¥à¤ķ
à¤ķ à¤ĵà¤Ńà¤°
à¤¿ Â¥
à¤¯ à¤¯à¤²
Ġà¤¸ à¤²à¤ķ
Ġà¤¸ à¤¯à¤¨
à¤µ à¤Ĩà¤°
Ġà¤¨ à¤Ļà¤²
Ġà¤¬ à¤Łà¤°
Ġà¤® à¤Ĺà¤²à¤¬
Ġà¤Ľ à¤¤à¤ķ
à¤Ĥ ..
à¤¥ à¤®à¤ķ
à¤¥ à¤Łà¤¬
Ġà¤ľ à¤ĸ
à¤Ī à¤Ńà¤®
à¤« à¤¸à¤¹
à¥ĥ )
à¤¢ à¤¸
à¤ªà¤° à¤¨
Ġà¤ħà¤§ à¤¯à¤ķ
à¤Ĩ à¤¤à¤ķ
Ġà¥« à¥¨à¥¨
à¤·à¤£ à¤°à¤¹
Ġà¤Ŀ à¤Ļ
à¤ľà¤ķ à¤¦
à¤°à¤®à¤£ à¤ħà¤Ĺ
à¤¹à¤¨ à¤¶à¤®à¤¶
à¥¨à¥¦ à¥®
Ġà¥§à¥¯ à¥ªà¥©
à¤ªà¤² à¤¹à¤°
Ġà¤ıà¤¨ à¤ıà¤«
à¥Ńà¥ª à¥¦à¥¨
Ġm od
Ġà¤Ĩà¤ł à¤¸à¤¯
ĠD o
Ġà¤¨à¤¬ à¤Ĺ
ĠG atibidhi
ul ikhel
lo tter
Ġà¤ıà¤¨à¤Ĩà¤°à¤ıà¤¨ à¤ıà¤®
ĠV iber
Ġw hy
Ġà¤¨à¤Ĺ à¤ıà¤ªà¤Ľ
22 6
Ġmin s
à¤¯à¤¨à¤² à¤Ĺ
Ġj erseys
ib a
DR A
Ġop tions
ĠBik as
ĠSup port
Raj esh
ĠEss ays
lotter y
K O
P ar
r or
à¥ĭ ",
à¤¤ à¤¶à¤¤
à¤¡ à¤¸à¤¨à¤²
Ġà¤Ĩ à¤¨à¤ķ
Ġà¤Ĩ à¤¸à¤¨à¤ķ
Ġà¤ªà¤° à¤ªà¤°
Ġà¤¬à¤¨ à¤Ĺ
à¤ŀ à¤¸à¤®
à¤Ŀ à¤¡à¤ªà¤ķ
à¤¯à¤¤ à¤¹
à¤ĩà¤¨ à¤°à¤²
Ġà¥ª à¥Ńà¥Ń
Ġà¤¹à¤ľ à¤°à¤¤
à¤ķà¤ķ à¤¨
Ġà¥¯ à¥¨à¥«
à¤ľà¤¯ à¤¦à¤¶à¤®
Ġà¤ĺà¤Ł à¤ķà¤²
à¥ģà¤Ĥ à¤ģ
à¤¨à¤¤ à¤¸
ĠM it
ĠI NTER
à¥§à¥¯ à¥®
Ġà¤ľà¤¬ à¤ľà¤²
à¤¦à¤¶ à¤Ĺà¤ľ
à¥Ģà¤ģ ,
à¤Ĺà¤ľ à¤¹à¤°
ak th
tit ute
Ġà¤¡à¤Łà¤ķà¤® à¤¬
Ġà¤§à¤ķ à¤§
sh wor
um n
Ġg ood
hak ar
ĠSh rawan
ĠMy sansar
Ġà¤Ĩà¤ĩà¤ķ à¤¨à¤ķ
à¤Ĩà¤°à¤Ĩà¤Ī à¤®
ĠPro ject
rict ly
Ġsam adhan
Ġà¥¯à¥®à¥ªà¥¨à¥¦à¥© à¥Ńà¥ªà¥¦à¥¨
Ġsamadhan news
' :
4 200
M r
i um
m ing
Ġ edit
à¤ ³
à¤° à¤Ĩà¤ĸ
à¤ª à¤¸à¤¨
à¤µ à¤ľà¤¨à¤ķ
Ġà¤¹ à¤Łà¤ķ
à¤Ń à¤Ļ
à¤¢ à¤Ļ
Ġà¤ıà¤ķ à¤µ
Ġà¤ıà¤ķ à¤¤à¤®
à¤ŀ à¤¶
Ġà¤¡ à¤µà¤²
Ġà¤ħà¤® à¤°à¤¨
à¤ľà¤® à¤§
à¤Ļà¤ķ à¤°à¤²
à¤ªà¤Łà¤ķ à¤¥
à¤ķà¤Ł à¤ªà¤®
ĠT ul
ĠD ig
à¤¤à¤µà¤¨ à¤¸à¤®
ĠB an
ic ate
à¤Ĭ à¤¨à¤ķ
Ġs ide
à¥§à¥ª à¥Ń
Ġf ore
ĠG au
ĠG iri
Ġà¥ªà¥® à¥§
Ġà¥©à¥¯ à¥¯
Ġà¥«à¥¬ à¥ª
ov inda
Ġà¥¯à¥®à¥ª à¥¬
à¤¬à¤¢ à¤®
han ks
Ġad ams
Ġà¤²à¤µ à¤Łà¤ķ
à¤ıà¤¸à¤ı à¤Ĩà¤ĩà¤¡
ĠTo ols
à¥įà¤ģ à¤¿
Ġworld wide
ĠCl ip
ĠIss ue
TB ALL
Ġrat ings
ĠFOO TBALL
S M
W EEK
f ter
t ings
u w
v ent
É ª
Ð ´
Ñ İ
à¤° à¤·à¤£
à¤¨ à¤ĺà¤°
à¤¿ à¥Ī
à¤® à¤Ĺà¤¤
à¤¤ à¤¦à¤°
à¤¯ à¤ħà¤µà¤¸
Ġà¤¸ à¤Łà¤°à¤®
Ġà¤ķ à¤Ńà¤°à¤®
à¤Ł à¤µà¤ķ
Ġà¤Ń à¤ĸà¤°
à¤· à¤ªà¤¶
à¤¡ à¤¸à¤¸
à¤ģ à¥į
à¤Ī à¤ĵà¤²
à¤Ń à¤°à¤¹à¤°
Ġà¤ı à¤·
à¤ªà¤° à¤¶
Ġà¤Ł à¤ªà¤²
à¤¯à¤µà¤¸ à¤¯
à¤¸à¤² à¤¨
Ġà¥ª à¥§à¥¨
Ġ_ "
Ġà¤¸à¤®à¤¯ à¤¬à¤¦
à¤ıà¤¨ à¤Ń
à¤ıà¤¨ à¤ıà¤«à¤¡
Ġ, #
Ġà¥§à¥¯ à¥©à¥«
Ġà¥§à¥® à¥ªà¥®
ĠP un
à¤Łà¤¬à¤² à¤°à¤ķ
ĠR A
à¤¯à¤¬ à¤²à¤ķ
ĠB al
ĠB re
ĠB ahadur
ĠE X
à¤ªà¤¸ à¤²à¤ķ
ĠK e
à¤ıà¤« à¤ıà¤®
Ġà¤¶à¤µ à¤Ĺ
Ġà¤®à¤¹à¤° à¤ķ
ĠJ yoti
à¥§à¥Ń à¥¨à¥¨
as pora
Next à¤ķ
ve ment
âĢĮ à¤¿
Ġw eb
Ġâ ľ
Ġà¥¬à¥¬ à¥¬
Ġ6 3
ĠPost à¤®
esh wor
ĠSt atus
à¤Łà¤¦ à¤¹
ĠAn aly
à¥ĩâĢĶ âĢĺ
Ġal low
à¤Ĩà¤°à¤ıà¤¸ à¤Ĩà¤Ī
Ġà¤ļà¤ī à¤°à¤®
akth ung
G alaxy
Ð ¼
Ġà¤¸ à¤Ĺà¤¤
Ġà¤ª à¥Ŀ
à¤ı à¤ıà¤«
à¤¶ à¤ļ
à¤ī à¤²à¤Ĺ
à¤¸à¤ķ à¤¸à¤®
Ġà¤ıà¤ķ à¤®à¤¨
à¤ªà¤¨ à¤ħà¤¨
Ġà¤§ à¤µà¤¨à¤ķ
à¤°à¤¹ à¤Ń
à¤Ĩ à¤ĩà¤¦
Ġà¤Ńà¤ı à¤Ńà¤¨
à¤¶à¤ķ à¤¶
à¤¦à¤¨ à¤¤à¤°
à¤Ĺà¤ķ à¤µ
à¤¤à¤ª à¤Łà¤ķ
Ġà¥® à¥¬à¥¦
à¥¨à¥¦ à¥¨
à¥¨à¥¦ à¥¯
à¥¨à¥¦ à¥¨à¥Ń
Ġà¤Ĩà¤® à¤§
Ġà¤Ĩà¤® à¤¸à¤°
à¤ľà¤² à¤¸à¤ķ
à¤¨à¤µ à¤¬
Ġà¤¬à¤ļ à¤¤à¤²
Ġà¤ıà¤¨ à¤Ĩà¤Īà¤¡
st ep
ĠS ad
à¤Ĩà¤Ī à¤ıà¤¨
Ġà¥©à¥§ à¥ª
Ġc asino
Ġin stall
Ġw ho
Ġà¥ªà¥Ń à¥®
Ġà¥«à¥Ń à¥§
à¥¦à¥« à¥§
11 1
Ġ6 8
Ġ8 9
han a
à¤°à¤«à¤²à¤® à¤§
Ġch itwan
ðŁ ĩ
ðŁ Į
44 4
int ed
Ġà¤ħà¤¬à¤¶ à¤°à¤®
Ġà¤¤ÅĴ à¤µ
c p
c ar
g en
i OS
i Phone
r an
u day
Ð ¡
à¤° à¤ĸà¤²
à¤² à¤īà¤¦
à¤¤ à¤Ĺà¤£
à¤¹ à¤§
Ġà¤Ĺ à¤¯à¤²
Ġà¤° à¤¥à¤®
à¤ľ à¤µà¤°à¤ľà¤¸
à¤¡ à¤°à¤¸à¤¨
Ġà¤ľ à¤ľà¤ķ
âĢ ¨
à¤ī à¤ľà¤¨
à¤ĩ à¤§
à¤¯à¤ķ à¤®à¤§
.. âĢĻ
Ġà¤¯à¤¸ à¤¤
à¤Ĩ à¤¤à¤¸
à¥ģà¤ģ -
à¤Łà¤¨ à¤¸à¤¤
à¥® à¥ªà¥®
à¤²à¤¨ à¤Ł
à¤ķà¤° à¤¸à¤®
Ġà¤ħà¤¹ à¤¸
Ġà¤ħà¤¹ à¤®à¤¤
à¤ıà¤¨ à¤ıà¤®à¤¸
à¤¡à¤² à¤¸à¤¹
à¥įâĢ º
Ġà¤ıà¤¸ à¤µ
ĠC am
à¥ĢâĢĻ âĢĵ
à¤ķà¤Ł à¤µà¤°
ĠM ail
ĠA aj
à¤ħà¤¸ à¤¤
ĠB en
ĠN ab
à¥Įà¤Ĥà¥¤ âĢĶ
à¥§à¥¯ à¥Ń
à¤ıà¤« à¤ĵ
et er
ĠW ater
Ġ10 6
Ġd ang
Ġà¥¬à¥¯ à¥¯
à¥Įà¤ĤâĢĻ âĢĵ
ĠNEPAL FASHION
ĠNew z
Ġà¤¨à¤Ļ à¤¸à¤²à¤¦
ĠColor ado
ĠNEPALFASHION WEEK
K A
M adhesh
s on
Ù ħ
à¤¨ à¤¹à¤¨
à¤¨ à¤¤à¤°à¤£
à¤µ à¤¢
Ġà¤¨ à¤Ļà¤ķ
Ġà¤® à¤ĺ
Ġà¤¤ à¤Łà¤¹à¤°
Ġà¤¯ à¤®à¤¬
à¤ĩ à¤Ļà¤ķ
Ġà¤Ńà¤¨ à¤ķ
à¤°à¤¤ à¤ªà¤Ľ
Ġà¤Ł à¤«
à¤¤à¤° à¤Ńà¤¨
Ġà¤®à¤¨ à¤Ĺà¤¢à¤¨
à¤§à¤¨ à¤°
Ġà¥Ń à¥¯à¥®
âĢ¦ à¥¤
à¤¨à¤Ĺà¤° à¤ªà¤²
à¤¨à¤¯ à¤¨à¤²
Ġà¤Ĩà¤ĩ à¤ļà¤°
Ġà¤¹à¤Ł à¤¸
à¥§à¥¦ à¥©à¥ª
Ġà¤ķà¤ķ à¤¸à¤²
Ġà¤¤à¤² à¤µà¤®
ĠE nd
à¤Ĭ à¤²à¤ķ
à¤·à¤° à¤¸à¤®
Ġp ilot
Ġà¥Ńà¥¦ à¥¨
ĠK b
Ġ3 14
à¥¨à¥¨ à¥¬
Ġarticle à¤ıà¤ķ
10 3
24 3
13 5
à¥Īà¥Ī -
uk i
ĠX Mailer
inepal news
Ġà¤°à¤®à¤Ŀ à¤®à¤®
E d
I FA
L ear
a ha
à¤° à¤ĩà¤Ļ
à¤µ à¤Łà¤°
à¤§ à¤¬à¤¨
Ġà¤ľ à¤²à¤²
à¤°à¤® à¤¬à¤ľ
à¤°à¤£ à¤¤
à¤ħ à¤¸à¤¹à¤ľ
à¥ª à¥¨à¥¬
Ġà¤¬à¤¢ à¤Ľ
Ġà¤²à¤Ĺ à¤¨à¤²
Ġà¤ĩ à¤ķà¤¬
à¤Łà¤¨ à¤°à¤¨
Ġà¥¬ à¥§à¥Ń
Ġà¥Ń à¥©à¥®
Ġà¥® à¥ªà¥¦
in ion
Ġà¥§à¥¯ à¥¨à¥¯
Ġà¥§à¥¯ à¥¨à¥Ń
Ġà¥§à¥¯ à¥©à¥§
à¤ķà¤¨ à¤ľ
à¤ªà¤¦ à¤Ń
ĠS hi
Ġà¤Ĳà¤¨ à¤¦
il ity
Ġà¤µà¤¨ à¤°à¤ķ
Ġà¤ħà¤ķ à¤¬à¤°à¤ķ
ra e
ĠE lect
à¤µà¤¨à¤® à¤°à¤£à¤ķ
à¤§à¤¨à¤® à¤§
à¤·à¤¬ à¤¢
Ġà¥ªà¥¨ à¥ª
Ġà¤ıà¤¡ à¤ľà¤¸
Ġà¥ªà¥¯ à¥ª
Ġà¤°à¤Ļ à¤¶
à¤¾? '
à¥¦à¥« à¥Ń
à¤ľà¤Ĺà¤¢ à¤²
12 7
24 0
ith vi
ung ama
Ġà¤µà¤ľà¤¨ à¤¦
ĠPol ites
200 7
à¤¨à¤ªà¤Łà¤ķ à¤¸à¤®
Sc roll
à¤°m à¤®
Ġmain News
ĠGeorg ia
, âĢĵ
1 20
6 25
F X
f a
w hat
y am
à¤° à¤ľà¤®
à¤¨ à¤ħà¤µà¤§
à¤¿ ï¿½...
à¤¯ à¤¯à¤®à¤¬
Ġà¤µ à¤²à¤®
à¤Ĥ âĢ¦
à¤Ī à¤²à¤²
Ġà¤¸à¤® à¤¹
à¥¦ à¥§à¥¯
à¤ªà¤¨ à¤¤
à¤Ĺà¤° à¤¨à¤²
à¤¯à¤¸ à¤Ļ
à¤¯à¤¸ à¤ħà¤µà¤¸à¤°à¤®
à¤¤à¤° à¤ŀ
à¤Ŀ à¤²à¤ķ
Ġà¤Ĩà¤ľ à¤ªà¤°
Ġà¥® à¥¨à¥«
à¤ıà¤¨ à¤Ĩà¤°
Ġà¥§à¥§ à¥¨à¥¯
Ġà¥«à¥¦ à¥Ńà¥®
à¤²à¤µ à¤ľ
Ġà¥¦ à¥ªà¥©
Ġà¥§à¥® à¥©à¥§
ĠP ack
ĠS anga
Ġà¤ķà¤¥ à¤¨à¤µ
à¤¾... "
à¤ĩà¤® à¤ª
à¤¯à¤¬ à¤¶
Ġà¥ªà¥¦ à¥¬
ĠT ok
à¤ıà¤² à¤Īà¤¯
ĠD el
ĠB eyond
Ġà¥©à¥« à¥¬
Ġà¤¸à¤¹à¤° à¤¬à¤ľ
Ġp at
Ġà¤ľà¤¨à¤ķ à¤¬à¤¹
à¤ıà¤« à¤¡à¤¬
op h
à¤¦à¤¯ à¤¶
à¥¨à¥¨ à¥®
Ġà¥©à¥Ń à¥¯
à¤¾? "
à¤Ĩà¤ĩ à¤ĵà¤ıà¤¸
Ġd h
Ġ11 5
à¤Ļà¤Ł à¤¨à¤²
ĠAn ju
ĠFr u
Categories à¤ķ
Ġinter view
inn ings
BRE AKING
dip esh
ĠTrib eni
akthung ba
Madhesh vani
. âĢ¦
N p
V ie
c ed
i ed
m à¤®
Ø ±
à¤ķ à¤°à¤¬à¤¹
à¤ķ à¤¥à¤¨
à¤¦ à¤®à¤§
à¤µ à¤ªà¤¨
Ġà¤ķ à¤ĸà¤°
Ġà¤ľ à¤®à¤¨
à¤£ à¤ľà¤¨
à¤ī à¤ľà¤¸
Ġà¤Ńà¤¨ à¤ª
Ġà¤¶ à¤¶à¤¸
Ġà¤¶ à¤µà¤¸à¤¹
Ġà¤ĸ à¤²à¤ķ
Ġà¤ı à¤ıà¤¨à¤¸
à¤°à¤£ à¤ļ
à¤ªà¤° à¤Ł
à¤ŀ à¤®à¤£
à¤Łà¤° à¤Ĺ
Ġà¤¹à¤ľ à¤®
Ġà¤ĵ à¤¬à¤°
Ġà¤Ŀ à¤Łà¤ķ
à¤ĵ à¤Ĩà¤°à¤ķ
Ġà¥Ń à¥Ńà¥«
âĢ¦ ,
Ġà¥§à¥¨ à¥®à¥§
à¤ıà¤® à¤ĵ
er t
Ġà¤Ī à¤¹
ĠP abil
ĠP oudel
ĠA t
à¥ĩà¤Ĥ à¥¤âĢĿ
ĠB ul
Ġà¤¶à¤¹à¤° à¤¦
Ġà¤Ĺà¤² à¤«
.... ......
Ġp hone
Ġà¤ļà¤¢ à¤¨
ĠL LC
Ġà¤¤à¤²à¤¬ à¤¸à¤®
Ġà¥©à¥¬ à¥§
is c
ĠG od
lo s
Ġà¤Ĩà¤ªà¤¤ à¤µ
aj i
Ġ6 7
Ġà¥Ńà¥¬ à¥¦
Ġ7 8
ark e
Ġà¤¡à¤ķ à¤µà¤°
19 8
han nu
og i
AM A
à¤ĩà¤ĵ à¤Ńà¤°
âĢ¦. !
Ġra i
Ġ90 01
jan ak
ĠFeder al
ĠLim bu
Pay Pal
Off ice
fg af
cont ent
ĠGokar na
ðŁĶ Ĭ
C ountry
N U
P C
T H
T ra
a ff
s ize
à¥ĭ âĢľ
à¤® à¤¥à¤°
à¥ģ !!
Ġà¤¸ à¤²à¤¨
Ġà¤¬ à¤°à¤ķ
à¤ı à¤ĩà¤¸
à¤¡ à¤µà¤¹à¤°
Ġà¤¯ à¤¯
à¤ĩ à¤ĵà¤®
Ġà¤ªà¤° à¤ĸ
à¤ľà¤¨ Tags
à¤¤à¤° à¤µà¤°
Ġà¤īà¤ª à¤ľà¤®
à¤°à¤¹à¤° à¤®
à¤Łà¤¨ à¤ľ
à¤°à¤µ à¤ļà¤¨à¤®
à¤²à¤¨ à¤ľà¤¸
Ġà¥ª à¥¨à¥¯
Ġà¤ĵ à¤ªà¤¨à¤ķ
Ġà¤ĵ à¤ĸà¤²
à¤Ĺà¤² à¤Ł
à¤ľà¤ķ à¤¸à¤¹
à¤Ĺà¤® à¤ª
à¤ıà¤¨ à¤¯
Ġà¤¸à¤µ à¤Ńà¤¨
ĠS ol
ĠR oman
Ġm ill
ra b
à¤ĸà¤¨ à¤¶
ik ash
ĠI SS
Ġp res
à¤ıà¤« à¤Ĩà¤Īà¤¡
Ġ!! !!!
Ġà¤ıà¤« à¤«
ĠG UN
ĠV s
Ġà¤ķà¤¸à¤ķ à¤¸à¤²
Ġw hat
Ġà¥Ńà¥® à¥§
Ġà¤ĵà¤® à¤¨à¤²
à¤¡à¤µ à¤ĸ
ut an
à¥ªà¥¯ à¥¬
Ġà¤¸à¤¦à¤¨ à¤¸à¤®
Ġg u
Ġmon ey
ĠUS E
Ġsh ub
An onymous
ĠDi aspora
Ġà¤Ŀà¤®à¤ķ à¤ķ
rag yee
ĠNF DN
Ġpop ular
6 40
E asy
G P
R ec
V T
c ut
h A
h C
à ¨
â Ŀ¤ï¸ı
à¤ķ à¤°à¤¹
à¥ĩ ï¿½
à¥ģ ?âĢĿ
Ġà¤¸ à¤ĺà¤ķ
à¤¹ à¤¤à¤ª
à¥Ī âĢĮà¤Ĥ
Ġà¤Ń à¤®à¤°
à¤¶ à¤·
à¤Ń à¤Ĺà¤¤
à¤īà¤¨ à¤¨
à¤¯à¤® à¤Ńà¤¨
Ġà¤Ĩà¤« à¤¸
à¤Ŀ à¤ľà¤¸
à¥Įà¤ģ ',
à¤ĵ à¤¸à¤ķ
Ġà¤¨à¤® à¤¶
à¤¾à¥ĩ à¤Ĥ
à¤¹à¤¨ à¤Ĺà¤°à¤®
Ġà¥¨à¥« à¥¬à¥¦
Ġà¥«à¥¦ à¥¬
Ġà¤ļà¤°à¤£ à¤¦
Ġà¤Ī à¤Ļà¤Ĺ
à¤·à¤¯ à¤Ńà¤¨
âĢľ à¥ģ
ĠC ourse
à¤Łà¤¬à¤² à¤¸
Ġà¥ªà¥¦ à¥§
Ġà¥ªà¥¦ à¥¯
ĠB ri
ĠE qu
Ġà¤Ĩà¤ı à¤¤
ch an
Ġà¤ıà¤² à¤ıà¤²
à¤īà¤¡ à¤°à¤ķ
à¤ªà¤¥ à¤¸
Ġà¤ıà¤« à¤®
Next à¤µ
à¤ĩà¤¬ à¤°à¤¬
ĠG ar
ĠG lo
à¥įâĢĮ âĢĿ
Ġà¥ªà¥¯ à¥¬
Â« à¥ĭ
Ġà¥Ńà¥ª à¥§
à¤ıà¤ļ à¤Ł
à¤¿âĢ¦ ..
Ġ11 3
à¤°à¤ļà¤²à¤¨ à¤ħà¤¨
Ġà¤¯à¤® à¤¨à¤²
ĠAn and
à¤Ĺà¤« à¤²à¤®
ĠX P
ult ural
ĠAl b
AP K
ĠHolm bygden
ĠBhat ta
Daily news
ĠMul ti
dv lottery
. âĢĻ
6 01
J LPT
L I
Z D
p olitics
Ð ĺ
Ġ har
Ġ has
Ġà¤ ±
à¥į âĨĴ
à¤¨ à¤Īà¤®
à¤¸ à¤Ŀ
à¤ª à¤ªà¤ķ
à¤Ł à¤¸à¤¹à¤°
Ġà¤® à¤ľà¤Ĺ
à¤ı à¤¸à¤°
à¤ľ à¤µà¤¸
Ġà¤¹ à¤µà¤¸
Ġà¤µ à¤ľà¤¨à¤ķ
à¤¶ à¤ĸ
Ġà¤Ĩ à¤ªà¤¦
à¤Ī à¤¬à¤¹
à¤£ à¤Ĺà¤°
à¤ī à¤Ŀ
Ġà¤ĸ à¤¯à¤°
Ġà¤ı à¤¸à¤²
à¤µà¤¸ à¤ŀ
à¥§ à¥Ńà¥ª
à¤°à¤² à¤°
à¤²à¤® à¤ł
à¤¤à¤° à¤Ĩà¤¤
à¤Ŀ à¤¯
Ġà¤ĩ à¤¤à¤°à¤ķ
Ġ: (
à¤¸à¤¨ à¤¸à¤¨
à¤¶à¤¨ à¤ħà¤ĺ
à¤¸à¤¦ à¤¨à¤®
âĢĿ .
à¤°à¤Ń à¤¦
à¤°à¤ļ à¤°
à¤¹à¤¨ à¤¹à¤°
à¤¹à¤¨ à¤¤à¤¬
à¤¦à¤µ à¤¹à¤°
Ġà¥§à¥¯ à¥§à¥¨
à¥ĩà¥¤ "
à¤²à¤µ à¤¹
à¤ļà¤® à¤Ĺ
Ġà¤Ĩà¤Ī à¤ı
à¤ĩà¤¡ à¤°à¤ķ
à¤ĩà¤¡ à¤ĩà¤«
ĠT ips
ĠD readbag
à¤Ĩà¤Ī à¤µ
ĠE mp
ĠF re
ol ms
Ġà¥«à¥« à¥®
Ġà¥ªà¥ª à¥¬
oo th
Ġarticle à¤Ł
à¤°à¤ķà¤°à¤£ à¤¸
Ġre d
à¥ĩâĢ¦ ..
Mo han
if y
NA MENT
Ġhe alth
EE T
à¤ıà¤¨à¤ıà¤® à¤ıà¤¨
ĠBh andari
Wik i
ĠPop ular
ĠScreen nepal
âī Ī
Min istry
ĠTOUR NAMENT
ĠGUN SAN
6 35
R at
[ /
a ustral
e an
k am
l ip
s g
à¤¾ âĢİ
à¤¯ à¤ħà¤®
Ġà¤¨ à¤łà¤Ĺ
Ġà¤® à¤ĸà¤¨à¤ķ
à¤ľ à¤¤à¤®
Ġà¤Ń à¤ľà¤¨à¤¸
Ġà¤² à¤µà¤¦
à¤ľà¤¨ à¤ħà¤ª
à¤ľà¤¨ Posted
à¤ªà¤° à¤¯
à¤¯à¤¤ à¤Ńà¤¨
Ġà¥ª à¥§à¥ª
Ġà¤ĵ à¤®à¤²
à¤¨à¤¸ à¤Łà¤¹à¤°
à¤°à¤®à¤® à¤§
à¤¬à¤² à¤¸
ti tion
ĠS hiv
ĠM RP
à¤µà¤ķà¤ª à¤ªà¤Ľ
à¤¯à¤¯ à¤¨à¤®à¤¨
Ġà¤ıà¤ª à¤¸
Ġà¤¸à¤¹à¤° à¤¸à¤®
à¥§à¥¯ à¥¯à¥ª
à¤°à¤¥ à¤®à¤²
Ġà¥ªà¥ª à¥ª
Ġà¥ªà¥¨ à¥®
Ġà¤Ńà¤ĩ à¤Ľ
Ġà¥¯à¥®à¥ª à¥®
à¤ıà¤¨à¤Ĩà¤°à¤ıà¤¨ à¤ıà¤²
res h
ĠRep orts
à¤¤à¤¨à¤² à¤Ĺ
Ġ.... .........
ind ra
à¤Īà¤ªà¤Łà¤ķ à¤¸à¤®
Categories à¤®à¤¨
97 741
air s
ĠAction able
Ġà¥¯à¥®à¥«à¥Ńà¥¦à¥©à¥¯ à¥¦à¥¨à¥¯
Ġà¤¦à¤¶à¤²à¤® à¤µ
4200 85
B ot
e ed
j ar
Å «
à¤¾ =
à¤ķ à¤ĩà¤¨
Ġà¤¸ à¤¸à¤¸
à¤Ĺ à¤¡à¤²
Ġà¤¨ à¤¤à¤°
Ġà¤¨ à¤īà¤ķ
Ġà¤® à¤łà¤ķ
à¤ľ à¤®à¤®
à¤¬ à¤ķà¤ķ
à¤¶ à¤¯à¤¨
à¤ļ à¤«
à¤Ī à¤£
à¤£ à¤£
à¤ĩ à¤ĩ
Ġà¤¶ à¤µà¤®
à¥¦ à¥§à¥«
à¤°à¤£ à¤°
à¤ħ à¤¥
à¤Ĩ à¤²à¤®
à¥ģà¤ģ ?
Ġà¤Ńà¤ı à¤ª
à¤²à¤¨ à¤Ń
Ġà¤¨à¤Ĺà¤° à¤¸à¤®
à¤ĵ à¤ĩ
à¤¹à¤¨ à¤ľ
Ġà¤Ĩà¤® à¤īà¤ªà¤Ń
à¤ľà¤Ĺ à¤ľ
à¤¨à¤Ĺà¤° à¤¸à¤¹
ne c
ĠC B
ĠC amp
ĠM aster
ĠM alla
ĠA re
ĠT ab
Ġà¤µà¤¨ Posted
ĠO wn
à¤¨à¤¸à¤® à¤ķ
Ġà¤ľà¤² à¤ļà¤°
ĠE l
ĠI f
à¥§à¥¯ à¥¬
Ġf ollow
Ġà¤ıà¤« à¤ıà¤¨à¤¸
à¤°à¤Ļ à¤¦
Ġà¤¨à¤°à¤¹ à¤²
Ġc ar
Ġc apital
Ġin iqu
Ġà¤ħà¤¨à¤¶à¤¨ à¤ª
ĠV al
Ġà¥«à¥© à¥§
à¤¿à¥¤ à¥¤
Ġ6 00
Ġd ot
ĠPost à¤¬
te e
à¤Ĳ à¤°à¤²
Ġa v
Ġà¤Ĩà¤Ĺà¤®à¤¨ à¤ªà¤Ľ
à¥ªà¥¨ à¥§à¥Ńà¥¨à¥¨
à¥¯à¥®à¥«à¥§à¥¨ à¥ªà¥«à¥«
od a
ons e
ĠEd it
ĠFor m
à¤ķà¤ħ à¤ªà¤²
à¤Ĩà¤ĩà¤ıà¤¸ à¤Ĩà¤ĩà¤¦
ĠCo in
ĠRamail o
ĠBa is
aur us
chin agar
Ele ven
ĠAnaly tics
à¥¯à¥®à¥«à¥§à¥¨à¥ªà¥«à¥« à¥Ńà¥§
8 18
: /âĢ¦
A b
B id
T ok
W e
Y akthungba
Ñ ı
Ġ ep
à¤¨ à¤ĸà¤°
à¥ĩ :-
à¤¸ à¤¯à¤¯
Ġà¤ª à¤Łà¤°
Ġà¤ķ à¤£à¤ķ
à¤ı à¤¯
à¤ľ à¤ĸ
à¤¬ à¤®à¤¬
à¤§ à¤¯à¤ķ
à¤§ à¤¤à¤®
Ġà¤Ĩ à¤Ļà¤¸
Ġà¤² à¤Łà¤°
à¤« à¤ªà¤Ľ
à¤ŀ à¤µà¤²
à¤Ĺà¤° à¤¹à¤°
à¥¨ à¥§à¥§
à¤Ŀ à¤ıà¤ķ
Ġà¥« à¥§à¥«
à¤®à¤¨ à¤¬à¤¹
Ġà¤ĵ à¤ĸà¤°à¤ķ
à¤ħà¤¨ à¤«
Ġà¤ĩà¤¨ à¤Ń
à¤®à¤ļ à¤°à¤£
à¤¤à¤°à¤£ à¤¸à¤¹
à¤Ĥ. :-
Ġà¤Ĩà¤¤ à¤¤
ĠS outh
ĠM uk
ĠR un
th ers
à¥©à¥¦ à¥«
Ġp ol
Ġà¤¹à¤ķ à¤Ń
Ġb est
Ġ4 78
Ġ20 20
Ġà¥«à¥ª à¥©
Ġà¥¬à¥ª à¥®
Ġà¥¬à¥ª à¥¯
Ġà¥Ńà¥¬ à¥Ń
12 5
AL D
Ġà¤ªà¤ª à¤Ĺ
à° ¿
ver t
Ġà¤¬à¤ļà¤¨ à¤¬à¤¦
Ġà¤²à¤ļà¤ķ à¤¦
Sh ort
à¤¨à¤ı à¤ľà¤°
ĠBiz Khabar
ĠPan ja
Sar oj
ĠISS UE
F inal
g r
k m
à¤¾ à¥ħ
à¤¨ à¤ľà¤¤
à¤¨ à¤Ĩà¤īà¤¨
à¤² à¤ĺà¤°à¤®
à¤® à¤Ĺà¤²
à¤® à¤ħà¤ª
à¤¯ à¤«à¤²
Ġà¤Ĺ à¤Ń
à¤Ł à¤°à¤¹
à¥Ī ),
Ġà¤¨ à¤°à¤Ńà¤ķ
Ġà¥¤ ......
à¤ľ à¤ľà¤¨
à¤ľ à¤¤à¤ª
à¤ľ à¤Ńà¤ķ
Ġà¤² à¤¤à¤²
à¤Ľ à¤¹à¤°
à¥¦ à¥§à¥Ń
à¤¸à¤® à¤¯à¤¸à¤®
à¥§ à¥Ńà¥«
à¤¨à¤² à¤¨
à¥« à¥¨à¥§
à¤°à¤¹ à¤¶
à¤ĩà¤¨ à¤ľà¤¸
Ġà¤ĩ à¤Ńà¤°
à¤¯à¤¨ à¤¯
à¤¯à¤¨ à¤µ
à¤·à¤£ à¤®à¤¨
à¤²à¤¬ à¤µ
Ġà¥Ń à¥¨à¥¬
Ġà¥® à¥©à¥¨
Ġà¤Ķ à¤·
al t
à¤²à¤Ĺ à¤¸
à¤¾à¥ĩ âĢĵ
Ġà¤ħà¤¤ à¤¹à¤°
à¤°à¤¨ à¤¬
er i
ĠC IS
ĠM ir
ma s
Ġm u
ĠB B
ĠB od
ic tionary
Ġà¤¸à¤¹à¤° à¤Ń
à¥§à¥¯ à¥¯à¥§
ĠK amal
à¥§à¥« à¥¦à¥¦
ĠJ oshi
Ġà¤¦à¤¶à¤ķ à¤¬
ak hya
à¤¶à¤µ à¤£
Ġà¥©à¥® à¥¯
Ġà¤ªà¤¸à¤² à¤¸à¤®
Ġb r
Ġà¤Ĩà¤¸ à¤¯à¤ªà¤¤
ĠIn t
ĠIn vest
im ed
à¤²à¤Ĺà¤¨ à¤¶
à¥¦à¥« à¥ª
Ġà¤¦à¤®à¤ķ à¤¬
te xt
15 0
Ġà¤Ńà¤°à¤¤ à¤®à¤£
66 0
olog ical
Ġà¤¬à¤ĸ à¤¤à¤ķ
ĠBud hathoki
ĠBo eing
Ġdis c
Ġoff ice
Ã¥ f
sw er
isp akhya
Âº à¤¨
ĠChild ren
ĠAaj ako
/ )
4 33
F ALD
S CO
W OR
b ook
i w
n ual
t op
Ã ĺ
à¤° Ã¥f
à¤® à¤°à¤¬
Ġà¤¸ à¤ĩà¤ķ
à¤ª à¤ļà¤°
Ġà¤Ĺ à¤ķ
à¥Ī ....
Ġà¤¨ à¤ªà¤²
Ġà¤Ń à¤ľà¤¨à¤®
à¤¶ à¤¤à¤¨
à¤Ī à¤®à¤¹
à¤Ń à¤Łà¤®
à¤ĸ à¤ľà¤¤
Ġà¤¸à¤® à¤°à¤ķ
à¤ĩ à¤ĵà¤¸
à¤ħ à¤²à¤®
Ġà¤ħà¤° à¤µà¤ķ
à¤¯à¤¤ à¤¦
Ġà¤ªà¤¹ à¤²à¤µ
Ġà¤ĵ à¤ľà¤¸
Ġà¥¬ à¥§à¥¬
à¤ĵ à¤¦
à¤ĵ à¤Ĺ
Ġà¤¸à¤¨ à¤¤
à¤ľà¤ķ à¤¸à¤¨
à¤®à¤ļ à¤°à¤£à¤®
Ġà¥«à¥¦ à¥¦à¥¦à¥¦
Ġà¥§à¥¬ à¥¨à¥¦
Ġà¤Ī à¤Ĺ
ĠC ir
ĠS EO
à¤¸à¤¹à¤° à¤¬à¤¸
le ar
à¤ªà¤£ à¤Ľ
ĠR et
Ġà¤Ĳà¤¨ à¤¸à¤®
Ġà¥©à¥§ à¥¬
ĠN ingbo
ent ral
Ġà¥Ńà¥¦ à¥«
Ġà¥Ńà¥¦ à¥©
à¤¤à¤¸ à¤°à¤®
à¤Ńà¤² à¤Ń
ri ver
à¤ĩà¤Ń à¤°à¤¹à¤°
as es
Ġà¥©à¥¬ à¥¨
à¥ĩ. )
à¤®à¤°à¤£ à¤¹à¤°
ĠG h
ĠG irl
Ġà¥ªà¥® à¥¨
tha inepalnews
Ġà¥¯à¥« à¥Ń
Ġd r
Ġ8 3
Ġ11 6
AT H
Ġà¥¦à¥® à¥§
Ġh ungama
uv an
ĠEmb assy
Ġâĸ ¼
C o
K al
N ispakhya
Ñ Į
à¥ Ĵ
à¤¿ âĢĮ
à¤¿ ........
à¤¤ à¤Ļ
à¤µ à¤ħà¤®
à¤µ à¤Ĩà¤Īà¤ľ
à¤Ł à¤¸à¤¸
à¤Ł à¤ħà¤ªà¤ķ
à¤ı à¤Łà¤ķ
à¤ı à¤Ĩà¤°à¤ķ
à¤§ à¤¯à¤²
à¤§ à¤ľà¤²
à¤¡ à¤°à¤µà¤²
à¤Ļ à¤ħà¤¨
à¤Ļ à¤¬à¤ľ
Ġà¤¡ à¤µ
Ġà¤ħà¤¸ à¤°à¤¦
à¤µà¤° à¤ļà¤¨
à¥¯ à¥«à¥¦
à¤ķà¤° à¤ľ
à¤¨à¤ª à¤ĸ
ne p
st ory
à¤ªà¤¦ à¤¬à¤¹
ad em
ĠS athi
ou ble
Ġà¤°à¤® à¤£à¤ķ
à¤¡à¤° à¤ħà¤¨
Ġà¤¨à¤µ à¤°à¤¤
Ġà¥©à¥¨ à¥®
el ing
à¥§à¥© à¥§
ec tive
ĠG ha
à¥° )
Ġà¥«à¥ª à¥«
ub ric
Ġà¥Ńà¥® à¥¬
à¤¦à¤¬ à¤Ļ
sp ace
à¥Ģ? âĢĿ
Ġà¤¨à¤°à¤® à¤ªà¤¨
à¤ĩà¤°à¤¸ à¤¹à¤°
à¥ĭ! âĢĿ
Ġà¤¸à¤¯à¤® à¤§
Ġà¤ħà¤®à¤² à¤Ł
ĠBha jan
à¥Ľ à¤®
Ġen g
Red irect
Ġ____________ à¥¤
ĠRed FM
Ġqu es
Ġkey board
hakar inepal
L ok
P P
j ung
Ã Ń
Ġ xxx
à¤¨ à¤ıà¤ķ
à¤¨ à¤¶à¤®à¤¶
à¥Ģ à¥ģ
à¤Ĺ à¤¬à¤¸
à¤Ł à¤ıà¤ķ
à¤Ł à¤ħà¤Ĺ
Ġà¤¹ à¤²à¤Ĺ
à¤¶ à¤¯à¤¤
à¤Ī à¤¡à¤¬à¤¡
à¤ī à¤¸à¤°
à¥Ĥ à¥¤âĢĻ
à¤²à¤ķ à¤ļ
à¤°à¤¦ à¤°à¤¹
à¤¤à¤° à¤Ĺà¤Ļ
Ġà¤ħà¤° à¤¬à¤¸
Ġà¤²à¤Ĺ à¤¨à¤ķ
à¤¤à¤® à¤Ńà¤ķ
à¤¿à¤Ĥ à¤Ĥ
Ġà¥¯ à¥¯à¥®
al ly
Ġà¥§à¥¯ à¥¨à¥¨
à¤ķà¤¨ à¤Ĺ
Ġà¤§à¤¨ à¤¶
à¤ľà¤¯ à¤²à¤ķ
à¤¨à¤ª à¤¸
Ġà¤Ī à¤¡
Ġà¤¦à¤¶ à¤ľà¤¨
ĠC are
ĠA G
à¤¥à¤¨ à¤Ĺà¤°à¤ķ
ĠB it
ic on
à¤®à¤£ à¤µ
ĠI MG
Ġà¤¸à¤¹à¤° à¤®à¤§
à¥§à¥¯ à¥¯à¥¬
ĠH ald
Ġà¥®à¥¦ à¥Ń
à¥Ńà¥¨ à¥©
Ġb al
Ġà¥¬à¥© à¥¨
âĢĮ âĢį
Ġâ Ļ
ger y
Ġà¥Ńà¥¯ à¥¨
nt able
Ġà¤ĩà¤¯à¤° à¤«
Ġà¤Ŀà¤¡ à¤ªà¤²
à° °
Ġsa hakarinepal
69 5
DA Y
Ġà¤°à¤¹à¤¨à¤¸à¤¹ à¤¨à¤ķ
ca use
osp ital
# #
5 38
5 47
M un
U B
b at
k ad
à¥į âĢĺ
à¤° à¤ĸà¤®
à¤ķ à¤²à¤ķà¤²
à¤¹ à¤¯à¤¤
à¤µ à¤£à¤®
à¤ı à¤¸à¤Ń
Ġà¥¤ âĢĶ
à¤¶ à¤Ł
Ġà¤¦ à¤¦
Ġà¤ľ à¤¡à¤¸
à¤Ń à¤ıà¤¸
à¤ī à¤¦à¤°
Ġà¤ı à¤¹
Ġà¤ı à¤ıà¤¨à¤ıà¤ķ
à¤īà¤¨ à¤¹
Ġà¤¥ à¤¸
Ġà¤®à¤¹ à¤«
à¤ħ à¤ĸà¤¬
à¤ªà¤¨ à¤¤à¤°
Ġà¤ķà¤° à¤¨à¤²
à¤¯à¤¨ à¤ª
à¤¸à¤¨ à¤Ńà¤¨
à¥Įà¤ģ .
Ġà¤Ĩà¤ľ à¤µ
à¤īà¤Ł à¤²
Ġà¥¯ à¥Ńà¥©
à¤Łà¤® à¤ªà¤Ľ
Ġà¥® à¥¨à¥Ń
à¥¨à¥¦ à¥©à¥§
à¤ªà¤² à¤¸
Ġà¥¦ à¥©à¥¯
à¤¥à¤² à¤Ńà¤¨
à¤Ńà¤µ à¤¹
ĠP ort
ĠA TM
Ġm ung
it u
ĠB ig
ĠG aj
ĠG alaxy
à¥ĭâĢ¦ ..
à¥«à¥¦ à¥«
Ġ4 79
Ġw ant
10 7
à¤¼ à¥Ī
ĠEn t
à¤ıà¤¡ à¤Ń
Ġà¤¸à¤¨à¤® à¤²
ĠPol ice
ĠSub ba
ĠView ed
gun j
ĠDh ulikhel
Ġ_____________ _
atn anagar
let te
mag es
oper ative
ĠGall ary
+ +
S i
b and
d igital
r M
s agoon
w ith
Ġà¤¸ à¤ªà¤®
Ġà¤¬ à¤¡à¤²
Ġà¤¬ à¤ķà¤¸
à¤¡ à¤µà¤¤
à¤ģ à¤¿
à¤ł à¤ķà¤ª
à¤¨à¤ķ à¤°à¤£à¤¦
Ġà¤¸à¤ķ à¤¤
Ġà¤®à¤¨ à¤¨à¤¯
à¤¯à¤¤ à¤¬à¤¸
à¤®à¤ķ à¤£
à¤·à¤£ à¤ªà¤¶
al pa
à¤ıà¤® à¤ıà¤ļ
Ġà¤Ĳ à¤¨à¤²à¤Ĺ
à¤ľà¤¯ à¤¶
à¤Ĺà¤¢ à¤¹à¤°
à¤¯à¤¬ à¤²à¤®
à¥§à¥¨ à¥®à¥®
ch en
à¥§à¥¬ à¥¬
ĠL O
ĠL evel
à¤¶à¤¨à¤² à¤Ĺ
Ġà¤Ĩà¤īà¤Ł à¤®
ang es
à¤Ĩà¤ĩ à¤°à¤¨
Ġà¤¨à¤Ĺ à¤µ
Ġà¤¶à¤°à¤¦ à¤ļà¤¨
18 0
05 80
ĠSt ar
aw an
Ġà¤Ńà¤ľà¤¨ à¤¹à¤°
ala i
Ġr atnanagar
Categories à¤°
ĠJournal ists
ble m
dha iba
ĠProgram me
ĠIns titute
ĠFam ous
ĠAgric ulture
Ġratnanagar news
- âĢľ
I CO
M I
W ith
p i
s up
ı à¤¨
à¤¨ à¤¡à¤°
à¤® à¤ķà¤®
à¤ª à¤ľà¤¨
à¤Ł à¤ªà¤®
Ġà¤¬ à¤Ĺà¤¦
Ġà¤® à¤²à¤¬
Ġà¤Ń à¤¯à¤°
à¤¡ à¤°à¤¦
à¤Ń à¤¯à¤ķ
à¥¤ ÂĶ
Ġà¤¥ à¤¹
à¤ħ à¤µà¤¹
Ġà¤§ à¤¡à¤ķà¤¨
à¥ª à¥§à¥¦
à¥ª à¥ªà¥¬
Ġà¤ĩ à¤¸à¤°
Ġà¥¬ à¥¨à¥¦
à¤ĵ à¤Ńà¤°à¤¸
Ġà¤¸à¤¦ à¤®
om ala
à¤¿, '
à¤¨à¤µ à¤Ĺ
Ġà¥«à¥¦ à¥©
Ġà¤ķà¤ª à¤¨à¤ķ
ĠA ma
à¤łà¤ķà¤² à¤Ĺà¤¤
at hapa
ĠD ham
ĠD ashain
Ġà¤ħà¤ķ à¤¬à¤°à¤²
à¤īà¤¤ à¤¬
ĠF ocal
Ġp o
ĠH at
ur b
et s
Ġc r
à¥¨à¥ª à¥©
à¥Ńà¥¦ à¥¯à¥¨
ĠOff icial
Ġà¤ıà¤ļ à¤ı
Ġà¥®à¥« à¥¬
Ġà¤Ĩà¤¦à¤° à¤ª
10 9
ant ar
12 2
Ġ8 15
sh ot
AR C
Ġnepal khabar
à¤¨à¤Ĺ à¤ıà¤ķ
Ġà¤¨à¤¹à¤° à¤¬
Ġ200 5
hak h
Ġà¤Ŀà¤²à¤ķ à¤ª
ES H
IC K
ĠNama step
Ġà¤Ĩà¤ĩà¤ķ à¤¨à¤®
ĠSub ha
ĠFe ature
ĠComm it
ĠMe chinagar
Ġà¤¨à¤µà¤¸ à¤ŀ
Ġà¤®à¤°à¤® à¤¸à¤²
à¤īà¤ªà¤¦ à¤«
Th is
à¥¯à¥®à¥¦ à¥§à¥¦à¥©
ĠJackp ot
Ġdang ol
ĠNamastep ost
3 25
B ir
O B
U p
b ichar
d r
v ing
Ġ et
à¤² à¤ī
à¤¹ à¤®à¤ķ
Ġà¥¤ _
à¤ľ à¤¬à¤¨
à¤¬ à¤¬à¤¹
à¤¶ à¤°à¤ķ
à¤¶ Tags
Ġà¤¦ à¤ľà¤¨
à¤ļ à¤ľà¤¸
à¤ıà¤ķ à¤¤à¤°
âĢ »
Ġà¤ıà¤ķ à¤¦à¤°
Ġà¥« à¥Ńà¥¨
à¥Īà¤Ĥ :
Ġà¥¬ à¥Ńà¥¦
Ġà¥Ń à¥¨à¥«
à¤¯à¤² à¤Ł
à¤¾à¥ĩ ]
Ġà¥§à¥¯ à¥¨à¥«
Ġà¥¦ à¥§à¥§
à¤Ĩà¤° à¤Ĩà¤Īà¤ķ
ĠP all
ĠP okhrel
ĠD DC
à¥§à¥¯ à¥¯à¥Ń
à¤ıà¤« à¤Ĩà¤°
à¥§à¥Ń à¥®
à¤Łà¤¸ à¤²à¤®
à¥Ĥà¤ģ à¥¤
Ġà¤¶à¤¤ à¤ķà¤®
ort une
Ġà¥©à¥¯ à¥Ń
Ġà¥©à¥¯ à¥©
Ġ5 05
à¥©à¥© à¥©
à¥¦à¥« à¥©
11 3
Ġà¥®à¥® à¥®
Ġe Bay
Ġà¥Ńà¥¯ à¥¦
um b
16 1
à¤¾à¥Īà¤ģ à¥¤
ere e
Ġà¤ıà¤ħ à¤°à¤µ
à¤ĩà¤¨à¤ĸà¤¬ à¤°à¤¬
à¤ªm à¤ķ
alk ot
Ġà¥¯à¥®à¥¦ à¥§à¥¦à¥©à¥ª
à¥ģà¤ģâĢĻ (
Ġtr ansl
ĠIns urance
Slot Site
ĠHAM RO
graph y
ĠAff airs
ĠMit eree
Ġallow ed
à¥¯à¥®à¥¦à¥§à¥¦à¥© à¥Ńà¥¦à¥¯à¥¨
Ġà¥¯à¥®à¥¦à¥§à¥¦à¥©à¥ª à¥Ńà¥¨à¥¦
A V
O p
c an
e o
l im
m à¤¸
p q
à¥Ģ !!
à¤¹ à¤¬à¤®
à¤¦ à¤¯à¤¹à¤°
Ġà¤° à¤¨à¤¬à¤¹
Ġà¤¤ à¤ĸ
Ġà¤¤ à¤¨à¤®
à¤£ à¤¯à¤ķà¤°
à¤Ļ à¤Łà¤¨à¤®
à¤ĺ à¤łà¤¨
à¤¢ à¤°
Ġà¤ľà¤¨ à¤¤à¤²
à¤ªà¤¨ à¤¨
à¤ªà¤¨ à¤ĩà¤¤à¤°
Ġà¤¸à¤ķ à¤°à¤ª
à¤ķà¤² à¤¯
à¤ķà¤² à¤¯à¤®
à¤²à¤¨ à¤ħà¤ĺ
Ġà¤¹à¤° à¤«à¤®
à¤¾à¥ĩ à¥ĩ
Ġà¥§à¥¯ à¥¨à¥®
Ġà¥¦ à¥©à¥ª
à¤Ńà¤µ à¤ľà¤¸
à¤¯à¤Łà¤¨ à¤µ
ad d
ĠA vi
Ġà¥ªà¥¦ à¥¨
Ġà¤¬à¤® à¤ª
ĠT hanks
ĠD ance
ĠB ang
ĠB lockchain
ĠN CC
Ġà¤Ĺà¤² à¤«à¤¤
th ing
à¤¸à¤¨à¤² à¤®
à¤²à¤ª à¤Ł
Ġs ah
Ġà¥¨à¥¦à¥« à¥«à¥®à¥ª
Ġà¥©à¥® à¥¨
ĠG ain
Ġà¥ªà¥® à¥«
à¥įâĢĻ -
11 6
Ġd on
Ġà¥¯à¥¯ à¥¬
12 4
Ġ.. (
à¥ĩà¤ģ, '
à¥ĩà¤ģ, ...
13 4
Ġnepal iradio
Ġà¤²à¤ĸ à¤¤à¤°
Ġà¤ķà¤¸à¤°à¤¤ à¤ªà¤Ľ
Ġi i
âĢįâĢį âĢį
à¤°à¤¡ à¤®à¤ķ
ound ation
ĠSha hi
Bl ack
ĠInf omala
ÑĨ ÑĨ
ĠDig imed
uday ag
ĠNab hannu
ĠFru ity
ĠGlo be
Rat na
ĠBais hakh
ĠHald ar
? âĢĻ,
h ead
i ma
r p
Ù Ĩ
à¤ķ à¤¬à¤°
à¤® à¤¬à¤¨
à¤¸ à¤¶à¤ķ
à¤¸ à¤ľà¤¨à¤ķ
à¤¹ à¤¹
à¤¹ à¤²à¤¬
à¤Ĺ à¤Ŀ
à¤Ł à¤Ĺà¤¦
Ġà¤® à¤ĵà¤µ
Ġà¤µ à¤¦à¤¨
à¤¶ à¤¸à¤ļ
Ġà¤² à¤¤à¤¬
Ġà¤ľ à¤®à¤¦
à¤£ à¤ªà¤Ł
à¤£ à¤¶à¤®à¤¶
à¤ī à¤²à¤²
Ġà¤¥ à¤ļà¤ķ
Ġà¤Ł à¤Īà¤Łà¤°
à¥« à¥ªà¥¦
à¤µà¤¨ à¤Ĺà¤°à¤®
à¤²à¤¯ à¤ľ
à¤®à¤¨ à¤¶
Ġà¥ª à¥Ńà¥¬
à¥Įà¤ģ ),
à¤¤à¤® à¤¦
Ġà¥Ń à¥¦à¥¦à¥¦
à¤¨à¤¸ à¤¬
à¤¸à¤¦ à¤°à¤²
Ġà¥® à¥ªà¥®
à¤¬à¤² à¤¹à¤°
à¤Ļà¤ķ à¤¨à¤ķ
Ġà¤Ĩà¤¦ à¤®à¤ķ
Ġà¥¦ à¥©à¥¦
Ġà¥¦ à¥©à¥§
Ġà¥§à¥® à¥¯à¥¦
Ġà¥§à¥¬ à¥¬à¥¦à¥¦
à¤¯à¤¯à¤¨ à¤ªà¤¶
ĠC R
ĠNepal iko
ĠP okharel
ĠM anch
Ġà¤ĸà¤¡ à¤Ĺ
Ġà¤Ĭ à¤®
Ġà¤¬à¤® à¤µà¤°
ĠB ANK
Ġà¤¶à¤¹à¤° à¤¤
ent al
à¥§à¥¯ à¥ª
à¤Łà¤¨à¤Ĺà¤° à¤¦
Ġà¤¨à¤Ĺà¤¦ à¤°à¤¹
à¥§à¥¬ à¥§
à¥Į, âĢ¦
Ġà¤Ĺà¤ı à¤¦
Ġà¥Ńà¥« à¥¬
un ch
à¥ĩ? "
ĠW ar
ĠG re
Ġarticle à¤ıà¤®
Ġà¤ıà¤¡ à¤µà¤°
Ġà¥ªà¥© à¥¬
Ġà¥«à¥© à¥¨
à¥¦à¥© à¥«
ug al
à¤ıà¤ļ à¤ıà¤«
ig en
à¤¿âĢ¦ âĢĻ
Ġà¤¸à¤ªà¤¥ à¤¸
Ġà¤¥à¤ķ à¤¥à¤ķ
Ġà¤²à¤¹ à¤¡à¤ķ
16 8
Ġh our
ĠSt reet
ĠâĢĭ âĢį
Ġtv NEPALI
Ġ33 0580
Cont act
ĠNagarik Times
ĠHel p
)! ,
à¤¶à¤°à¤® à¤¹à¤²
ĠSm art
ĠCent re
light s
Aut umn
2 000
S ur
c ept
f ord
l or
m ero
Ï Ģ
à¤¨ à¤¦à¤°
à¤¸ à¤¸à¤®à¤ķ
à¤¦ à¤°à¤¸à¤¹
à¤µ à¤¦à¤°
Ġà¤¹ à¤°à¤¸
Ġà¤¹ à¤łà¤ķ
Ġà¤Ĩ à¤Ĺà¤¤
à¤°à¤ķ à¤¥
Ġà¤¶ à¤°à¤£à¤ķ
Ġà¤ı à¤Ĩà¤Īà¤ķ
à¤ľà¤¨ à¤Ĺ
à¤ªà¤° à¤«
Ġà¤ľà¤¨ à¤ľà¤¨à¤®
à¤ħ à¤Ńà¤¯
Ġà¤¸à¤¹ à¤¸à¤®
à¤°à¤¦ à¤¶à¤°
Ġà¤ĩ à¤¹
Ġà¤ĩ à¤Ĩà¤ĩà¤ı
à¤¾à¤Ĥ ...
Ġà¥ª à¥§à¥©
à¤¶à¤¨ à¤Ńà¤¨
à¤§à¤¨ à¤¤
à¤¿à¤Ĥ ,
à¤¶à¤® à¤£
Ġà¤¬à¤¹ à¤¸à¤¬
à¤¿. /
Ġà¥§à¥¯ à¥§à¥©
Ġà¤Ĩà¤¦ à¤®à¤²
Ġà¥§à¥® à¥«à¥¦
ha b
à¤§à¤¬ à¤ķ
ĠP lease
ĠP reeti
Ġà¤Ĩà¤Ī à¤ıà¤¸à¤ķ
Ġà¥ªà¥¦ à¥©
ĠB har
ore d
à¥ĩ) ...
Ġà¤¸à¤¡ à¤¨
ĠH im
Ġà¥ªà¥« à¥§
am i
ap e
Ġarticle à¤ħà¤®
Ġâ Ħ¢
Ġà¥¯à¥« à¥¬
Ġà¥«à¥¯ à¥¨
à¤ıà¤ļ à¤ıà¤²
Ġà¤¦à¤®à¤¨ à¤¬
Ġà¤¹à¤µà¤² à¤¦
Ġà¤¸à¤°à¤¦ à¤°à¤®
ĠCha ud
ĠIT IL
lam ichhane
ĠMA X
Ġà¤ıà¤¨à¤ıà¤® à¤ıà¤ķ
Ġser vice
En ter
2 13
C R
G IS
S a
f ace
m ark
à¤¤ à¤¨à¤®à¤¨
à¥ģ âĢĺ
à¤¹ à¤®à¤¤
à¤µ à¤Īà¤¬
Ġà¤ķ à¤²à¤²
à¤ĩ à¤ªà¤°à¤¸
à¤« à¤·
à¥¦ à¥«à¥¦
à¤°à¤¤ à¤µà¤¨
à¤ĺ à¤ª
à¤ħ à¤ķà¤¸
à¤¯à¤® à¤¹
à¤Ĩ à¤°à¤¤
à¤µà¤° à¤§
Ġà¤Ĺà¤¤ à¤¦
Ġà¥ª à¥¨à¥¨
à¤°à¤¯ à¤²
Ġà¤Ĩà¤µ à¤°à¤£à¤ķ
Ġà¥Ń à¥Ńà¥¬
à¤®à¤® à¤®
Ġà¤ķà¤² à¤¶à¤ķ
Ġ2 25
à¤¦à¤° à¤¸à¤®
Ġà¥§à¥¯ à¥¦à¥ª
Ġà¤ļà¤²à¤ļ à¤¤
ti more
ĠP a
ĠS elect
en sion
ĠD u
ĠN p
ĠN tv
Ġà¤ľà¤² à¤ªà¤ķ
Ġà¤Ĺà¤² à¤¹à¤¤
à¥ĭâĢĻ âĢĻ
à¥§à¥« à¥§
Ġs un
Ġà¥Ńà¥« à¥«
à¤·à¤ķà¤² à¤Ĺ
Ġà¥ªà¥© à¥Ń
à¤¯à¤£à¤Ĺà¤¢ à¤¸
à¤¾? ?
Ġ10 4
à¥¦à¥« à¥«
Ġe Nepal
ĠCh oice
19 2
ure ndra
à¤ĩà¤²à¤Ł à¤¸à¤¹
ĠSt art
à¤¿à¥° )]
ank o
ĠWorld news
Ġà¤ħà¤¹à¤® à¤¦à¤ķ
Ġà¤ıà¤¨à¤ıà¤¸ à¤¡à¤¬
Ġà¤¸à¤¨à¤ķ à¤ķ
Ġà¤Ĺà¤Ĺ à¤¨à¤¸
sv all
ĠWag le
ĠMas ti
, âĢľ
A m
C an
D o
H L
M arg
z w
Ġà¤¸ à¤£
Ġà¤¸ à¤«à¤¤
Ġà¤ķ à¤ķà¤Ł
Ġà¤Ĺ à¤ıà¤²à¤Ĺà¤¤
à¤ľ à¤ļ
à¤ľ à¤°à¤¤
à¤· à¤®à¤²
à¤¶ à¤¤à¤ª
à¤Ĥ /
à¤¡ à¤¸à¤®à¤ķ
à¤ģ à¥Īà¤Ĥ
Ġà¤Ĩ à¤®à¤ķ
à¤Ī à¤§
à¤Ľ à¤¤à¤¬
à¤ĸ à¤ħà¤¨
Ġà¤¸à¤® à¤¥
Ġà¤¸à¤® à¤¯à¤¨
à¤« à¤®à¤°
Ġà¤¶ à¤°à¤®
à¤ł à¤ľà¤¸
Ġà¤¥ à¤¯
Ġà¥¨ à¥¨à¥¦à¥¦
à¤²à¤ķ à¤Ł
Ġà¤¡ à¤°à¤¤
à¤°à¤¦ à¤¹à¤ķ
à¤ķà¤² à¤ª
à¤Ĩ à¤°à¤§
à¤µà¤¨ à¤¶à¤ķ
à¤¸à¤¨ à¤¤à¤¨
Ġà¥¬ à¥§à¥¦
Ġà¥¬ à¥Ńà¥¬
à¤ķà¤ķ à¤µ
à¤¤à¤¨ à¤Ĺà¤°à¤ķ
Ġà¤ªà¤ķ à¤µ
à¤¸à¤¹ à¤ķà¤°
à¤ıà¤¨ à¤ĵà¤ı
Ġà¤ħà¤ª à¤ł
à¤ľà¤® à¤ľ
Ġà¤Ĩà¤ĩ à¤ıà¤«à¤¸
Ġà¥§à¥® à¥ªà¥Ń
Ġà¥§à¥® à¥«à¥Ń
Ġà¤Ĩà¤Ī à¤Ń
ĠO s
Ġà¤¶à¤¹à¤° à¤¸à¤®
Ġà¤ªà¤² à¤ªà¤²
Ġà¤ħà¤¶ à¤°
ch eck
ĠH oli
ĠH eart
ur st
à¤Ĩà¤® à¤°à¤£
Ġ!! !!!!
Ġà¥©à¥ª à¥¨
Ġà¤Ńà¤ĩ à¤Ĺà¤¯
ura m
14 7
14 9
Ġà¥¯à¥®à¥« à¥¨à¥®
Ġh and
Ġh ow
26 8
ĠUn ion
Ġma ke
ĠSam ragyee
rou gh
wan chal
à¤ĩà¤ªà¤° à¤Ł
form ance
ĠTatt ato
nap ost
Ġdoc ument
-> )
Ðĺ Ð¡
ĠNtv Plus
6 36
< <
c c
d akot
t es
à¤® à¤¨à¤®à¤¨
à¤¤ à¤¦à¤¨
à¤¦ à¤¬à¤ľ
Ġà¤® à¤ĩ
Ġà¤Ĩ à¤ªà¤ķ
à¤Ń à¤ıà¤ľà¤¸
à¤ĸ à¤¨à¤¸à¤®
Ġà¤¶ à¤¤à¤ķà¤ķ
à¥ĥ à¤ģ
à¤Ļ à¤ĵà¤Ńà¤°
à¤¢ à¤¹à¤°
à¤Ĺà¤° à¤¹
Ġà¤ĩ à¤¹à¤²
à¤®à¤¤ à¤ªà¤°
à¤°à¤¯ à¤£
à¤¯à¤² à¤¦
Ġà¤ķà¤² à¤¹à¤ķ
à¤¡à¤² à¤¸à¤®
Ġà¥«à¥¦ à¥¯
à¤·à¤¯ à¤¤à¤°
Ġà¤¹à¤¸ à¤¨à¤ķ
Ġà¤¦à¤¶ à¤ķà¤²
à¤ªà¤¦ à¤ª
à¤¬à¤¸ à¤¤
à¤ķà¤Ł à¤¸à¤®
Ġà¤Ĩà¤Ī à¤Łà¤®
ĠT B
Ġà¤µà¤¨ à¤¸à¤®
à¥©à¥¦ à¥Ń
ĠF air
ĠK P
à¤¿: -
un icode
Ġà¥ªà¥¨ à¥§
Ġb onus
ac tive
aj an
Ġà¥ªà¥¬ à¥©
à¤īà¤ľ à¤°à¤¹à¤°
Ġà¥«à¥Ń à¥®
Ġà¥¯à¥¯ à¥Ń
sh op
Ġà¥Ńà¥¯ à¥¬
AN A
AN D
à¤ĸà¤¨à¤¨ à¤ªà¤Ľ
Ġà¤²à¤µ à¤Łà¤²
POST ED
bh ol
Ġsub ash
Ros ham
ïĢ Ģ
ĠBik alpa
Ġo ak
ĠBar al
Go al
ĠNar ayan
aksh ink
Ġà¤ıà¤¸à¤ıà¤² à¤Ĩà¤°
( âĢĺ
D h
H arke
Å Ľ
à¤° à¤ħà¤Ĺ
à¤® à¤«à¤²
à¥ģ à¥ģ,
Ġà¤¨ à¤°à¤µ
à¤ľ à¤®à¤¨
à¤ļ à¤Ĺà¤µ
à¤ıà¤ķ à¤¸à¤¯
Ġà¤Ĩ à¤ļà¤°
Ġà¤Ĩ Âºà¤¨
à¤¹à¤° à¤¨
Ġà¤ı à¤ıà¤¨
Ġà¤ªà¤° à¤¦à¤¶
à¤¸à¤® à¤¯à¤¦
âĢĻ )
Ġà¤Ł à¤ªà¤Ł
Ġà¤ķà¤° à¤Ļ
à¤Ĩ à¤°à¤µ
à¤Ĩ à¤¤à¤¦
à¥ģà¤ģ à¥¤'
à¤°à¤¬ à¤ļà¤¨
Ġà¥¬ à¥§à¥«
à¤Ĺà¤² à¤«
à¤Ĺà¤² à¤¸à¤®
à¤ħà¤¨ à¤¶à¤¨à¤ķ
à¥¨à¥¦ à¥ª
à¤£à¤ķ à¤Ł
à¤ĩà¤ķ à¤Ńà¤¨
à¤°à¤ľ à¤µ
Ġà¥§à¥Ń à¥¦à¥Ń
à¤ļà¤² à¤¨à¤²
Ġà¤ĸà¤¬à¤° à¤ħà¤¨
à¤¯à¤Łà¤ķ à¤¸à¤®
Ġà¤Ńà¤µ à¤¨à¤²à¤Ĺ
ĠS em
ĠM us
à¤Ĺà¤¢ à¤µ
à¥¤âĢĻ ,
ag er
ent ation
vi rus
ĠF R
ĠF il
id er
Ġà¤¦à¤¶à¤ķ à¤¹à¤°
Ġà¤¤à¤²à¤¬ à¤¸à¤¹
is a
Next à¤®
à¤¾à¥Īà¤Ĥ âĢĻ
à¥¦à¥¬ à¥¦
Ġà¤Ńà¤ĩ à¤ªà¤°
20 4
Ġ6 1
Ġ12 2
Ġà¤ĸà¤ªà¤¤ à¤²
ĠPost Info
Ġe ff
à¥¬à¥¦ à¥§
Ġk a
14 8
Ġcom edy
Ġn umber
ev er
iz er
Ġ_________ ____________
rad u
ĠMa x
ivers al
anch al
ĠTra il
Ġdo es
ĠÃ Ľ
ĠKas ki
Ġmag azine
ĠKalaiya Live
Ġ815 40
ĠPall awa
ĠGain dakot
ĠeNepal ikhabar
bhol athapa
C rime
H Z
v ers
v ast
Ù Ĭ
â ŀ
à¤ Ĵ
à¥ ĳ
Ġà¤ İ
à¤¾ à¥Ĥ
à¤¾ Â«
à¤² No
à¤¤ à¤Ŀ
Ġà¤¸ à¤¸à¤¦
à¤¹ à¤ľà¤¨à¤²
à¤µ à¤°à¤¸à¤¹
Ġà¤Ĺ à¤®à¤¨
Ġà¤¦ à¤¹à¤ķ
à¤Ī à¤ıà¤¸
à¤« à¤Ĺ
à¥ĥ ,
à¤°à¤£ à¤¯à¤ķ
Ġà¤®à¤¨ à¤¸à¤°
à¤Łà¤ķ à¤Ł
Ġà¤ĩ à¤¡à¤¨
Ġà¤¸à¤¬ à¤²à¤¤
à¤°à¤µ à¤¬
à¤·à¤ķ à¤¤à¤¤
à¤¦à¤¨ à¤Ńà¤¨
à¤Ĺà¤² à¤¤à¤°
à¤§à¤¨ à¤ľà¤¸
Ġà¥Ń à¥§à¥«
ti mes
ĠP rop
ĠB onus
Ã· âĢĵ
Ġà¤ħà¤¡ à¤ķà¤²
à¤°à¤¥à¤® à¤ªà¤Łà¤ķ
ĠI C
Ġs ee
ĠW hite
Ġà¥ªà¥ª à¥©
ĠG old
Ġarticle à¤¯à¤¸
Ġà¥ªà¥© à¥§
Ġà¥«à¥¬ à¥¬
à¤µà¤¯à¤® à¤ķ
Ġà¥¬à¥© à¥©
Ġà¥«à¥© à¥«
Ġw indows
12 9
Ġ* ****
à¤ĩà¤²à¤® à¤ķ
Ġ8 00
ĠMess ages
Ġà¤ķà¤¦ à¤°à¤¸
Ġ15 5
Ġà¤ħà¤µà¤¤à¤°à¤£ à¤®
Ġà¤µà¤¢ à¤¨
35 2
sha d
34 0
ĠDes igned
200 8
Ġà¤Ĺà¤£à¤ķ à¤¹à¤°
à¤ħà¤°à¤¬ à¤®
Ġ_____ __
bs g
person à¤ªà¤¤
stha sh
hot mail
iam ond
japan Samachar
Ġmung poo
unicode nepali
D b
F r
G odawari
S m
S an
V M
V IS
n ic
q z
Ġ el
à¥ģ âĢĮ
à¥ģ âĢį
à¤¸ à¤Łà¤¹à¤°
Ġà¤¸ à¤°à¤£
à¤¹ à¤µà¤¸
Ġà¤Ĺ à¤¦à¤°
Ġà¤¨ à¤²à¤®
Ġà¤¨ à¤ªà¤ķ
Ġà¤¨ à¤ľà¤²
Ġà¤° à¤ħà¤ķ
Ġà¤Ń à¤²à¤µ
à¤¬ à¤ķà¤®
Ġà¤¹ à¤°à¤¦
Ġà¤¤ à¤¹à¤°
Ġà¤¤ à¤°à¤£
Ġà¤¤ à¤Łà¤ķ
Ġà¤² à¤¯à¤ķ
à¤Ī à¤¹à¤ª
à¤ĸ à¤¤à¤®
à¤ĩ à¤ªà¤°à¤¬
à¤ĩ à¤Ĩà¤ĩà¤ı
à¤« à¤ħà¤²
Ġà¤ı à¤¸à¤®
Ġà¤ı à¤¨à¤µ
à¤¯à¤ķ à¤¸à¤¹
à¤īà¤¨ à¤¯
à¥ĥ à¥ĩ
à¤¢ à¤µà¤°
à¤°à¤¸ à¤ª
Ġà¤ħà¤µà¤¸ à¤°à¤¸
Ġà¤ªà¤ķ à¤¨
Ġà¤Ńà¤¯ à¤¬
Ġà¥§à¥¯ à¥¦à¥®
à¤¨à¤¬ à¤ķ
Ġà¥¦ à¥ªà¥§
Ġà¥§à¥® à¥¯à¥«
Ġà¤¦à¤¶ à¤¦
ĠP rakash
ĠS il
ĠA V
ĠA AW
Ġà¤Ĩà¤ľà¤ķ à¤²à¤ķ
à¤Ķ à¤ļ
à¤Ķ à¤ł
à¤§à¤µ à¤ļà¤¨
Ġà¤¶à¤¹à¤° à¤¬à¤ľ
Ġà¤ľà¤² à¤īà¤¤
ĠL ag
Ġl ayout
ap il
Ġà¥¬à¥« à¥«
Ġà¥¬à¥« à¥®
Ġc um
à¤ģà¥¤ "
Ġd ar
Ġ7 47
Ġà¥¬à¥¯ à¥¦
ĠHimal khabar
à¤¸à¤¡ à¤ķà¤²
Ġv er
Ġ200 4
à¤ħà¤µà¤¸ à¤°à¤ķ
ĠInd ian
ĠRec ord
da ha
ĠChand ra
ĠLet ter
ĠPrad esh
ĠCommit tee
bsg news
. ]
. âĢĿ
2 10
I EE
K o
P U
S H
b ank
d pu
g oo
à¤® à¤¸à¤Ń
à¤® à¤ªà¤£
à¤¹ à¤ħà¤µà¤°
Ġà¤° à¤£à¤¸
Ġà¤° à¤ľà¤¶
Ġà¤ħ à¤¡à¤°
Ġà¤µ à¤®à¤ķ
à¤¶ à¤¸à¤¸
à¤¶ à¤¯à¤¬
Ġà¤¤ à¤¨à¤µ
Ġà¤¤ à¤µà¤¸à¤®
à¥Ĥ ),
Ġà¤ī à¤Ńà¤¯
Ġà¤ļ à¤¦
à¤« à¤¤à¤ķ
Ġà¤ı à¤¨à¤®
Ġà¤ı à¤²à¤ķ
à¤¯à¤® à¤ľà¤¸
Ġà¤¸à¤ķ à¤¸à¤ķ
à¤°à¤¹ à¤Ĺ
à¤Ŀ à¤Łà¤®
Ġà¤ķà¤® à¤¯
Ġà¤ķà¤° à¤¯
à¤Łà¤ķ à¤¸
à¥ĩ, âĢĵ
à¥Įà¤ģ âĢĶ
Ġà¥Ń à¥©à¥¨
à¤¯à¤² à¤µ
à¤¤à¤ª à¤¸
Ġà¥¯ à¥§à¥§
Ġà¥¯ à¥¨à¥¨
Ġà¥® à¥Ńà¥¦
à¤ķà¤ª à¤ª
al am
Ġà¤ħà¤µ à¤¤à¤°
à¤¶à¤¤ à¤¸
à¤¤à¤°à¤£ à¤¯
Ġà¤¸à¤¡à¤ķ à¤ĸà¤¨
ĠC ounter
ĠP ocket
à¤¯à¤¦ à¤²à¤¬
ma ti
Ġm sg
ĠI phone
ĠK now
à¥§à¥® à¥¬
à¤¸à¤¤ à¤¹
à¥Ĥà¤ģ âĢĻ
à¥ģâĢĻ âĢĵ
Ġf ram
Next à¤Ń
Ġà¥¬à¥« à¥§
Ġb as
Ġc reate
Ġà¤Ĺà¤ľà¤² à¤¸
ust ri
Ġà¤ªà¤Ł à¤ķà¤²
Ġà¥¬à¥® à¥®
à¤¹à¤£ à¤ªà¤Ľ
Ġ6 6
12 8
Ġ14 5
75 6
Ġà¥¯à¥®à¥« à¥¨à¥¦à¥¬
Ġh elp
à¤¬à¤§ à¤¶
à¤¤à¤¨à¤Ĺà¤° à¤¸
HO K
Ġà¤ıà¤ħ à¤°à¤¬à¤¸
Ġan alysis
ĠSer ial
bh uvan
rd u
à¤«à¤¸à¤² à¤¬
DR C
napur napost
à¤¹à¤ļ à¤°à¤£à¤ķ
ï¼ Į
Ġtr ans
Ġà¤ĳ à¤«
à¤Ķà¤· à¤§à¤®
Ġtur ntable
A ir
C ol
J ar
M on
r opati
Â §
à¤¾ âĢįâĢį.
à¥ĩ !!
à¤² à¤Łà¤®
à¤¤ à¤¸à¤®à¤ķ
Ġà¤¸ à¥ľà¤ķ
à¤ı à¤¡à¤®
à¤¬ à¤¦à¤°
à¤§ à¤°à¤¸
Ġà¤¦ à¤¸à¤µà¤Ł
à¤Ī à¤Ĩà¤®
à¤Ń à¤ĩà¤°à¤¹
à¤Ľ à¤Ńà¤¨
à¤ĸ à¤°à¤¹à¤°
à¤°à¤® à¤¤à¤°
à¤ľà¤¨ à¤Ĺà¤£à¤¨
à¤¸à¤® à¤¶
Ġà¤¬à¤¨ à¤µ
à¥« à¥¦à¥¦à¥¦
à¤Ĩ à¤Ĺà¤®
Ġà¤ħà¤¸ à¤¨à¤®
Ġà¤¸à¤¬ à¤®
à¥Įà¤ģ âĢ¦
Ġà¥¬ à¥¨à¥¬
à¤¬à¤° à¤¨
à¤ĵ à¤¢
Ġà¤®à¤¤ à¤Ńà¤¨
Ġà¥® à¥Ńà¥§
Ġà¤ıà¤® à¤ıà¤¸à¤®
Ġà¤ªà¤¦ à¤¤
à¤®à¤¹ à¤ľ
à¤ªà¤² à¤ļ
à¤ĩà¤ķ à¤Łà¤¹à¤°
Ġà¥¦ à¥Ńà¥Ń
ĠC ode
ĠNepal britain
à¤¯à¤£ à¤¦à¤¤
à¤¾... âĢĻ,
à¤ķà¤²à¤¨ à¤¸à¤®
ĠR ak
ĠD on
ĠO per
à¤§à¤µ à¤ľ
el led
à¥¨à¥® à¥¦
Ġà¤ħà¤¨à¤¶à¤¨ à¤¹à¤°
Ġà¥«à¥© à¥Ń
Ġà¥Ńà¥ª à¥¬
ut ure
à¤¸à¤µà¤® à¤¯
Ġ7 1
Ġ12 5
ĠNE W
à¥«à¥® à¥©
18 9
14 6
No tice
à¥Īà¥Ī à¥Ī
à¥ī .
ĠAn th
Ġà¤Ĺà¤¡ à¤Ĺà¤¡
à° Ĥ
Ġ\\ '
ĠInd ren
Ġà¥¯à¥®à¥«à¥§à¥§ à¥«à¥§à¥¬
Ġà¤Ĩà¤¡ à¤Ńà¤°
Ġà¤Ńà¤Ĺà¤¤ à¤ª
Ġup reti
mun ication
Ġà¤Ĩà¤Īà¤ıà¤® à¤Īà¤²
ĠKo irala
à¤ģ? âĢĻ,
ĠHam ropati
Ġà¤ĨÃ ıà¤¨
olar ship
ĠMang shir
dpu f
I PS
R ubric
S im
b eshi
j ay
s app
s ex
w p
à¤¨ à¤°à¤¦
à¤¨ à¤ıà¤¨à¤µ
à¤ķ à¤ħà¤µà¤¸à¤°
à¤¯ à¤¯à¤®à¤²
à¤µ à¤¬à¤®
Ġà¤° à¤ľà¤ķ
à¤¬ à¤²à¤Ĺ
Ġà¤µ à¤¨à¤ķà¤°
à¤¶ à¤®à¤®
à¤ļ à¤Łà¤ªà¤Ł
Ġà¤¤ à¤¹à¤¤
Ġà¤² à¤Ńà¤ķ
à¤£ à¤¦à¤²à¤ķ
à¤Ľ à¤®à¤Ľà¤®
à¤¹à¤° à¤¦
à¤ĩ à¤¦à¤²
Ġà¤ļ à¤Łà¤¨
à¤ħ à¤¶à¤ķ
à¤ħ à¤¸à¤°
à¤°à¤¹ à¤ħà¤¨
Ġ( )
à¤¤à¤° à¤ªà¤¨
Ġà¤ķà¤® à¤ª
à¥¬ à¥¨à¥«
Ġà¥« à¥¨à¥¯
Ġà¥ª à¥Ńà¥¨
Ġà¥® à¥¨à¥¯
Ġà¥® à¥¨à¥¨
Ġà¤ľà¤¸ à¤µ
Ġà¤ªà¤¦ à¤®à¤§
à¤Ńà¤° à¤Ł
ar ayan
à¤®à¤¹ à¤²à¤®
ha v
Ġà¤Ńà¤Ł à¤Ńà¤Ł
à¤¾) &
ĠM or
à¥¦à¥¦ à¥¦à¥¦à¥¦
à¤ªà¤£ à¤¬
Ġà¥ªà¥¦ à¥ª
à¤ĩà¤¡ à¤°à¤¹à¤°
ĠT itle
à¤µà¤¶ à¤°à¤£
à¥§à¥¯ à¥¯à¥¨
ĠF ar
ĠF un
ch ange
Ġà¥Ńà¥¦ à¥§
à¤ıà¤« à¤ľ
à¤¹à¤¦ à¤¤
Ġà¤ľà¤¡ à¤¤
à¤²à¤Ń à¤¸
à¤¿? '
ĠW IN
à¤ĩà¤¬ à¤°à¤¯
à¤¿à¥¤ "
Ġà¥«à¥¯ à¥§
Ġà¤¦à¤®à¤ķ à¤²à¤®
à¤Łà¤²à¤ķ à¤ľ
Ġe xt
um p
Ġ& ...
sp ort
NE T
07 6
25 0
ĠSt ore
ĠClick mandu
Ġst ud
Ġsub scribe
red it
Ġà¤µà¤ļ à¤¤à¤ķ
ĠEkhabar online
la bari
âĢĶâĢĶâĢĶâĢĶ âĢĶâĢĶâĢĶâĢĶ
"> "
ĠBhoj puri
ĠAAW AZ
Ġà¥¯à¥®à¥«à¥§à¥§à¥«à¥§à¥¬ à¥Ńà¥¨
A sh
B ook
F ortune
P hotos
g ress
l er
o le
Ġ ass
Ġ ob
à¤° à¤¥à¤°
à¤¨ à¤¶à¤®
à¤ķ à¤·à¤£à¤ķ
à¤¤ à¤ľà¤¨à¤®
à¤¯ à¤ªà¤²
à¥Ģ âĢĿ,
à¤Ĺ à¤¸à¤ķ
à¤Ĺ à¤¯à¤¤à¤ķ
à¥Ī ......
Ġà¤° à¤®à¤¦
à¤¬ à¤ķà¤²
à¤· à¤¦à¤µ
Ġà¤µ à¤¸à¤®
Ġà¤Ľ à¤īà¤¨
Ġà¤Ĩ à¤¡à¤µ
à¤ĸ à¤ĺ
à¤ĸ à¤¡à¤®
à¤ĸ à¤¨à¤¦
à¤ĩ à¤ªà¤Łà¤ķ
à¤¸à¤ķ à¤¨
Ġà¤®à¤¹ à¤²à¤¹à¤°
à¤ŀ à¤¸à¤Ń
Ġà¤ł à¤Ĺà¤ķ
à¤Łà¤¨ à¤¸à¤®
à¤µà¤ķ à¤ľ
à¤Ĺà¤¤ à¤ª
à¤²à¤¨ à¤Ńà¤¨
à¥ĭ, âĢĵ
à¤¬à¤° à¤ľà¤¸
Ġà¥Ń à¥Ńà¥ª
Ġà¥Ń à¥§à¥ª
à¤īà¤Ł à¤°à¤ķ
Ġà¤¬à¤° à¤Ĺ
Ġà¥¯ à¥§à¥®
Ġà¥® à¥§à¥¬
Ġà¥® à¥©à¥¬
Ġà¤¹à¤° à¤«à¤²
Ġà¤ıà¤® à¤ıà¤®à¤ıà¤¸
à¤²à¤Ĺ à¤ª
à¤Ńà¤° à¤ªà¤°
ar aj
à¤ĩà¤ķ à¤°à¤ķ
à¤Īà¤² à¤Łà¤²
à¤²à¤µ à¤¶
Ġà¥§à¥® à¥Ńà¥¬
Ġà¤Ĺà¤£ à¤¬
le c
le ft
à¤ªà¤£ à¤¸
ĠR ang
à¤ıà¤² à¤Īà¤ķ
ĠD V
ĠD ays
ĠN ir
à¥ģà¤ĥ âĢĵ
ĠE xt
Ġp rop
à¤ħà¤ª à¤¹à¤°
à¥§à¥« à¥©
Ġà¥ªà¥« à¥¯
Ġs w
à¤°à¤« à¤°
ĠL iving
à¥¨à¥« à¥¯
à¥ĩ... '
à¥ĩ... âĢĻ
am ily
à¤®à¤°à¤£ à¤°à¤¹
ĠG yan
Ġà¤Ĺà¤ľà¤² à¤¸à¤Ļ
à¥¨à¥® à¥©
Ġ4 05
Ġà¤ªà¤µ à¤¨à¤²
Ġà¥«à¥® à¥¨
Ġ10 3
à¤ĸà¤¬ à¤°à¤¦
Ġà¥Ńà¥ª à¥Ń
à¤Ĩà¤ĩ à¤ĵà¤ıà¤®à¤ķ
ot or
Ġà¥Ńà¥¬ à¥¨
Ġe very
à¤¸à¤« à¤°à¤¬
15 4
Ġà¤ħà¤²à¤® à¤²à¤²
14 4
14 5
Ġà¤¦à¤°à¤® à¤ĸ
Ġà¤¸à¤¦à¤¨ à¤¸à¤®à¤ķ
Ġà¤īà¤¦à¤¯ à¤¶à¤®
à¤¿! âĢĿ
chn ical
Ġst art
ĠAd dress
à¥ĥ. )
ell ing
ĠSa ugat
à¤²à¤ł à¤Ł
oll ution
ĠIN V
ĠDoc uments
ĠSur gery
rib ution
ĠEmb edding
Mah endra
ĠBikalpa News
3 26
O W
g m
u f
v itation
z al
Ä Į
Ġ oc
à¤¨ à¤¤à¤¨
à¤¨ à¤Ĩà¤¨à¤¨
à¤¿ Â»
à¥Ģ à¥¤âĢĿ
à¤¸ à¤Łà¤ª
à¤¸ à¤ľà¤¨à¤²
à¤Ł à¤£
Ġà¤Ľ à¤¸à¤®
à¤ļ à¤Ĩà¤īà¤Ł
Ġà¤Ĩ à¤¤à¤ķ
à¤ĩ à¤ľà¤¨à¤ķ
à¤¢ à¤µ
à¤²à¤ķ à¤¹
à¥¨ à¥Ńà¥«
à¤²à¤® à¤°
Ġà¤ķà¤® à¤Ĺà¤°
à¤Łà¤¨ à¤¹à¤°
Ġà¤ĵ à¤łà¤¹à¤°
Ġà¥¬ à¥§à¥¯
Ġà¤¸à¤° à¤Ĺà¤®à¤ķ
à¤ľà¤ķ à¤ª
à¤¸à¤¦ à¤ľ
Ġà¤ħà¤¬ à¤¸à¤°à¤ķ
Ġà¥® à¥Ńà¥«
à¤ĩà¤°à¤¹ à¤ķ
à¤ĩà¤² à¤ľà¤¸
à¥¨à¥¦ à¥§
Ġà¥§à¥¯ à¥¦à¥§
à¤ªà¤² à¤°
à¤°à¤¨ à¤¹à¤°
à¤ıà¤¸ à¤°à¤¹
Ġà¤§à¤¨ à¤¬
à¤¹à¤² à¤¯à¤®
Ġà¤ıà¤¨ à¤ıà¤®à¤ı
à¤Ĺà¤ł à¤¨à¤ª
ĠC ong
ad y
Ġà¤Ĩà¤Ī à¤ıà¤¸à¤²
à¤ĩà¤® à¤£
ĠD akshink
ag ram
ĠB ay
Ġà¤ľà¤² à¤ªà¤°
ĠF ollow
ment al
[...]
