{"<s>":0,"<pad>":1,"</s>":2,"<unk>":3,"<mask>":4,"!":5,"\"":6,"#":7,"$":8,"%":9,"&":10,"'":11,"(":12,")":13,"*":14,"+":15,",":16,"-":17,".":18,"/":19,"0":20,"1":21,"2":22,"3":23,"4":24,"5":25,"6":26,"7":27,"8":28,"9":29,":":30,";":31,"<":32,"=":33,">":34,"?":35,"@":36,"A":37,"B":38,"C":39,"D":40,"E":41,"F":42,"G":43,"H":44,"I":45,"J":46,"K":47,"L":48,"M":49,"N":50,"O":51,"P":52,"Q":53,"R":54,"S":55,"T":56,"U":57,"V":58,"W":59,"X":60,"Y":61,"Z":62,"[":63,"\\":64,"]":65,"^":66,"_":67,"`":68,"a":69,"b":70,"c":71,"d":72,"e":73,"f":74,"g":75,"h":76,"i":77,"j":78,"k":79,"l":80,"m":81,"n":82,"o":83,"p":84,"q":85,"r":86,"s":87,"t":88,"u":89,"v":90,"w":91,"x":92,"y":93,"z":94,"{":95,"|":96,"}":97,"~":98,"¡":99,"¢":100,"£":101,"¤":102,"¥":103,"¦":104,"§":105,"¨":106,"©":107,"ª":108,"«":109,"¬":110,"®":111,"¯":112,"°":113,"±":114,"²":115,"³":116,"´":117,"µ":118,"¶":119,"·":120,"¸":121,"¹":122,"º":123,"»":124,"¼":125,"½":126,"¾":127,"¿":128,"À":129,"Á":130,"Â":131,"Ã":132,"Ä":133,"Å":134,"Æ":135,"Ç":136,"È":137,"É":138,"Ê":139,"Ë":140,"Ì":141,"Í":142,"Î":143,"Ï":144,"Ð":145,"Ñ":146,"Ò":147,"Ó":148,"Ô":149,"Õ":150,"Ö":151,"×":152,"Ø":153,"Ù":154,"Ú":155,"Û":156,"Ü":157,"Ý":158,"Þ":159,"ß":160,"à":161,"á":162,"â":163,"ã":164,"ä":165,"å":166,"æ":167,"ç":168,"è":169,"é":170,"ê":171,"ë":172,"ì":173,"í":174,"î":175,"ï":176,"ð":177,"ñ":178,"ò":179,"ó":180,"ô":181,"õ":182,"ö":183,"÷":184,"ø":185,"ù":186,"ú":187,"û":188,"ü":189,"ý":190,"þ":191,"ÿ":192,"Ā":193,"ā":194,"Ă":195,"ă":196,"Ą":197,"ą":198,"Ć":199,"ć":200,"Ĉ":201,"ĉ":202,"Ċ":203,"ċ":204,"Č":205,"č":206,"Ď":207,"ď":208,"Đ":209,"đ":210,"Ē":211,"ē":212,"Ĕ":213,"ĕ":214,"Ė":215,"ė":216,"Ę":217,"ę":218,"Ě":219,"ě":220,"Ĝ":221,"ĝ":222,"Ğ":223,"ğ":224,"Ġ":225,"ġ":226,"Ģ":227,"ģ":228,"Ĥ":229,"ĥ":230,"Ħ":231,"ħ":232,"Ĩ":233,"ĩ":234,"Ī":235,"ī":236,"Ĭ":237,"ĭ":238,"Į":239,"į":240,"İ":241,"ı":242,"Ĳ":243,"ĳ":244,"Ĵ":245,"ĵ":246,"Ķ":247,"ķ":248,"ĸ":249,"Ĺ":250,"ĺ":251,"Ļ":252,"ļ":253,"Ľ":254,"ľ":255,"Ŀ":256,"ŀ":257,"Ł":258,"ł":259,"Ń":260,"à¤":261,"à¥":262,"Ġà¤":263,"à¤¾":264,"à¥į":265,"à¤°":266,"à¤¨":267,"à¤ķ":268,"à¤¿":269,"à¥ĩ":270,"à¥ĭ":271,"à¤²":272,"à¤®":273,"à¤¤":274,"à¤¯":275,"à¥ģ":276,"à¥Ģ":277,"à¤¸":278,"Ġà¤¸":279,"Ġà¤ª":280,"à¤ª":281,"à¤¹":282,"Ġà¥":283,"à¤¦":284,"à¤µ":285,"Ġà¤ķ":286,"à¤Ĺ":287,"Ġà¤Ĺ":288,"à¤Ł":289,"à¥Ī":290,"Ġà¤¨":291,"Ġà¤°":292,"Ġà¤¬":293,"Ġà¤®":294,"à¤ı":295,"Ġà¥¤":296,"à¤ľ":297,"Ġà¤Ń":298,"à¤¬":299,"Ġà¤Ĺà¤°":300,"Ġà¤ħ":301,"Ġà¤¹":302,"à¤·":303,"Ġà¤µ":304,"à¤§":305,"Ġà¤Ľ":306,"à¤¶":307,"à¤Ĥ":308,"à¤¡":309,"Ġà¤¦":310,"à¤ļ":311,"à¤ģ":312,"Ġà¤¤":313,"à¤ıà¤ķ":314,"à¤¥":315,"Ġà¤Ĩ":316,"Ġà¤²":317,"Ġà¤ľ":318,"à¤Ī":319,"à¤£":320,"à¤Ń":321,"à¤Ľ":322,"âĢ":323,"à¤ĸ":324,"à¤ī":325,"à¥Ĥ":326,"Ġà¤ī":327,"Ġà¤¸à¤®":328,"Ġà¤¯":329,"à¤¹à¤°":330,"à¤°à¤ķ":331,"à¤ĩ":332,"à¤°à¤®":333,"à¥¤":334,"à¥Į":335,"Ġà¤ļ":336,"à¤«":337,"Ġà¤Ńà¤¨":338,"Ġà¤¶":339,"à¤ł":340,"Ġà¤ĸ":341,"Ġà¤ı":342,"à¤¯à¤ķ":343,"à¤īà¤¨":344,"à¥¦":345,"à¤¾à¤ģ":346,"Ġà¤¥":347,"à¤°à¤¤":348,"à¤¨à¤ķ":349,"à¥ĥ":350,"Ġà¤ªà¤¨":351,"Ġà¤Ńà¤ıà¤ķ":352,"Ġà¤ªà¤°":353,"Ġà¥¨":354,"Ġà¤ħà¤¨":355,"Ġà¥§":356,"Ġà¤«":357,"à¤°à¤£":358,"à¤Ļ":359,"ĠâĢ":360,"à¤ľà¤¨":361,"..":362,"à¤ĺ":363,"à¤¢":364,"à¤¸à¤®":365,"à¤¸à¤ķ":366,"à¤¨à¤®":367,"Ġà¤Ľà¤¨":368,"à¤ªà¤°":369,"Ġà¤ıà¤ķ":370,"âĢĻ":371,"Ġà¤ĺ":372,"à¤²à¤ķ":373,"Ġà¤ľà¤¨":374,"Ġà¤®à¤¹":375,"Ġà¤¬à¤¨":376,"à¤µà¤¸":377,"à¥§":378,"à¤ŀ":379,"Ġà¤Ł":380,"Ġà¤°à¤¹":381,"à¤¨à¤²":382,"à¥Ń":383,"à¤ħ":384,"à¤ªà¤¨":385,"à¤¯à¤®":386,"Ġà¤§":387,"à¤Ĺà¤°":388,"à¥«":389,"Ġà¤¸à¤ķ":390,"Ġà¤¯à¤¸":391,"Ġà¤¸à¤¹":392,"à¥¨":393,"ĠâĢĺ":394,"à¥Įà¤Ĥ":395,"Ġà¤¤à¤¥":396,"à¤°à¤²":397,"Ġà¤ħà¤§":398,"à¤°à¤¹":399,"Ġà¤µà¤°":400,"à¤¯à¤¸":401,"Ġà¤¡":402,"à¤°à¤¦":403,"à¤łà¤®":404,"Ġ(":405,"à¤²à¤®":406,"à¤¤à¤°":407,"à¤ªà¤¤":408,"Ġà¤Ĩà¤«":409,"Ġà¤®à¤¨":410,"à¤Ŀ":411,"Ġà¥¨à¥¦":412,"à¤°à¤¸":413,"à¤ªà¤Ľ":414,"à¥ª":415,"Ġà¤¬à¤¢":416,"Ġà¤īà¤ª":417,"âĢĵ":418,"Ġà¤¸à¤°à¤ķ":419,"à¤¾,":420,"Ġà¤ķà¤®":421,"Ġà¤¬à¤¤":422,"Ġà¤ħà¤°":423,"à¤ķà¤²":424,"Ġà¤ķà¤°":425,"à¥©":426,"Ġà¤¤à¤°":427,"à¤ķà¤®":428,"à¤¯à¤¤":429,"à¤ĩà¤¨":430,"à¤ļà¤¨":431,"à¤°à¤¹à¤°":432,"à¤Ĩ":433,"à¤¬à¤¨":434,"...":435,"à¤ıà¤°":436,"Ġà¤ł":437,"Ġà¥©":438,"à¤Ľà¤¨":439,"à¤Łà¤ķ":440,"à¥¬":441,"Ġà¤Ĩà¤¯":442,"Ġà¤²à¤Ĺ":443,"à¤ªà¤®":444,"à¥ģà¤ģ":445,"Ġ?":446,"Ġà¤ĩ":447,"à¤Łà¤¨":448,"à¥®":449,"Ġà¤ħà¤¸":450,"à¤µà¤°":451,"Ġà¤ªà¤¹":452,"à¤µà¤ķ":453,"à¤¯à¤¨":454,"Ġà¤¸à¤¬":455,"à¤¤à¤ķ":456,"à¤µà¤¨":457,"à¥¯":458,"à¤²à¤¯":459,"à¤²à¤²":460,"à¤¾à¤Ĥ":461,"Ġà¤Ĺà¤¤":462,"à¤®à¤ķ":463,"à¤°à¤§":464,"Ġà¥«":465,"à¤·à¤£":466,"à¤¯à¤µà¤¸":467,"à¤¸à¤²":468,"à¤°à¤¬":469,"Ġà¤Ńà¤ı":470,"à¤²à¤¬":471,"Ġ:":472,"à¤¸à¤¨":473,"à¤Ĺà¤¤":474,"à¤°à¤µ":475,"à¥ĩ,":476,"Ġà¤īà¤¨à¤²":477,"Ġà¤¬à¤¸":478,"à¥įà¥¤":479,"Ġà¤īà¤¤":480,"à¤²à¤¨":481,"à¥Īà¤Ĥ":482,"à¥Ģ,":483,"Ġà¤īà¤¨":484,"à¤®à¤¨":485,"à¤Łà¤°":486,"à¤¶à¤ķ":487,"Ġà¥ª":488,"à¥ĭà¥¤":489,"Ġà¤¨à¤Ĺà¤°":490,"à¤·à¤ķ":491,"Ġà¤ħà¤Ń":492,"Ġà¤¬à¤ľ":493,"Ġà¤¹à¤ľ":494,"à¥ĭ,":495,"à¤¨à¤®à¤¨":496,"à¤¯à¤°":497,"à¤®à¤¤":498,"à¤ķà¤°":499,"Ġà¤Ĩà¤°":500,"à¥Įà¤ģ":501,"Ġà¤ħà¤µà¤¸":502,"à¤¡à¤ķ":503,"Ġà¤ĵ":504,"Ġà¤Ĩà¤ıà¤ķ":505,"à¤°à¤¯":506,"à¤¤à¤®":507,"Ġà¤Ĩà¤ľ":508,"Ġà¥¬":509,"à¤ķà¤ķ":510,"à¤¬à¤°":511,"Ġ_":512,"à¤Ńà¤¨":513,"Ġà¤¨à¤¯":514,"Ġà¥¨à¥¦à¥Ń":515,"à¤¤à¤¨":516,"Ġà¤īà¤¦":517,"Ġà¤¸à¤ŀ":518,"à¤«à¤²":519,"Ġà¤ªà¤ķ":520,"à¤¦à¤¨":521,"Ġà¤Ŀ":522,"à¤Ĺà¤²":523,"à¤¶à¤¨":524,"Ġà¤ķà¤¸":525,"Ġà¤¸à¤°":526,"à¤ĵ":527,"Ġà¤ļà¤²":528,"Ġà¤Ĩà¤µ":529,"Ġà¤ªà¤¤":530,"Ġà¤ħà¤¹":531,"Ġà¤¸à¤¨":532,"à¤ªà¤ķ":533,"à¤§à¤¨":534,"Ġà¥Ń":535,"Ġà¤¸à¤¦":536,"à¤Ńà¤¯":537,"à¤ĥ":538,"âĢ¯":539,"Ġà¤¤à¤ª":540,"à¤¯à¤²":541,"à¤®à¤²":542,"Ġà¤¤à¤¯":543,"à¤Ńà¤ıà¤ķ":544,"à¤¨à¤¨":545,"à¤īà¤Ł":546,"à¤Ĺà¤ķ":547,"Ġà¤¬à¤°":548,"à¤¨à¤¸":549,"à¤ĸà¤°":550,"à¤¿à¤Ĥ":551,"Ġà¤¯à¤¹":552,"à¤µà¤²":553,"Ġà¤¸à¤¯":554,"à¤°à¤®à¤®":555,"à¤ľà¤ķ":556,"Ġ-":557,"à¤°à¤¶":558,"à¤¤à¤²":559,"Ġà¥§à¥¦":560,"à¤¸à¤¦":561,"Ġà¤Ńà¤¯":562,"à¤ĩà¤ıà¤ķ":563,"Ġ!":564,"âĢĺ":565,"à¤ħà¤¨":566,"Ġà¤¦à¤°":567,"Ġà¤ªà¤Ľ":568,"à¤¤à¤ª":569,"Ġà¥¯":570,"Ġà¤ĸà¤°":571,"Ġà¤¸à¤®à¤¯":572,"à¤ķà¤°à¤£":573,"Ġà¤ħà¤Ĺ":574,"à¥į,":575,"à¤Łà¤®":576,"Ġà¤ıà¤īà¤Ł":577,"à¤¹à¤ķ":578,"Ġà¤ªà¤¢":579,"Ġà¤®à¤¤":580,"à¤Łà¤²":581,"Ġà¤ħà¤¬":582,"Ġà¥®":583,"Ġà¤¸à¤¹à¤¯":584,"Ġà¤¹à¤°":585,"à¤¾.":586,"à¤®à¤®":587,"à¤µà¤ľà¤¨":588,"Ġà¤Ķ":589,"ĠâĢĵ":590,"Ġà¤¸à¤®à¤¸":591,"Ġà¤Ĩà¤§":592,"à¤ĩà¤°à¤¹":593,"Ġà¤¸à¤¦à¤¸":594,"Ġà¤ľà¤¸":595,"Ġà¤ĺà¤°":596,"Ġà¤¢":597,"Ġà¤īà¤¨à¤ķ":598,"à¤ķà¤ª":599,"âĢĿ":600,"Ġà¤ıà¤®":601,"à¤¿à¤ģ":602,"Ġà¤ħà¤®":603,"Ġà¤īà¤¹":604,"à¤·à¤®":605,"Ġà¤®à¤§":606,"Ġà¤ķà¤¤":607,"al":608,"à¤°à¤Ń":609,"Ġà¤ĵà¤²":610,"à¤ĩà¤¤":611,"om":612,"à¤¯à¤¹":613,"Ġà¤ķà¤²":614,"Ġà¤¸à¤Ń":615,"Ġà¤īà¤®":616,"à¤²à¤Ĺ":617,"Ġà¤ĩà¤¨":618,"Ġà¤¨à¤®":619,"à¤µà¤®":620,"Ġà¤Ĩà¤īà¤¨":621,"Ġà¤ªà¤¦":622,"Ġà¤¨à¤Ĺà¤°à¤ª":623,"Ne":624,"à¤¸à¤¹":625,"à¤ĵà¤µ":626,"âĢ¦":627,"à¤ķà¤¤":628,"à¤Ĺà¤®":629,"Ġà¤®à¤²":630,"Ġà¤¶à¤°":631,"à¤¾à¥ĩ":632,"à¤¶à¤®":633,"Ġà¤Ĩà¤Ĺ":634,"à¤°à¤ļ":635,"Ġà¤ħà¤ĺ":636,"à¤°à¤®à¤£":637,"à¤¹à¤¨":638,"Ġà¤ħà¤µ":639,"à¤ıà¤¨":640,"Ġ2":641,"à¤¦à¤°":642,"Ġà¤ľà¤¨à¤¤":643,"Ġà¤ªà¤Łà¤ķ":644,"Ġà¤¬à¤²":645,"à¤¬à¤²":646,"à¤Ńà¤°":647,"à¤¿,":648,"Ġà¤¥à¤ª":649,"ĠâĢľ":650,"à¤ĺà¤Łà¤¨":651,"ar":652,"à¤ĩà¤²":653,"à¤£à¤¯":654,"Ġà¤Ĩà¤µà¤¶":655,"à¤¸à¤Ń":656,"à¥¨à¥¦":657,"Ġà¤īà¤ķ":658,"à¤ľà¤¸":659,"à¤°à¤ªà¤¤":660,"à¤¶à¤¤":661,"Ġà¤ħà¤ª":662,"à¤Īà¤ķ":663,"à¥Įà¤Ĥ,":664,"à¤¸à¤¬":665,"à¤¡à¤²":666,"Ġà¤¬à¤¹":667,"Ġà¤Ĩà¤®":668,"à¤¦à¤ķ":669,"ĠNe":670,"Ġ'":671,"à¥ģ,":672,"Ġà¤ķà¤¹":673,"Ġà¤¹à¤¤":674,"Ġà¥§à¥«":675,"à¤µà¤¤":676,"Ġà¤Ĺà¤ł":677,"Ġà¤«à¤°":678,"Ġ,":679,"à¤®à¤ļ":680,"Ġà¤µà¤Ł":681,"Ġà¤Ĩà¤¨":682,"in":683,"à¤ľà¤®":684,"à¤ħà¤ĺ":685,"à¤¯à¤µ":686,"Ġà¤Ĺà¤ıà¤ķ":687,"à¤¦à¤µ":688,"Ġà¤ļà¤°":689,"Ġà¥§à¥§":690,"Ġà¤¨à¤¸à¤ķ":691,"à¥įâĢ":692,"Ġà¥¨à¥¦à¥§":693,"Ġà¤¦à¤²":694,"Ġà¤¯à¤¸à¤ķ":695,"Ġà¥¤âĢĻ":696,"Ġà¥§à¥¨":697,"Ġà¤²à¤ķ":698,"à¤²à¤¯à¤ķ":699,"à¤Ļà¤ķ":700,"Ġ...":701,"à¤®à¤¬":702,"01":703,"à¤łà¤ķ":704,"Ġà¤ķà¤¸à¤°":705,"Ġà¤īà¤²":706,"à¤ıà¤ªà¤Ľ":707,"à¤µà¤°à¤£":708,"Ġà¤¸à¤¹à¤Ń":709,"Ġà¤Ńà¤°":710,"Ġà¤¸à¤«à¤²":711,"à¤¿.":712,"Ġà¤īà¤ļ":713,"Ġà¤ĺà¤Łà¤¨":714,"à¤¸à¤°":715,"à¤ļà¤ķ":716,"Ġà¥§à¥¯":717,"à¤ľà¤Ĺ":718,"Ġà¤¸à¤ļ":719,"Ġà¤ħà¤¤":720,"à¤¡à¤®":721,"à¤°à¤ª":722,"à¤ķà¤¨":723,"à¤¤à¤°à¤£":724,"Ġà¥¨à¥¦à¥Ńà¥«":725,"à¤·à¤¯à¤®":726,"à¤¥à¤®":727,"Ġà¤®à¤¹à¤¤":728,"Ġà¤µà¤¡":729,"Ġà¤¸à¤¡à¤ķ":730,"à¤¨à¤Ĺà¤°":731,"on":732,"Ġà¤¨à¤¹":733,"à¤®à¤¹":734,"Ġà¤ļà¤²à¤ļ":735,"à¥įâĢį":736,"à¤ıà¤®":737,"à¤¤à¤µ":738,"Ġà¤Ľà¤²":739,"à¤£à¤ķ":740,"à¤¯à¤¸à¤ķ":741,"an":742,"Ġà¤°à¤¹à¤¨":743,"Ġà¤Ńà¤ĩà¤°à¤¹":744,"à¤«à¤¤":745,"re":746,"à¤ĩà¤¸à¤ķ":747,"pal":748,"à¤ªà¤²":749,"à¤·à¤¦":750,"Ġà¤¸à¤µ":751,"Ġà¤ªà¤ł":752,"à¤ľà¤²":753,"à¤¾âĢĵ":754,"à¤Ĥ.":755,"Ġà¤īà¤ªà¤ļ":756,"à¤·à¤¤":757,"Ġà¤Ĩà¤¦":758,"Ġà¤Ĳ":759,"à¤°à¤¨":760,"Ġà¤¯à¤¸à¤²":761,"ws":762,"à¤¨à¤µ":763,"Ġà¤°à¤ķà¤®":764,"à¤µà¤ª":765,"à¤ĩà¤Ł":766,"à¤ıà¤¸":767,"Ġà¤ħà¤Ŀ":768,"à¤²à¤¯à¤²":769,"Ġà¤ħà¤«":770,"à¤®à¤¦":771,"à¤°à¤ļà¤£":772,"Ġà¤§à¤¨":773,"à¤¹à¤²":774,"Ġà¤¸à¤¤":775,"à¤ĺà¤ķ":776,"Ġà¥¨à¥«":777,"Ġà¤ıà¤ķà¤¤":778,"à¤ĩà¤ķ":779,"Ġà¤ħà¤¦":780,"Ġ201":781,"Ġà¤Ĩà¤ī":782,"com":783,"à¤Īà¤²":784,"Ġà¤Ĩà¤ķ":785,"Ġà¤¸à¤¹à¤®à¤¤":786,"à¤¨à¤¬":787,"Ġà¤ıà¤¸":788,"à¤¨à¤¯":789,"Ġà¤Ĩà¤¶":790,"à¤°à¤¦à¤°":791,"Ġà¥«à¥¦":792,"Ġà¥¨à¥¦à¥Ńà¥ª":793,"à¤µà¤¯":794,"Ġà¤¸à¤Ļ":795,"Ġà¤¸à¤®à¤¯à¤®":796,"à¤§à¤®":797,"Ġà¤īà¤ł":798,"Ġà¤¨à¤¦":799,"à¤ľà¤¯":800,"Ġà¤Ĩà¤ĩ":801,"Ġà¤Ńà¤ıà¤°":802,"er":803,"Ġà¤īà¤ªà¤²à¤¬":804,"Ġà¤Ĩà¤¤":805,"Ġà¤¤à¤¤":806,"à¤¦à¤Ľ":807,"à¤¹à¤®":808,"Ġà¤ħà¤²":809,"à¤§à¤ķ":810,"à¤¯à¤¤à¤ķ":811,"à¤²à¤¤":812,"à¥ĩà¥¤":813,"Ġà¥©à¥¦":814,"Ġà¤¶à¤ķ":815,"Ġà¤¬à¤ļ":816,"à¤¯à¤¸à¤®":817,"Ġà¤§à¤°":818,"Ġà¥§à¥©":819,"à¤¦à¤²":820,"à¤¨à¤ª":821,"Â»":822,"Ġà¤Ńà¤ıà¤ªà¤Ľ":823,"à¤²à¤¨à¤®":824,"à¤¨à¤°":825,"à¤¯à¤ª":826,"Ġà¤ļà¤°à¤£":827,"à¤²à¤¯à¤®":828,"Ġà¤¨à¤Ń":829,"à¤²à¤µ":830,"Ġà¤ľà¤®":831,"Ġà¥¦":832,"à¤¥à¤²":833,"Ġà¤ķà¤ª":834,"Ġà¤Ľà¤²à¤«à¤²":835,"Ġà¥§à¥®":836,"Ġà¤ªà¤¶":837,"à¤ĩà¤¦":838,"ti":839,"Ġà¤¯à¤¤":840,"Ġà¤ıà¤¨":841,"Ġà¥§à¥¬":842,"à¤¬à¤¹":843,"Ġà¥§à¥ª":844,"Ġà¤Ī":845,"Ġà¤®à¤¤à¤¦":846,"ha":847,"Ġà¤®à¤°":848,"Ġà¤¨à¤Ńà¤ıà¤ķ":849,"à¤ľà¤§":850,"Ġà¤ĺà¤Ł":851,"à¤ªà¤¯":852,"Ġà¤ľà¤°":853,"Ġà¤ľà¤Ĺ":854,"à¤īà¤µ":855,"à¤·à¤¯":856,"Ġà¤¹à¤¸":857,"Ġà¤¨à¤ª":858,"à¤®à¤§":859,"à¤¸à¤°à¤ķ":860,"à¤²à¤°":861,"à¤²à¤¸":862,"à¥Īà¤ģ":863,"à¤Ĺà¤ł":864,"Ġà¤¦à¤¶":865,"Ġ1":866,"à¤°à¤ľ":867,"à¤¯à¤¯à¤¨":868,"à¤§à¤¬":869,"à¤ļà¤®":870,"à¤¯à¤®à¤¨":871,"Ġà¥§à¥Ń":872,"à¤īà¤¦":873,"Ġà¤ıà¤µ":874,"Ġà¤Ńà¤Ł":875,"à¤ļà¤²":876,"Ġà¤¨à¤ľ":877,"Ġà¤¨à¤°":878,"à¤¦à¤®":879,"à¤ªà¤Łà¤ķ":880,"Ġà¤Ńà¤£":881,"à¤¾)":882,"à¤ļà¤°":883,"Ġà¥¨à¥§":884,"âĢľ":885,"Ġà¤¤à¤¸":886,"à¥ģà¤Ĥ":887,"à¤ħà¤°":888,"ne":889,"ĠC":890,"à¤¸à¤¸":891,"à¤Ńà¤ķ":892,"à¤Ńà¤µ":893,"st":894,"Ġà¤Ĺà¤£":895,"Ġà¤¸à¤²":896,"à¤¨à¤¤":897,"Ġà¤¸à¤¹à¤ķ":898,"à¤Ĩà¤°":899,"à¤¯à¤Łà¤¨":900,"à¤°à¤¤à¤ķ":901,"à¤Ĺà¤¦":902,"à¤®à¤Ĺ":903,"à¤ªà¤¦":904,"Ġà¤¸à¤ľ":905,"à¤¬à¤¸":906,"à¤ĸà¤ķ":907,"Ġà¤ħà¤ªà¤°":908,"à¤īà¤¨à¤²":909,"à¥Įà¤ģ,":910,"à¥Ī,":911,"Ġà¤ĸà¤¬à¤°":912,"ĠNepal":913,"à¤¯à¤Łà¤ķ":914,"à¤ľà¤¦":915,"Ġà¤¯à¤¸à¤°":916,"à¤¾âĢĻ":917,"Ġà¥¨à¥ª":918,"à¤Ļà¤²":919,"Ġ2018":920,"à¤ķà¤¸":921,"Ġ/":922,"à¤¯à¤¸à¤²":923,"ĠP":924,"à¤°à¤®à¤ķ":925,"à¤®à¤°":926,"Ġà¤Ńà¤µ":927,"à¤ľà¤¨à¤ķ":928,"ĠNews":929,"à¤¶à¤²":930,"à¤·à¤§":931,"ad":932,"à¤¨à¤Ĺà¤°à¤ª":933,"Ġà¤ħà¤¨à¤²":934,"à¤Ĩà¤«":935,"à¥ĢâĢĻ":936,"à¤§à¤¨à¤ķ":937,"à¤ķà¤Ł":938,"à¤ªà¤¨à¤ķ":939,"à¤¬à¤¦":940,"Ġà¤¦à¤ķ":941,"Ġà¤Ńà¤ĩà¤¸à¤ķ":942,"Ġà¥¨à¥¨":943,"Ġà¤Ĺà¤łà¤¨":944,"Ġà¥¨à¥®":945,"à¤Ĺà¤²à¤¬":946,"Ġà¤¶à¤¨":947,"à¤®à¤¸":948,"ĠS":949,"à¤¯à¤£":950,"à¤¯à¤¹à¤°":951,"à¤ĩà¤°":952,"à¤§à¤¤":953,"Ġà¤ĺà¤°à¤®":954,"Ġà¤Ńà¤¦":955,"Ġà¤¦à¤²à¤ķ":956,"à¥Ńà¥ª":957,"Ġà¤īà¤¡":958,"ĠM":959,"à¤µà¤¦":960,"Ġà¤ĸà¤¡":961,"Ġ[":962,"or":963,"à¤°à¤·":964,"à¤²à¤¨à¤ķ":965,"à¤¸à¤¹à¤°":966,"à¤ķà¤¹à¤°":967,"Ġà¤ľà¤¹":968,"à¥¦à¥¦":969,"à¤§à¤°":970,"à¤¯à¤¦":971,"Ġà¤¹à¤Ł":972,"Ġà¤¤à¤¹à¤ķ":973,"Ġà¤ķà¤¥":974,"Ġà¤°à¤ķ":975,"Ġà¥¨à¥Ń":976,"ĠÂ»":977,"Ġà¤ĭ":978,"à¤ĩà¤¤à¤¬":979,"en":980,"Ġà¥¤âĢĿ":981,"Ġà¤ªà¤°à¤®":982,"à¤Ļà¤®":983,"Ġà¤ľà¤¸à¤²":984,"Ġà¤Ĺà¤®":985,"Ġà¤®à¤¸":986,"à¤ľà¤°":987,"ou":988,"à¤Ĺà¤¢":989,"à¤Łà¤¬à¤²":990,"ĠA":991,"à¤¸à¤ļ":992,"le":993,"à¤°à¤ļà¤¨":994,"à¤ľà¤µ":995,"Ġà¥¨à¥¯":996,"Ġà¤ļà¤¨":997,"Ġà¤¸à¤¹à¤ľ":998,"à¤¾...":999,"Ġà¥¨à¥©":1000,"à¤·à¤®à¤¤":1001,"Ġà¤ħà¤µà¤§":1002,"Ġà¥¨à¥¬":1003,"à¤ĺà¤°":1004,"à¤Īà¤¨":1005,"à¤¨à¤¸à¤ķ":1006,"à¤¯à¤ķà¤°":1007,"à¤ªà¤£":1008,"Ġà¤Ĩà¤ľà¤ķ":1009,"à¤¯à¤¸à¤ªà¤Ľ":1010,"à¥Ģ)":1011,"à¤°à¤¬à¤¹":1012,"à¤¹à¤¤":1013,"à¤Ķ":1014,"Ġà¤Ĺà¤łà¤¬à¤¨":1015,"à¤ļà¤¨à¤®":1016,"Ġà¤°à¤®":1017,"Ġà¤ĸà¤¨":1018,"à¤¨à¤¹à¤°":1019,"à¤ľà¤ª":1020,"Ġà¤ľà¤µ":1021,"à¤µà¤µ":1022,"Ġà¤ķà¤µ":1023,"Ġà¤¨à¤¤":1024,"ma":1025,"Ġà¤ħà¤µà¤¸à¤°à¤®":1026,"Ġà¤Ĩà¤Ī":1027,"à¤łà¤ķà¤²":1028,"à¤¸à¤µ":1029,"à¤ĩà¤®":1030,"Ġà¤īà¤ªà¤¯":1031,"à¤µà¤¯à¤¨":1032,"Ġà¤īà¤¸à¤²":1033,"à¤ķà¤²à¤¨":1034,"à¤µà¤¤à¤¨":1035,"Ġà¤«à¤°à¤ķ":1036,"Ġà¤¯à¤¦":1037,"Ġà¤Ńà¤Ī":1038,"Ġà¤ľà¤¤":1039,"ĠR":1040,"Ġà¤Ĩà¤ĩà¤¤à¤¬":1041,"à¤Łà¤¬":1042,"à¤¤à¤¤":1043,"à¥ĭ)":1044,"à¤·à¤²":1045,"à¤¯à¤¬":1046,"à¤Ĩà¤ľ":1047,"à¥§à¥¦":1048,"Ġà¤Ķà¤·à¤§":1049,"Ġà¥ªà¥¦":1050,"à¤łà¤ķà¤®":1051,"Ġà¤ĺà¤£":1052,"es":1053,"à¤ļà¤¨à¤ķ":1054,"à¤¬à¤°à¤ķ":1055,"à¥ĩà¤ģ":1056,"à¥Ńà¥«":1057,"à¤ĸà¤²":1058,"Ġà¤Ĳà¤¨":1059,"à¤Ĺà¤£":1060,"à¤¶à¤¸à¤Ń":1061,"Ġm":1062,"à¤µà¤ķà¤ª":1063,"à¥¤âĢĻ":1064,"Ġà¤¨à¤ķ":1065,"Ġà¤Ŀà¤¨":1066,"il":1067,"à¤°à¤£à¤²":1068,"à¤īà¤¨à¤ķ":1069,"Ġà¤Ĩà¤ł":1070,"Ġà¤Ĭ":1071,"à¤ĩà¤¡":1072,"Ġà¤īà¤ªà¤¸":1073,"Ġà¤®à¤¦":1074,"à¤¯à¤ķà¤¤":1075,"Ġà¤Ĩà¤ª":1076,"à¤¤à¤¹à¤°":1077,"à¤ĩà¤¸":1078,"Ġà¤ħà¤µà¤¸à¤°":1079,"à¤ĩà¤¨à¤²":1080,"à¤īà¤ķ":1081,"Ġà¤¬à¤®":1082,"Â¥":1083,"Ġà¤¹à¤²":1084,"Ġà¤¸à¤®à¤°":1085,"à¤ªà¤¹":1086,"at":1087,"à¤ħà¤§":1088,"Ġà¤¶à¤¬":1089,"Ġà¤Ĩà¤ļ":1090,"Ġ\"":1091,"Ġà¤¤à¤¹":1092,"à¤¨à¤¦":1093,"à¤ķà¤°à¤£à¤ķ":1094,"à¤°à¤£à¤®":1095,"Ġà¤ķà¤ķ":1096,"à¤°à¤µà¤ķ":1097,"à¤ħà¤¬":1098,"à¥ĩà¤Ĥ":1099,"ed":1100,"Ġà¤²à¤¡":1101,"à¤łà¤²":1102,"ĠT":1103,",âĢĻ":1104,"Ġà¤¸à¤ª":1105,"ome":1106,"à¤ªà¤·":1107,"Ġà¤µà¤¨":1108,"à¤ħà¤¸":1109,"Ġà¤ķà¤®à¤ľ":1110,"Ġà¤¯à¤¸à¤®":1111,"Ġà¤Ĩà¤²":1112,"à¤¡à¤°":1113,"Ġà¤Ńà¤µà¤¨":1114,"à¤ķà¤®à¤²":1115,"à¥ĢâĢĵ":1116,"à¤ħà¤®":1117,"à¤ıà¤²":1118,"âĢĻ,":1119,"Home":1120,"à¤£à¤®":1121,"à¤ĸà¤®":1122,"à¤Łà¤°à¤¨":1123,"à¤Ĺà¤¨":1124,"Ġà¤ĩà¤®":1125,"à¤ħà¤¹":1126,"à¤¾-":1127,"ĠD":1128,"Ġà¤ħà¤ķ":1129,"à¤¤à¤°à¤ķ":1130,"à¤°à¤ĸ":1131,"Ġà¤¸à¤ªà¤¨":1132,"Ġ)":1133,"it":1134,"Ġà¤¤à¤²":1135,"Ġà¤Ńà¤¤":1136,"à¤Ĺà¤°à¤®":1137,"à¤¸à¤ª":1138,"à¤īà¤¤":1139,"à¤Łà¤µ":1140,"Ġà¥¨à¥¦à¥¦":1141,"à¤¤à¤µà¤¨":1142,"Ġà¤ĩà¤¤":1143,"Ġà¤ķà¤¨":1144,"Ġà¥¨à¥¦à¥¬":1145,"Ġà¤°à¤¨":1146,"à¤¤à¤¬":1147,"Ġon":1148,"à¤Ĩà¤Ī":1149,"à¤¯à¤¯":1150,"Ġà¤¤à¤¹à¤®":1151,"Ġà¤¸à¤®à¤¨":1152,"ĠO":1153,"__":1154,"Ġà¤ļà¤°à¤£à¤®":1155,"Ġà¤īà¤ľ":1156,"Ġà¥©à¥§":1157,"à¥Ńà¥©":1158,"à¤ĩà¤ľ":1159,"à¤¯à¤µà¤¹":1160,"Ġà¤ĭà¤£":1161,"Ġà¤Ĩà¤ķà¤°":1162,"à¤¥à¤ķ":1163,"à¤®à¤ª":1164,"Ġà¥¬à¥¦":1165,"à¤ķà¤¬":1166,"Ġà¤Ńà¤ıà¤¨":1167,"ag":1168,"à¤ªà¤ļ":1169,"à¤ĩà¤ª":1170,"à¤ķà¤µ":1171,"à¤¨à¤¸à¤®":1172,"à¤¥à¤¨":1173,"ra":1174,"Ġà¤µà¤¸":1175,"à¤¬à¤ķ":1176,"à¤Ĩà¤ľà¤ķ":1177,"à¤ĸà¤¨":1178,"à¤Ĺà¤¬":1179,"Ġà¤ĸà¤¸":1180,"Ġà¥¨à¥¦à¥§à¥®":1181,"Ġà¤¯à¤¸à¤ħà¤ĺ":1182,"à¤Ĺà¤®à¤¨":1183,"à¤£à¤¸":1184,"Ġà¤ķà¤¡":1185,"ĠB":1186,"Ġà¤ħà¤ĸ":1187,"à¤¾à¥¤":1188,"à¤µà¤Ł":1189,"Ġà¤¸à¤«à¤²à¤¤":1190,"ore":1191,"à¤§à¤µ":1192,"Ġà¤¡à¤Ł":1193,"Ġà¤¨à¤µ":1194,"Ġà¤¸à¤«":1195,"Ġà¤īà¤ªà¤Ń":1196,"Ġà¤«à¤²":1197,"à¤¶à¤¸":1198,"Ġà¤ıà¤ª":1199,"Ġà¤Ńà¤ķ":1200,"à¤«à¤¬":1201,"Ġà¤¶à¤¹à¤°":1202,"à¤²à¤¸à¤®":1203,"Ġà¤ķà¤Ł":1204,"Ġà¥¨à¥¦à¥Ńà¥©":1205,"Ġà¤ľà¤²à¤µ":1206,"Ġà¤ĩà¤²":1207,"à¤µà¤§":1208,"à¤Ĺà¤łà¤¨":1209,"à¤¶à¤¬":1210,"ic":1211,"Ġà¤ĸà¤¤":1212,"à¥ĭ...":1213,"à¤¹à¤®à¤¨":1214,"à¤°à¤¹à¤¨":1215,"à¤¥à¤²à¤®":1216,"Ġà¤ľà¤¨à¤¸":1217,"ĠN":1218,"à¥Įà¤Ĥà¥¤":1219,"à¤ļà¤¯":1220,"à¤°à¤®à¤£à¤ķ":1221,"Ġà¤īà¤¸à¤ķ":1222,"Ġà¤²à¤²":1223,"Ġà¤ıà¤ľ":1224,"Ġà¤¦à¤²à¤¹à¤°":1225,"ead":1226,"ik":1227,"ent":1228,"Ġà¤¤à¤¨":1229,"Ġà¤ľà¤²":1230,"à¤µà¤¶":1231,"vi":1232,"à¤¬à¤®":1233,"à¤®à¤£":1234,"Ã·":1235,"Ġà¤ªà¤²":1236,"à¤°à¤¤à¤²":1237,"à¥ģà¤ĥ":1238,"à¤Łà¤¹à¤°":1239,"à¥§à¥¨":1240,"à¤ĺà¤²":1241,"Ġà¤ļà¤°à¤£à¤ķ":1242,"à¤°à¤ŀ":1243,"Ġà¤¸à¤§":1244,"à¤°à¤°":1245,"ĠE":1246,"Ġà¥©à¥«":1247,"Ġà¤Ĺà¤ıà¤°":1248,"à¤Ĭ":1249,"à¤Łà¤°à¤¸":1250,"à¤·à¤°":1251,"Ġà¤ĸà¤Ł":1252,"à¤µà¤¡":1253,"Ġà¤Ĺà¤²":1254,"à¤Ĺà¤°à¤ķ":1255,"Ġà¤īà¤ªà¤¤":1256,"bar":1257,"th":1258,"à¤¶à¤¨à¤®":1259,"Ġà¤Ĺà¤¨":1260,"Ġà¤ħà¤¡":1261,"à¥ĭâĢĻ":1262,"à¤Īà¤®":1263,"à¥§à¥§":1264,"à¤°à¤¥à¤®":1265,"à¤°à¤Ĺà¤¤":1266,"à¥ĩâĢĵ":1267,"Ġà¤īà¤ªà¤°":1268,"à¥ĩâĢĻ":1269,"à¤Ŀà¤¨":1270,"ĠI":1271,"Ġà¤¸à¤¹à¤°":1272,"Ġà¤¨à¤¬":1273,"à¤¸à¤¨à¤²":1274,"Ġà¤¨à¤²":1275,"à¥§à¥¯":1276,"à¤Łà¤°à¤®":1277,"à¤°à¤¸à¤®":1278,"à¤·à¤ķà¤¹à¤°":1279,"Ġà¤¯à¤¸à¤¬":1280,"....":1281,"à¤ĩà¤¯":1282,"à¤¾:":1283,"à¤°à¤¤à¤®":1284,"habar":1285,"à¤Ĺà¤¤à¤ķ":1286,"Ġà¤¹à¤ª":1287,"Ġà¤°à¤¸":1288,"à¥Ģ.":1289,"ay":1290,"Ġà¥©à¥¨":1291,"à¥ĩ)":1292,"Ġà¤Ŀà¤£":1293,"à¤°à¤Ĺ":1294,"à¥ģà¥¤":1295,"Ġà¤ªà¤¸":1296,"à¤Łà¤¨à¤Ĺà¤°":1297,"Ġà¤Ĺà¤²à¤¤":1298,"âĢĶ":1299,"à¤Łà¤ª":1300,"Ġà¤¸à¤¡":1301,"Ġà¤ħà¤¸à¤°":1302,"Ġà¤¦à¤¸":1303,"Ġà¤²à¤®":1304,"ht":1305,"âĢ¦]":1306,"à¤µà¤¨à¤ķ":1307,"Ġ.":1308,"à¤¡à¤¸":1309,"Ġà¤Ĩà¤ĩà¤ª":1310,"à¤ĩà¤ķà¤²":1311,"Ġà¤ľà¤¬":1312,"à¥©à¥¦":1313,"à¤¡à¤¨":1314,"Ġà¤ªà¤¦à¤®":1315,"Ġà¥¨à¥¦à¥Ńà¥¨":1316,"à¤ľà¤¬":1317,"ine":1318,"ĠF":1319,"à¤Ńà¤®":1320,"ment":1321,"à¤Ĺà¤¤à¤®":1322,"Ġà¤¡à¤²à¤°":1323,"ĠâĢ¦":1324,"à¤°à¤®à¤£à¤®":1325,"Ġà¤ħà¤¶":1326,"Ġà¤ªà¤ŀ":1327,"à¤·à¤£à¤ķ":1328,"Ġp":1329,"à¤ŀà¤ª":1330,"Ġà¤ľà¤¨à¤ķ":1331,"Ġà¤ħà¤µà¤°":1332,"à¤¯à¤¸à¤°":1333,"Ġà¤Ĩà¤ı":1334,"à¤ªà¤¸":1335,"ch":1336,"Ġ[âĢ¦]":1337,"à¤¸à¤¨à¤ķ":1338,"à¤¶à¤¨à¤ķ":1339,"à¤ļà¤¨à¤ª":1340,"Ġà¥Ńà¥¦":1341,"mail":1342,"à¤¬à¤ľ":1343,"Ġà¤®à¤Ĺà¤°":1344,"à¤²à¤¤à¤®":1345,"ĠK":1346,"Ġà¤Ĩà¤¹":1347,"Ġà¤ķà¤ł":1348,"Ġà¥©à¥©":1349,"à¤ªà¤ķà¤®à¤²":1350,"à¤ıà¤«":1351,"à¤Łà¤°à¤ķ":1352,"Ġà¤¨à¤Ńà¤ı":1353,"à¤īà¤ª":1354,"ing":1355,"à¤°à¤£à¤ķ":1356,"op":1357,"ĠH":1358,"à¤¿à¤ĥ":1359,"news":1360,"à¤¯à¤¸à¤¬":1361,"Ġà¤¢à¤ķ":1362,"à¤¡à¤¬":1363,"à¤¹à¤¦":1364,"à¤¤à¤¸":1365,"à¤²à¤ª":1366,"Ġà¤ĩà¤ļ":1367,"el":1368,"Ġà¥¯à¥®":1369,"à¤µà¤¸à¤ķ":1370,"ww":1371,"Ġà¤ĸà¤¤à¤°":1372,"Ġà¤¦à¤¬":1373,"Ġmore":1374,"Ġà¤®à¤Ļ":1375,"à¤¦à¤µà¤²":1376,"Ġà¤¨à¤Ĺà¤¦":1377,"à¤¦à¤¤":1378,"à¤ħà¤ª":1379,"Ġà¤Ńà¤ıà¤ªà¤¨":1380,"Ġà¤ªà¤¹à¤²":1381,"Ġà¤ľà¤¸à¤ķ":1382,"à¤²à¤¤à¤²":1383,"à¤ĵà¤²":1384,"ĠNepali":1385,"à¤¨à¤¸à¤Ń":1386,"Ġà¤ļà¤¢":1387,"tion":1388,"Ġà¤łà¤Ĺ":1389,"Ġà¥®à¥¦":1390,"à¥§à¥«":1391,"à¤¯à¤°à¤¤":1392,"Ġà¤¬à¤Ĺ":1393,"à¤ķà¤¤à¤¨":1394,"Ġà¤Ĩà¤«à¤¨":1395,"Ġà¤ľà¤¨à¤ľ":1396,"à¤µà¤°à¤ķ":1397,"à¥§à¥®":1398,"ab":1399,"à¤īà¤®":1400,"Ġà¤ĸà¤£":1401,"Ġà¤īà¤°":1402,"Ġà¤Ĭà¤°":1403,"ol":1404,"ur":1405,"Ġà¤¸à¤¡à¤ķà¤®":1406,"Ġà¤ķà¤¸à¤²":1407,"Ġà¤Ĩà¤Ĺà¤²":1408,"à¤¦à¤¨à¤®":1409,"à¤īà¤¹":1410,"à¤µà¤¨à¤®":1411,"Ġà¤łà¤ķ":1412,"à¤¦à¤¶":1413,"Ġà¤®à¤£":1414,"à¤¸à¤¤":1415,"Ġà¤®à¤¹à¤¸":1416,"à¤¯à¤Ł":1417,"Ġà¥ªà¥«":1418,"00":1419,"id":1420,"Ġs":1421,"ĠCom":1422,"Ġà¤¨à¤ªà¤°":1423,"Ġà¤Ĺà¤¯":1424,"à¤¥à¤®à¤¨":1425,"à¤¹à¤°à¤£":1426,"à¤Ĩà¤®":1427,"Ġà¤¸à¤°à¤¸":1428,"à¤·à¤ªà¤Ľ":1429,"Â©":1430,"Ġà¤§à¤®":1431,"à¥ĩ-":1432,"à¤°à¤®à¤²":1433,"Ġà¤¶à¤µ":1434,"Ġà¤¸à¤¸":1435,"à¥ģÂ¥":1436,"à¤®à¤¯":1437,"Ġà¤ľà¤¡":1438,"à¤µà¤Ń":1439,"Ġà¤¤à¤°à¤ķ":1440,"à¤°à¤«":1441,"à¤¥à¤°":1442,"Ġà¤ĺà¤¨":1443,"à¤ıà¤¨à¤¨":1444,"à¥Ĥ,":1445,"line":1446,"à¤Łà¤µà¤²":1447,"Ġà¤Ĳà¤¤":1448,"Ġà¤®à¤¹à¤°":1449,"Ġà¤®à¤ŀ":1450,"Ġà¤ıà¤²":1451,"à¤ĩà¤¨à¤²à¤®":1452,"Ġà¤Ĺà¤£à¤¤à¤¨":1453,"Ġà¤ªà¤¦à¤ķ":1454,"à¤īà¤¡":1455,"à¥§à¥¬":1456,"ĠâĢĶ":1457,"à¤ıà¤ľ":1458,"Ġà¤ħà¤·":1459,"Ġà¤°à¤£":1460,"ĠL":1461,"à¥ģ.":1462,"à¤¶à¤¹à¤°":1463,"Ġà¤ļà¤ķ":1464,"Ġà¥¨à¥¦à¥«":1465,"Ġà¤ļà¤¯à¤¨":1466,"Ġà¤ķà¤®à¤²":1467,"ĠJ":1468,"à¤¤à¤°à¤®":1469,"Ġà¤īà¤ªà¤ª":1470,"à¤¶à¤¨à¤²":1471,"Ġà¤Ķà¤ªà¤ļ":1472,"Ġà¤¦à¤¶à¤ķ":1473,"à¤¨à¤¸à¤°":1474,"Ġà¤ıà¤¶":1475,"Ġà¤ľà¤¨à¤ª":1476,"Ġà¤¦à¤¶à¤®à¤²":1477,"em":1478,"Ġà¤Ĩà¤ıà¤°":1479,"à¤ľà¤¤":1480,"tic":1481,"Ġà¤¦à¤¶à¤®à¤²à¤µ":1482,"à¥Ģà¤ģ":1483,"à¤®à¤¬à¤¹":1484,"Ġà¤ľà¤¨à¤ķà¤ª":1485,"Ġà¤¤à¤²à¤¬":1486,"à¥ģà¥ģ":1487,"Ġà¤ıà¤µà¤®":1488,"à¤°à¤¤à¤ª":1489,"Ġà¤Ńà¤Ĺ":1490,"à¤¨à¤Ńà¤¨":1491,"Ġà¥¯à¥¦":1492,"à¤«à¤°":1493,"à¤°à¤¥":1494,"Ġà¤¯à¤¥":1495,"à¤²à¤¦":1496,"Ġà¤¹à¤µ":1497,"Ġà¤¸à¤¶à¤¸":1498,"à¥Į,":1499,"à¤Ĺà¤ľ":1500,"à¤®à¤¹à¤°":1501,"à¥ĭâĢĵ":1502,"Ġà¤īà¤¸":1503,"à¤Ńà¤²":1504,"à¥¨à¥«":1505,"),":1506,"à¤ªà¤¦à¤£":1507,"à¥§à¥ª":1508,"à¤¹à¤¸":1509,"à¤«à¤ķ":1510,"à¤īà¤¸":1511,"à¤·à¤¸à¤®":1512,"à¤°à¤¹à¤£":1513,"à¤£à¤ªà¤¤":1514,"à¥ĩ...":1515,"Ġà¤īà¤ªà¤®à¤¹":1516,"Ġ!!":1517,"Ġà¤¹à¤ķ":1518,"Ġà¤ħà¤ªà¤¨":1519,"ber":1520,"Ġà¥¨à¥¦à¥§à¥Ń":1521,"à¤·à¤ħà¤ĺ":1522,"à¤ªà¤¶":1523,"à¤Ĩà¤¯":1524,"à¤²à¤Ń":1525,"à¤¸à¤¦à¤®":1526,"à¤°à¤¬à¤¨":1527,"Ġà¤¸à¤¦à¤°à¤®":1528,"Ġ3":1529,"à¥§à¥Ń":1530,"Ġà¤ľà¤¸à¤®":1531,"à¤Ĺà¤¹à¤°":1532,"Ġà¤ıà¤ķà¤ľà¤¨":1533,"Ġà¤ķà¤ŀ":1534,"à¤Ĩà¤°à¤ıà¤¨":1535,"à¥Ģ-":1536,"Ġà¤Ĺà¤ı":1537,"Ġà¤°à¤ļà¤¨":1538,"à¤¡à¤«":1539,"of":1540,"ri":1541,"et":1542,"ous":1543,"à¤°à¤µà¤¦":1544,"à¤ĩà¤Ń":1545,"Ġà¤®à¤¨à¤®":1546,"à¤Łà¤¸":1547,"à¥Ĥà¤ģ":1548,"à¤°à¤ķà¤°":1549,"à¤¤à¤¹":1550,"Ġà¤°à¤µ":1551,"à¥ĭà¥ĩ":1552,"as":1553,"à¤ķà¤°à¤£à¤²":1554,"à¤¥à¤µ":1555,"à¤¯à¤¸à¤Ń":1556,"à¤ĸà¤¦":1557,"Ġà¥Ńà¥«":1558,"à¤¿:":1559,"à¤ªà¤¥":1560,"à¤¬à¤°à¤®":1561,"à¤Ĺà¤ķà¤°":1562,"xt":1563,"à¤§à¤²":1564,"ost":1565,"âĢĭ":1566,"à¤¸à¤¦à¤ķ":1567,"à¤²à¤¤à¤ķ":1568,"à¤Ńà¤Ĺ":1569,"Ġà¤µà¤ķ":1570,"à¤¯à¤°à¤ķ":1571,"à¤²à¤¹à¤°":1572,"à¥ģâĢĻ":1573,"ia":1574,"à¥ĭ?":1575,"à¤ģ,":1576,"Ġà¥«à¥«":1577,"à¤®à¤µ":1578,"Ġà¤ĺà¤°à¤ķ":1579,"à¤²à¤ķà¤ķ":1580,"Ġà¤¨à¤Ĩ":1581,"Ġà¤¬à¤¦à¤²":1582,"à¤ŀà¤µ":1583,"ak":1584,"am":1585,"à¤µà¤°à¤²":1586,"à¤¶à¤µ":1587,"Ġà¤¨à¤Ńà¤Ī":1588,"Ġà¤¦à¤²à¤²":1589,"à¤·à¤ķà¤ķ":1590,"Ġà¤ªà¤°à¤°":1591,"Ġà¤ľà¤¨à¤®":1592,"à¥§à¥©":1593,"à¤§à¤¨à¤²":1594,"Ġà¤°à¤¨à¤ķ":1595,"Ġà¥¤à¥¤":1596,"Ġà¤¦à¤®":1597,"à¤¨à¤Ń":1598,"Ġà¤¡à¤°":1599,"Ġar":1600,"Ġà¤ħà¤Ļ":1601,"revi":1602,"à¥¨à¥¦à¥Ńà¥«":1603,"ec":1604,"à¤¨à¤¤à¤®":1605,"Ġà¤ħà¤¸à¤«à¤²":1606,"un":1607,"à¤·à¤Ń":1608,"à¥Ńà¥¨":1609,"Ġà¤Ĩà¤ĩà¤°à¤¹":1610,"à¤·à¤¹à¤°":1611,"ĠComment":1612,"à¤¯à¤¸à¤ħà¤ĺ":1613,"à¤ķà¤¹":1614,"Ġ0":1615,"revious":1616,"à¤¥à¤¤à¤¨":1617,"à¥¨à¥¦à¥Ńà¥ª":1618,"Ġf":1619,"ĠRead":1620,"Ġà¥©à¥¬":1621,"à¤¯à¤¤à¤²":1622,"à¤®à¤¹à¤¤":1623,"à¤Ĺà¤¶":1624,"Ġà¤ıà¤«":1625,"Ġl":1626,"à¤Ŀà¤¦":1627,"à¤µà¤°à¤®":1628,"à¤°à¤Ļ":1629,"Ġà¤¸à¤®à¤Ĺ":1630,"Ġà¤ħà¤¸à¤¨":1631,"à¤Ĺà¤£à¤¨":1632,"à¤Īà¤ıà¤ķ":1633,"à¤¾âĢ¦":1634,"à¥ĩ.":1635,"tp":1636,"//":1637,"à¤µà¤¹à¤°":1638,"à¤¦à¤¯":1639,"http":1640,"Ġà¤Ĩà¤¨à¤¨":1641,"âĨ":1642,"à¤¶à¤¤à¤²":1643,"à¤¦à¤¨à¤ķ":1644,"Ġà¤®à¤ľà¤¦":1645,"Ġà¤Ľà¤²à¤«":1646,"://":1647,"nepal":1648,"Ġà¤ħà¤ŀ":1649,"Ġà¤¬à¤ķ":1650,"à¥ģ:":1651,"is":1652,"Ġà¤¬à¤¡":1653,"Ġà¤¸à¤Ĺà¤°à¤®":1654,"à¥ĩ?":1655,"à¤£à¤¤":1656,"à¥ĭ-":1657,"à¤¶à¤Ńà¤°":1658,"Ġà¤ĵà¤Ń":1659,"à¤Ĩà¤¨":1660,"à¤·à¤¯à¤²":1661,"Ġà¤Ńà¤ıà¤®":1662,"Ġà¤ħà¤ļ":1663,"Ġà¤«à¤¸":1664,"à¤¸à¤Ļ":1665,"and":1666,"à¤Ńà¤¦":1667,"à¤¥à¤Ĺ":1668,"Ġà¤ħà¤²à¤Ĺ":1669,"Ġà¤Ĺà¤¹":1670,"à¤īà¤°":1671,"Ġà¤ľà¤¨à¤¶à¤ķ":1672,"Ġà¤°à¤£à¤¨":1673,"Ġà¤¸à¤®à¤¯à¤¦":1674,"ember":1675,"à¤¯à¤°à¤²":1676,"ep":1677,"à¥Įà¤ĤâĢĵ":1678,"Ġà¤ıà¤ķà¤²":1679,"à¥¨à¥¯":1680,"Ġà¤Ĩà¤ıà¤ªà¤Ľ":1681,"à¤¤à¤°à¤¤":1682,"Ġà¤°à¤¤":1683,"ticle":1684,"ap":1685,"Ġà¤¹à¤Ļà¤ķ":1686,"à¤łà¤ķà¤ķ":1687,"à¤²à¤ªà¤¤":1688,"à¤¿?":1689,"à¤²à¤ĸ":1690,"ĠW":1691,"ro":1692,"à¤£à¤²":1693,"Previous":1694,"Ġà¤Ńà¤°à¤¤à¤ª":1695,"à¤·à¤¯à¤ķ":1696,"Ġ2017":1697,"à¤īà¤²":1698,"Ġà¥ªà¥ª":1699,"Ġà¤ļà¤®":1700,"à¤µà¤²à¤ªà¤°":1701,"à¤ħà¤Ń":1702,"Ġà¤¨à¤°à¤¹":1703,"à¤ĩà¤Łà¤¹à¤°":1704,"Nepal":1705,"à¤īà¤£":1706,"à¤¥à¤²à¤ķ":1707,"oo":1708,"à¤¦à¤Ľà¤¨":1709,"à¤²à¤¯à¤¹à¤°":1710,"Ġà¤¬à¤¹à¤¸":1711,"Ġà¤īà¤ªà¤¨":1712,"Next":1713,"Ġà¤īà¤ªà¤ķà¤°à¤£":1714,"à¤§à¤¨à¤®":1715,"à¤ĩà¤¬":1716,"à¤ıà¤īà¤Ł":1717,"à¤Łà¤ĺ":1718,"à¤°à¤®à¤¹à¤°":1719,"Ġà¤¨à¤Ńà¤ıà¤°":1720,"Ġà¤Ŀà¤°":1721,"à¤¿...":1722,"à¤ıà¤¸à¤ª":1723,"à¤¾/":1724,"à¥Ģ...":1725,"à¥Ńà¥¬":1726,"Ġà¤§à¤¨à¤Ĺà¤¢":1727,"out":1728,"à¤Ńà¤µà¤¤":1729,"à¤¨à¤ļ":1730,"à¤°à¤¤à¤¬":1731,"nline":1732,"à¤®à¤°à¤£":1733,"Ġà¤ªà¤¬":1734,"Ġà¤Ńà¤²":1735,"à¤·à¤¬":1736,"Ġà¤īà¤Ń":1737,"à¤ħà¤²":1738,"à¥¨à¥¨":1739,"ĠComments":1740,"Ġà¥¬à¥«":1741,"Ġà¥©à¥®":1742,"ĠG":1743,"Ġà¥§à¥¯à¥¯":1744,"Ġà¤ªà¤¸à¤²":1745,"à¤¤à¤µà¤¨à¤ķ":1746,"à¤¦à¤Ĺ":1747,"Ġà¤ĥ":1748,"Ġà¥§à¥¦à¥¦":1749,"Ġà¤²à¤ĺ":1750,"Ġà¤ħà¤¬à¤ķ":1751,"ter":1752,"Ġà¤¶à¤¤":1753,"Ġà¤ħà¤¥à¤µ":1754,"____":1755,"à¤¯à¤®à¤¬":1756,"à¤µà¤£":1757,"Ġà¥©à¥ª":1758,"à¤¤à¤¦":1759,"Ġà¥ªà¥¨":1760,"à¤·à¤£à¤®":1761,"Ġà¤ıà¤ķà¤¦à¤®":1762,"à¤Łà¤«":1763,"à¤²à¤¯à¤¬":1764,"Ġà¤ĩà¤¸":1765,"gmail":1766,"à¤ªà¤Ł":1767,"à¤µà¤¯à¤¨à¤®":1768,"à¤¥à¤ª":1769,"Ġà¤¸à¤®à¤¯à¤ķ":1770,"à¤Ĺà¤¸":1771,"à¤Łà¤°à¤²":1772,"Ġà¤¸à¤°à¤¸à¤«":1773,"à¥į...":1774,"Ġb":1775,"à¤µà¤¯à¤¨à¤ķ":1776,"à¥¨à¥©":1777,"à¤£à¤ª":1778,"à¥ĭâĢ¦":1779,"Ġà¤ħà¤Ł":1780,"Ġà¤¨à¤·":1781,"Ġà¤ıà¤£":1782,"Ġnews":1783,"Ġà¤Ĩà¤¸":1784,"à¤ľà¤¨à¤®":1785,"à¤ªà¤¬":1786,"Ġà¤ľà¤¸à¤°":1787,"ĠIn":1788,"à¥¦à¥Ńà¥©":1789,"à¤ĸà¤£":1790,"Ġarticle":1791,"à¤µà¤¸à¤®":1792,"Ġc":1793,"à¤ĸà¤¹à¤°":1794,"Ġà¤łà¤¹à¤°":1795,"Ġà¤Ľà¤°":1796,"de":1797,"Ġin":1798,"im":1799,"à¥¨à¥ª":1800,"ul":1801,"à¤¤à¤°à¤²":1802,"eb":1803,"ac":1804,"à¤µà¤ļ":1805,"ve":1806,"à¤¤à¤¡":1807,"Ġà¤Īà¤¶":1808,"Ġà¤ıà¤ķà¤ķ":1809,"à¤¸à¤¦à¤¹à¤°":1810,"https":1811,"Ġà¤Ĺà¤ľà¤²":1812,"à¤Īà¤¤":1813,"à¤¤à¤¨à¤ķ":1814,"Ġà¥¨à¥¦à¥§à¥¬":1815,"Ġà¤¨à¤ĸ":1816,"Ġà¥©à¥Ń":1817,"Ġà¤®à¤¤à¤Ĺà¤£à¤¨":1818,"Ġà¥¨à¥¦à¥ª":1819,"Ġà¤Ĩà¤ľà¤¦":1820,"Ġà¤Ĺà¤ľ":1821,"to":1822,"à¤ľà¤¨à¤¤":1823,"ĠOnline":1824,"har":1825,"à¤¸à¤¨à¤®":1826,"à¥įâĢĮ":1827,"à¤Ĺà¤²à¤µ":1828,"ir":1829,"lo":1830,"ip":1831,"edia":1832,"à¤¶à¤Ń":1833,"à¥¨à¥®":1834,"à¥ĩ]":1835,"Ġof":1836,"à¥«à¥¦":1837,"ort":1838,"à¤ģà¥¤":1839,"à¤ĺà¤°à¤®":1840,"Ġà¥«à¥§":1841,"à¤ĩà¤«":1842,"à¤°à¤®à¤¨":1843,"à¤¯à¤§":1844,"à¤¾à¥Īà¤Ĥ":1845,"à¥°":1846,"à¤¡à¤²à¤ķ":1847,"Ġà¤Īà¤¨":1848,"Ġà¤¹à¤ķà¤ª":1849,"Ġà¤ªà¤£":1850,"à¤ķà¤°à¤¬":1851,"Ġ4":1852,"Ġà¤¤à¤®":1853,"à¤ķà¤¥":1854,"ary":1855,"à¤¯à¤¤à¤®":1856,"Ġà¤¬à¤ļà¤¤":1857,"à¥Ģ:":1858,"Ġ?âĢĻ":1859,"à¤ļà¤²à¤ļ":1860,"à¤ĺà¤¨":1861,"à¤Ĺà¤®à¤²":1862,"à¤°à¤ķà¤°à¤£":1863,"Ġà¤ıà¤¨à¤Ĩà¤°à¤ıà¤¨":1864,"Ġà¤¸à¤®à¤Ŀà¤¦":1865,"Ġà¤ħà¤µà¤²":1866,"à¤Ĩà¤µ":1867,"à¥ĭ,âĢĻ":1868,"Ġà¤ķà¤ªà¤¡":1869,"201":1870,"Ġà¤Ĩà¤ªà¤¤":1871,".....":1872,"à¥Ńà¥Ń":1873,"ff":1874,"Ġà¥ªà¥®":1875,"Ġà¤Ńà¤Ĺà¤µ":1876,"Ġà¤ķà¤¬":1877,"à¤²à¤¨à¤²":1878,"à¤¯à¤¨à¤¸":1879,"à¤·à¤ķà¤²":1880,"à¤²à¤ķà¤²":1881,"Ġà¤°à¤Ĺà¤¤":1882,"à¤Łà¤µà¤°":1883,"Ġà¤Ķà¤¦":1884,"à¤¶à¤°":1885,"âĢĿ,":1886,"Ġà¤¬à¤¯":1887,"à¤·à¤ľ":1888,"Ġà¤Īà¤®":1889,"à¤µà¤¹":1890,"à¥Įà¤ģà¥¤":1891,"à¤°à¤ªà¤¶":1892,"he":1893,"Ġà¤ĵà¤Ńà¤°à¤®":1894,"Ġà¤°à¤¹à¤¸":1895,"Ġà¤ıà¤¡":1896,"Ġà¤ķà¤¦à¤®":1897,"Ġà¥ªà¥©":1898,"www":1899,"Ġà¤®à¤ķà¤µ":1900,"à¤¹à¤¦à¤°à¤¬":1901,"à¤Ĺà¤¡":1902,"Ġà¤ħà¤¸à¤¹":1903,"Ġà¥©à¥¯":1904,"à¤¡à¤ª":1905,"à¤Ĺà¤łà¤¨à¤ķ":1906,"ĠU":1907,"Ġà¤ľà¤Ł":1908,"à¤µà¤ķà¤°":1909,"Ġà¤¨à¤¸":1910,"Ġà¤²à¤Ĺà¤¤":1911,"Ġà¤īà¤ªà¤¹":1912,"Ġ5":1913,"à¤ľà¤¶":1914,"ĠâĢĻ":1915,"Ġà¤¤à¤¹à¤²":1916,"à¤°à¤¸à¤¹":1917,"à¤¸à¤¦à¤²":1918,"à¤ļà¤¸":1919,"aj":1920,"à¥¨à¥§":1921,"Ġà¥ªà¥¯":1922,"à¤°à¤¹à¤µ":1923,"à¤®à¤¶":1924,"à¤®à¤ļà¤¨":1925,"à¤Īà¤¦":1926,"Ġà¤°à¤¦":1927,"Ġà¤ĺà¤°à¤¬":1928,"à¥¨à¥¬":1929,"à¤¦à¤¦":1930,"à¥Ńà¥¦":1931,"à¤°à¤ªà¤Ľ":1932,"us":1933,"à¤¨à¤ªà¤Ľ":1934,"Ġà¤ħà¤¸à¤®":1935,"à¤¤à¤ķà¤ķ":1936,"Ġà¤¸à¤¡à¤ķà¤ķ":1937,"à¤¸à¤µà¤ķ":1938,"Â«":1939,"à¥įâĢĵ":1940,"à¤Łà¤²à¤®":1941,"Ġà¥«à¥¬":1942,"à¤¯à¤£à¤Ĺà¤¢":1943,"à¤ľà¤¨à¤²":1944,"Ġ20":1945,"à¤µà¤¯à¤®":1946,"à¤Īà¤µà¤Ł":1947,"à¤¤à¤®à¤²":1948,"à¤°à¤ķà¤Ł":1949,"Ġà¤¢à¤²":1950,"à¥¨à¥Ń":1951,"Ġà¤ħà¤¸à¤²":1952,"à¤¦à¤¨à¤¶":1953,"Ġà¤ħà¤ľ":1954,"Ġ]":1955,"Ġà¤¸à¤²à¤®":1956,"à¤¯à¤°à¤®":1957,"à¤¾'":1958,"Ġà¤ļà¤²à¤¨":1959,"Ġà¤²à¤Ĺà¤Ńà¤Ĺ":1960,"à¤¯à¤®à¤ķ":1961,"Ġà¤¡à¤²":1962,"Ġà¤ħà¤«à¤Ĺ":1963,"ĠâĢĿ":1964,"ĠOff":1965,"à¤¬à¤¤":1966,"Ġre":1967,"à¤°à¤§à¤¨":1968,"à¤µà¤ľ":1969,"à¤Łà¤¬à¤²à¤ķ":1970,"à¤ıà¤ª":1971,"ĠÂ©":1972,"à¥įâĢĻ":1973,"Ġà¥¦à¥¬":1974,"Ġà¤ıà¤ķà¤¦":1975,"à¤ķà¤¦":1976,"Ġà¤ĩà¤°":1977,"à¤Īà¤¸":1978,"à¥¯à¥®":1979,"Ġà¤¸à¤Ł":1980,"à¥ĥà¤Ĥ":1981,"Ġà¤¦à¤°à¤¬":1982,"à¤²à¤¬à¤²":1983,"org":1984,"à¤¶à¤ķà¤²":1985,"Ġà¤¨à¤¬à¤¨":1986,"ate":1987,"à¤ķà¤®à¤ķ":1988,"Ġà¤ĩà¤ķ":1989,"Read":1990,"wik":1991,"Ġà¤Ľà¤ķ":1992,"Ġà¤ĸà¤¬":1993,"Ġà¥ªà¥§":1994,"Ġà¤ĩà¤ľ":1995,"Ġà¤ħà¤ªà¤¡":1996,"à¤¿âĢĻ":1997,"à¤¦à¤¸":1998,"à¥¦à¥Ńà¥ª":1999,"Ġà¤¨à¤µà¤²à¤ªà¤°":2000,"à¤¯à¤¶":2001,"à¤°à¤®à¤¶":2002,"Ġ9":2003,"ov":2004,"::":2005,"Ġà¤ħà¤ļà¤®":2006,"Ġà¤¸à¤ĺ":2007,"ess":2008,"Ġà¤¸à¤®à¤¯à¤¸à¤®":2009,"à¤°à¤µà¤°":2010,"à¤īà¤Ľ":2011,"à¤µà¤¬":2012,"à¤¾à¥Ī":2013,"à¤°à¤¶à¤¸":2014,"Ġà¤¹à¤®":2015,"à¤¨à¤¹":2016,"Ġà¤Łà¤¨":2017,"à¥¨à¥¦à¥Ńà¥©":2018,"à¥¦à¥¬":2019,"à¤¹à¤¬":2020,"à¤¬à¤Ī":2021,"ama":2022,"Ġà¤¸à¤°à¤²":2023,"à¤ĩà¤°à¤²":2024,"à¤²à¤µà¤¸":2025,"à¤ļà¤¬":2026,"Ġà¥¨à¥¦à¥§à¥«":2027,"à¤Īà¤Ł":2028,"à¤Ķà¤·à¤§":2029,"à¤¡à¤¯à¤¨":2030,"Ġà¤¬à¤§":2031,"à¤Ļà¤¬":2032,"Ġà¥¬à¥©":2033,"à¤Ĩà¤Ĺ":2034,"à¤ªà¤ª":2035,"à¤ĸà¤¤":2036,"à¤°à¤Ńà¤¨":2037,"à¤Īà¤¹à¤°":2038,"à¤¾à¤ĥ":2039,"à¤¯à¤®à¤²":2040,"Ġà¤®à¤¦à¤¨":2041,"à¤Ĺà¤®à¤ķ":2042,"à¥¤âĢĿ":2043,"à¤«à¤®":2044,"à¤²à¤¬à¤¹":2045,"uary":2046,"Ġà¤ħà¤¨à¤¶à¤¨":2047,"à¤¯à¤Łà¤ķà¤ķ":2048,"ation":2049,"Ġà¤¨à¤ļ":2050,"Ġà¤Ĺà¤£à¤¨":2051,"à¤Ĺà¤²à¤®":2052,"ï¿":2053,"à¤¦à¤°à¤²":2054,"Ġà¤¯à¤¸à¤ªà¤Łà¤ķ":2055,"à¤°à¤£à¤¸à¤Ń":2056,"Ġà¥«à¥ª":2057,"Ġà¤Ĩà¤īà¤Ł":2058,"ght":2059,"Ġà¤¶à¤ªà¤¥":2060,"ï¿½":2061,"à¤¯à¤ľ":2062,"à¤ľà¤ķà¤¤":2063,"ly":2064,"ĠâĢ¢":2065,"à¤·à¤¦à¤ķ":2066,"ĠV":2067,"Ġ:-":2068,"à¤¨à¤¥":2069,"Ġà¤¬à¤²à¤®":2070,"Ġà¤ªà¤µ":2071,"à¤¨à¤µà¤Ł":2072,"à¤ľà¤ķà¤²":2073,"Ġà¥«à¥®":2074,"à¤¯à¤¨à¤ķ":2075,"à¤¸à¤®à¤ķ":2076,"Ġà¤Ĺà¤ĩà¤°à¤¹":2077,"Ġà¥ªà¥¬":2078,"à¤¤à¤µà¤®":2079,"Ġà¤µà¤²":2080,"Ġà¥«à¥©":2081,"à¤°à¤ľà¤¨":2082,"Ġà¤ĵà¤°":2083,"à¤¯à¤¯à¤¨à¤ķ":2084,"Ġà¥¦à¥§":2085,"Ġà¤ľà¤¯à¤¨":2086,"Ġà¥«à¥¨":2087,"Ġà¤¤à¤¬":2088,"Ġà¤ľà¤¨à¤¯":2089,"âĢĮ":2090,"Ġà¤¶à¤°à¤£":2091,"à¤¨à¤¡":2092,"à¤ĩà¤¨à¤¨":2093,"!!":2094,"Ġà¤ħà¤µà¤ķ":2095,"Ġà¤¥à¤°":2096,"Ġà¤¸à¤¶à¤ķ":2097,"à¤ŀà¤¹à¤°":2098,"Ġà¤Ĩà¤ĸ":2099,"tit":2100,"à¤®à¤ªà¤¨":2101,"à¤¿âĢĵ":2102,"à¤ĺà¤®":2103,"Ġà¤ľà¤¨à¤µà¤°":2104,"Ġà¤Ĩà¤µà¤¦":2105,"à¥į:":2106,"Ġà¤§à¤¨à¤ķ":2107,"à¤ļà¤¨à¤²":2108,"à¥ĭ.":2109,"à¤¸à¤°à¤²":2110,"Ġà¤ıà¤¯à¤°":2111,"Ġà¤°à¤Ļ":2112,"à¤¸à¤ŀ":2113,"à¤ľà¤°à¤ķ":2114,"à¤ĩà¤¨à¤ķ":2115,"ity":2116,"Ġà¤ıà¤ļ":2117,"Ġà¤ķà¤¸à¤ķ":2118,"à¥ªà¥«":2119,"à¥Įà¥¤":2120,"à¤ĵà¤¸":2121,"ain":2122,"à¤ĩà¤¨à¤®":2123,"à¥Ģà¥¤":2124,"Ġà¤ķà¤°à¤£":2125,"Ġà¤ľà¤¬à¤°":2126,"à¤ĩà¤Łà¤®":2127,"ĠAr":2128,"à¤®à¤ľ":2129,"ph":2130,"Ġà¤Ńà¤ĩ":2131,"à¤ĺà¤¸":2132,"Ġà¤ıà¤¯à¤°à¤²":2133,"Ġà¤«à¤²à¤«":2134,"à¤¹à¤ķà¤²":2135,"Ġà¤Łà¤°":2136,"à¤ªà¤¨à¤®":2137,"Ġà¤ıà¤Ł":2138,"ub":2139,"anc":2140,"à¤¤à¤¸à¤®":2141,"à¤¿à¥¤":2142,"Ġà¤Ľà¤²à¤«à¤²à¤®":2143,"Ġà¤®à¤ķ":2144,"Ġà¤¯à¤¸à¤ª":2145,"Ġà¤ıà¤¨à¤¸":2146,"à¤²à¤Ĺà¤¨":2147,"ipedia":2148,"à¤¾Â»":2149,"à¤¶à¤ķà¤ķ":2150,"akhabar":2151,"à¤ľà¤¹à¤°":2152,"Ġà¤¨à¤¨":2153,"Ġw":2154,"à¤µà¤ķà¤²":2155,"Ġà¤¹à¤¦":2156,"à¥į-":2157,"Ġâ":2158,"à¤·à¤£à¤²":2159,"à¥¨à¥¦à¥¬":2160,"à¤°à¤¤à¤¸":2161,"dex":2162,"à¤¤à¤µà¤¨à¤®":2163,"Ġth":2164,"Ġà¤ħà¤²à¤ªà¤¤":2165,"ust":2166,"Ġà¥ªà¥Ń":2167,"à¥ĩ,âĢĺ":2168,"BC":2169,"à¤¯à¤ķà¤ķ":2170,"Ġà¥¨à¥¦à¥Ńà¥§":2171,"à¤£à¤¯à¤¹à¤°":2172,"Ġà¤ħà¤°à¤¬":2173,"à¤¸à¤°à¤®":2174,"Ġà¥¬à¥ª":2175,"Ġà¤¦à¤°à¤²":2176,"Ġà¤¸à¤¹à¤¸à¤ļ":2177,"à¤¬à¤ľà¤¨":2178,"à¤ĩà¤Łà¤ķ":2179,"index":2180,"Ġà¤ªà¤Ł":2181,"à¤²à¤Ĺà¤ŀ":2182,"à¤£à¤°":2183,"à¤µà¤ķà¤ªà¤®":2184,"à¤¦à¤¹à¤°":2185,"à¤ħà¤·":2186,"title":2187,"Ġà¤Ńà¤ıà¤¸":2188,"Ġà¤ħà¤«à¤°":2189,"à¤°à¤Ĺà¤ŀ":2190,"Ġà¤®à¤ľ":2191,"à¤¤à¤ļ":2192,"Ġà¥Ńà¥¨":2193,"Ġà¤¦à¤«":2194,"Ġab":2195,"Ġà¤®à¤¨à¤ªà¤°":2196,"à¤¸à¤Ĺà¤°":2197,"à¥Įà¤Ĥ-":2198,"à¥ĤâĢĵ":2199,"Ġà¤¡à¤Łà¤ķà¤®":2200,"Ġà¤Ńà¤ĩà¤¨":2201,"Ġ::":2202,"à¤¸à¤¡à¤ķ":2203,"old":2204,"vie":2205,"Ġà¤¦à¤¯":2206,"à¤µà¤ķà¤ķ":2207,"à¤¤à¤°à¤£à¤ķ":2208,"à¤°à¤¯à¤¤":2209,"à¤īà¤ľ":2210,"Ġà¥Ńà¥®":2211,"à¤µà¤ķà¤ªà¤ķ":2212,"à¤ļà¤¯à¤ªà¤¤":2213,"Ġà¤ļà¤°à¤®":2214,"à¤¾.)":2215,"tha":2216,"ow":2217,"Ġà¥¬à¥§":2218,"à¤ķà¤°à¤£à¤®":2219,"à¤£à¤¬à¤¹":2220,"Ġà¤Ĩà¤ĩà¤¸à¤ķ":2221,"Ġà¥¨à¥¦à¥Ńà¥¦":2222,"à¥ĭà¤Ĥ":2223,"Ġà¥¯à¥«":2224,"Ġà¤ªà¤ļ":2225,"Ġ>":2226,"Ġà¤¶à¤¹":2227,"Ġà¤ıà¤ķà¤ªà¤Łà¤ķ":2228,"à¥¦à¥©":2229,"Ġabout":2230,"Ġà¥«à¥Ń":2231,"Ġà¥®à¥«":2232,"Ġà¥¬à¥®":2233,"Ġà¤Ĺà¤ıà¤ªà¤Ľ":2234,"Ġà¤Ĺà¤¹à¤¨":2235,"Ġà¥¤'":2236,"à¤Ĺà¤Ł":2237,"ang":2238,"à¤¾?":2239,"à¥Ģ'":2240,"Ġà¤°à¤¹à¤°":2241,"ura":2242,"à¤¨à¤¯à¤¨":2243,"Ġà¥¤...":2244,"Ġà¤¨à¤µà¤°":2245,"ortal":2246,"à¤¯à¤®à¤®":2247,"à¤¹à¤£":2248,"à¥©à¥®":2249,"à¥ªà¥¦":2250,"Ġà¥«à¥¦à¥¦":2251,"Ġà¤¹à¤Ļà¤ķà¤Ļ":2252,"à¤¤à¤ľ":2253,",âĢĿ":2254,"php":2255,"ya":2256,"à¤°à¤Ĩà¤µ":2257,"à¥ģâĢĵ":2258,"Ġà¥¨à¥¦à¥§à¥ª":2259,"à¤ıà¤Ī":2260,"Ġà¤Ĩà¤¦à¤°":2261,"à¤µà¤Ńà¤°":2262,"Ġà¤ĩà¤Łà¤¹à¤°":2263,"Ġà¤¬à¤¦":2264,"à¥©à¥©":2265,"Ġà¤¹à¤®à¤²":2266,"hi":2267,"à¤¸à¤µà¤°":2268,"Ġà¤Ľà¤µ":2269,"à¥Ģà¤Ĥ":2270,"Ġà¤·":2271,"à¤Ľà¤ķ":2272,"khabar":2273,"à¤¹à¤ª":2274,"à¤ľà¤¹":2275,"Ġà¤Ĺà¤Ĺà¤¨":2276,"Ġ10":2277,"oldid":2278,"Ġà¤Ĩà¤ĩà¤¸":2279,"à¤Łà¤²à¤²":2280,"à¤Ĩà¤¤":2281,"à¤ĸà¤¬à¤°":2282,"à¤Īà¤ª":2283,"à¤¦à¤¬":2284,"à¤¨à¤ľ":2285,"Ġà¤Ĩà¤ĩà¤«":2286,"ati":2287,"à¤¨à¤Ĺà¤°à¤ķ":2288,"à¤ĸà¤¬":2289,"Ġà¤¡à¤°à¤²":2290,"Ġà¤§à¤ķ":2291,"à¤¿-":2292,"Ġà¥¯à¥®à¥ª":2293,"Ġà¤¸à¤¡à¤ķà¤ĸà¤£":2294,"Ġà¥Ńà¥ª":2295,"à¤®à¤¸à¤®":2296,"à¤µà¤¨à¤²":2297,"à¤µà¤¨à¤¶":2298,"Ġà¤ĺà¤¡":2299,"à¤¨à¤ķà¤°":2300,"Ġà¤¬à¤Ł":2301,"à¤ħà¤Ĺ":2302,"ick":2303,"à¤¯à¤ľà¤¨":2304,"à¤·à¤¸":2305,"à¤Ĩà¤ĩ":2306,"Ġà¤Ĩà¤¬à¤¦":2307,"wikipedia":2308,"à¤®à¤Ĺà¤°":2309,"Ġà¥Ńà¥Ń":2310,"Ġà¤¹à¤¨":2311,"Ġà¤¤à¤¨à¤¹":2312,"à¤¨à¤ľà¤¨":2313,"Ġà¤ĵà¤®":2314,"à¤¯à¤¬à¤¸":2315,"à¤¡à¤ªà¤°":2316,"à¤®à¤¨à¤Ĺà¤°":2317,"Ġà¤®à¤ļ":2318,"à¤¡à¤µ":2319,"Ġà¥«à¥¯":2320,"Ġà¥§à¥¯à¥®":2321,"à¤ľà¤¨à¤ķà¤ª":2322,"à¤¤à¤°à¤¦":2323,"Ġà¤īà¤¦à¤¯à¤ª":2324,"à¤ªà¤¸à¤®":2325,"Ġà¤¶à¤²":2326,"Ġà¤°à¤¨à¤²":2327,"ok":2328,"ĠâĪ":2329,"à¤ĩà¤¤à¤µ":2330,"à¥Ĥ.":2331,"Ġà¥¬à¥¨":2332,"Ġà¤®à¤¨à¤ķ":2333,"Ġà¤¹à¤ķà¤®":2334,"à¥¦à¥«":2335,"11":2336,"Ġà¤Ĩà¤¸à¤ª":2337,"à¤²à¤¬à¤ķ":2338,"Ġà¤¹à¤²à¤®":2339,"à¤°à¤®à¤£à¤¬":2340,"Ġà¤ıà¤ķà¤®":2341,"Ġ+":2342,"Ġà¤¨à¤µà¤¨":2343,"Ġà¥¬à¥¬":2344,"à¤·à¤ķà¤®":2345,"à¥¦à¥¦à¥¦":2346,"à¤¸à¤ķà¤¹à¤°":2347,"Ġà¤Ŀà¤²":2348,"à¤ķà¤¡":2349,"Ġà¤Ńà¤°à¤®":2350,"ĠâĪ£":2351,"à¤Łà¤¬à¤²à¤®":2352,"Ġà¤ħà¤µà¤¶":2353,"Ġà¤ķà¤®à¤°":2354,"rom":2355,"Ġà¤Ńà¤Īà¤°à¤¹":2356,"os":2357,"Ġà¤¦à¤°à¤¬à¤¨":2358,"à¥ģ-":2359,"Ġà¤Ńà¤¬":2360,"à¤Ĩà¤īà¤Ł":2361,"à¤ķà¤¤à¤®":2362,"Ġà¥®à¥®":2363,"20":2364,"Ġà¥¦à¥«":2365,"à¤¦à¤£":2366,"Ġà¤¦à¤®à¤ķ":2367,"ug":2368,"à¤ľà¤°à¤²":2369,"à¤¦à¤¨à¤²":2370,"Ġà¤ĩà¤ľà¤°":2371,"à¤¯à¤Łà¤ķà¤²":2372,"Ġà¤ķà¤«":2373,"âĨĴ":2374,"Ġà¤¨à¤Ĺ":2375,"Ġà¤ıà¤¸à¤ª":2376,"Ġà¤¸à¤®à¤ķ":2377,"à¤¦à¤µà¤ķ":2378,"à¤ıà¤ªà¤¨":2379,"Ġà¤¹à¤¡":2380,"âĨĲ":2381,"Ġà¤«à¤¨":2382,"Ġà¤Ĩà¤¯à¤²":2383,"Ġà¤Ķà¤¸à¤¤":2384,"ut":2385,"ot":2386,"à¤ľà¤Ĺà¤¢":2387,"à¤¸à¤µà¤®":2388,"à¤ķà¤¶":2389,"à¥Ńà¥§":2390,"à¤ģà¥ģ":2391,"à¤¨à¤ħà¤ĺ":2392,"Ġà¤²à¤®à¤ľ":2393,"à¤ħà¤«":2394,"Ġà¤¨à¤Ĺà¤°à¤ķ":2395,"à¤Ĺà¤°à¤£":2396,"Ġà¥Ńà¥§":2397,"à¤¯à¤ķà¤®":2398,"Ġà¤ħà¤¨à¤¸à¤¨":2399,"ĠKhabar":2400,"Ġ6":2401,"à¥ªà¥¬":2402,"à¥©à¥§":2403,"à¤¯à¤ķà¤²":2404,"à¤¿à¥į":2405,"Ġà¤®à¤¨à¤¸":2406,"à¤Ĺà¤łà¤¨à¤²":2407,"à¥į,âĢĻ":2408,"ĠCanc":2409,"Ġ2016":2410,"à¤ıà¤®à¤Ī":2411,"à¤²à¤Ļ":2412,"Ġà¤īà¤ĸ":2413,"Ġà¤¬à¤Ļ":2414,"ĠCancel":2415,"Ġà¤µà¤¹":2416,"à¤¯à¤¥":2417,"à¤°à¤Ļà¤ķ":2418,"Ġà¤Ĩà¤Īà¤ª":2419,"Ġà¤¶à¤¹à¤°à¤®":2420,"à¤ıà¤ļ":2421,"à¤µà¤¸à¤¨":2422,"à¤¶à¤¤à¤ķ":2423,"10":2424,"Ġ__":2425,"ant":2426,"Ġà¤°à¤ľ":2427,"Ġà¤®à¤¤à¤ªà¤¤":2428,"à¥ĭ'":2429,"à¥ªà¥®":2430,"Ġà¤°à¤¨à¤®":2431,"):":2432,"Ġà¥Ńà¥¬":2433,"agar":2434,"Ġà¤ħà¤¯":2435,"Ġd":2436,"right":2437,"Ġà¤Ĺà¤Ńà¤°":2438,"Ġà¤ĭà¤·":2439,"Ġà¤īà¤ªà¤¸à¤Ń":2440,"à¤łà¤Ń":2441,"Ġà¤¦à¤¶à¤®":2442,"à¥©à¥¨":2443,"à¤¨à¤µà¤ħà¤§":2444,"Ġà¤ļà¤Ł":2445,"ĠâĨĴ":2446,"à¤īà¤¤à¤²":2447,"opy":2448,"Ġà¥¯à¥¯":2449,"à¤ıà¤²à¤¸":2450,"à¥©à¥«":2451,"Ġà¤ľà¤¨à¤ļ":2452,"Ġà¤ĵà¤Ł":2453,"à¤¾(":2454,"ig":2455,"à¤ķà¤ŀ":2456,"np":2457,"Ġà¤ĵà¤¸":2458,"Ġà¤¦à¤µ":2459,"à¤°à¤ķà¤°à¤£à¤®":2460,"à¤ªà¤¹à¤°":2461,"à¤¯à¤®à¤¹à¤°":2462,"Ġà¤ħà¤¨à¤®":2463,"à¥¤'":2464,"à¤īà¤¸à¤²":2465,"Ġà¤Ľà¤ł":2466,"à¤ªà¤°à¤®":2467,"à¤¾à¤¾":2468,"à¤ĩà¤¬à¤°":2469,"12":2470,"Ġà¤ıà¤ķà¤¸":2471,"Ġà¤ĵà¤Ŀ":2472,"à¤Īà¤ľà¤¨":2473,"à¤ĺà¤Ł":2474,"Ġà¤ĩà¤ľà¤²":2475,"Tag":2476,"à¤¸à¤²à¤®":2477,"Ġà¤Ĩà¤®à¤¨":2478,"à¤°à¤Ĺà¤¨":2479,"ham":2480,"Ġand":2481,"opyright":2482,"à¥«à¥§":2483,"à¤Ĩà¤Īà¤ľ":2484,"Ġà¥Ńà¥©":2485,"Ġà¤ħà¤ªà¤¹à¤°à¤£":2486,"Ġag":2487,"à¤ªà¤ŀ":2488,"Ġto":2489,"à¤¶à¤Ńà¤°à¤ķ":2490,"Ġà¤ķà¤ļ":2491,"à¤¿âĢ¦":2492,"à¤Łà¤°à¤¹à¤°":2493,"ger":2494,"Ġà¤Ĩà¤Ń":2495,"à¤¤à¤°à¤µ":2496,"à¤¬à¤¢":2497,"Ġ7":2498,"à¤Ĩà¤ĩà¤¤à¤¬":2499,"ĠPortal":2500,"à¤¿)":2501,"à¤µà¤¨à¤¸":2502,"Ġà¤µà¤¸à¤¨":2503,"à¤¹à¤ķà¤¹à¤°":2504,"Ġà¤Ĩà¤ķà¤¸":2505,"Ġ..":2506,"à¥¦à¥Ńà¥«":2507,"Ġà¤Ĩà¤ªà¤¸":2508,"à¤¹à¤ľ":2509,"Ġà¥¬à¥Ń":2510,"à¤¯à¤¯à¤¨à¤°à¤¤":2511,"à¤²à¤ķà¤¹à¤°":2512,"Ġà¤Ńà¤µà¤¨à¤®":2513,"Ġ12":2514,"à¤¶à¤ª":2515,"Ġà¤²à¤¨":2516,"à¤°à¤®à¤¬":2517,"à¤ķà¤Łà¤ķ":2518,"Ġ*":2519,"à¤Łà¤¸à¤®":2520,"AL":2521,"à¤µà¤°à¤£à¤®":2522,"Ġà¥®à¥ª":2523,"à¤²à¤Ĺà¤¤":2524,"Ġà¤ĩà¤ŀ":2525,"à¥Ģ/":2526,"à¤«à¤°à¤ķ":2527,"Ġà¤Ŀà¤¡à¤ª":2528,"Ġà¤ıà¤Ńà¤°":2529,"Ġà¤ªà¤ª":2530,"à¤¯à¤£à¤ķ":2531,"Ġà¤ĸà¤ªà¤¤":2532,"Ġago":2533,"à¤¨à¤¸à¤¹":2534,"à¤Łà¤²à¤ķ":2535,"à¤¨à¤ħà¤¨":2536,"à¤²à¤¡":2537,"âĢį":2538,"à¤¤à¤ķà¤¹à¤°":2539,"à¥ĩâĢ¦":2540,"Ġwww":2541,"à¤Ļà¤Ĺ":2542,"Ġà¤łà¤ª":2543,"lick":2544,"Ġà¤ķà¤®à¤¨":2545,")à¥¤":2546,"à¤¨à¤Ńà¤°":2547,"à¤¼":2548,"Ġà¤Ŀà¤Ĺà¤¡":2549,"Ġà¥¨à¥¦à¥§à¥©":2550,"Ġà¤Ĩà¤īà¤¦":2551,"Ġà¤¨à¤Ńà¤¨":2552,"Ġà¤¸à¤¹à¤¨":2553,"ept":2554,"à¤ĩà¤°à¤¹à¤¨":2555,"à¥¨à¥¦à¥§à¥®":2556,"Ġà¤¬à¤¸à¤¨":2557,"Ġà¤ħà¤¬à¤¸":2558,"ĠPost":2559,"Ġà¥Ĳ":2560,"à¤°à¤¸à¤°à¤ķ":2561,"Ġà¤Ĺà¤ļ":2562,"Ġà¤¦à¤£":2563,"à¤ıà¤¨à¤Ĩà¤°à¤ıà¤¨":2564,"à¤·à¤¯à¤¹à¤°":2565,"Ġà¤¸à¤ªà¤¥":2566,"à¤ķà¤¨à¤ķ":2567,"à¥¤à¥¤":2568,"à¤īà¤ļ":2569,"à¤Ļà¤¸":2570,"Ġà¤¨à¤Ńà¤ıà¤ªà¤Ľ":2571,"à¥©à¥¬":2572,"Ġà¤Ĩà¤¬":2573,"Ġà¤Ĩà¤°à¤®":2574,"Ġà¤¸à¤Ĺ":2575,"à¤ħà¤ķ":2576,"à¤ªà¤ªà¤Ľ":2577,"Ġà¤¨à¤Ľ":2578,"à¤¸à¤¤à¤®":2579,"à¤°à¤¨à¤Ĺà¤°":2580,"Ġpost":2581,"ĠDec":2582,"Ġà¤ķà¤°à¤ķ":2583,"Ġà¤ĺà¤²":2584,"Ġà¤ĩà¤Ł":2585,"te":2586,"Ġà¤ľà¤Ĺà¤¤":2587,"à¤ĩà¤²à¤®":2588,"à¤Ľà¤¦":2589,"à¥ĭà¥¤âĢĻ":2590,"Ġà¤īà¤ªà¤¸à¤®":2591,"ĠMore":2592,"Ġà¤Ĳà¤¨à¤ķ":2593,"à¤¶à¤¦":2594,"à¥ģà¥į":2595,"à¤®à¤Ļ":2596,"Ġe":2597,"à¤¯à¤Ń":2598,"74":2599,"à¤°à¤¸à¤°":2600,"Ġ!!!":2601,"ĠÂ«":2602,"ĠâĢİ":2603,"res":2604,"à¤¸à¤ķà¤²":2605,"Ġà¤Ĺà¤Ī":2606,"à¤¹à¤µ":2607,"ĠNE":2608,"Ġ8":2609,"ĠJan":2610,"à¥ĩà¤ģ,":2611,"Ġà¤¸à¤¹à¤°à¤®":2612,"à¤¸à¤«":2613,"Copyright":2614,"à¤®à¤¤à¤ķ":2615,"à¤Łà¤°à¤«":2616,"à¤īà¤¡à¤ķ":2617,"à¤¯à¤¸à¤¹":2618,"à¤Ĳ":2619,"Ġà¥¨à¥¦à¥§à¥¦":2620,"Ġà¤ļà¤²à¤ĸ":2621,"Ġà¤ķà¤²à¤®":2622,"Ġà¤Łà¤ª":2623,"à¤īà¤ªà¤¤":2624,"Ġ?âĢĿ":2625,"Ġà¥¨à¥¦à¥¦à¥Ń":2626,"à¥©à¥¯":2627,"Ġà¥¨à¥¦à¥¨à¥¦":2628,"à¤ķà¤Łà¤®":2629,"Ġà¤Ńà¤µà¤¨à¤ķ":2630,"à¤ķà¤¸à¤°":2631,"à¤¸à¤ıà¤ª":2632,"irst":2633,"day":2634,"à¤¡à¤¹à¤°":2635,"IV":2636,"à¤¥à¤²à¤¬":2637,"Ġ11":2638,"à¤¸à¤ķà¤ķ":2639,"Ġà¤Łà¤¸":2640,"Ġà¤ľà¤¨à¤µ":2641,"à¥«à¥®":2642,"à¤Ĩà¤¬":2643,"Ġà¤¥à¤²":2644,"à¤¹à¤°à¤£à¤ķ":2645,"Ġà¤®à¤¡":2646,"à¤£à¤µ":2647,"à¤¨à¤¬à¤¹":2648,"ĠBBC":2649,"24":2650,"Ġà¤²à¤Ń":2651,"à¤¹à¤²à¤ª":2652,"à¤§à¤¨à¤Ĺà¤¢":2653,"--":2654,"à¥ĩà¥į":2655,"à¤ħà¤µ":2656,"à¤ıà¤¨à¤ı":2657,"ĠMess":2658,"eptember":2659,"à¤ħà¤¦":2660,"Ġà¤ıà¤®à¤¬":2661,"ud":2662,"à¤£à¤¯à¤ķ":2663,"à¤ľà¤¯à¤ķ":2664,"à¤²à¤¬à¤¨":2665,"Ġà¤¦à¤¹":2666,"à¤ħà¤¨à¤²":2667,"Ġà¥¬à¥¯":2668,"Ġà¤Ĩà¤ĩà¤¤à¤µ":2669,"à¤ªà¤¯à¤²":2670,"Ġthe":2671,"Ġà¤ªà¤¹à¤²à¤®":2672,"à¤°à¤¹à¤ķ":2673,"à¥ĢâĢ¦":2674,"ĠCh":2675,"imal":2676,"à¤²à¤Ł":2677,"à¤²à¤¹":2678,"Ġa":2679,"enger":2680,"Ġà¤¨à¤Ńà¤ıà¤¸à¤®":2681,"à¤°à¤Ńà¤°":2682,"à¤¾âĢľ":2683,"Ġà¤ľà¤¯":2684,"Ġà¤ħà¤ªà¤®":2685,"à¤¾âĢĿ":2686,"à¤¤à¤¹à¤Ł":2687,"Ġà¤ıà¤°":2688,"à¤ªà¤¡":2689,"à¤ĸà¤¸à¤®":2690,"Ġà¤ħà¤£":2691,"à¤¤à¤ķà¤²":2692,"Ġà¤ĸà¤²":2693,"Ġà¤Ĩà¤ľà¤¬":2694,"ĠMessenger":2695,"à¥¬à¥¦":2696,"à¤ĸà¤²à¤¢":2697,"......":2698,"à¤¯à¤¤à¤¯":2699,"Ġà¤īà¤ªà¤ķ":2700,"Ġà¤Ĺà¤łà¤¨à¤ķ":2701,"à¥Įà¤Ĥ,âĢĻ":2702,"AT":2703,"Ġà¥¨à¥¦à¥§à¥§":2704,"Ġà¤¶à¤¶":2705,"à¤ħà¤¤":2706,"Ġà¥®à¥¨":2707,"Ġà¤łà¤®":2708,"Ġà¤ħà¤®à¤°":2709,"yakhabar":2710,"à¤µà¤¤à¤ķ":2711,"Ġà¤ķà¤·":2712,"à¤·à¤Ĺà¤°":2713,"à¤¤à¤ķà¤®":2714,"à¥Įà¤ĤâĢĻ":2715,"nd":2716,"Ġà¤¸à¤¤à¤°":2717,"Ġà¥®à¥§":2718,"à¤Ĺà¤®à¤¨à¤ķ":2719,"Ġà¤¸à¤¬à¤Ńà¤¨":2720,"à¥ĪâĢĻ":2721,"à¤¹à¤¨à¤¤":2722,"à¤¯à¤¯à¤¨à¤²":2723,"à¤¡à¤ķà¤ª":2724,"Tags":2725,"à¤¯à¤²à¤ķ":2726,"Ġfrom":2727,"io":2728,"ong":2729,"à¤§à¤¨à¤¬":2730,"Ġà¥¨à¥¦à¥§à¥¨":2731,"sh":2732,"à¤£à¤¯à¤²":2733,"Ġà¤ıà¤¸à¤ıà¤²à¤¸":2734,"à¤ıà¤Ł":2735,"à¤ªà¤ķà¤°":2736,"à¤ıà¤¸à¤¨":2737,"à¤¯à¤¦à¤²":2738,"Ġà¥Ńà¥¯":2739,"Ġ19":2740,"à¤Ĺà¤²à¤ķ":2741,"Ġà¤ĵà¤Ńà¤°":2742,"Ġ17":2743,"à¤²à¤¯à¤¨":2744,"à¤¯à¤Łà¤¨à¤ķ":2745,"à¤¶à¤ķà¤¹à¤°":2746,"pr":2747,"à¤ıà¤«à¤¸":2748,"à¤Ńà¤ªà¤¤":2749,"Ġà¤¡à¤¡":2750,"à¤¾!":2751,"à¤īà¤¡à¤®":2752,"à¥©à¥ª":2753,"à¥Ī...":2754,"à¥ĩ'":2755,"à¤®à¤¦à¤¤":2756,"Ġà¤ħà¤Ĺà¤¸":2757,"Ġà¤ħà¤Ľ":2758,"à¤°à¤µà¤Ł":2759,"rest":2760,"à¤Ĩà¤§":2761,"à¤§à¤ª":2762,"Ġà¥®à¥¬":2763,"à¤¥à¤¨à¤®":2764,"à¤ľà¤¤à¤¨":2765,"Ġà¤¡à¤²à¤°à¤ķ":2766,"our":2767,"à¥Ĥ-":2768,"à¥į)":2769,"à¤Ńà¤ıà¤¨":2770,"à¥ªà¥ª":2771,"à¤·à¤Ńà¤¨":2772,"à¥ĩà¤ģà¥¤":2773,"à¤¤à¤¨à¤¹à¤°":2774,"à¤łà¤ķà¤¹à¤°":2775,"à¤ķà¤¤à¤°":2776,"Ġà¥¨à¥¦à¥¬à¥ª":2777,"Ġà¤ªà¤®":2778,"Ġà¤ķà¤¦":2779,"Ġà¤®à¤Ĺà¤°à¤²":2780,"Ġà¤²à¤Ĺà¤ĩà¤¨":2781,"à¤Ńà¤¤":2782,"à¤ĩà¤¹à¤°":2783,"Ġà¤¦à¤¶à¤ķà¤¦":2784,"Ġà¤ªà¤Łà¤ķà¤ķ":2785,"à¤ĺà¤°à¤ķ":2786,"ear":2787,"à¤Īà¤¬":2788,"ark":2789,"à¤Īà¤ľ":2790,"Ġà¤Ńà¤°à¤ªà¤°":2791,"ook":2792,"um":2793,"Ġ15":2794,"à¤Ńà¤²à¤ªà¤®":2795,"aya":2796,"Ġà¤¶à¤°à¤¦":2797,"à¤Ĩà¤ĩà¤ľ":2798,"Ġ#":2799,"Ġà¤ĩà¤¶":2800,"à¥ĭâĢĿ":2801,"à¤Łà¤¨à¤Ĺà¤°à¤®":2802,"à¤Ĩà¤ĩà¤¸":2803,"Ġà¤°à¤¬":2804,"AR":2805,"à¤°à¤¸à¤ŀ":2806,"à¤Ĩà¤Īà¤¸":2807,"à¤¯à¤°à¤§à¤¨":2808,"à¤²à¤ļ":2809,"à¤ľà¤¦à¤°":2810,"à¤Łà¤°à¤¬":2811,"à¤¶à¤®à¤¨":2812,"Ġà¤Ĩà¤°à¤ķ":2813,"Ġà¤¨à¤Ĩà¤ıà¤ķ":2814,"à¤ıà¤²à¤ķ":2815,"ĠSama":2816,"Ġà¤ľà¤²à¤¸":2817,"à¤īà¤¥":2818,"à¤ķà¤°à¤²":2819,"Ġà¤ªà¤¸à¤²à¤®":2820,"à¤ħà¤¶":2821,"à¤¹à¤Ļà¤ķ":2822,"ĠArtha":2823,"Ġà¥¯à¥¬":2824,"Ġà¤ĺà¤°à¤ªà¤°":2825,"Ġà¤ĺà¤°à¤¦":2826,"Ġà¤¤à¤°à¤²":2827,"Ġà¤ªà¤Łà¤ķà¤ªà¤Łà¤ķ":2828,"à¤ĸà¤Ńà¤¨":2829,"à¤¡à¤¨à¤®":2830,"Ġ13":2831,"Ġà¥®à¥©":2832,"à¤ħà¤ªà¤°":2833,"Ġ16":2834,"Ġà¤ĩà¤£":2835,"à¤ªà¤°à¤ķ":2836,"Ġà¤¬à¤¸à¤ª":2837,"Ġà¤ĸà¤¤à¤°à¤¨":2838,"Ġà¤ıà¤¸à¤ıà¤¸à¤ª":2839,"à¤ªà¤¨à¤ªà¤¤":2840,"Ġà¤īà¤ªà¤®":2841,"à¤Łà¤µà¤²à¤®":2842,"à¤°à¤ķà¤²":2843,"Ġà¤Ķà¤ļ":2844,"________":2845,"à¤§à¤µà¤ķ":2846,"ME":2847,"Ġà¤µà¤ľ":2848,"à¤Ĩà¤ıà¤ķ":2849,"à¤łà¤¹à¤°":2850,"à¤·à¤¯à¤µà¤¸":2851,"à¤¶à¤¤à¤¸à¤®":2852,"ĠRep":2853,"à¥ģ...":2854,"à¤µà¤²à¤²":2855,"Ġà¤Ľà¤²à¤«à¤²à¤ķ":2856,"Ġà¤Ĺà¤«":2857,"Ġà¤®à¤ľà¤¬":2858,"ide":2859,"à¤¬à¤Īà¤®":2860,"Ġà¥¯à¥ª":2861,"Ġ18":2862,"à¤°à¤®à¤£à¤²":2863,"22":2864,"Ġà¤ıà¤¯à¤°à¤ķ":2865,"Ġà¤ĵà¤²à¤®":2866,"Ġà¤Ĩà¤Īà¤¤à¤¬":2867,"à¤¯à¤¦à¤²à¤²":2868,"à¤®à¤ĺ":2869,"à¤ĩà¤µ":2870,"à¥¨à¥¦à¥¦":2871,"à¥į?":2872,"ge":2873,"Ġà¤ľà¤Ļ":2874,"à¤īà¤¨à¤®":2875,"Ġà¤Ĩà¤ªà¤¸à¤®":2876,"à¤¶à¤¤à¤®":2877,"Ġà¤ħà¤µà¤¤à¤°à¤£":2878,"à¤°à¤ļà¤²":2879,"Ġà¤¨à¤Ĩà¤īà¤¨":2880,"Ġà¤²à¤ľ":2881,"Ġà¤®à¤¤à¤²":2882,"Ġk":2883,"âĢ¦âĢ¦":2884,"à¤£à¤¬":2885,"uryakhabar":2886,"à¤ĩà¤ı":2887,"18":2888,"à¤°à¤¸à¤Ļ":2889,"Ġà¤¸à¤¯à¤Ńà¤¨":2890,"à¤¸à¤¯":2891,"à¤°à¤ļà¤²à¤¨":2892,"oc":2893,"Ġà¤Ĩà¤Īà¤¸":2894,"ĠThe":2895,"ish":2896,"15":2897,"à¤¤à¤°à¤¬":2898,"à¤¦à¤¥":2899,"à¤¡à¤²à¤²":2900,"à¤¥à¤¸":2901,"à¤Ĺà¤ª":2902,"Ġà¤§à¤®à¤²":2903,"Ġà¤°à¤ķà¤®à¤ķ":2904,"Ġà¥¯à¥§":2905,"à¤ħà¤Ŀ":2906,"à¤¦à¤Ń":2907,"Ġà¤¡à¤ķ":2908,"Ġà¤ĸà¤Ĺ":2909,"Ġà¥¨à¥¦à¥¬à¥®":2910,"ĠDecember":2911,"à¤¥à¤¤":2912,"à¤ıà¤¸à¤®":2913,"Ġà¥¨à¥¦à¥§à¥¯":2914,"Ġà¥¯à¥¨":2915,"Ġà¥®à¥Ń":2916,"à¤ļà¤¤":2917,"Ġà¤®à¤¨à¤²":2918,"cha":2919,"Ġà¤Ŀà¤²à¤¨":2920,"all":2921,"à¤µà¤²à¤ķ":2922,"Ġà¤īà¤ªà¤µ":2923,"à¤°à¤¤à¤°":2924,"à¤¾à¤ģ,":2925,"Ġà¤²à¤¤":2926,"Ġà¤µà¤¤":2927,"Ġà¤Ĩà¤¸à¤¨":2928,"ĠY":2929,"Ġà¤Ĺà¤¦":2930,"à¤ªà¤¢":2931,"Ġà¤¶à¤®":2932,"à¥Ģ(":2933,"Ġà¤ļà¤ª":2934,"Ġà¤®à¤¹à¤¶":2935,"Ġà¤µà¤¢":2936,"à¤ĵà¤ķ":2937,"19":2938,"ugust":2939,"Ġt":2940,"Nepali":2941,"à¤ķà¤°à¤ķ":2942,"à¤¾..":2943,"à¤¡à¤²à¤®":2944,"à¥«à¥«":2945,"à¤Ĩà¤¶":2946,"Ġà¤ľà¤¥":2947,"Ġà¤¥à¤ķ":2948,"à¤ĩà¤²à¤ķ":2949,"agarik":2950,"ĠNov":2951,"à¥ģ)":2952,"ont":2953,"WS":2954,"Ġà¥¯à¥Ń":2955,"à¤²à¤§":2956,",'":2957,"à¤ħà¤ĸ":2958,"Ġà¤¤à¤¸à¤°":2959,"à¥ªà¥§":2960,"à¤ļà¤¥à¤°":2961,"à¤¸à¤Ł":2962,"esh":2963,"Ġà¤ħà¤µà¤²à¤®":2964,"à¤¨à¤¶":2965,"Ġà¤ľà¤¨à¤Ĩà¤¨":2966,"à¤µà¤²à¤®":2967,"à¤°à¤¹à¤®":2968,"ĠInter":2969,"Ġà¤ľà¤¨à¤¸à¤®":2970,"à¤ĵà¤¬":2971,"Ġ&":2972,"à¤¤à¤°à¤°":2973,"à¥¯à¥Ńà¥Ń":2974,"à¤¨à¤¨à¤Ĺà¤°":2975,"Ġà¥®à¥¯":2976,"Ġà¤ħà¤²à¤®":2977,"own":2978,"',":2979,"à¤¦à¤¶à¤¨":2980,"Ġà¤¸à¤®à¤¯à¤ªà¤Ľ":2981,"à¤¶à¤¤à¤Ńà¤¨":2982,"à¤¨à¤µà¤²à¤ªà¤°":2983,"à¥ĭ:":2984,"Ġà¤¹à¤¦à¤¸à¤®":2985,"Ġhttps":2986,"Ġà¥¨à¥¦à¥¬à¥¯":2987,"load":2988,"Ġà¤Ķà¤ľ":2989,"Ġà¤Ĩà¤µà¤ķ":2990,"Ġà¤¨à¤®à¤¸":2991,"à¤¤à¤¹à¤¤":2992,"Ġà¤²à¤¸":2993,"Ġà¥©à¥¦à¥¦":2994,"à¤¥à¤²à¤Ĺà¤¤":2995,"age":2996,"??":2997,"à¤ļà¤²à¤ķ":2998,"à¤¡à¤¤":2999,"ĠHimal":3000,"Ġ24":3001,"à¤¦à¤ª":3002,"à¤ķà¤ħà¤ª":3003,"Ġ14":3004,"Ġà¤ľà¤¨à¤®à¤¤":3005,"à¤¬à¤²à¤ķ":3006,"Post":3007,"Ġà¥¨à¥¦à¥¬à¥©":3008,"à¤Ńà¤£":3009,"ure":3010,"à¤Īà¤°à¤¹":3011,"Ġà¤¯à¤ľ":3012,"à¤Łà¤¤":3013,"à¥ģà¤ģ,":3014,"Ġà¤¤à¤¹à¤¬":3015,"13":3016,"Ġà¤īà¤ªà¤²à¤ķ":3017,"AN":3018,"Ġà¤Ĩà¤ľà¤¸à¤®":3019,"à¤ķà¤¸à¤²":3020,"à¤¤à¤®à¤ķ":3021,"à¤²à¤ķà¤£":3022,"Ġà¤²à¤£":3023,"Ġà¥¯à¥©":3024,"à¤°à¤£à¤¹à¤°":3025,"Ġà¤ıà¤ķà¤ħà¤°":3026,"IM":3027,"à¤²à¤¨à¤°à¤¤":3028,"ĠEn":3029,"14":3030,"à¤¤à¤µà¤Ł":3031,"Ġà¤Ĩà¤Ĺà¤®à¤¨":3032,"à¥ªà¥Ń":3033,"ist":3034,"Ġà¤Ĳà¤¨à¤®":3035,"Ġ//":3036,"à¤ķà¤Łà¤²":3037,"à¤¯à¤¨à¤ľà¤°":3038,"75":3039,"ainik":3040,"à¤¸à¤®à¤¯":3041,"No":3042,"à¥¬à¥¯":3043,"à¥įà¥¤âĢĻ":3044,"à¥¨à¥¦à¥Ńà¥¨":3045,"Ġà¤µà¤ļà¤¨":3046,"Ġà¤ĵà¤ªà¤¨":3047,"à¤Ńà¤°à¤¤à¤ª":3048,"à¤¡à¤¦":3049,"Ġà¤¬à¤¸à¤®":3050,"Ġà¥§à¥«à¥¦":3051,"à¤ªà¤°à¤¬":3052,"Ġà¤®à¤®":3053,"à¤°à¤²à¤Ĺ":3054,"à¤¤à¤Ĺà¤¤":3055,"à¤ķà¤¸à¤®":3056,"à¤¡à¤Ńà¤¨":3057,"à¤¾à¥°":3058,"à¤¯à¤Łà¤ķà¤¹à¤°":3059,"à¤Ĺà¤µ":3060,"à¤Ĺà¤ħà¤¨":3061,"ĠÂ":3062,"à¤·à¤¯à¤¤":3063,"à¤¤à¤°à¤£à¤®":3064,"Ġà¤ªà¤¦à¤¬":3065,"ho":3066,"à¤¦à¤°à¤¤":3067,"à¤¤à¤¬à¤¹":3068,"à¤¤à¤°à¤Ĺà¤¤":3069,"à¤ĩà¤Łà¤²":3070,"à¤¡à¤ªà¤®":3071,"Ġà¤«à¤¡":3072,"à¥ĭâĢĻ,":3073,"Ġmin":3074,"ple":3075,"à¤®à¤¨à¤ķ":3076,"Ġà¤²à¤¹":3077,"à¤°à¤µà¤¨":3078,"2018":3079,"Ġà¤Ĩà¤Īà¤¤à¤µ":3080,"à¤¦à¤¨à¤¹à¤°":3081,"à¤Ńà¤ķà¤°":3082,"à¤ıà¤¨à¤ª":3083,"Ġread":3084,"à¤Īà¤¡":3085,"Ġà¤®à¤¹à¤¨":3086,"ĠNo":3087,"han":3088,"rak":3089,"à¤Ńà¤ªà¤¤à¤¨":3090,"ĠSeptember":3091,"à¤īà¤Ľà¤¨":3092,"à¤Īà¤ķà¤²":3093,"Ġà¤¯à¤ķ":3094,"\\\\":3095,"Ġà¤®à¤Ĺà¤°à¤ķ":3096,"Ġà¤²à¤¹à¤°":3097,"Ġà¤®à¤¹à¤¤à¤²":3098,"à¥Ģà¤ĥ":3099,"à¤¡à¤¡":3100,"à¤¯à¤¨à¤²":3101,"à¤Ĩà¤ķ":3102,"Ġà¤¸à¤®à¤¯à¤¸":3103,"ct":3104,"Ġà¤Ŀà¤°à¤¨":3105,"ĠJanuary":3106,"à¤£à¤¨":3107,"à¥¦à¥ª":3108,"à¤²à¤ľ":3109,"Ġà¤ıà¤ªà¤ķ":3110,"à¤£à¤¹à¤°":3111,"à¤ķà¤¬à¤¹":3112,"à¤ļà¤¥":3113,"Ġà¤ªà¤°à¤®à¤ª":3114,"à¤¤à¤¨à¤²":3115,"à¤²à¤²à¤Ĺ":3116,"à¤¸à¤¸à¤®":3117,"Ġà¤¨à¤ļà¤²":3118,"Ġà¤¨à¤Ł":3119,"pd":3120,"Ġby":3121,"pril":3122,"alo":3123,"à¤ŀà¤ķ":3124,"Ġà¤Ĩà¤ıà¤¨":3125,"Ġà¤¸à¤¬à¤²":3126,"ownload":3127,"à¤Ńà¤¸":3128,"à¥¦à¥®":3129,"à¤Ĩà¤°à¤ı":3130,"adio":3131,"Ġà¤¤à¤²à¤ķ":3132,"à¥ĢâĢĿ":3133,"à¤ķà¤Ńà¤°":3134,"à¥¦à¥¯":3135,"à¤ĩà¤ķà¤²à¤®":3136,"à¥«à¥¯":3137,"Ġà¤¬à¤¸à¤ķ":3138,"à¤·à¤¤à¤°":3139,"à¤ĩà¤¨à¤¬":3140,"à¤ħà¤Ļ":3141,"Ġà¤·à¤¡":3142,"à¥į.":3143,"Ġà¤ħà¤¨à¤¨":3144,"à¤¨à¤Ľ":3145,"à¤ªà¤¨à¤²":3146,"Ġà¤ĵà¤ĸà¤²à¤¢":3147,"Ġà¤§à¤°à¤¹à¤°":3148,"à¤¸à¤®à¤®":3149,"yan":3150,"à¤¹à¤ķà¤ķ":3151,"Ġà¤ĩà¤Ń":3152,"à¤µà¤Ĺ":3153,"à¤²à¤¯à¤¸":3154,"Ġà¤Ĩà¤ĩà¤¡à¤²":3155,"verest":3156,"Ġà¤Łà¤ķ":3157,"Ġy":3158,"Ġà¤¡à¤¬à¤²":3159,"Ġà¤ķà¤¯":3160,"Ġà¤¶à¤¹à¤°à¤ķ":3161,"à¤£à¤¯à¤®":3162,"à¤Ĩà¤¦":3163,"Ġà¥¨à¥¦à¥¦à¥®":3164,"Ġà¤¨à¤¬à¤¢":3165,"ici":3166,"ĠTV":3167,"Ġnepal":3168,"à¤¯à¤®à¤¯":3169,"à¤²à¤¸à¤¹":3170,"Ġà¤ħà¤¸à¤¹à¤®à¤¤":3171,"à¤ľà¤¸à¤²":3172,"Ġà¤ĸà¤¬à¤°à¤¦":3173,"Nagarik":3174,"me":3175,"Ġà¤¬à¤¦à¤°":3176,"antra":3177,"à¤¤à¤ľà¤¨":3178,"à¤¨à¤Ĺ":3179,"à¤Łà¤¨à¤ķ":3180,"Ġ....":3181,"à¤ıà¤¨à¤¸":3182,"Ġà¥¯à¥®à¥«":3183,"Ġà¤ħà¤ł":3184,"Ġà¤ĩà¤Ļ":3185,"à¤ªà¤ĸ":3186,"Ġà¤¦à¤°à¤ĸ":3187,"à¤¹à¤Ł":3188,"Ġà¤°à¤ļ":3189,"à¤¶à¤¨à¤¬":3190,"ah":3191,"à¤Ļà¤¦":3192,"jya":3193,"Ġà¤¬à¤Ŀ":3194,"sp":3195,"à¤ĵà¤®":3196,"Ġà¤ľà¤®à¤°":3197,"ith":3198,"à¥«à¥ª":3199,"jyaalo":3200,"à¤ıà¤¡":3201,"Ġà¤®à¤¤à¤ķ":3202,"à¤ģâĢĻ":3203,"Ġà¤īà¤ªà¤¦":3204,"à¤Ĩà¤ł":3205,"à¤łà¤ķà¤¬":3206,"Ġà¥¨à¥¦à¥¦à¥¬":3207,"à¤¨à¤Ĺà¤°à¤²":3208,"Ġà¤Ńà¤°à¤¤":3209,"à¥įâĢ¦":3210,"ers":3211,"Ġà¤ľà¤ª":3212,"à¤¬à¤ļ":3213,"à¥¤\"":3214,"à¤ıà¤Īà¤ķ":3215,"à¤°à¤£à¤¬":3216,"une":3217,"Ġà¤¢à¤Ļ":3218,"à¤·à¤°à¤¤":3219,"ebook":3220,"à¤ĸà¤¡":3221,"à¤ıà¤®à¤ıà¤¸":3222,"IVE":3223,"à¤Īà¤Ń":3224,"ĠReply":3225,"Ġà¤¦à¤²à¤¬":3226,"NE":3227,"Ġà¥¦à¥®":3228,"à¤¨à¤Ĺà¤°à¤®":3229,"âĢ¢":3230,"opati":3231,"Ġà¤Łà¤¹à¤°":3232,"à¤Ńà¤Ł":3233,"à¤¸à¤®à¤¸":3234,"ebr":3235,"à¥įÂ»":3236,"Ġà¤¤à¤Ł":3237,"à¤¾\"":3238,"à¤Ĺà¤¬à¤¹":3239,"à¤¯à¤¸à¤®à¤§":3240,"à¤Īà¤¯":3241,"Ġà¥§à¥¯à¥¬":3242,"ebruary":3243,"à¤ħà¤¬à¤ķ":3244,"Ġà¤®à¤Ł":3245,"Ġà¥¦à¥Ńà¥ª":3246,"ĠJul":3247,"à¤²à¤µà¤ķ":3248,"ĠNEWS":3249,"Ġà¤Ĳà¤°":3250,"Ġà¤ĺà¤°à¤§":3251,"Ġcom":3252,"à¤ħà¤ªà¤¡":3253,"ĠUjyaalo":3254,"à¥¦à¥§":3255,"ld":3256,"à¤ĩà¤ıà¤¨":3257,"à¤Ľà¤ª":3258,"acebook":3259,"à¥¯à¥®à¥«":3260,"16":3261,"à¥ĤâĢĻ":3262,"à¤®à¤ķà¤µ":3263,"Ġà¤°à¤ĺ":3264,"à¤¬à¤¡":3265,"à¤łà¤¨":3266,"ress":3267,"Ġà¤¸à¤°à¤¹":3268,"à¤¯à¤¯à¤¨à¤®":3269,"à¤ıà¤Īà¤®":3270,"Ġà¤Ĩà¤µà¤®":3271,"Ġà¤ľà¤¬à¤°à¤ľà¤¸":3272,"Ġà¤Ĩà¤Ĺà¤ľà¤¨":3273,"Ġ23":3274,"char":3275,"Ġà¤Ńà¤Ĺà¤µà¤¤":3276,"à¤Łà¤¨à¤®":3277,"à¤ªà¤µ":3278,"Ġà¤Ĩà¤ĩà¤ıà¤®à¤Ī":3279,"à¤Ĺà¤¬à¤¨":3280,"chaar":3281,"ĠSamachaar":3282,"à¤ķà¤Ń":3283,"Ġrep":3284,"à¥Īà¥¤":3285,"à¤µà¤¸à¤¹":3286,"?âĢĻ":3287,"à¤°à¤ķà¤ķ":3288,"à¤¯à¤ªà¤¤":3289,"à¤ĥà¥¤":3290,"à¤ıà¤«à¤ķ":3291,"Ġà¤¨à¤ľà¤°":3292,"Ġà¤īà¤Ľ":3293,"à¤ªà¤°à¤°":3294,"à¤Ĺà¤¬à¤ľ":3295,"Ġà¤ªà¤ĸ":3296,"à¥ĩà¤Ĥ,":3297,"à¤ļà¤¨à¤ªà¤Ľ":3298,"ital":3299,"à¤²à¤¬à¤®":3300,"à¤ıà¤ķà¤¤":3301,"Ġà¤īà¤ªà¤¸à¤ļ":3302,"Ġsuryakhabar":3303,"à¤·à¤¯à¤Ĺà¤¤":3304,"Ġà¤ĸà¤ª":3305,"ue":3306,"tantra":3307,"ans":3308,"ĠMun":3309,"ĠArthatantra":3310,"Ġà¤ĺà¤°à¤¹à¤°":3311,"à¤°à¤ķà¤®":3312,"we":3313,"hiyan":3314,"17":3315,"à¤¨à¤²à¤®":3316,"view":3317,"Ġà¤¯à¤¨":3318,"à¥¦à¥Ńà¥¬":3319,"à¥ªà¥¯":3320,"à¥«à¥Ń":3321,"Ġà¤Ńà¤ĩà¤°à¤¹à¤¨":3322,"Ġà¤µà¤ŀ":3323,"ajha":3324,"Ġà¥¨à¥¦à¥¦à¥¯":3325,"à¤®à¤¤à¤¦":3326,"ational":3327,"'s":3328,"Ġà¤¤à¤°à¤²à¤¤":3329,"Mo":3330,"ect":3331,"abhiyan":3332,"co":3333,"Ġà¤¨à¤¹à¤°":3334,"Ġà¤ķà¤ªà¤ķ":3335,"à¥©à¥Ń":3336,"Ġà¤ľà¤¬à¤ķ":3337,"à¤¯à¤ļ":3338,"Ġà¤Ĩà¤£à¤µ":3339,"ero":3340,"à¤ĸà¤¨à¤¨":3341,"rakura":3342,"hamrakura":3343,"Ġà¤°à¤ŀ":3344,"à¤Ńà¤°à¤ª":3345,"Ġat":3346,"Ġà¤ıà¤ªà¤¬":3347,"Ġà¤īà¤¬":3348,"à¤²à¤¤à¤¬":3349,"Ġà¤¡à¤¬":3350,"Ġà¤ĺà¤°à¤Ń":3351,"Ġà¤ķà¤¦à¤°":3352,"icipal":3353,"23":3354,"ari":3355,"Ġà¤ıà¤¯à¤°à¤ª":3356,"ĠNovember":3357,"Ġà¤¸à¤¨à¤®":3358,"à¥Ģ?":3359,"à¤§à¤¸":3360,"à¤ªà¤°à¤¸":3361,"Ġà¤ĸà¤¬à¤°à¤¹à¤°":3362,"à¤¨à¤²à¤Ĺ":3363,"à¤¤à¤ķà¤°":3364,"Ġn":3365,"Ġà¥¨à¥¦à¥¬à¥Ń":3366,"IT":3367,"Ġà¤¶à¤Ļ":3368,"OR":3369,"à¤²à¤«":3370,"à¤ľà¤ªà¤¤":3371,"Ġà¤Ńà¤Īà¤¸à¤ķ":3372,"à¤¦à¤ķà¤²":3373,"Ġà¤ľà¤¸à¤®à¤§":3374,"ĠAugust":3375,"à¤ĩà¤²à¤Ł":3376,"à¤¸à¤¹à¤ķ":3377,"à¤ķà¤ħà¤¨":3378,"à¤Īà¤°":3379,"à¤Ĺà¤²à¤²":3380,"Ġpro":3381,"ĠMunicipal":3382,"à¤°à¤¸à¤²":3383,"à¤ĭ":3384,"plete":3385,"à¤ķà¤ľ":3386,"à¤ĩà¤ļ":3387,"à¤¾),":3388,"à¤Ĺà¤®à¤¨à¤®":3389,"à¤§à¤¹à¤°":3390,"07":3391,"à¤¤à¤¹à¤¤à¤ķ":3392,"up":3393,"Ġà¤¡à¤®":3394,"à¥ªà¥¨":3395,"25":3396,"à¤Ĺà¤łà¤¬à¤¨":3397,"Ġà¤ķà¤®à¤ķ":3398,"Ġà¤®à¤Ŀ":3399,"mage":3400,"Ġh":3401,"Ġà¤ħà¤ĸà¤£":3402,"ee":3403,"Ġà¤¨à¤°à¤®":3404,"à¤ªà¤¸à¤ķ":3405,"à¤ıà¤¶":3406,"Ġà¤ľà¤¨à¤¹":3407,"Ġà¤Ŀà¤Ł":3408,"à¤Ŀà¤Ł":3409,"à¤Łà¤¨à¤Ĺà¤°à¤ķ":3410,"ash":3411,"ther":3412,"à¥¦à¥Ń":3413,"à¤¶à¤°à¤£":3414,"uration":3415,"Ġà¤ªà¤łà¤¨à¤ª":3416,"à¤Ĺà¤łà¤¨à¤¹à¤°":3417,"og":3418,"Ġà¤ķà¤£":3419,"à¤īà¤ªà¤°":3420,"Ġà¤¦à¤¶à¤®à¤²à¤¬":3421,"br":3422,"à¤ĸà¤¸":3423,"orld":3424,"ĠDuration":3425,"à¤Ĺà¤®à¤¤":3426,"à¥¦à¥¨":3427,"Ġà¤Ľà¤¤":3428,"à¤°à¤ľà¤¨à¤¨":3429,"à¤¯à¤¦à¤²à¤ķ":3430,"Posted":3431,"Ġà¤¸à¤¹à¤°à¤ķ":3432,"à¤¦à¤¬à¤¹":3433,"Ġà¤Ĩà¤·":3434,"à¥«à¥¬":3435,"à¤¯à¤²à¤¯":3436,"à¥ĩà¤Ĥà¥¤":3437,"à¤¾à¥į":3438,"app":3439,"views":3440,"Ġà¤¬à¤ŀ":3441,"Ġà¤Ńà¤ĩà¤¹":3442,"Ġà¤Ĩà¤īà¤²":3443,"à¤²à¤¨à¤¬":3444,"05":3445,"à¤¯à¤¸à¤¨":3446,"à¤µà¤®à¤¨":3447,"Ġà¤Ńà¤ıà¤Ľ":3448,"Ġà¤¬à¤¦à¤¨":3449,"Ġà¤ľà¤¨à¤°à¤²":3450,"à¤Ľà¤¡":3451,"Ġà¤ªà¤¦à¤¯":3452,"à¤¤à¤¯":3453,"à¤¯à¤ķà¤µ":3454,"à¤µà¤ķà¤¹à¤°":3455,"à¤¨à¤¯à¤®":3456,"à¤¸à¤¸à¤¹":3457,"Ġ(âĨĲ":3458,"Ġà¤¸à¤®à¤¯à¤²":3459,"Ġà¥ªà¥¦à¥¦":3460,"à¤°à¤ķà¤µ":3461,":-":3462,"à¤¾à¥Īà¤ģ":3463,"Ġà¤Ĳà¤¨à¤²":3464,"Ġà¤¸à¤®à¤¯à¤ħà¤ĺ":3465,"Ġà¤®à¤¤à¤ªà¤°":3466,"à¥Įà¤Ĥà¥¤âĢĻ":3467,"à¤Ĺà¤¸à¤®":3468,"à¤ľà¤ķà¤ķ":3469,"à¤ļà¤¨à¤¬":3470,"ĠSt":3471,"à¤¿à¥°":3472,"Ġà¤ĩà¤ª":3473,"à¤¤à¤¥":3474,"à¤¸à¤®à¤¨":3475,"à¤¥à¤¬":3476,"Ġà¤¬à¤²à¤°":3477,"à¤Łà¤ķà¤°":3478,"Ġviews":3479,"Ġà¤Īà¤²":3480,"Ġà¤ĩà¤¨à¤°":3481,"à¤ľà¤²à¤µ":3482,"à¤¯à¤¬à¤¹":3483,"Ġà¤®à¤¤à¤Ń":3484,"Ġà¤¦à¤°à¤®":3485,"Ġreply":3486,"à¤¹à¤¹à¤°":3487,"Ġà¤ıà¤ķà¤Ľ":3488,"Ġà¤®à¤¨à¤Ĺ":3489,"à¥«à¥¨":3490,"Ġà¤¨à¤²à¤Ĺ":3491,"Ġà¤ľà¤¨à¤¸à¤Ļ":3492,"ath":3493,"ĠComplete":3494,"à¤®à¤¶à¤°à¤£":3495,"à¤Ĩà¤²":3496,"à¥¬à¥©":3497,"Ġà¤Ĩà¤ĩà¤¡à¤²à¤ķ":3498,"à¤łà¤Ĺ":3499,"à¤°à¤«à¤²":3500,"ry":3501,"à¤µà¤°à¤¹à¤°":3502,"à¥®à¥¦":3503,"à¤ªà¤Łà¤ª":3504,"à¤Ĩà¤Īà¤ª":3505,"à¤ªà¤¤à¤ķ":3506,"à¤ľà¤¸à¤®":3507,"03":3508,"Ġà¤¤à¤¹à¤¸à¤®":3509,"à¥ĩ/":3510,"à¤¡à¤Ń":3511,"Ġà¤ĵà¤¬":3512,"à¤īà¤ł":3513,"aw":3514,"ĠRadio":3515,"utes":3516,"à¤ģâĢĵ":3517,"à¤¥à¤²à¤²":3518,"à¤°à¤®à¤¸":3519,"iv":3520,"à¤Ĥ,":3521,"Ġà¥¦à¥¯":3522,"à¤²à¤¶":3523,"à¤°à¤¸à¤ķ":3524,"à¤Ĩà¤Ĺà¤²":3525,"à¤ªà¤°à¤µ":3526,"Ġà¤ıà¤¨à¤Ĩà¤°à¤ıà¤¨à¤ı":3527,"2017":3528,"Ġminutes":3529,"ung":3530,"à¤ĩà¤ľà¤°":3531,"Ġà¤ĵà¤Ĺà¤Ł":3532,"à¤¦à¤°à¤Ĺ":3533,"mand":3534,"Ġà¤īà¤§":3535,"ĠDownload":3536,"Ġà¤«à¤ķ":3537,"Ġà¤ħà¤µà¤¸à¤°à¤ķ":3538,"à¥Īà¥Ī":3539,"à¤ĩà¤¹":3540,"à¤¿à¤¾":3541,"Ġà¥¤\"":3542,"Ġà¤Ĩà¤ªà¤°":3543,"à¤°à¤«à¤²à¤®":3544,"Ġ98":3545,"à¥ĭ/":3546,"à¤Ĩà¤ĩà¤ª":3547,"à¤·à¤¦à¤²":3548,"08":3549,"Ġà¤¬à¤²à¤ķ":3550,"à¥Įà¤ģâĢĵ":3551,"Ġà¤¥à¤¨":3552,"à¤°à¤ªà¤¸":3553,"Ġà¤¬à¤¬":3554,"Ġà¤¸à¤¦à¤¨":3555,"à¤ĩà¤Ļ":3556,"Ġà¤®à¤¤à¤²à¤¬":3557,"à¤µà¤°à¤£à¤ķ":3558,"à¤°à¤¬à¤°":3559,"09":3560,"Ġà¤¸à¤®à¤ķà¤ķ":3561,"Ġà¤ıà¤ķà¤ľ":3562,"à¤īà¤¸à¤ķ":3563,"Ġà¤°à¤ķà¤®à¤®":3564,"à¤Łà¤¦":3565,"à¤Īà¤«":3566,"Ġà¤Ńà¤ıà¤¨à¤¨":3567,"à¥Įà¤Ĥ:":3568,"ĠMunicipality":3569,"à¤®à¤¸à¤¹":3570,"Ġà¥§à¥¦à¥§":3571,"log":3572,"Top":3573,"Ġ22":3574,"Ġà¤¸à¤¹à¤ķà¤°":3575,"ature":3576,"à¤ıà¤®à¤¬":3577,"à¥ĩ:":3578,"atest":3579,"ĠTe":3580,"ĠMo":3581,"à¥ģ'":3582,"ãĢ":3583,"à¥ģ,âĢĻ":3584,"Ġà¤ĭà¤¤":3585,"à¤ıà¤«à¤ª":3586,"à¤¯à¤²à¤®":3587,"à¤Łà¤µà¤²à¤ķ":3588,"Ġà¥¤)":3589,"ile":3590,"à¤Ŀà¤®":3591,"à¤®à¤«":3592,"Ġà¤¸à¤¹à¤ľà¤¤":3593,"à¤¶à¤¯":3594,"Ġà¤¸à¤ĸ":3595,"à¤¯à¤¤à¤¨":3596,"Ġà¤¦à¤¶à¤ķà¤®":3597,"Ġà¤ªà¤¡":3598,"Ġà¤Ĩà¤Ĩà¤«":3599,"à¤ķà¤°à¤®":3600,"à¤ıà¤²à¤®":3601,"à¥Ńà¥®":3602,"à¤Łà¤°à¤ª":3603,"à¥įâĢĮà¥¤":3604,"Ġclick":3605,"pur":3606,"Ġà¤ħà¤ªà¤²":3607,"Ġ25":3608,"à¤·à¤£à¤¬":3609,"à¤Ńà¤°à¤¤":3610,"à¥ªà¥©":3611,"à¤·à¤¯à¤°":3612,"Ġà¤ªà¤°à¤¦":3613,"à¤ĩà¤Ĺà¤°":3614,"arch":3615,"à¤°à¤®à¤§":3616,"à¤¾âĢĻ,":3617,"CH":3618,"à¤¨à¤µà¤°":3619,"ina":3620,"nepalnews":3621,"Ġà¤Ĩà¤Ļ":3622,"à¤īà¤¬":3623,"Ġà¥¨à¥¦à¥¬à¥¨":3624,"à¤²à¤®à¤ľ":3625,"Ġà¤¨à¤¬à¤¸":3626,"à¤§à¤°à¤²":3627,"à¤¸à¤Ĺà¤°à¤®":3628,"Ġà¤µà¤¨à¤ķ":3629,"06":3630,"à¤µà¤¨à¤¬":3631,"ast":3632,"04":3633,"à¤µà¤¤à¤®":3634,"à¤¥à¤¶":3635,"Ġ--":3636,"Ġà¤ıà¤ĺ":3637,"Ġà¥¦à¥Ń":3638,"à¤·à¤ª":3639,"à¤¡à¤¨à¤ķ":3640,"Ġfirst":3641,"à¤ıà¤Ľ":3642,"Ġà¤ĺà¤°à¤²":3643,"ce":3644,"Ġà¤Ĩà¤¤à¤Ļ":3645,"à¤¤à¤°à¤ª":3646,"Ġà¤Ĩà¤®à¤°à¤£":3647,"Ġà¤Ĩà¤ĩà¤ľ":3648,"Ġà¤¦à¤°à¤ķ":3649,"Ġ@":3650,"ĠMay":3651,"Ġà¤ıà¤«à¤ª":3652,"Ġà¥¨à¥¦à¥¬à¥«":3653,"à¤«à¤¦":3654,"Ġà¤¸à¤¯à¤ķ":3655,"à¥Ĥ)":3656,"à¤²à¤µà¤²":3657,"à¤¯à¤¸à¤ļ":3658,"bout":3659,"lish":3660,"ord":3661,"Ġch":3662,"à¤¯à¤Ńà¤¨":3663,"à¤Ŀà¤ķ":3664,"à¤¤à¤µà¤¨à¤²":3665,"à¤¯à¤¸à¤¤à¤°":3666,"Ġà¤¯à¤¸à¤µà¤°":3667,"à¥§à¥¦à¥®":3668,"ĠVide":3669,"à¤ķà¤Łà¤¤à¤®":3670,"Ġà¤ıà¤¨à¤Ĩà¤°à¤ı":3671,"ER":3672,"Ġ21":3673,"Ġà¤µà¤¨à¤¸":3674,"à¤¶à¤¹":3675,"à¤¶à¤Ńà¤ķ":3676,"Ġà¤Ĳà¤¶":3677,"Ġà¤ħà¤ĸà¤¬":3678,"à¤°à¤ĺ":3679,"Ġà¤¯à¤®":3680,"Ġà¤Ńà¤ıà¤¤":3681,"à¤¹à¤Ļà¤ķà¤Ļ":3682,"à¤Ĥà¤Ĥ":3683,"Ġà¤Ĩà¤ĩà¤¨":3684,"à¤¸à¤¡":3685,"ion":3686,"à¤¨à¤°à¤®":3687,"à¥ĭ..":3688,"Ġà¤ķà¤²à¤ķ":3689,"Ġà¥¨à¥«à¥¦":3690,"ðŁ":3691,"à¤¯à¤°à¤¬":3692,"Ġà¤¦à¤®à¤¨":3693,"à¤ľà¤¨à¤Ńà¤¨":3694,"Ġï¿½":3695,"à¤°à¤ħà¤¨":3696,"Ġà¤ħà¤Ĺà¤·":3697,"à¤¾à¤ģà¥Ī":3698,"Ġà¤ıà¤¸à¤ıà¤®à¤ıà¤¸":3699,"Ġà¤¨à¤¶":3700,"à¤ľà¤¨à¤¸":3701,"Ġà¤ıà¤ķà¤ªà¤Ľ":3702,"Ġà¥ªà¥§à¥¦":3703,"Ġà¥¦à¥Ńà¥©":3704,"ĠSp":3705,"ected":3706,"à¤¨à¤ªà¤°":3707,"Ġà¤°à¤£à¤µ":3708,"Ġà¤ħà¤¸à¤¹à¤ľ":3709,"à¤¨à¤ĸ":3710,"à¤·à¤£à¤¹à¤°":3711,"Ġà¤Ĩà¤Īà¤ľ":3712,"Ġà¤īà¤ªà¤²à¤µ":3713,"à¤ĩà¤ķà¤²à¤ķ":3714,"à¤¡à¤¸à¤®":3715,"Ġà¥¨à¥¦à¥¦à¥¦":3716,"28":3717,"à¤µà¤°à¤¬":3718,"à¤ļà¤µ":3719,"ice":3720,"Ġà¤¬à¤¹à¤°":3721,"Ġà¤¡à¤¢":3722,"à¤¯à¤¸à¤ª":3723,"Ġà¤Ĺà¤¢":3724,"à¥«à¥©":3725,"Ġprot":3726,"Ġà¤ĺà¤°à¤ľà¤Ĺ":3727,"à¤ĩà¤°à¤¸":3728,"à¤¯à¤Łà¤¨à¤®à¤¨":3729,"à¤Łà¤°à¤Ł":3730,"Ġà¥¨à¥¦à¥¬à¥¬":3731,"gle":3732,"Ġà¤¨à¤Ĺà¤°à¤¸à¤Ń":3733,"Ġà¤µà¤°à¤ªà¤°":3734,"à¤¸à¤¨à¤¬":3735,"wit":3736,"à¤ĩà¤Ńà¤°":3737,"à¤ĩà¤¬à¤²":3738,"Mother":3739,"à¤Ĺà¤ľà¤²":3740,"à¤Īà¤ĵ":3741,"ev":3742,"iz":3743,"à¤¤à¤¹à¤Łà¤ķ":3744,"eting":3745,"ĠCont":3746,"na":3747,"NepalMother":3748,"02":3749,"Ġà¤¥à¤ªà¤²":3750,"à¥¨à¥¦à¥§à¥Ń":3751,"Ġà¤®à¤¦à¤¤":3752,"Ġprotected":3753,"à¤ķà¤°à¤¹à¤°":3754,"pdf":3755,"à¤Ĩà¤ĩà¤Ń":3756,"à¤¯à¤Ļ":3757,"à¤Ĺà¤ıà¤ķ":3758,"à¤Ĩà¤ľà¤¦":3759,"à¤¸à¤¹à¤®à¤¤":3760,"igital":3761,"Ġà¤Ĩà¤µà¤¤à¤ľ":3762,"Ġà¤Ĺà¤ĩà¤¸à¤ķ":3763,"Ġà¤²à¤°":3764,"Ġ.....":3765,"Ġà¤¦à¤°à¤Ń":3766,"à¤ĩà¤¨à¤°":3767,"Ġà¤ļà¤®à¤¤":3768,"à¤ªà¤²à¤ķ":3769,"à¤Ńà¤ļ":3770,"à¤Łà¤ªà¤Ł":3771,"email":3772,"ĠJuly":3773,"à¥Ģ),":3774,"Ġà¤Ĩà¤ĩà¤¡":3775,"à¤ľà¤®à¤£":3776,"à¤ħà¤¡":3777,"ive":3778,"ks":3779,"à¤¡à¤ķà¤ªà¤ķ":3780,"à¤¤à¤Ń":3781,"witter":3782,"Ġà¤ĺà¤°à¤ĺà¤°à¤®":3783,"à¤ħà¤«à¤Ĺ":3784,"à¤¯à¤Ĺ":3785,"à¤ĸà¤ķà¤²":3786,"à¤ķà¤²à¤¨à¤ķ":3787,"Ġà¤ĵà¤ª":3788,"à¤īà¤¦à¤¯à¤ª":3789,"à¤¯à¤²à¤²":3790,"à¤¹à¤ľà¤¨à¤ķ":3791,"à¤Ńà¤ħà¤Ļ":3792,"Ġà¤¸à¤®à¤²":3793,"à¤ķà¤¸à¤¹":3794,"à¤¯à¤ķà¤¹à¤°":3795,"Ġà¤ħà¤ľà¤¯":3796,"à¤īà¤¤à¤ķ":3797,"Ġà¤Ľà¤ª":3798,"à¤¤à¤²à¤ķ":3799,"à¤īà¤ªà¤ª":3800,"à¤®à¤¤à¤²":3801,"à¤µà¤²à¤ª":3802,"à¤Łà¤ķà¤ķ":3803,"Ġapp":3804,"à¤¸à¤®à¤¯à¤®":3805,"aption":3806,"Ġg":3807,"à¤¸à¤°à¤¸":3808,"Ġà¤ħà¤²à¤®à¤²":3809,"à¥ģâĢĿ":3810,"Ġà¤Ĺà¤¸":3811,"à¤¦à¤¯à¤ĺ":3812,"ĠID":3813,"Ġà¤Ķà¤²":3814,"à¤·à¤ľà¤¨à¤ķ":3815,"à¤ĸà¤¨à¤ķ":3816,"à¥¬à¥¬":3817,"à¤¨à¤®à¤¸":3818,"Ġà¥¨à¥¦à¥ªà¥¬":3819,"Ġv":3820,"ĠFirst":3821,"Topnepalnews":3822,"ric":3823,"à¤ļà¤µà¤Ł":3824,"Ġà¤ķà¤®à¤®":3825,"Ġ2015":3826,"Ġà¤°à¤ľà¤¤":3827,"à¤īà¤ªà¤ļ":3828,"à¤°à¤®à¤ħà¤¨":3829,"Ġà¤®à¤®à¤¤":3830,"Ġà¥§à¥§à¥©à¥®":3831,"à¤¨à¤Ł":3832,"Ġà¤¸à¤¦à¤¨à¤®":3833,"à¤ĸà¤°à¤®":3834,"à¤ıà¤Ńà¤°":3835,"Ġà¤«à¤£":3836,"26":3837,"à¥ĭ!":3838,"à¤¯à¤®à¤¶":3839,"à¤ıà¤¤":3840,"Ġà¤Ńà¤ľà¤¨":3841,"Ġà¤¸à¤¤à¤¹":3842,"Ġà¤®à¤¸à¤²":3843,"Ġà¤²à¤ĸ":3844,"à¥¤...":3845,"Ġà¤ĸà¤¬à¤°à¤ķ":3846,"Ġcomment":3847,"tain":3848,"à¤¸à¤ªà¤¨":3849,"hare":3850,"Khabar":3851,"ea":3852,"à¤µà¤°à¤¸":3853,"Ġ200":3854,"oft":3855,"Ġfor":3856,"à¤Łà¤ķà¤®":3857,"Ġà¤ķà¤Ńà¤°":3858,"Ġà¤¸à¤ľà¤Ĺ":3859,"Ġà¤ľà¤²à¤®":3860,"à¤Ļà¤Ł":3861,"à¤ľà¤¨à¤¶":3862,"à¤¿.,":3863,"Ġmark":3864,"à¤ľà¤Ńà¤£":3865,"à¤ıà¤¨à¤Ĩà¤°à¤ıà¤¨à¤ı":3866,"à¥Ńà¥¯":3867,"à¤Ńà¤°à¤Ļ":3868,"ayan":3869,"à¤®à¤ķà¤°":3870,"à¤¦à¤²à¤ķ":3871,"à¤¤à¤¨à¤¹":3872,"AM":3873,"à¥¬à¥§":3874,"Ġà¥§à¥¯à¥¯à¥¦":3875,"âĸ":3876,"à¤«à¤¨":3877,"Ġà¤ĩà¤®à¤°":3878,"Ġà¤īà¤¦à¤¯":3879,"News":3880,"Ġà¤ľà¤¸à¤¬":3881,"à¥ĩâĢĻ,":3882,"à¤¸à¤«à¤°":3883,"Ġà¤¦à¤²à¤®":3884,"ãĢĢ":3885,"à¤¤à¤Ńà¤°":3886,"Ġà¤īà¤¦à¤ĺ":3887,"net":3888,"Ġà¤ĺà¤¨à¤¶":3889,"az":3890,"Ġare":3891,"à¤ªà¤²à¤²":3892,"à¤°à¤¸à¤¨":3893,"à¤¯à¤¨à¤®":3894,"weet":3895,"à¤¸à¤ħà¤¨":3896,"à¥¬à¥®":3897,"Ġà¥¦à¥¨":3898,"Ġmarketing":3899,"ere":3900,"à¥ī":3901,"Ġà¤ªà¤¤à¤¨":3902,"à¥ĩâĢĵâĢĺ":3903,"à¤¸à¤Ĺ":3904,"à¤ıà¤¸à¤ľ":3905,"Ġmon":3906,"Ġà¤¸à¤¡à¤ķà¤¬":3907,"à¤ķà¤«":3908,"à¤Ĭà¤¨":3909,"Ġà¤ĭà¤£à¤ķ":3910,"à¤Łà¤ªà¤Ľ":3911,"à¤¸à¤§":3912,"Ġà¤īà¤Ĺ":3913,"Ġà¤¨à¤Ńà¤ĩ":3914,"Ġà¥¦à¥Ńà¥¨":3915,"à¥Įà¤ģ-":3916,"à¤¯à¤¸à¤µ":3917,"29":3918,"Ġà¤ĸà¤®":3919,"à¤¸à¤¹à¤¯":3920,"Ġà¤®à¤¦à¤°":3921,"Ġà¤®à¤¤à¤ª":3922,"à¥įà¥į":3923,"Ġà¤Ĩà¤īà¤Ľ":3924,"ï»":3925,"à¥Ĥ[":3926,"ï»¿":3927,"Ġà¤ļà¤¯à¤¨à¤ķ":3928,"à¤¦à¤¶à¤®":3929,"Ġà¤®à¤Ĺ":3930,"ĠLatest":3931,"à¤Ĺà¤ļ":3932,"à¤¦à¤°à¤ķ":3933,"à¤§à¤¨à¤¹à¤°":3934,"à¥ĪâĢ¦":3935,"à¤¤à¤®à¤¬":3936,"à¤ĩà¤²à¤¹à¤°":3937,"if":3938,"à¥Ī-":3939,"ED":3940,"nt":3941,"Ġà¥¯à¥Ńà¥Ń":3942,"ond":3943,"Ġà¤µà¤ľà¤¨":3944,"66":3945,"à¤Ĥà¥°":3946,"à¤ĩà¤ªà¤²":3947,"à¤Īà¤Ī":3948,"Ġà¤Ĩà¤ľà¤Ń":3949,"Ġà¤ľà¤Ĺà¤¦":3950,"à¤ıà¤²à¤Ĺà¤¤":3951,"à¥ĭà¤ĥ":3952,"ind":3953,"à¤²à¤¬à¤¸":3954,"Ġà¤Ńà¤°à¤ª":3955,"PAL":3956,"à¥įà¤ĥ":3957,"Ġà¤®à¤¦à¤¨à¤ķ":3958,"Ġà¤²à¤¯":3959,"à¤Ĩà¤°à¤Ł":3960,"à¤²à¤ªà¤Ľ":3961,"à¤¦à¤²à¤¯":3962,"tainment":3963,"ĠPage":3964,"Ġ!âĢĻ":3965,"Ġà¤ĵà¤¹":3966,"Ġà¤ıà¤ļà¤Ĩà¤ĩà¤Ń":3967,"fo":3968,"Ġà¥¦à¥ª":3969,"ube":3970,"ĠPol":3971,"à¤Ĩà¤ĸ":3972,"à¤ĸà¤¨à¤®":3973,"Ġà¤ªà¤µà¤¨":3974,"à¤¦à¤²à¤²":3975,"à¥ģà¥¤âĢĻ":3976,"Ġà¤¦à¤¤":3977,"Ġà¤¸à¤¡à¤ķà¤²":3978,"Ġà¤¦à¤¨":3979,"Ġà¤Ĳà¤ķ":3980,"ĠAn":3981,"ill":3982,"ĠHome":3983,"Ġà¤¨à¤°à¤¹à¤¨":3984,"Sajha":3985,"Ġà¤īà¤ªà¤§":3986,"Ġà¤°à¤Ĺà¤¤à¤ķ":3987,"à¤²à¤ĺ":3988,"ĠRat":3989,"à¤µà¤ªà¤Ľ":3990,"Ġà¤²à¤ļ":3991,"à¤¤à¤ĸ":3992,"Â°":3993,"à¤¨à¤¤à¤°":3994,"à¤ªà¤ķà¤²":3995,"Ġà¤¡à¤¨":3996,"aper":3997,"à¥į!":3998,"Ġà¤Ĺà¤¡à¤¬":3999,"à¥¯à¥®à¥«à¥§à¥¨":4000,"à¤ĺà¤¦":4001,"ory":4002,"à¤¹à¤¤à¤ķ":4003,"à¤Ĥà¥Ī":4004,"Image":4005,"à¤ıà¤¸à¤ķ":4006,"Ġà¥§à¥§à¥¦":4007,"à¤¸à¤¦à¤¸":4008,"hat":4009,"à¤īà¤ªà¤¯":4010,"Ġà¥¦à¥©":4011,"ĠDigital":4012,"ail":4013,"21":4014,"à¤®à¤¦à¤¨":4015,"Ġà¤ıà¤¬":4016,"à¤ŀà¤²":4017,"end":4018,"à¤¾à¤ģâĢĵ":4019,"Ġà¤¤à¤¦à¤¨":4020,"ĠâĢĺâĢĺ":4021,"à¤Ĭà¤°":4022,"Ġcaption":4023,"ie":4024,"Ġreading":4025,"à¤ĩà¤ĵ":4026,"ite":4027,"à¥®à¥¯":4028,"à¤Ńà¤°à¤ķ":4029,"à¤Īà¤¸à¤ķ":4030,"à¤īà¤¸à¤®":4031,"à¤¯à¤ªà¤¶":4032,"à¤¸à¤ľ":4033,"Ġà¤Ĩà¤ĩà¤ªà¤°":4034,"ĠTop":4035,"à¤¸à¤¦à¤¬":4036,"Ġà¤ıà¤ķà¤°":4037,"DF":4038,"à¤¨à¤ªà¤¤":4039,"mandu":4040,"Ġ28":4041,"à¤²à¤¬à¤°":4042,"Ġà¤Ĩà¤µà¤¸":4043,"Ġà¤¸à¤Łà¤¹":4044,"Ġà¤ķà¤°à¤¦":4045,"à¤Ĥ:":4046,"Ġà¥¤âĢ¦":4047,"à¤ŀà¤¤":4048,"ĠIP":4049,"ĠJune":4050,"uc":4051,"ĠFacebook":4052,"Ġonline":4053,"Ġà¤¹à¤ķà¤ķ":4054,"à¤ĸà¤ķà¤ķ":4055,"ĠClick":4056,"à¤®à¤ľà¤¯à¤¨":4057,"à¤®à¤ķà¤¥":4058,"ĠDainik":4059,"à¤Łà¤¯":4060,"à¤¶à¤¨à¤¹à¤°":4061,"à¤¬à¤¬":4062,"Ġmonth":4063,"à¤ĩà¤¨à¤²à¤ķ":4064,"Ġà¤¤à¤²à¤µ":4065,"27":4066,"DI":4067,"gov":4068,"à¥ģà¤ģà¥¤":4069,"à¤¾à¤Ĥà¥Ī":4070,"à¤¦à¤®à¤ķ":4071,"Ġà¤¨à¤µà¤ľ":4072,"à¤¬à¤¹à¤°":4073,"Ġà¤Ĩà¤²à¤®":4074,"à¤·à¤Ńà¤°":4075,"Ġà¤°à¤¥":4076,"à¤ĩà¤Ĺ":4077,"ĠFebruary":4078,"Ġà¥§à¥¦à¥®":4079,"33":4080,"à¤¬à¤§":4081,"Ġà¤ĵà¤Ľ":4082,"à¤Ĺà¤łà¤¨à¤®":4083,"à¤ķà¤Ĺ":4084,"à¤¯à¤¸à¤¯à¤¤":4085,"You":4086,"à¤ıà¤¨à¤ľ":4087,"mailà¤®":4088,"à¤«à¤¸":4089,"à¤¥à¤²à¤¹à¤°":4090,"à¤ļà¤ª":4091,"à¤Ĩà¤ī":4092,"Ġà¤īà¤ªà¤ķà¤°à¤£à¤¹à¤°":4093,"à¤ľà¤¯à¤¨":4094,"à¤°à¤ªà¤¥":4095,"okhar":4096,"eared":4097,"à¤Ĩà¤Īà¤¬":4098,"Ġ>>":4099,"amro":4100,"à¤µà¤ħà¤§":4101,"Ġappeared":4102,"à¥ĭ;":4103,"ala":4104,"à¥ĥâĢĻ":4105,"Ġà¤¶à¤¤à¤ª":4106,"ateg":4107,"ĠRatopati":4108,"à¤¤à¤ªà¤¤":4109,"rik":4110,"Ġà¤Ńà¤¡":4111,"âĢİ":4112,"ĠÂ¥":4113,"Ġ:âĢĵ":4114,"à¤ľà¤Ĺà¤ŀ":4115,"ÅĴ":4116,"Ġà¥¨à¥§à¥§":4117,"ĠHimalayan":4118,"ank":4119,"ATE":4120,"à¤°à¤Ļà¤®":4121,"à¥Įà¤ģâĢĻ":4122,"Ġà¤¦à¤²à¤¸":4123,"Ġà¤ķà¤ªà¤®":4124,"Ġà¤¬à¤¸à¤²":4125,"à¥¯à¥¦":4126,"Ġà¤Ľà¤Ĺ":4127,"à¤Ńà¤¬":4128,"ĠNext":4129,"Ġà¤ļà¤¤":4130,"à¤ıà¤®à¤¸":4131,"à¤ģà¥Ī":4132,"Ġà¤°à¤ľà¤¨":4133,"à¤®à¤Ń":4134,"à¤¯à¤ĺ":4135,"Ġà¥¨à¥¦à¥¦à¥ª":4136,"Ġà¤¯à¤¸à¤¸":4137,"à¤Ĩà¤ĩà¤¬":4138,"à¤¦à¤°à¤¬":4139,"Ġà¥¦à¥Ńà¥«":4140,"Ġà¥§à¥¯à¥«à¥¦":4141,"ĠApril":4142,"Ġ%":4143,"Ġà¤ħà¤¥":4144,"à¥ľ":4145,"à¤¾_":4146,"à¤ıà¤ľà¤¸":4147,"angar":4148,"Ġà¤ªà¤¥":4149,"Ġà¥¨à¥¦à¥©à¥¦":4150,"Ġà¤·à¤¡à¤¯à¤¨":4151,"à¤¨à¤ľà¤¨à¤ķ":4152,"à¤®à¤ĸ":4153,"à¤Ĺà¤Ń":4154,"Ġà¤°à¤¹à¤¦":4155,"Ġà¤®à¤¨à¤¨":4156,"ard":4157,"ial":4158,"à¤Ĺà¤¦à¤°":4159,"Ġà¤ħà¤µà¤¤":4160,"angaroo":4161,"ĠKangaroo":4162,"Ġà¥¨à¥¦à¥ªà¥®":4163,"CO":4164,"à¥ĩÂ«":4165,"ĠAnd":4166,"à¤¤à¤¨à¤®":4167,"à¤¹à¤²à¤®":4168,"Ġà¤²à¤¬":4169,"ansar":4170,"roid":4171,"online":4172,"à¤£à¤¯à¤¬":4173,"âĢ¦.":4174,"Ġwith":4175,"à¤¸à¤¶à¤¸":4176,"à¤¶à¤ļà¤¨":4177,"Ġà¥§à¥¨à¥¦":4178,"Ġall":4179,"Ġà¤ľà¤¨à¤¨":4180,"ĠPR":4181,"Ġà¥¨à¥¦à¥¨à¥¨":4182,"!!!":4183,"Ġà¤ħà¤¸à¤ķ":4184,"à¥¬à¥ª":4185,"à¤Łà¤¸à¤¹":4186,"Ġ<":4187,"à¤²à¤°à¤®":4188,"uth":4189,"à¤¬à¤°à¤²":4190,"athmandu":4191,"à¤ķà¤®à¤ľ":4192,"Ġ26":4193,"Ġà¤Ĩà¤ļà¤°à¤£":4194,"ARCH":4195,"à¤ļà¤¥à¤°à¤ķ":4196,"Ġà¤¨à¤ľà¤°à¤®":4197,"ĠWorld":4198,"âĢĮà¤Ĥ":4199,"à¤®à¤ªà¤Łà¤ķ":4200,"Ġà¤®à¤¨à¤¹à¤°":4201,"à¤łà¤ķà¤ªà¤Ľ":4202,"Ġà¤ªà¤¦à¤¸":4203,"Ġà¤ıà¤Ń":4204,"ARCHIVE":4205,"abal":4206,"à¥ĭà¤ģ":4207,"à¤¯à¤¤à¤¬":4208,"ï¿½...":4209,"à¤®à¤Ĺà¤łà¤¬à¤¨":4210,"tober":4211,"Ġ$":4212,"Ġà¤Ĩà¤ĩà¤²":4213,"Ġà¤Ĩà¤¯à¤°à¤²":4214,"ctober":4215,"à¤¡à¤°à¤ķ":4216,"Ġà¤ħà¤¬à¤¸à¤°à¤®":4217,"Ġà¤µà¤¨à¤®":4218,"Ġà¤ıà¤ķà¤¤à¤°":4219,"à¤Łà¤²à¤¹à¤°":4220,"ĠVideo":4221,"ral":4222,"uk":4223,"Ġà¤ıà¤ļà¤ķ":4224,"Ġà¤¦à¤¶à¤°à¤¥":4225,"Ġà¤ıà¤ıà¤«à¤¸":4226,"à¤¡à¤°à¤²":4227,"Ġà¤²à¤ĸà¤¨":4228,"Ġà¤¹à¤Ļà¤ķà¤Ļà¤ķ":4229,"à¤ķà¤ł":4230,"ĠMedia":4231,"Ġà¥¨à¥¦à¥«à¥¯":4232,"à¤¹à¤£à¤ķ":4233,"à¤ļà¤¦":4234,"à¤¦à¤ķà¤¤":4235,"eli":4236,"Ġad":4237,"à¤°à¤ľà¤¸":4238,"à¤·à¤µ":4239,"à¤¡à¤§":4240,"à¤ĩà¤ķà¤²à¤²":4241,"Ġà¤¸à¤®à¤¤":4242,"one":4243,"Ġà¤Ĩà¤Īà¤°à¤¹":4244,"à¤¦à¤²à¤¬à¤¹":4245,"hak":4246,"à¤¨à¤°à¤¹à¤°":4247,"à¥¯à¥¯":4248,"à¤¹à¤°à¤ķ":4249,"Ġà¤ªà¤¦à¤ª":4250,"à¤ĵà¤Ł":4251,"mà¤¨":4252,"à¤¥à¤¹à¤°":4253,"Ġà¤°à¤ķà¤®à¤²":4254,"Ġà¤¸à¤¨à¤¸à¤¨":4255,"Ġà¥¨à¥¦à¥«à¥®":4256,"ĠEverest":4257,"à¤Łà¤¸à¤²":4258,"Ġà¤ĸà¤¬à¤°à¤²":4259,"''":4260,"anti":4261,"The":4262,"à¤°à¤ķà¤°à¤£à¤ķ":4263,"à¤µà¤¯à¤ķ":4264,"à¤ħà¤µà¤¸":4265,"Ġà¤Ŀà¤²à¤ķ":4266,"Ġà¥¨à¥¦à¥¦à¥«":4267,"à¤¯à¤°à¤¹à¤°":4268,"30":4269,"à¤µà¤²à¤¨":4270,"à¤ıà¤¸à¤¬":4271,"à¤¦à¤¹":4272,"Â·":4273,"Ġà¤ĸà¤µà¤°":4274,"à¤ľà¤¨à¤¬":4275,"Ġà¤Łà¤®":4276,"Ġà¤ıà¤«à¤ıà¤®":4277,"à¥©à¥©à¥¦":4278,"Ġà¤Īà¤ª":4279,"ES":4280,"Jan":4281,"à¤®à¤²à¤ķ":4282,"ĠPat":4283,"à¤²à¤Ĺà¤®":4284,"hoto":4285,"à¥ĭ]":4286,"Ġà¤¸à¤¦à¤°":4287,"à¤Ľà¤°":4288,"taj":4289,"à¤¿!":4290,"à¤Łà¤ļ":4291,"Ġà¤¤à¤²à¤®":4292,"à¤¯à¤¨à¤¹à¤°":4293,"Ġà¤ĵà¤¡":4294,"ko":4295,"à¥Ģà¥ĩ":4296,"Ġà¤Ĺà¤¤à¤µà¤°":4297,"Ġà¤¶à¤¹à¤°à¤¹à¤°":4298,"Ġà¤¦à¤®à¤ķà¤²":4299,"OS":4300,"à¤Ĺà¤¨à¤®":4301,"à¤ĺà¤£":4302,"Ġà¤¹à¤Ļà¤ķà¤Ļà¤®":4303,"à¥ĩà¥ĩ":4304,"à¤Īà¤¨à¤ķ":4305,"Ġà¤Ńà¤ıà¤²à¤Ĺà¤¤":4306,"Ġhttp":4307,"à¤Ŀà¤£":4308,"Ġà¤¹à¤Ļà¤ķà¤Ļà¤²":4309,"à¥ĪâĢĵ":4310,"à¥¦à¥Ńà¥¨":4311,"ire":4312,"Ġà¤°à¤¨à¤°":4313,"à¤ªà¤¸à¤²":4314,"à¤ľà¤¸à¤ķ":4315,"39":4316,"à¤¶à¤ķà¤®":4317,"âĢĬ":4318,"Ġà¤ľà¤«à¤¤":4319,"Ġà¤¤à¤¦":4320,"à¥¯à¥®à¥ª":4321,"à¤·à¤¦à¤®":4322,"Ġà¤ħà¤¸à¤«à¤²à¤¤":4323,"ack":4324,"à¤¨à¤µà¤¤":4325,"onom":4326,"Ġ27":4327,"Ġà¤ľà¤¨à¤Ĺà¤£à¤¨":4328,"à¤¬à¤Ńà¤¨":4329,"Ġà¤īà¤ªà¤¦à¤«":4330,"à¤Łà¤¨à¤²":4331,"à¤¡à¤¬à¤²":4332,"à¤ľà¤¨à¤¯":4333,"à¤Ńà¤µà¤²":4334,"IC":4335,"Share":4336,"Ġà¤ıà¤¨à¤ľ":4337,"Ġà¤ľà¤¨à¤ħà¤§":4338,"Ġsec":4339,"à¥¤.":4340,"inue":4341,"à¤¤à¤¨à¤Ĺà¤°":4342,"à¤ľà¤¨à¤ª":4343,"wiki":4344,"à¥Ī)":4345,"oogle":4346,"Ġà¤¹à¤µà¤²":4347,"ĠTim":4348,"Ġà¥¨à¥¦à¥¦à¥©":4349,"Ġà¥¬à¥¦à¥¦":4350,"est":4351,"Ġà¤¨à¤°à¤¸":4352,"à¤µà¤¨à¤Ńà¤°":4353,"Ġà¤Ŀà¤®":4354,"à¥¬à¥«":4355,"ĠTh":4356,"à¤°à¤¬à¤¦":4357,"à¤Ńà¤µà¤ķ":4358,"Ġà¥§à¥¯à¥¯à¥®":4359,"ĠHamro":4360,"à¥įâĢĻ,":4361,"à¤ĩà¤ıà¤ªà¤Ľ":4362,"à¤Īà¤¨à¤²":4363,"à¤®à¤Ĺà¤°à¤²":4364,"à¤Ĩà¤µà¤¶":4365,"Ġà¤¡à¤²à¤°à¤®":4366,"à¤īà¤ĸ":4367,"Ġà¤Ńà¤ĩà¤¦":4368,"itic":4369,"Ġà¤ħà¤¶à¤ķ":4370,"à¤¨à¤§":4371,"à¤¤à¤¨à¤ª":4372,"à¤ıà¤Īà¤²":4373,"à¥ĭ,âĢĿ":4374,"Ġà¤Ĩà¤¡à¤®":4375,"Ġà¤ħà¤µà¤¹":4376,"ĠChina":4377,"eave":4378,"à¤Ńà¤µà¤¨":4379,"Ġà¤¨à¤īà¤ł":4380,"à¥ĭà¥¤âĢĿ":4381,"à¤ªà¤°à¤²":4382,"à¤¸à¤ªà¤Ľ":4383,"à¤Ĩà¤ª":4384,"und":4385,"od":4386,"à¤¢à¤¤":4387,"à¤°à¤ħ":4388,"à¤¯à¤ľà¤¨à¤ķ":4389,"à¤ĩà¤ķà¤°":4390,"à¤²à¤¯à¤¦":4391,"à¤Ĺà¤£à¤¤à¤¨":4392,"Ġmonths":4393,"à¥ĩ,âĢĻ":4394,"à¥ĩâĢĿ":4395,"Ġ30":4396,"à¤Īà¤ªà¤Łà¤ķ":4397,"Ġà¤ĺà¤°à¤§à¤¨":4398,"olog":4399,"à¤®à¤µà¤°à¤£":4400,"à¤¹à¤°à¤£à¤®":4401,"okhara":4402,"antipur":4403,"IN":4404,"à¤¦à¤ĺ":4405,"à¤§à¤µà¤ª":4406,"Ġà¤¶à¤®à¤¶":4407,"à¤µà¤Ńà¤°à¤ķ":4408,"35":4409,"ĠMarch":4410,"à¤ıà¤¸à¤¨à¤ķ":4411,"à¤¡à¤ħà¤¨":4412,"à¤²à¤ľà¤¸":4413,"ĠOctober":4414,"\",":4415,"à¤ķà¤®à¤°":4416,"à¤¸à¤°à¤¬":4417,"à¤¾âĢĶ":4418,"Ġà¤¬à¤ĸà¤¤":4419,"à¥ªà¥®à¥©à¥©à¥¦":4420,"Ġà¤¸à¤ķà¤¸":4421,"Ġà¤ļà¤®à¤ķ":4422,"à¤¡à¤¯":4423,"à¤µà¤ĺ":4424,"ss":4425,"Ġà¤Ĺà¤¡à¤¬à¤¡":4426,"Ġà¤¯à¤¶":4427,"Ġà¤ħà¤¢":4428,"Ġà¤ªà¤Łà¤ķà¤¸à¤®":4429,",,":4430,"44":4431,"à¤¯à¤ħà¤¨":4432,"Ġà¤ĵà¤¢":4433,"à¥į'":4434,"Ġà¥¨à¥¦à¥¦à¥¨":4435,"Ġà¤¯à¤¸à¤ªà¤Ľ":4436,"à¥¬à¥¨":4437,"act":4438,"Ġà¤ħà¤ªà¤µ":4439,"à¤ķà¤²à¤®":4440,"à¤ıà¤®à¤ķ":4441,"à¤ħà¤²à¤Ĺ":4442,"Ġà¤ªà¤¹à¤°":4443,"Ġà¤Īà¤¤":4444,"Ġà¤¹à¤¨à¤¨":4445,"à¤Ĩà¤Īà¤Ń":4446,"à¤łà¤¤":4447,"Ġà¤¨à¤µà¤²à¤ª":4448,"à¤łà¤¸":4449,"à¥ĩ..":4450,"à¤®à¤¸à¤¤":4451,"els":4452,"HO":4453,"à¤¯à¤£à¤ª":4454,"Ġà¤®à¤¹ÅĴ":4455,"reak":4456,"à¤µà¤¦à¤²":4457,",...":4458,"à¤ıà¤¤à¤ķ":4459,"Ġà¤ľà¤¬à¤¸à¤®":4460,"))":4461,"à¤²à¤¯à¤ħà¤¨":4462,"ĠBlog":4463,"Ġà¤¤à¤µà¤°à¤²":4464,"Ġà¤ªà¤¦à¤¹à¤°":4465,"à¤°à¤¹à¤²":4466,"à¤°à¤µà¤¹à¤¨":4467,"72":4468,"qu":4469,"à¤ĩà¤¡à¤ķ":4470,"à¤ļà¤ľà¤¨":4471,"Ġà¤¯à¤°":4472,"ĠNaya":4473,"ĠContinue":4474,"à¤ķà¤¨à¤®":4475,"ame":4476,"000":4477,"Ġà¤®à¤²à¤®":4478,"à¤ķà¤ªà¤¡":4479,"Ġ;":4480,"à¤¤à¤¹à¤¤à¤®":4481,"lung":4482,"Ġà¤¸à¤®à¤¯à¤ħà¤¨":4483,"ĠEnter":4484,"Ġà¤°à¤®à¤£":4485,"à¥ĩ!":4486,"à¤ıà¤«à¤²":4487,"à¤¯à¤¸à¤Ńà¤¨":4488,"ĠEng":4489,"Ġà¤¹à¤¡à¤¤":4490,"ĠPDF":4491,"Ġà¤²à¤Ĺà¤¨à¤¶":4492,"Ġj":4493,"à¤¦à¤°à¤£":4494,"Ġà¤¸à¤¨à¤°":4495,"à¤°à¤ļà¤²à¤¨à¤®":4496,"Ġà¤¨à¤ķà¤Ĩà¤īà¤Ł":4497,"à¤²à¤£":4498,"à¤¾[":4499,"à¤®à¤¥":4500,"à¤Ļà¤ľ":4501,"à¤¥à¤¯":4502,"à¤ħà¤¨à¤®":4503,"Ġà¤¬à¤¢à¤¨":4504,"ies":4505,"à¤¬à¤°à¤£":4506,"Ġà¥¨à¥¦à¥¬à¥¦":4507,"à¤Ĺà¤ľà¤ªà¤¤":4508,"à¤ıà¤¬":4509,"à¤Ĩà¤¸":4510,"?âĢĿ":4511,"Ġà¤¸à¤¹à¤ª":4512,"ĠUn":4513,"Ġeb":4514,"à¤¸à¤¹à¤Ń":4515,"ĠSh":4516,"à¤¿'":4517,"Ġà¤¸à¤®à¤µ":4518,"à¤ļà¤ķà¤¨":4519,"à¤¹à¤²à¤ªà¤¹à¤²":4520,"à¥Įà¤Ĥà¤ĥ":4521,"ĠHIM":4522,"ree":4523,"à¤°à¤¨à¤Ĺà¤°à¤®":4524,"Ġ=":4525,"à¤¨à¤¬à¤®":4526,"Ġà¤ķà¤¸à¤°à¤¤":4527,"à¤°à¤Ĩà¤®":4528,"ĠHIMAL":4529,"Ġà¤ļà¤¹à¤²à¤ªà¤¹à¤²":4530,"Ġ??":4531,"Ġà¤Ĩà¤¯à¤Ĩà¤°":4532,"Ġà¥¨à¥¦à¥¬à¥§":4533,"à¤°à¤®à¤ľ":4534,"ai":4535,"DIA":4536,"à¤ķà¤¸à¤ķ":4537,"à¤¹à¤°à¤²":4538,"Ġà¤ĸà¤¡à¤ķ":4539,"aglung":4540,"73":4541,"irm":4542,"à¥ĩà¤ĥ":4543,"nb":4544,"Ġà¤ĩà¤¯à¤°":4545,"ĠAndroid":4546,"à¤¥à¤Ĺà¤¨":4547,"Ġà¤µà¤°à¤¦":4548,"à¥ĢâĢĻ,":4549,"à¤°à¤ļà¤¢":4550,"Ġà¤¬à¤¹à¤¸à¤ķ":4551,"à¤Ĺà¤²à¤®à¤¯":4552,"Ġà¤¶à¤¤à¤ķ":4553,"Ġà¤ıà¤Ĺ":4554,"Ġà¤ıà¤Ĩà¤Īà¤ľ":4555,"à¤ļà¤¹à¤°":4556,"à¤®à¤ŀ":4557,"à¥ĩ(":4558,"à¤¬à¤¸à¤ķ":4559,"Ġ!âĢĿ":4560,"Ġà¤¤à¤Łà¤¬à¤¨":4561,"ĠMy":4562,"ĠLIM":4563,"à¤¬à¤²à¤®":4564,"à¤Ĺà¤®à¤¨à¤²":4565,"Ġà¤Īà¤ļ":4566,"Ġà¥¨à¥¦à¥«à¥¨":4567,"à¥įà¤¾":4568,"tajakhabar":4569,"à¥į,âĢĺ":4570,"iness":4571,"ĠRe":4572,"ĠEtajakhabar":4573,"ITED":4574,"ĠLIMITED":4575,"MEDIA":4576,"IVATE":4577,"ĠPRIVATE":4578,"ĠHIMALMEDIA":4579,"à¤Ľà¤¤":4580,"ana":4581,"ĠDev":4582,"rika":4583,"Ġà¤Ĩà¤ıà¤®":4584,"ustral":4585,"à¤¾à¥Īà¤Ĥ-":4586,"à¤Ĺà¤ľà¤®":4587,"LC":4588,"à¤ľà¤¨à¤®à¤¤":4589,"à¥ĭà¥¤'":4590,"are":4591,"ĠABC":4592,"à¤Ĩà¤ĩà¤ķ":4593,"à¤Łà¤°à¤¸à¤®":4594,"à¤ıà¤ļà¤¡":4595,"Ġà¤ıà¤¨à¤Ĩà¤°à¤ıà¤¨à¤ķ":4596,"Ġà¤Ĺà¤łà¤µà¤¨":4597,"à¤¤à¤°à¤¸à¤®":4598,"Ġà¤ħà¤¬à¤°":4599,"à¥¬à¥Ń":4600,"Ġà¤Ľà¤Łà¤ªà¤Ł":4601,"Ġà¤°à¤ķà¤®à¤¬":4602,"à¤¸à¤«à¤²":4603,"aja":4604,"Ġà¤«à¤²à¤¦":4605,"dainik":4606,"à¤¬à¤Īà¤ķ":4607,"outube":4608,"ĠEntertainment":4609,"à¤Ļà¤µ":4610,"à¤ªà¤ķà¤ķ":4611,"à¤ķà¤²à¤ķ":4612,"à¤¯à¤¤à¤°":4613,"à¤īà¤¨à¤¦":4614,"à¤¨à¤ľà¤¸":4615,"Ġ!...":4616,"ese":4617,"à¤Ĺà¤¨à¤ķ":4618,"à¤ĩà¤Łà¤¬":4619,"Ġà¥¨à¥¦à¥«à¥¦à¥©":4620,"à¤²à¤Ĺà¤°":4621,"Ġà¤ħà¤°à¤¬à¤®":4622,"ology":4623,"Ġac":4624,"à¤²à¤°à¤ķ":4625,"Ġà¤ķà¤®à¤²à¤ª":4626,"ĠÂ£":4627,"Ġà¥¨à¥¦à¥ªà¥Ń":4628,"à¤¤à¤°à¤¹":4629,"Ġà¥¨à¥¦à¥¦à¥§":4630,"Ġà¤ħà¤ªà¤¹à¤°à¤£à¤ķ":4631,"Ġmul":4632,"Ġà¤ªà¤ķà¤¡":4633,"à¤£à¤Ĺ":4634,"à¤°à¤¬à¤²":4635,"Ġà¤¡à¤£":4636,"Ġebaglung":4637,"à¤ľà¤¡":4638,"Ġà¤ħà¤°à¤¬à¤ķ":4639,"Ġ_________":4640,"à¤¨à¤¯à¤¤":4641,"Ġà¤¸à¤¹à¤ļ":4642,"April":4643,"à¤¦à¤°à¤®":4644,"Ġà¤łà¤Ł":4645,"pl":4646,"Ġà¤ļà¤¹":4647,"Ġà¤ħà¤¨à¤¶à¤¨à¤°à¤¤":4648,"à¤ªà¤°à¤¦":4649,"Com":4650,"à¥Īà¤Ĥ,":4651,"à¥¨à¥¦à¥Ńà¥§":4652,"à¤ıà¤ıà¤«à¤¸":4653,"à¤Ńà¤ı":4654,"à¥¦à¥«à¥§à¥¯":4655,"Ġà¤¸à¤¯à¤®":4656,"à¤ľà¤¸à¤°":4657,"à¥¨à¥¯à¥¦à¥«à¥§à¥¯":4658,"sha":4659,"Ġà¥¨à¥¦à¥«à¥¬":4660,"à¤¾à¥Īà¤Ĥ,":4661,"Ġà¤Ńà¤ıà¤¦":4662,"Ġà¤§à¤¨à¤°":4663,"à¤ľà¤¦à¤°à¤®":4664,"Ġnewsabhiyan":4665,"Ġà¤¸à¤¶":4666,"à¤ľà¤¬à¤¹":4667,"newsabhiyan":4668,"à¥¨à¥®à¥ªà¥ª":4669,"à¥¯à¥®à¥«à¥§à¥¨à¥ªà¥®à¥©à¥©à¥¦":4670,"à¤¯à¤¸à¤¤":4671,"verestdainik":4672,"à¥įà¥¤âĢĿ":4673,"Tweet":4674,"usiness":4675,"Ġà¤Ŀà¤¡à¤ªà¤®":4676,"Ġà¤µà¤¯à¤¸":4677,"ĠPur":4678,"Ġeverestdainik":4679,"Ġà¥ªà¥§à¥¦à¥¨à¥®à¥ªà¥ª":4680,"Ġnepali":4681,"art":4682,"Ġà¤§à¤¨à¤®":4683,"à¤²à¤¬à¤ļ":4684,"Ġà¤ıà¤¸à¤ĩ":4685,"min":4686,"Ġà¥¨à¥¦à¥«à¥¦":4687,"à¤¬à¤ªà¤¤":4688,"ser":4689,"à¤ļà¤²à¤®":4690,"Ġà¥Ńà¥¦à¥¦":4691,"à¤ĺà¤¬":4692,"à¤¯à¤¸à¤ªà¤Łà¤ķ":4693,"à¤ģà¤Ĥ":4694,"Ġà¤ħà¤¸à¤®à¤Ŀà¤¦":4695,"Ġà¤¤à¤¦à¤°":4696,"Ġà¤ĵà¤®à¤ª":4697,"chn":4698,"à¤²à¤ħà¤¨":4699,"Ġà¤¬à¤ĸ":4700,"à¤¥à¤ķà¤¹à¤°":4701,"à¤µà¤¨à¤¯":4702,"abels":4703,"Ġà¤Ĩà¤ĩà¤°à¤¹à¤¨":4704,"Ġà¤īà¤ªà¤ľ":4705,"à¤·à¤¸à¤¹":4706,"Ġà¥¨à¥¦à¥«à¥©":4707,"à¤¹à¤¦à¤°à¤µ":4708,"à¤Ĳà¤¤":4709,"à¤īà¤ªà¤Ń":4710,"Ġà¤ıà¤ļà¤Ĩà¤Īà¤Ń":4711,"à¤¨à¤°à¤²":4712,"à¤¹à¤¨à¤ķ":4713,"à¤²à¤Ńà¤°":4714,"Ġà¤ªà¤¥à¤°":4715,"Ġà¤ĵà¤¨à¤¸à¤°":4716,"à¤Ĩà¤°à¤ķ":4717,"à¤¡à¤ľ":4718,"à¤Ĺà¤ªà¤¤":4719,"Ġà¤¬à¤¹à¤¨":4720,").":4721,"Ġà¤īà¤¨à¤®":4722,"à¥®à¥®":4723,"à¤¸à¤®à¤µ":4724,"Ġà¤ªà¤°à¤¨":4725,"Ġà¤Ĩà¤ĩà¤Łà¤®":4726,"à¤Ĺà¤«":4727,"à¥ĭâĢĶ":4728,"yp":4729,"à¤®à¤¸à¤®à¤°":4730,"Ġà¤īà¤·":4731,"Ġ29":4732,"à¤¡à¤°à¤®":4733,"à¤Ĩà¤¹":4734,"Ġà¤ªà¤¦à¤Ń":4735,"à¥¥":4736,"Ġà¤Ĺà¤¡":4737,"ys":4738,"Ġà¥§à¥«à¥ª":4739,"Ġà¤Ľà¤²à¤«à¤²à¤ªà¤Ľ":4740,"Ġà¤¹à¤ķà¤¹":4741,"45":4742,"Ġà¤Ľà¤¡":4743,"à¤Ĩà¤ªà¤¸à¤®":4744,"à¤µà¤¦à¤¹":4745,"à¥įâĢĿ":4746,"à¤Īà¤¸à¤®":4747,"Ġà¤¯à¤¸à¤ªà¤Łà¤ķà¤ķ":4748,"January":4749,"cess":4750,"national":4751,"à¤¨à¤«":4752,"adh":4753,"Ġà¤ľà¤²à¤ľà¤²":4754,"36":4755,"à¤Ĺà¤¸à¤¹":4756,"à¤ļà¤²à¤¨":4757,"Ġà¤ħà¤µà¤¸à¤°à¤¹à¤°":4758,"Ġà¥¨à¥¦à¥ªà¥¯":4759,"Ġà¤ıà¤¨à¤Ĩà¤Īà¤¸":4760,"ĠAustral":4761,"à¤Ĩà¤ĩà¤¤à¤µ":4762,"à¤°à¤¬à¤¦à¤²":4763,"à¤¹à¤¨à¤¬à¤¹":4764,"Ġis":4765,"Ġinfo":4766,"Ġà¤¦à¤®à¤ķà¤®":4767,"à¤Ļà¤¤à¤°":4768,"Ġà¤ĭà¤ļ":4769,"à¤Īà¤ĺ":4770,"Ġà¤Ŀà¤¡":4771,"ĠInternet":4772,"à¤¤à¤µà¤¨à¤¬":4773,"à¤¦à¤ķà¤ķ":4774,"à¤ħà¤Ľ":4775,"à¤°à¤µà¤²":4776,"à¥ĭâĢĿ,":4777,"à¤°à¤¸à¤¸":4778,"Ġà¤¤à¤¹à¤¹à¤°":4779,"à¤²à¤°à¤²":4780,"à¤īà¤ªà¤®":4781,"reaking":4782,"à¤īà¤ªà¤Ĺ":4783,"à¤ľà¤ĸà¤¬à¤°":4784,"à¤Łà¤¨à¤Ĺà¤°à¤²":4785,"Ġà¤Ĺà¤ľà¤²à¤ķ":4786,"ShareTweet":4787,"à¤¨à¤¯à¤¨à¤®":4788,"Ġà¤¹à¤ļ":4789,"Ġà¤Ĩà¤ĩà¤Ł":4790,"ĠAustralia":4791,"Ġà¤¸à¤®à¤¯à¤Ń":4792,"Labels":4793,"Ġà¥¥":4794,"à¤§à¤°à¤ķ":4795,"ĠMag":4796,"à¤¡à¤ªà¤¤":4797,"pa":4798,"à¤µà¤¤à¤²":4799,"à¤¨à¤²à¤ķ":4800,"Ġà¤ľà¤¸à¤ħà¤¨":4801,"ani":4802,"à¤Ĺà¤¹":4803,"Ġà¤Ĩà¤ªà¤¤à¤ķ":4804,"ight":4805,"à¤®à¤¨à¤²":4806,"à¤¡à¤¹":4807,"à¤®à¤Ŀ":4808,"Ġà¤ľà¤Ĺà¤¤à¤®":4809,"Ġà¤ĵà¤Ńà¤°à¤ķ":4810,"à¤Łà¤¨à¤°":4811,"à¥¯à¥©":4812,"Ġi":4813,"à¥ĭ_":4814,"à¤²à¤ķà¤¬":4815,"à¤§à¤¨à¤¸":4816,"à¤¯à¤ªà¤¹":4817,"Ġà¤¨à¤Ńà¤ıà¤®":4818,"à¤¤à¤¹à¤Łà¤®":4819,"Ġà¤¯à¤¸à¤¤à¤°":4820,"UL":4821,"à¤¥à¤ķà¤¤":4822,"ign":4823,"à¤¤à¤Ĺ":4824,"Ġà¤Ĺà¤°à¤ķ":4825,"Ġà¤«à¤²à¤¸":4826,"à¤¾]":4827,"à¤īà¤ªà¤¨":4828,"Ġà¤¨à¤¹à¤Ł":4829,"Ġà¤ħà¤¬à¤¦":4830,"Ġà¤ĺà¤Łà¤¸":4831,"à¤¬à¤°à¤¬":4832,"à¤ľà¤¨à¤ľ":4833,"à¤¦à¤ķà¤¹à¤°":4834,"Ġà¤ħà¤¸à¤¹à¤¯":4835,"tr":4836,"Ġà¤²à¤«":4837,"à¤¸à¤®à¤Ĺ":4838,"Ġà¤ıà¤¨à¤ıà¤®à¤¬":4839,"à¤¸à¤¨à¤°":4840,"Ġà¤§à¤¨à¤¬à¤¹":4841,"time":4842,"Ġà¤ĵà¤ĩà¤°":4843,"Ġà¤¦à¤¶à¤ķà¤ķ":4844,"à¤ħà¤ļ":4845,"Ġà¤ħà¤¨à¤µ":4846,"Ġà¤µà¤°à¤ªà¤°à¤ķ":4847,"à¤Ĩà¤īà¤¨":4848,"Ġà¤®à¤¹à¤²":4849,"elop":4850,"à¥įà¥ģ":4851,"Ġà¤¤à¤ªà¤¸":4852,"à¤ķà¤°à¤£à¤¬":4853,"US":4854,"ram":4855,"à¤ħà¤Ł":4856,"Ġà¤¹à¤¬":4857,"Ġà¤¸à¤¯à¤ªà¤¤":4858,"à¥§à¥¦à¥¦":4859,"hel":4860,"à¤¾&":4861,"ikhar":4862,"à¤īà¤ªà¤¡":4863,"à¤°à¤µà¤ļà¤¨":4864,"Ġà¤ħà¤®à¤²":4865,"à¤Ĥà¥¤":4866,"à¤¤à¤¨à¤µ":4867,"ian":4868,"npkhabar":4869,"à¤ļà¤ĸ":4870,"à¤°à¤£à¤µ":4871,"Ġà¤Ŀà¤¸":4872,"RT":4873,"Ġà¥¤[":4874,"à¤Ĩà¤ľà¤¬":4875,"à¤¨à¤²à¤²":4876,"à¤¯à¤®à¤¸":4877,"âĸº":4878,"Ġà¤ĺà¤®à¤£":4879,"Ġà¤ļà¤ķà¤²":4880,"Ġà¤ıà¤ķà¤ļ":4881,"à¤Ĥà¥°]":4882,"à¤Ĺà¤Łà¤¨":4883,"Ġà¤ĵà¤ªà¤¨à¤°":4884,"Ġà¤Ĩà¤Ĺà¤¨":4885,"à¤ľà¤ķà¤¹à¤°":4886,"Ġà¤¨à¤ªà¤ł":4887,"Ġà¤ıà¤ħ":4888,"Ġà¤Ĩà¤ıà¤ªà¤¨":4889,"ours":4890,"à¥ĭ,'":4891,"Ġà¤ĩà¤·":4892,"ĠVie":4893,"à¤ıà¤®à¤ı":4894,"31":4895,"à¤¹à¤ªà¤Ľ":4896,"IS":4897,"à¤ĩà¤¨à¤¸":4898,"Ġà¥¤,":4899,"ĠNama":4900,"âĢįâĢį":4901,"à¤µà¤°à¤£à¤²":4902,"à¤ľà¤®à¤°":4903,"à¤ķà¤ľà¤¸":4904,"Ġà¤¨à¤Ńà¤ıà¤ªà¤¨":4905,"à¤§à¤¯":4906,"Ġà¤ħà¤µà¤Ĺà¤¤":4907,"à¤ķà¤§":4908,"à¤ľà¤¯à¤²":4909,"Ġà¤ĭà¤£à¤ªà¤¤":4910,"COM":4911,"ĠEnglish":4912,"ĠAM":4913,"She":4914,"à¤Ĺà¤®à¤®":4915,"Ġà¥§à¥¬à¥«":4916,"à¤¶à¤®à¤¶":4917,"Ġà¤ħà¤¹à¤®":4918,"Ġà¤²à¤®à¤¹":4919,"Ġà¥®à¥¦à¥¦":4920,"azine":4921,"conom":4922,"Ġà¤īà¤ªà¤²":4923,"ĠTimes":4924,"34":4925,"chnology":4926,"Ġà¤Ĩà¤°à¤ľ":4927,"à¤¸à¤¸à¤²":4928,"Ġst":4929,"à¤Łà¤²à¤¬":4930,"Ġà¤Ĩà¤µà¤§":4931,">>":4932,"à¤¯à¤ľà¤¸":4933,"Ġà¤¬à¤¹à¤¸à¤®":4934,"Ġà¥§à¥¦à¥ª":4935,"à¤¸à¤µà¤²":4936,"Ġà¤īà¤ªà¤ķà¤°à¤£à¤ķ":4937,"à¤Ĺà¤¤à¤°":4938,"Ġà¤¨à¤«":4939,"Ġà¤¬à¤²à¤²":4940,"à¥ģâĢ¦":4941,"à¤µà¤ªà¤¶":4942,"à¤Ļà¤¯":4943,"Ġ31":4944,"Ġà¤²à¤µ":4945,"à¤ľà¤¨à¤²à¤Ĺ":4946,"à¥ĭ\"":4947,"Ġà¤ħà¤²à¤Ĩà¤īà¤Ł":4948,"ĠPokhara":4949,"Ġà¤¨à¤¸à¤°":4950,"à¤ļà¤°à¤£":4951,"à¤¤à¤ļà¤°":4952,"Ġà¤¸à¤¤à¤¹à¤®":4953,"à¤·à¤§à¤°":4954,"Ġà¥¨à¥«à¥¯":4955,"sabal":4956,"à¤²à¤¤à¤°":4957,"à¤²à¤ĸà¤£":4958,"à¤ıà¤ħà¤¨":4959,"à¤Ńà¤¨à¤®":4960,"Ġà¥¦à¥¬à¥®":4961,"à¤¾.....":4962,"à¤µà¤¸à¤¤":4963,"à¤¯à¤¸à¤¸":4964,"à¤®à¤ħà¤¨":4965,"Ġà¤Ĺà¤²à¤ķ":4966,"ĠDevelop":4967,"à¤Ĺà¤¯":4968,"Ġma":4969,"à¤ľà¤Ļ":4970,"Ġà¥¨à¥¦à¥«à¥§":4971,"à¤¬à¤Ŀ":4972,"Ġà¤ħà¤ķà¤¸":4973,"TC":4974,"Ġà¤ħà¤°à¤¨":4975,"ib":4976,"à¤¶à¤¶à¤°à¤£":4977,"Ġà¤¸à¤ĺà¤¨":4978,"Ġà¤ħà¤ªà¤¹à¤°à¤£à¤®":4979,"à¤Łà¤Ń":4980,"à¤¾;":4981,"Ġsecond":4982,"à¤¯à¤Łà¤¨à¤®":4983,"à¤¹à¤¯":4984,"à¤¸à¤®à¤°":4985,"Ġà¤ľà¤®à¤ĺà¤Ł":4986,"ĠEconom":4987,"Sajhasabal":4988,"à¤ľà¤ķà¤®":4989,"ĠNEPAL":4990,"à¤¤à¤ªà¤Ľ":4991,"à¤ļà¤Ł":4992,"à¤¨à¤°à¤ķ":4993,"à¤²à¤Ńà¤¨":4994,"het":4995,"à¤¯à¤¤à¤¥":4996,"à¤Łà¤¬à¤¨":4997,"Ġà¤¤à¤¬à¤¸à¤®":4998,"uthor":4999,"à¥¯à¥¬":5000,"ings":5001,"Ġà¤ıà¤¡à¤®":5002,"à¤°à¤®à¤¦":5003,"à¤®à¤¨à¤¸":5004,"à¥Įà¤ģ,âĢĻ":5005,"Ġà¥¨à¥¦à¥«à¥ª":5006,"à¤ķà¤¡à¤Ń":5007,"99":5008,"arsha":5009,"à¤¯à¤ªà¤°":5010,"September":5011,"âĨĳ":5012,"à¤¶à¤¨à¤ªà¤Ľ":5013,"ass":5014,"Ġà¤¨à¤Ĩà¤ī":5015,"Ġà¤°à¤Ĺà¤¤à¤®":5016,"Ġà¤Ĳà¤¨à¤ħà¤¨":5017,"85":5018,"Ad":5019,"à¤¯à¤¡":5020,"Ġà¥¨à¥¨à¥¦":5021,"à¤ıà¤ķà¤¦":5022,"ĠPrevious":5023,"à¤łà¤®à¤£":5024,"word":5025,"à¤£à¤¸à¤®":5026,"à¤ıà¤ıà¤«à¤ª":5027,"à¤ĩà¤²à¤¬":5028,"à¥Įà¤ĤâĢĻ,":5029,"Ġà¤ħà¤µà¤¤à¤°à¤£à¤ķ":5030,"à¤Łà¤¡":5031,"ĠPO":5032,"à¤Łà¤®à¤ķ":5033,"ĠHimalaya":5034,"à¤®à¤¨à¤®":5035,"à¤¤à¤¶":5036,"à¤ıà¤¸à¤ıà¤®":5037,"à¤¨à¤µà¤¨":5038,"Ġle":5039,"46":5040,"ĠTechnology":5041,"à¤°à¤£à¤¯":5042,"à¤ķà¤Ŀ":5043,"à¤Ĺà¤¬à¤£":5044,"ĠArch":5045,"Ġà¤Ĩà¤¯à¤ķà¤°":5046,"à¤¤à¤®à¤§":5047,"Ġà¤¨à¤ķà¤°":5048,"ĠPolitic":5049,"paper":5050,"chim":5051,"In":5052,"à¤¯à¤¸à¤ħà¤¨":5053,"ĠEx":5054,"Ġ2075":5055,"à¤Īà¤ļ":5056,"à¤Ĩà¤ļ":5057,"Ġà¥§à¥¨à¥«":5058,"à¤Ĺà¤¹à¤¨":5059,"Ġà¥¦à¥«à¥¬":5060,"**":5061,"Ġà¤Ĩà¤®à¤®":5062,"à¤¯à¤²à¤Ĺ":5063,"à¤¿âĢĿ":5064,"Ġà¤²à¤«à¤¡":5065,"ĠUS":5066,"Leave":5067,"à¤°à¤°à¤¤":5068,"Ġà¤¬à¤Łà¤¨":5069,"à¤ıà¤²à¤²":5070,"ons":5071,"Ġà¤ªà¤¹à¤²à¤ķ":5072,"à¤Ĩà¤¯à¤²":5073,"Ġà¤¸à¤¡à¤ķà¤¹à¤°":5074,"aschim":5075,"Ġà¤ķà¤¸à¤®":5076,"à¤²à¤¨à¤ªà¤Ľ":5077,"Ġà¥¯à¥®à¥ªà¥§":5078,"à¤ľà¤°à¤®":5079,"à¤ĵà¤ĸà¤²à¤¢":5080,"ĠMagazine":5081,"ON":5082,"Ġà¤Ĩà¤ľà¤ķà¤²":5083,"Ġà¤ªà¤¸à¤²à¤¹à¤°":5084,"Ġà¤Īà¤ķ":5085,"Ġseconds":5086,"Ġà¤ķà¤Ļ":5087,"à¤¬à¤¨à¤®":5088,"Ġà¤¸à¤ķà¤°":5089,"Ġà¤¬à¤ľà¤Ĺ":5090,"Ġà¤¨à¤Ĺà¤¦à¤¸à¤¹":5091,"nbsp":5092,"à¤Ĺà¤°à¤²":5093,"Ġ?,":5094,"à¤Łà¤ħà¤¨":5095,"Ġvi":5096,"Ġà¤®à¤ĸ":5097,"à¤ļà¤¤à¤®":5098,"Ġà¤ıà¤¥":5099,"à¤ªà¤¬à¤¹":5100,"ĠPatrika":5101,"à¤Ńà¤Ĺà¤µ":5102,"ane":5103,"Online":5104,"à¥ģâĢĻ,":5105,"Ġà¤®à¤²à¤ķ":5106,"Ġà¤ľà¤Ĺà¤®":5107,"Ġà¤ľà¤¯à¤ª":5108,"à¤¾à¥ĩ)":5109,"ĠAd":5110,"à¤ĵà¤ª":5111,"Ġà¤ªà¤Ĺ":5112,"Ġà¥§à¥§à¥§":5113,"ĠBI":5114,"à¤ıà¤¨à¤¡":5115,"ĠTwitter":5116,"NA":5117,"lin":5118,"à¤¸à¤²à¤Ĺ":5119,"ebs":5120,"Ġà¤Ĺà¤Ľ":5121,"à¤·à¤¦à¤°":5122,"à¤ªà¤ķà¤¹à¤°":5123,"à¤¨à¤¢":5124,"à¤ļà¤ķà¤¹à¤°":5125,"ikharnews":5126,"à¤ļà¤¯à¤ķà¤°":5127,"à¤łà¤ķà¤¸à¤®à¤ķ":5128,"ĠâĢ¦.":5129,"ĠMark":5130,"à¤ļà¤°à¤ķ":5131,"Ġà¤ĵà¤ł":5132,"Ġà¤¸à¤¦à¤Ń":5133,"Ġportal":5134,"Ġà¤Ńà¤ıà¤ľà¤¸":5135,"Ġà¥¨à¥ªà¥¦":5136,"à¤¨à¤¯à¤ķ":5137,"à¤ļà¤¯à¤ķ":5138,"Ġà¤ªà¤°à¤ķ":5139,"Ġà¤Ĺà¤ĩà¤¨":5140,"à¤²à¤®à¤¨":5141,"à¤§à¤°à¤£":5142,"à¤¨à¤®à¤§":5143,"à¤°à¤¹à¤£à¤ķ":5144,"Ġà¤¨à¤Ĺà¤°à¤®":5145,"Ġà¤ĩà¤¯":5146,"Ġà¥§à¥¦à¥«":5147,"à¤Ļà¤¹à¤°":5148,"à¤¬à¤Ĺ":5149,"à¥į,âĢĿ":5150,"Ġà¤¸à¤¹à¤¸":5151,"à¤ıà¤Łà¤°":5152,"Ġà¤ĩà¤¬":5153,"à¤¹à¤¡":5154,"à¤¥à¤ķà¤°":5155,"à¤ļà¤¨à¤¸à¤®":5156,"Ġà¤¦à¤°à¤µ":5157,"à¥Ĥà¥¤":5158,"Ġà¤Ŀà¤²à¤ķà¤¹à¤°":5159,"à¤Łà¤²à¤Ĺ":5160,"ĠTaja":5161,"ork":5162,"à¤¾à¤ģ)":5163,"Ġ2074":5164,"à¤¸à¤¶":5165,"à¤Ľà¤ł":5166,"Ġà¤ħà¤¨à¤°":5167,"à¤²à¤ķà¤®":5168,"had":5169,"à¤ķà¤²à¤Ĺ":5170,"à¤°à¤¡":5171,"à¤¯à¤µà¤°":5172,"à¤¸à¤ĺ":5173,"Ġà¤ķà¤¨à¤ķ":5174,"Ġà¥§à¥¦à¥¦à¥¦":5175,"Ġà¥¨à¥®à¥«":5176,"à¤¤à¤¸à¤¹":5177,"ode":5178,"à¤°à¤¸à¤°à¤¤":5179,"HOME":5180,"à¤Īà¤¨à¤²à¤®":5181,"à¤«à¤¸à¤²à¤®":5182,"Ġà¤¦à¤¯à¤¨":5183,"à¥ĩâĢĶ":5184,"ĠHot":5185,"lid":5186,"à¥ģâĢľ":5187,"à¤¯à¤ķà¤°à¤£":5188,"mà¤²":5189,"à¤ĵà¤ıà¤¸":5190,"Ġà¤Ĩà¤®à¤¸à¤Ń":5191,"à¤ļà¤¶":5192,"Ġà¤īà¤ªà¤Ĺ":5193,"à¥®à¥©":5194,"Ġà¤Ĺà¤¥":5195,"à¤ªà¤°à¤¹":5196,"Ġà¤ĺà¤Łà¤ķ":5197,"Ġà¤ľà¤ĺà¤¨":5198,"à¤ķà¤Łà¤¤":5199,"SLC":5200,"bo":5201,"à¤¨à¤¯à¤¨à¤ķ":5202,"à¥ĥ.":5203,"........":5204,"ele":5205,"à¤Īà¤°à¤²":5206,"Ġà¤īà¤ªà¤¶":5207,"Ġà¥§à¥§à¥©à¥¯":5208,"à¥ģ?":5209,"Ġà¤Ķà¤§":5210,"February":5211,"ĠFrom":5212,"à¤łà¤°":5213,"Ġà¤ħà¤¨à¤¸à¤¨à¤°à¤¤":5214,"à¤§à¤°à¤¹à¤°":5215,"à¤Ńà¤°à¤®":5216,"Ġaccess":5217,"Ġà¤°à¤«":5218,"48":5219,"à¤µà¤°à¤£à¤¸à¤¹":5220,"à¤ĩà¤ľà¤ķ":5221,"trl":5222,"à¥įà¥ĩ":5223,"à¤®à¤¥à¤²":5224,"à¤ķà¤²à¤¨à¤®":5225,"Ġà¤Ĺà¤Ļ":5226,"à¤·à¤¨":5227,"à¤°à¤Ĺà¤¢":5228,"Ġà¤¸à¤¯à¤¦":5229,"Ġà¤ıà¤¸à¤Īà¤Ī":5230,"Ġyear":5231,"Ġà¤¨à¤°à¤¬à¤¹":5232,"à¥¨à¥¦à¥Ńà¥¦":5233,"Ġà¤Ĩà¤ĩà¤ķ":5234,"ĠBusiness":5235,"Ġà¤Ĩà¤¶à¤¯":5236,"à¤¼à¥į":5237,"Ġà¤ħà¤²à¤®à¤²à¤®":5238,"ex":5239,"Ġà¤ĸà¤µà¤°à¤ķ":5240,"ĠSong":5241,"iter":5242,"à¥Ģ..":5243,"à¤¶à¤²à¤¤":5244,"à¤¤à¤ľà¤¨à¤ķ":5245,"Ġà¤Ĩà¤ķà¤²à¤¨":5246,"à¤īà¤Ĺ":5247,"à¤²à¤Ŀ":5248,"à¤¤à¤®à¤¨":5249,"Ġà¤¸à¤°à¤¦à¤°":5250,"à¤²à¤ķà¤°":5251,"Ġà¤ıà¤¨à¤ª":5252,"ĠMH":5253,"Ġà¤Ĩà¤Īà¤ıà¤®à¤Ī":5254,"à¤¤à¤²à¤¹à¤°":5255,"Ġà¤ķà¤²à¤°":5256,"à¤ģ,âĢĻ":5257,"à¤Ļà¤²à¤Ĺ":5258,"Ġhours":5259,"à¤Ĺà¤µà¤¤":5260,"à¤ĵà¤°":5261,"Ġà¤¤à¤¹à¤¸":5262,"à¤Ĺà¤Ĺà¤¨":5263,"à¥ĭÂ¥":5264,"à¤¸à¤¸à¤ķ":5265,"à¥Ĥ:":5266,"Ġ~":5267,"Ġà¤¸à¤¦à¤¨à¤ķ":5268,"sip":5269,"à¤µà¤°à¤ª":5270,"à¤¯à¤µà¤¦":5271,"à¤ľà¤¬à¤°":5272,"Ġà¥¨à¥¦à¥«à¥«":5273,"Ġà¤ıà¤¨à¤Ĩà¤ĩà¤¸":5274,"Ġsh":5275,"Ġà¤Ļ":5276,"à¤Ļà¤«":5277,"à¤ķà¤®à¤§":5278,"à¤ħà¤ľ":5279,"aily":5280,"ĠEd":5281,"Ġà¤Ĩà¤¬à¤¶":5282,"Ġà¤¨à¤Ĺà¤°à¤µ":5283,"ĠX":5284,"à¤¯à¤Łà¤°":5285,"Ġà¤ĸà¤ľ":5286,"ĠRES":5287,"à¤Łà¤«à¤°":5288,"à¤¨à¤Ńà¤ıà¤ķ":5289,"Ġà¤¸à¤¹à¤ħà¤§":5290,"à¤ļà¤²à¤²":5291,"Ġà¤Ĩà¤ĩà¤ıà¤®":5292,"à¤¿/":5293,"à¤¡à¤°à¤¸":5294,"à¥Įà¤ģ)":5295,"à¤¸à¤ªà¤°":5296,"ahity":5297,"ĠCtrl":5298,"ULT":5299,"Ġ100":5300,"à¤°à¤¤à¤¤à¤°":5301,"ĠNew":5302,"str":5303,"ïģ":5304,"Ġà¤«à¤Ł":5305,"à¤¯à¤¤à¤ª":5306,"Ġà¤Ĺà¤Īà¤°à¤¹":5307,"49":5308,"Ġà¤Īà¤¸":5309,"à¤µà¤¶à¤ķ":5310,"Ġà¤łà¤¡":5311,"à¤ıà¤¸à¤¸":5312,"à¤Ĥà¤ģ":5313,"ĠWik":5314,"à¤¸à¤®à¤²":5315,"Ġà¤ļà¤£":5316,"Ġà¤ªà¤łà¤¨":5317,"Ġà¥¯à¥¦à¥«à¥§":5318,"à¤Ľà¤²":5319,"Ġà¤ķà¤°à¤¬":5320,"Ġà¤ıà¤ķà¤¸à¤¯":5321,"Ġà¤¬à¤¦à¤®":5322,"à¤¥à¤¨à¤ķ":5323,"à¥®à¥«":5324,"à¥ĩà¤¾":5325,"Ġà¤ķà¤®à¤¸":5326,"à¥¨à¥¯à¥¦à¥«à¥§à¥¯à¥§":5327,"be":5328,"à¤²à¤ħà¤§":5329,"Ġà¤Ľà¤¦":5330,"Ġà¤ħà¤¨à¤¶à¤¨à¤®":5331,"à¤ĩà¤¨à¤ĸà¤¬":5332,"Ġà¥§à¥¯à¥¯à¥Ń":5333,"Ġà¤®à¤¹à¤Ļ":5334,"à¤Ĺà¤²à¤¸":5335,"Ġà¥¯à¥®à¥ªà¥¨à¥¯à¥¦à¥«à¥§à¥¯à¥§":5336,"à¤ıà¤¶à¤¨":5337,"Ġà¥¦à¥Ńà¥¦":5338,"ĠRESULT":5339,"à¤¾Ã·":5340,"Ġà¤Ńà¤µà¤¨à¤¹à¤°":5341,"à¤§à¤ªà¤Ľ":5342,"Ġà¤Ĩà¤ĩà¤¸à¤²":5343,"à¤ľà¤Ń":5344,"...]":5345,"à¤ªà¤£à¤ķ":5346,"Ġà¤ıà¤¯":5347,"Ġà¤Ĺà¤£à¤¤":5348,"Ġà¤Ńà¤ĩà¤°":5349,"38":5350,"à°":5351,"à¤²à¤¨à¤¸":5352,"ĠInternational":5353,"à¥Ģ\"":5354,"à¤²à¤¬à¤ľ":5355,"à¤ĩà¤¡à¤®":5356,"à¤Ĺà¤¤à¤¦":5357,"Ġà¤¦à¤¶à¤ķà¤ħà¤ĺ":5358,"ype":5359,"Ġpnpkhabar":5360,"à¤°à¤®à¤£à¤ªà¤Ľ":5361,"à¤ľà¤¬à¤ķ":5362,"à¤ļà¤Ĺ":5363,"à¤ĵà¤²à¤®":5364,"lider":5365,"à¥¯à¥¨":5366,"à¤Ĺà¤®à¤ŀ":5367,"Ġà¤Ľà¤¬":5368,"à¤ĸà¤ķà¤¬":5369,"Ġà¥§à¥¯à¥¯à¥ª":5370,"à¤ªm":5371,"à¤Ĳà¤¨":5372,"ĠFM":5373,"Ġà¤Ĩà¤Īà¤«":5374,"rish":5375,"CL":5376,"ategor":5377,"à¥¯à¥«":5378,"Ġà¥§à¥¨à¥¨":5379,"orts":5380,"Sheet":5381,"à¤ļà¤°à¤²":5382,"Ġà¤¹à¤Ļ":5383,"à¤¶à¤ħà¤¨":5384,"ading":5385,"ĠPurb":5386,"Ġ......":5387,"à¤°à¤¦à¤®":5388,"à¤Ĺà¤¤à¤²":5389,"ll":5390,"à¤¾à¤¿":5391,"à¤¾à¥ĩ,":5392,"à¤²à¤¨à¤ª":5393,"à¤¯à¤£à¤¹":5394,"Ġà¤ļà¤°à¤£à¤¬":5395,"Ġra":5396,"alk":5397,"à¤ıà¤¸à¤ı":5398,"à¤Łà¤Ńà¤¨":5399,"Ġà¥§à¥¬à¥¦":5400,"Ġà¤ıà¤¨à¤Ĩà¤°à¤ıà¤¨à¤ıà¤ķ":5401,"Ġà¤ħà¤¹à¤®à¤¦":5402,"à¤Ľà¤²à¤«":5403,"ĠâĢĭ":5404,"Ġà¤ĵà¤ķ":5405,"à¤²à¤ĸà¤¬à¤°":5406,"Ġà¤Ĩà¤ıà¤¸":5407,"à¥ĮâĢĻ":5408,"à¤¯à¤°à¤¡":5409,"à¤µà¤°à¤£à¤¹à¤°":5410,"Ġà¤ļà¤¸":5411,"Ġà¤ĩà¤Łà¤²":5412,"Ġà¤ħà¤µà¤¸à¤°à¤²":5413,"ĠSam":5414,"à¤¨à¤µà¤²":5415,"Ġà¥§à¥ªà¥¦":5416,"65":5417,"à¤¤à¤«":5418,"Ġà¤¦à¤°à¤°":5419,"ays":5420,"à¤īà¤¡à¤°":5421,"à¤¯à¤Łà¤¨à¤²":5422,"artha":5423,"Ġà¤¥à¤®":5424,"à¤Ĩà¤¦à¤°":5425,"à¤¦à¤¨à¤ħà¤¨":5426,"à¤µà¤¸à¤Ń":5427,"à¤¸à¤¨à¤¸":5428,"à¤®à¤ªà¤¤":5429,"à¤ĩà¤®à¤¨":5430,"à¤¶à¤¨à¤¸à¤®":5431,"à¤ıà¤¸à¤ĩ":5432,"Ġà¤ĭà¤£à¤®":5433,"Nov":5434,"ĠTo":5435,"à¤ĩà¤ķà¤®":5436,"à¤¯à¤¬à¤¦":5437,"à¤ĩà¤ıà¤²":5438,"37":5439,"à¤°à¤ĸà¤°":5440,"Ġ[...]":5441,"à¤¦à¤¸à¤®":5442,"ĠPurbeli":5443,"à¤ıà¤ķà¤Ľ":5444,"ĠSet":5445,"à¤²à¤¬à¤¬":5446,"à¤Łà¤¹":5447,"à¤§à¤¨à¤ª":5448,"Ġà¤¨à¤Ļ":5449,"à¤¶à¤ªà¤Ľ":5450,"à¤Ŀà¤²":5451,"Ġ2014":5452,"Ġà¤ªà¤°à¤¶":5453,"Ġà¤Ĺà¤łà¤¨à¤®":5454,"à¤ķà¤°à¤¬à¤°":5455,"à¤¤à¤²à¤¨":5456,"Ġà¤ıà¤ķà¤¨":5457,"Ġà¥§à¥¦à¥©":5458,"à¤¦à¤²à¤¹à¤°":5459,"à¤£à¤ļà¤¨":5460,"Ġà¤«à¤¤":5461,"Ġà¥§à¥¦à¥¨":5462,"âĢĿâĢĵ":5463,"ĠAp":5464,"ĠArticle":5465,"à¥¨à¥Ńà¥¨":5466,"à¥®à¥ª":5467,"Ġà¥¦à¥Ńà¥§":5468,"à¤§à¤Ńà¤¤":5469,"à¥ĢâĢĶ":5470,"Ġà¤Ĩà¤®à¤¸à¤ŀ":5471,"ĠInterview":5472,"Ġà¥¨à¥¦à¥©à¥¬":5473,"Ġthis":5474,"à¤¶à¤¯à¤¯":5475,".)":5476,"wa":5477,"à¤Łà¤Ł":5478,"à¤ıà¤Ń":5479,"à¥¨à¥¦à¥¨à¥¦":5480,"à¤®à¤µà¤°":5481,"Ġà¤Ĩà¤¶à¤Ļ":5482,"à¥Įà¤Ĥà¤Ĥ":5483,"à¤¹à¤Ļà¤ķà¤Ļà¤®":5484,"Ġà¤ªà¤¸à¤²à¤ķ":5485,"ofero":5486,"Ġà¥§à¥¯à¥¯à¥¬":5487,"à¤Ĺà¤£à¤®":5488,"à¤¥à¤ķà¤²":5489,"Ġà¤ķà¤¦à¤®à¤²":5490,"Ġà¤ıà¤«à¤ı":5491,"AS":5492,"âĢĻ-":5493,"à¤Ŀà¤¬":5494,"Ġà¤ķà¤®à¤¸à¤²":5495,"ĠSan":5496,"à¤®à¤°à¤ķ":5497,"iti":5498,"à¤ļà¤ķà¤ķ":5499,"à¤ĸà¤ķà¤¹à¤°":5500,"td":5501,"Ġà¤°à¤¶":5502,"à¤¬à¤¸à¤®":5503,"Ġne":5504,"Ġà¤¨à¤Łà¤Ĩà¤īà¤Ł":5505,"ĠEconomic":5506,"à¤°à¤µà¤£":5507,"à¤²à¤Ĺà¤ĩà¤¨":5508,"à¤¹à¤¸à¤®":5509,"à¥¯à¥ª":5510,"Ġà¤°à¤¡":5511,"Ġà¤ıà¤®à¤ı":5512,"Ġmulkhabar":5513,"à¤§à¤¨à¤ªà¤Ľ":5514,"Ġà¤¨à¤Ĩà¤ıà¤ªà¤Ľ":5515,"à¥į,'":5516,"Ġà¤µà¤®":5517,"Ġyears":5518,"ĠBy":5519,"à¤¯à¤¤à¤¸":5520,"à¤£à¤¯à¤ħà¤¨":5521,"apan":5522,"iterature":5523,"Ġà¤¬à¤²à¤¤":5524,"à¤ľà¤Ĺà¤¨":5525,"Ġà¤ªà¤Łà¤ķà¤®":5526,"à¤§à¤¶à¤¤à¤ķ":5527,"ives":5528,"Ġà¥¯à¥¦à¥¦":5529,"ĠDes":5530,"aschimnepal":5531,"à¤īà¤¨à¤¸à¤®":5532,"Ġà¤¡à¤¸":5533,"à¤Ĩà¤°à¤Ĩà¤Ī":5534,"Ġà¤Ĺà¤°à¤Ĺà¤¹à¤¨":5535,"à¤ľà¤¨à¤®à¤¤à¤ª":5536,"ver":5537,"ĠLo":5538,"à¥Ģ!":5539,"Ġà¤Ńà¤¯à¤ķ":5540,"led":5541,"à¥ĩ-âĢĺ":5542,"Ġcomments":5543,"à¤¸à¤¦à¤°à¤®":5544,"à¤Ļà¤Łà¤¨":5545,"à¥¨à¥¦à¥¬à¥®":5546,"Ġà¤ķà¤°à¤®":5547,"à¤ıà¤ķà¤ľà¤¨":5548,"for":5549,"media":5550,"à¤®à¤®à¤¤":5551,"Ġà¤¨à¤Ĺà¤ıà¤ķ":5552,"Ġà¤īà¤«":5553,"dc":5554,"à¥Ī..":5555,"Ġà¤Ĩà¤Īà¤Ł":5556,"à¤¬à¤¤à¤ķ":5557,"TM":5558,"Ġà¤°à¤¹à¤²":5559,"à¤·à¤§à¤ķ":5560,"Ġ???":5561,"ira":5562,"Ġà¤ĸà¤ķ":5563,"Ġà¤¬à¤¢à¤¦":5564,"à¤Ĺà¤ŀ":5565,"Ġà¤Ĩà¤¯à¤ķ":5566,"à¤łà¤¶":5567,"à¤®à¤ķà¤°à¤£":5568,"Ġà¤ıà¤¯à¤°à¤¬":5569,"UTC":5570,"à¤ĩà¤¸à¤®":5571,"Ġyou":5572,"à¤®à¤¦à¤°":5573,"Ġà¤¬à¤ļà¤¨":5574,"à¤µà¤¨à¤¦":5575,"Ġà¤¨à¤ªà¤¢":5576,"ĠNational":5577,"alu":5578,"à¤¢à¤ķ":5579,"à¤ªà¤²à¤Ł":5580,"à¤®à¤°à¤¤":5581,"Ġà¥§à¥®à¥¦":5582,"à¤¡à¤¯à¤¨à¤®à¤¨":5583,"à¤¿à¥ĩ":5584,"à¤ļà¤¸à¤®":5585,"Ġà¤²à¤Ł":5586,"âĢĻâĢĵ":5587,"à¥Įà¤Ĥ?":5588,"2016":5589,"LL":5590,"à¥ģ;":5591,"à¤Ŀà¤¸à¤®":5592,"ins":5593,"à¤Ľà¤¸":5594,"Ġà¤ķà¤¥à¤¨":5595,"à¤ĩà¤²à¤²":5596,"Ġà¤Ĩà¤łà¤µà¤Ł":5597,"à¤Īà¤µ":5598,"43":5599,"Ġà¤ľà¤µà¤°":5600,"Ġà¤¨à¤«à¤°":5601,"à¤ĩà¤Łà¤°":5602,"Ġà¤ªà¤Łà¤ķà¤¥":5603,"By":5604,"à¥ĩ;":5605,"Ġà¥¨à¥¦à¥«à¥Ń":5606,"à¤Īà¤¶":5607,"à¤Ĺà¤²à¤Ĺ":5608,"à¤ĺà¤°à¤¬":5609,"sday":5610,"à¤ĸà¤ª":5611,"Ġà¥¤âĢĻâĢĻ":5612,"à¤·à¤¦à¤¬":5613,"à¤§à¤¶":5614,"à¤Łà¤®à¤®":5615,"ayakhabar":5616,"à¤¯à¤®à¤¨à¤ķ":5617,"Ġà¤ľà¤¨à¤®à¤¤à¤ķ":5618,"==":5619,"Ġà¤Ĩà¤¯à¤¸":5620,"Ġà¥§à¥¯à¥¯à¥¯":5621,"ĠWikipedia":5622,"à¤¸à¤Ĺà¤¢":5623,"Ġà¤ĸà¤¬à¤°à¤®":5624,"Ġà¤ªà¤°à¤¸":5625,"Ġà¤«à¤Ľ":5626,"à¥¯à¥§":5627,"hetri":5628,"à¤ľà¤«":5629,"à¥®à¥§":5630,"ck":5631,"à¤ĸà¤²à¤¨":5632,"à¥ĮâĢĿ":5633,"rad":5634,"à¤¨à¤¤à¤²":5635,"ID":5636,"à¤®à¤ļà¤²":5637,"à¤²à¤¯à¤¸à¤®":5638,"à¤¹à¤°à¤®":5639,"Press":5640,"à¤Ļà¤¸à¤®":5641,"Ġà¤®à¤¹ÅĴà¤µà¤ª":5642,"Ġà¤ıà¤²à¤°":5643,"à¥įà¥¤'":5644,"ĠMHz":5645,"à¤µà¤®à¤¹":5646,"Ġà¤ľà¤¨à¤ħà¤ª":5647,"Ġà¤Ĩà¤¶à¤¯à¤ķ":5648,"âĢĻ:":5649,"à¤°à¤¹à¤¦":5650,"à¤¯à¤µà¤¶":5651,"à¤Ľà¤µ":5652,"à¤·à¤£à¤ªà¤Ľ":5653,"à¤ĩà¤²à¤Łà¤ķ":5654,"Ġà¤ħà¤¨à¤¸à¤¨à¤®":5655,"à¤¯à¤Ĺà¤¤":5656,"à¤Ĺà¤¨à¤²":5657,"à¤ĩà¤ıà¤®":5658,"Ġà¤ıà¤ķà¤ªà¤²":5659,"Ġà¤¯à¤¸à¤¸à¤®":5660,"40":5661,"à¤Ĺà¤µà¤£":5662,"Ġà¤ĸà¤ļ":5663,"Ġà¤ħà¤µà¤ľ":5664,"à¤ªà¤¯à¤ķ":5665,"/-":5666,"Ġà¤¸à¤¤à¤²":5667,"ĠOct":5668,"SS":5669,"Ġà¤¤à¤Łà¤¸":5670,"ount":5671,"à¥©à¥¦à¥ª":5672,"ĠHere":5673,"url":5674,"à¤ıà¤¨à¤ķ":5675,"Ġà¤ľà¤¨à¤§à¤¨à¤ķ":5676,"à¤µà¤¸à¤²":5677,"nc":5678,"à¤ıà¤Łà¤°à¤®":5679,"à¤²à¤¨à¤¹à¤°":5680,"EX":5681,"Ġhe":5682,"Ġ\\\\":5683,"à¤Łà¤¨à¤¹":5684,"56":5685,"rou":5686,"Ġà¤Ķà¤¸à¤¤à¤®":5687,"ĠGoogle":5688,"à¥įà¤Ĥ":5689,"à¤®à¤£à¤²":5690,"200":5691,"ĠEmail":5692,"ell":5693,"Ġà¤°à¤Ļà¤ķ":5694,"Ġà¤ľà¤¨à¤¸à¤Ń":5695,"à¤¬à¤Ĺà¤°":5696,"ĠNewspaper":5697,"Ġchhetri":5698,"à¤ķà¤ļ":5699,"Ġà¤ĸà¤Ĺà¤°":5700,"Ġà¤ħà¤¨à¤ª":5701,"Ġà¤ľà¤Ĺà¤¨":5702,"à¤īà¤ªà¤®à¤¹":5703,"à¤ĩà¤®à¤°":5704,"Ġà¤ħà¤ªà¤¨à¤¤":5705,"Ġà¤¨à¤¥":5706,"à¤ĩà¤ķà¤¨":5707,"Ġà¤®à¤¨à¤®à¤¨":5708,"à¤ļà¤¥à¤°à¤®":5709,"77":5710,"Ġà¥¤âĢĺ":5711,"à¤£à¤¯à¤µ":5712,"Ġà¥§à¥©à¥¨":5713,"ĠLtd":5714,"serofero":5715,"à¤łà¤¸à¤¹":5716,"à¥įâĢĶ":5717,"Ġà¥¯à¥®à¥§à¥¬":5718,"à¤°à¤®à¤®à¤¨":5719,"Ġà¤ľà¤Ĺà¤¤à¤ķ":5720,"August":5721,"à¤ıà¤Īà¤¸":5722,"Suryakhabar":5723,"Ġà¤²à¤¯à¤®":5724,"Ġà¤¸à¤¤à¤¹à¤¬":5725,"ĠMero":5726,"+''":5727,"Jul":5728,"Ġ2010":5729,"+''+":5730,"Ġà¤µà¤¹à¤¨":5731,"à¤Īà¤ķà¤¨":5732,"à¤¾à¤ģâĢĻ":5733,"à¤ŀà¤®":5734,"Ġà¤¡à¤Łà¤ķà¤®à¤ķ":5735,"ĠArchives":5736,"à¤ľà¤¤à¤ªà¤¤":5737,"à¤¤à¤²à¤®":5738,"à¤¬à¤°à¤®à¤¹à¤²":5739,"à¤µà¤Łà¤ķ":5740,"Ġà¤ħà¤¬à¤§":5741,"à¤¶à¤ľ":5742,"à¥¨à¥¦à¥¬à¥¯":5743,"Kathmandu":5744,"ob":5745,"Ġà¥©à¥«à¥¦":5746,"à¤°à¤¬à¤ķ":5747,"ink":5748,"ĠJAN":5749,"à¤ķà¤Ĺà¤£":5750,"à¤¢à¤²":5751,"Ġà¥§à¥©à¥¦":5752,"Ġà¤¸à¤¹à¤¨à¤¶":5753,"Ġ?'":5754,"mes":5755,"Â´":5756,"à¥Į?":5757,"à¤°à¤µà¤¹":5758,"INE":5759,"à¤¦à¤ķà¤ª":5760,"à¤ĸà¤°à¤µ":5761,"ms":5762,"Ġà¤ħà¤¨à¤Ń":5763,"Ġà¤ľà¤¯à¤°":5764,"able":5765,"Ġà¤Ńà¤Ļ":5766,"à¤ļà¤µà¤°":5767,"ĠFor":5768,"ĠĠ":5769,"Ġà¤ıà¤ķà¤Ĩà¤ªà¤¸à¤®":5770,"Ġà¤§à¤¡":5771,"à¤¤à¤°à¤Ļ":5772,"à¥§à¥§à¥§":5773,"ance":5774,"Ġà¤ħà¤Łà¤²":5775,"à¥ĮâĢĵ":5776,"oh":5777,"à¤°à¤Ł":5778,"Ġà¤¸à¤¹à¤®à¤¹":5779,"à¤Ŀà¤Ĺà¤¡":5780,"Ġà¤Ĩà¤ľà¤Ńà¤¨":5781,"à¤¯à¤¦à¤²à¤®":5782,"illa":5783,"Ġam":5784,"Ġà¤ħà¤¨à¤Ĺ":5785,"à¤¯à¤¸à¤ŀ":5786,"à¥Ģ[":5787,"à¤§à¤ķà¤ķ":5788,"Ar":5789,"à¤¸à¤¨à¤®à¤¨":5790,"nel":5791,"iss":5792,"ĠSub":5793,"à¤°à¤¤à¤µ":5794,"Ġà¤¬à¤¬à¤Ī":5795,"à¤ħà¤£":5796,"Ġà¤¦à¤¹à¤¨":5797,"à¤®à¤¬à¤²":5798,"à¤Łà¤ªà¤Łà¤ķ":5799,"Ġ00":5800,"Ġà¤µà¤¹à¤¸":5801,"Ġà¤Ľà¤Ł":5802,"à¤ŀà¤°":5803,"à¥§à¥¯à¥¦à¥¦":5804,"à¥®à¥¨":5805,"Ġà¤¸à¤¹à¤°à¤¹à¤°":5806,"av":5807,"Ġà¤¹à¤²à¤ļà¤²":5808,"à¤®à¤²à¤Ł":5809,"Ġà¤Ńà¤¯à¤°à¤¹":5810,"à¥ģà¥¤âĢĿ":5811,"ĠYou":5812,"à¤¸à¤¡à¤ķà¤®":5813,"usnepal":5814,"----":5815,"CT":5816,"à¤ªà¤¨à¤¬":5817,"Ġà¥§à¥¦à¥¯":5818,"Ġà¤Ŀà¤ķ":5819,"Ġà¤ħà¤¨à¤¶à¤¨à¤ķ":5820,"Ġà¤Ĩà¤Īà¤¡à¤²":5821,"Ġsp":5822,"Ġà¤¨à¤Ĩà¤ı":5823,"Ġà¤«à¤°à¤µ":5824,"FF":5825,"à¤¸à¤°à¤¹":5826,"à¤ľà¤¤à¤²":5827,"à¥Īà¤ģ,":5828,"à¤Ĩà¤«à¤¨":5829,"Ġà¤Ĩà¤¦à¤°à¤£":5830,"Ġà¤¸à¤µà¤²":5831,"à¤¦à¤ķà¤°":5832,"47":5833,"pati":5834,"ope":5835,"UR":5836,"Ġà¤ıà¤Ĩà¤ĩà¤ľ":5837,"à¤°à¤¤à¤ķà¤¥":5838,"nal":5839,"86":5840,"à¤ķà¤¢":5841,"à¤īà¤¨à¤¬":5842,")-":5843,"à¤ķà¤Ļ":5844,"à¤īà¤¦à¤²":5845,"Ġà¤ıà¤¤":5846,"ĠDeveloped":5847,"bal":5848,"Ġr":5849,"Ġà¤ĩà¤«":5850,"à¥ĩ),":5851,"à¤Łà¤ħà¤ª":5852,"Ġà¤ħà¤¬à¤¸à¤°":5853,"Ġà¤¿":5854,"à¤°à¤¨à¤®":5855,"à¤ķà¤Łà¤¨":5856,"ĠOffice":5857,"à¤¤à¤¤à¤°":5858,"à¤īà¤¨à¤¸à¤ķ":5859,"ĠWith":5860,"Ġà¤Ĩà¤ĩà¤°à¤¨":5861,",âĢĺ":5862,"à¤Łà¤ķà¤²":5863,"à¤Łà¤¬à¤²à¤°":5864,"à¤ıà¤ķà¤²":5865,"à¤Ĺà¤®à¤¸":5866,"ublish":5867,"à¤ĩà¤£":5868,"Ġà¤ıà¤²à¤ª":5869,"à¤ķà¤°à¤£à¤¸":5870,"à¤ģ-":5871,"ood":5872,"à¤°Tags":5873,"Ġà¤Ńà¤ıà¤¸à¤®":5874,"ĠAm":5875,"ĠEnepal":5876,"55":5877,"à¤¿..":5878,"Ġà¤ªà¤Ļ":5879,"à¤¦à¤¯à¤ķ":5880,"à¤¦à¤®à¤¨":5881,"à¤¨à¤²à¤¬":5882,"amachar":5883,"à¥Īà¥į":5884,"rishna":5885,"ĠALL":5886,"à¤·à¤ķà¤¬":5887,"à¤ķà¤Ńà¤¨":5888,"à¤®à¤Ĺà¤°à¤ķ":5889,"Ġ2011":5890,"Ġà¥ªà¥¯à¥§à¥¦":5891,"enter":5892,"à¤½":5893,"à¤Ĩà¤ĩà¤¡":5894,"Ġ06":5895,"Ġà¥ªà¥ªà¥¨à¥Ńà¥¨":5896,"Ġà¥ªà¥ªà¥©à¥¦à¥ª":5897,"Ġà¥ªà¥ªà¥¨à¥Ńà¥¨à¥§à¥ª":5898,"Ġà¥ªà¥ªà¥©à¥¦à¥ªà¥¨à¥¨":5899,"à¤²à¤Ĺà¤¹à¤°":5900,"OST":5901,"à¤®à¤¨à¤°":5902,"ĠHead":5903,"se":5904,"à¤¯à¤ĸà¤¬à¤°":5905,"Ġà¤¦à¤¶à¤ķà¤Ńà¤¨":5906,"Ġà¤¨à¤Ŀ":5907,"Ġà¤¤à¤ķ":5908,"ĠKong":5909,"à¤ĭà¤·":5910,"à¤®à¤¤à¤°":5911,"ence":5912,"à¤ªà¤ľ":5913,"à¤¯à¤®à¤§":5914,"Ġà¤¤à¤°à¤Ļ":5915,"Ġà¥¯à¥®à¥ªà¥§à¥¦à¥®":5916,"à¥įà¤ģ":5917,"à¤ķà¤Ľ":5918,"à¤ķà¤°à¤¦":5919,"lic":5920,"à¤²à¤°à¤¹":5921,"Ġà¤Ĩà¤®à¤ľà¤¨à¤¤":5922,"Ġà¥¯à¥®à¥ªà¥§à¥¦à¥®à¥§à¥¯à¥¦à¥¦":5923,"WER":5924,"tter":5925,"à¤¸à¤ĸ":5926,"à¤¸à¤°à¤£":5927,"à¥Ī:":5928,"à¤Ķà¤·à¤§à¤¸à¤¹":5929,"à¤¬à¤Ļ":5930,"à¤°à¤ķà¤¹à¤°":5931,"Ġà¤ıà¤ªà¤®":5932,"à¤ļà¤Ļ":5933,"Ġà¤¸à¤®à¤¯à¤Ńà¤¨":5934,"à¤¤à¤²à¤Ĺ":5935,"annel":5936,"Ġà¤ķà¤¦à¤®à¤ķ":5937,"hapa":5938,"endra":5939,"Ġà¤Ĩà¤ıà¤¨à¤¨":5940,"Ġà¤Ľà¤²à¤«à¤²à¤²":5941,"hotos":5942,"Ġà¤¬à¤Ĺà¤°":5943,"ĠArthako":5944,"ĠArthakoartha":5945,"à¤ıà¤¨à¤Ĩà¤Īà¤¸":5946,"à¤¦à¤¦à¤°":5947,"à¤Ńà¤¹à¤°":5948,"ta":5949,"ĠHong":5950,"à¤µà¤¤à¤°":5951,"à¥Įà¤Ĥ/":5952,"à¤¬à¤®à¤®":5953,"à¤Īà¤¨à¤®":5954,"à¤ķà¤°à¤ª":5955,"ase":5956,"Ausnepal":5957,"à¤Ĥà¤ĥ":5958,"à¤ĩà¤²à¤Łà¤²":5959,"HA":5960,"ĠâĢĵâĢĺ":5961,"ĠPM":5962,"à¤¡à¤Ĺ":5963,"à¤ĵà¤ıà¤®":5964,"ĠFS":5965,"Äģ":5966,"à®":5967,"à¤§à¤ľà¤¨":5968,"Ġà¤¨à¤Ĺà¤°à¤ªà¤°":5969,"à¤Łà¤¨à¤Ĺà¤°à¤¸":5970,"Ġà¤²à¤ł":5971,"à¥Ĥà¥Ĥ":5972,"à¤²à¤®à¤£":5973,"wn":5974,"à¤¸à¤ļà¤¨":5975,"à¥Įà¤ģ:":5976,"ĠFOR":5977,"lines":5978,"Ġà¤ħà¤¸à¤ľ":5979,"à¤µà¤ķà¤¤":5980,"alth":5981,"Ġà¤ľà¤Ĺà¤¦à¤®":5982,"à¤¾Â¥":5983,"à¤ıà¤¸à¤¨à¤²":5984,"Ġà¤Ńà¤Īà¤¨":5985,"à¤¡à¤°à¤ª":5986,"à¤Ĩà¤°à¤¸":5987,"Ġà¥§à¥§à¥Ń":5988,"à¤Ĥ.:":5989,"Ġ2013":5990,"ĠSlider":5991,"à¤¸à¤¨à¤²à¤²":5992,"Ġà¤Ĩà¤ĺ":5993,"à¤µà¤°à¤£à¤®à¤¨":5994,"Ġà¤¬à¤®à¤ķ":5995,"Ġà¤Ĺà¤¹à¤¤à¤°":5996,"Ġà¥§à¥¯à¥¯à¥©":5997,"à¤²à¤ķà¤¸à¤¹":5998,"à¤ħà¤µà¤§":5999,"ĠPra":6000,"eading":6001,"à¤Łà¤®à¤§":6002,"50":6003,"Ġà¤¯à¤¸à¤®à¤§":6004,"à¤¾à¤ģ-":6005,"ware":6006,"ĠðŁ":6007,"à¤²à¤Ĺà¤ķ":6008,"à¤®à¤ķà¤¹":6009,"à¤ıà¤£":6010,"à¤Īà¤¬à¤°":6011,"à¤¤à¤ľà¤¨à¤¹à¤°":6012,"âĢ¦..":6013,"ĠView":6014,"ĠHK":6015,"Ġà¤¦à¤¶à¤ķà¤ªà¤Ľ":6016,"Ġà¥§à¥¯à¥®à¥¯":6017,"à¤£à¤¦":6018,"à¤¤à¤°à¤¸":6019,"à¤ķà¤¨à¤Ĺà¤°":6020,"NL":6021,"à¤£à¤ªà¤¨":6022,"wan":6023,"à¥ģ[":6024,"à¤¶à¤¸à¤®":6025,"à¤ıà¤Ľà¤¨":6026,"à¤°à¤®à¤ª":6027,"à¤¶à¤¸à¤¹":6028,"à¤ĩà¤«à¤²":6029,"Ġà¤°à¤¹à¤ķ":6030,"à¤µà¤°à¤£à¤ħà¤¨":6031,"mi":6032,"à¤īà¤ľà¤°":6033,"ĠMa":6034,"à¤¬à¤®à¤ķ":6035,"à¤Ļà¤ª":6036,"à¤®à¤ķà¤¤":6037,"à¤¬à¤°à¤¸à¤®":6038,"Ġà¤ħà¤®à¤°à¤Ĺà¤¢":6039,"à¤°à¤Ļà¤²":6040,"Ġà¥§à¥¯à¥®à¥¦":6041,"à¥¤âĢĵ":6042,"à¤¬à¤ĸà¤¤":6043,"Ġà¤ħà¤¥à¤ķ":6044,"Ġà¤¶à¤¯":6045,"à¤°à¤ľà¤¹":6046,"Ġà¤¦à¤ĸ":6047,"Ġà¥¤(":6048,"Ġà¤¸à¤¬à¤¸":6049,"Ġà¤¨à¤Ĺà¤°à¤²":6050,"à¥¨à¥¦à¥§à¥¬":6051,"à¥Ģ_":6052,"à¥«à¥¦à¥¦":6053,"à¤®à¤¤à¤¬":6054,"ĠYes":6055,"à¤®à¤²à¤²":6056,"à¤¯à¤®à¤£":6057,"à¤Ķà¤¦":6058,"à¥§à¥¨à¥©":6059,"à¥ĭà¥¤\"":6060,"à¤¶à¤Ńà¤°à¤¬":6061,"ĠSamachar":6062,"Ġà¤¸à¤¯à¤²":6063,"à¥¦à¥¬à¥©":6064,"à¥¬à¥¯à¥¯":6065,"Ġà¤¶à¤¸à¤¸":6066,"à¤°à¤Ľ":6067,"à¤¶à¤°à¤¦":6068,"June":6069,"ĠOm":6070,"Ġà¤¦à¤®à¤¦":6071,"Ġà¤¸à¤¹à¤ľà¤°":6072,"à¤Ĩà¤°à¤ª":6073,"Ġà¤µà¤¨à¤Ń":6074,"à¤¸à¤°à¤¤":6075,"Ġà¤¤à¤µà¤°à¤¬":6076,"âĢĵâĢĺ":6077,"Ġà¤ħà¤²à¤°":6078,"POST":6079,"à¤Ĩà¤Īà¤ķ":6080,"Ġà¤¨à¤¸à¤®":6081,"à¤ĺà¤¨à¤ķ":6082,"Ġà¥¦à¥¬à¥¨":6083,"Ġà¥¨à¥¨à¥«":6084,"à¤ĩà¤¡à¤°":6085,"à¤°à¤¸à¤®à¤ķ":6086,"youtube":6087,"à¤§à¤¸à¤®":6088,"à¥įâĢĵâĢĺ":6089,"à¤Ĺà¤§à¤¨":6090,"Ġadmin":6091,"à¤®à¤Ńà¤¨":6092,"ublished":6093,"à¤¨à¤µà¤ķ":6094,"Ġ?\"":6095,"ought":6096,"Ġà¤¯à¤®à¤¨":6097,"Ġà¤¸à¤°à¤¦":6098,"more":6099,"Ġà¥¯à¥®à¥¦":6100,"Ġà¤¸à¤®à¤¯à¤¯à¤¤":6101,"Ġà¤ªà¤¢à¤¨":6102,"MA":6103,"à¤°à¤¶à¤¨":6104,"Ġà¥§à¥¨à¥®":6105,"à¤¸à¤ľà¤¸":6106,"Ġà¤ĺà¤°à¤µ":6107,"rit":6108,"ĠHKNepal":6109,"à¤ľà¤¯à¤ª":6110,"à¤Ńà¤²à¤®":6111,"Ġà¥§à¥¯à¥¯à¥¨":6112,"Ġà¤ªà¤Łà¤¨":6113,"Ġà¤ĩà¤Ļà¤²":6114,"à¤°à¤Ńà¤ķ":6115,"à¤ıà¤¸à¤Īà¤Ī":6116,"Ġà¤¤à¤¹à¤®à¤§":6117,"lobal":6118,"Ġà¤°à¤¨à¤µ":6119,"edian":6120,"à¤ıà¤¸à¤²":6121,"Ġà¥§à¥¦à¥¬":6122,"Ġà¤µà¤¨à¤²":6123,"ĠSetopati":6124,"Ġà¤¨à¤µà¤¯":6125,"à¤ħà¤¸à¤²":6126,"ĠFe":6127,"à¤®à¤Ľ":6128,"Ġà¥¨à¥¦à¥¨à¥§":6129,"Ġà¤Ĩà¤łà¤ľà¤¨":6130,"ĠPOWER":6131,"Ġà¤ĸà¤µ":6132,"à¤°à¤¤à¤¤":6133,"Ġà¤¸à¤µà¤¸":6134,"à¤¦à¤¯à¤®":6135,"USIVE":6136,"hone":6137,"Ġarticleà¤ª":6138,"ĠMovie":6139,"à¤¤à¤¨à¤¶":6140,"à¤¾à¥ĩà¥¤":6141,"anda":6142,"ĠPolitics":6143,"Ġà¥«à¥Ńà¥¦":6144,"CLUSIVE":6145,"âĢĺâĢĺ":6146,"apur":6147,"edianp":6148,"Ġà¤Ĩà¤Ĭ":6149,"à¤·à¤£à¤¸à¤®":6150,"à¤¯à¤¸à¤²à¤Ĺà¤¤":6151,"Ġà¤Ľà¤¤à¤®":6152,"à¤ĩà¤¡à¤¬à¤¡":6153,"ĠInd":6154,"Ġname":6155,"Vide":6156,"à¤ĸà¤ľ":6157,"Ġà¤¶à¤µà¤²":6158,"à¤ıà¤¸à¤ıà¤²":6159,"à¤īà¤Ń":6160,"Ġà¤¨à¤µà¤®":6161,"Ġà¤ķà¤²à¤ķà¤¤":6162,"à¤µà¤ħà¤¨":6163,"Ġà¥ªà¥¨à¥¬à¥¯à¥¯":6164,"à¤¼à¤¾":6165,"Ġà¥ªà¥¨à¥¬à¥¯à¥¯à¥ªà¥§":6166,"Ġà¤µà¤¯":6167,"à¤ļà¤°à¤¸à¤¹":6168,"Ġà¤¹à¤Ļà¤ķà¤Ļà¤¸":6169,"ocial":6170,"à¤¸à¤Ńà¤¨":6171,"à¤²à¤¥":6172,"Ġà¥§à¥¦à¥Ń":6173,"à¤¯à¤ªà¤¦":6174,"à¥¨à¥¬à¥¦à¥¬":6175,"ĠYesKathmandu":6176,"Ġà¥§à¥¨à¥¬":6177,"ategory":6178,"à¥įâĢĿ,":6179,"à¤²à¤¡à¤®à¤¨":6180,"à¤¯à¤²à¤¯à¤®":6181,"Ġsa":6182,"Ġà¥§à¥¯à¥¯à¥«":6183,"Ġà¤ªà¤¸à¤²à¤¬":6184,"anking":6185,"à¤¯à¤µà¤§":6186,"ĠLeading":6187,"hamro":6188,"Ġà¤ıà¤¯à¤°à¤µ":6189,"Ġà¤ħà¤ªà¤¹":6190,"Ġà¤Īà¤°":6191,"Ġà¤¹à¤²à¤¹à¤°":6192,"32":6193,"Ġà¤Ĺà¤Ĺà¤¨à¤ķ":6194,"usic":6195,"Ġà¤¶à¤°à¤¦à¤ķ":6196,"à¤¯à¤£à¤Ĺ":6197,"Ġà¤Ĭà¤¸":6198,"Ġà¤ıà¤ļà¤¡":6199,"à¤°à¤Ńà¤°à¤ķ":6200,"à¤¨à¤µà¤ľ":6201,"ka":6202,"à¥Īà¤ĥ":6203,"dcnepal":6204,"ction":6205,"à¥Ģ;":6206,"atch":6207,"à¤¤à¤¸à¤°":6208,"Ġà¤ıà¤¥à¤²":6209,"Ġme":6210,"awal":6211,"Dec":6212,"Ġà¤®à¤¯":6213,"Ġà¤ıà¤®à¤¸":6214,"Ġthought":6215,"à¤¯à¤¸à¤¦":6216,"Ġà¤¹à¤«":6217,"à¤ĩà¤°à¤¸à¤ķ":6218,"2015":6219,"oka":6220,"à¤ľà¤Ĺà¤¢à¤®":6221,"Ġà¥¦à¥¬à¥ª":6222,"à¥ģ(":6223,"à¤¶à¤µà¤ķ":6224,"à¤Īà¤ªà¤ķ":6225,"à¥Į-":6226,"ĠPro":6227,"Ġà¤¦à¤¸à¤®":6228,"ĠCha":6229,"Ġà¤ħà¤¸à¤®à¤°":6230,"à¤¤à¤Ĺà¤°":6231,"Ġà¤Ńà¤·":6232,"Ġà¥§à¥§à¥«":6233,"à¤Ĺà¤²à¤¤":6234,"Ġà¤ıà¤ķà¤¥à¤°":6235,"Ġà¥¨à¥¦à¥©à¥ª":6236,"ĠSun":6237,"Ġà¤ªà¤¹à¤²à¤ķà¤¦à¤®":6238,"à¤¯à¤²à¤¯à¤ķ":6239,"ĠNamah":6240,"Ġà¥ģ":6241,"Ġà¤¨à¤ľà¤¨":6242,"St":6243,"Ġà¥§à¥¯à¥¯à¥§":6244,"à¤ķà¤¦à¤°":6245,"Ġà¤ħà¤°à¤µ":6246,"à¤Ĩà¤Īà¤²":6247,"Ġà¤Ńà¤ıà¤¯à¤¤":6248,"à¤Ńà¤ŀ":6249,"Ġà¤«à¤¹à¤°":6250,"ahitya":6251,"Ġà¤Ĺà¤§":6252,"à¤¾à¤ģ...":6253,"à¥Įà¤ģâĢĿ,":6254,"à¥ĭ(":6255,"à¤Łà¤Ńà¤Ł":6256,"Ġà¤Ĩà¤¯à¤®":6257,"âĢ¦âĢĻ":6258,"CI":6259,"Ġà¤¯à¤¸à¤Ńà¤¨":6260,"à¤ıà¤¸à¤Ł":6261,"itor":6262,"Ġà¤ħà¤ĸà¤¡":6263,"Ġà¤¸à¤¤à¤²à¤ľ":6264,"à¤¤à¤ľà¤¸":6265,"à¤§à¤ķà¤²":6266,"à¤Ńà¤§":6267,"ĠWebs":6268,"Ġà¤ªà¤°à¤ķà¤®":6269,"à¥®à¥¬":6270,"67":6271,"à¤¨à¤¬à¤¤":6272,"cri":6273,"à¤īà¤¦à¤¯":6274,"Ġà¤Ńà¤ıà¤ħà¤¨":6275,"à¤®à¤¤à¤¸à¤®":6276,"ĠSa":6277,"à¥į]":6278,"Ġà¤ıà¤®à¤¡":6279,"à¤²à¤¬à¤¹à¤°":6280,"à¤¨à¤ļà¤°":6281,"ĠAug":6282,"por":6283,"à¤¡à¤²à¤Ĺ":6284,"à¤¡à¤¸à¤¹":6285,"à¤ĩà¤¡à¤²":6286,"à¤Ńà¤²à¤ķ":6287,"à¥¤[":6288,"à¤¬à¤¹à¤¸":6289,"ated":6290,"EXCLUSIVE":6291,"à¤²à¤¨à¤¸à¤®":6292,"Ġà¤ıà¤ķà¤®à¤¤":6293,"à¤®à¤§à¤¨":6294,"Ġà¤§à¤¨à¤²":6295,"ĠKathmandu":6296,"Ġwee":6297,"à¤īà¤ªà¤ķ":6298,"ata":6299,"à¤Ĺà¤Ļ":6300,"à¥Ģ!!!":6301,"à¤Īà¤Īà¤ķ":6302,"à¤¦à¤¨à¤¬":6303,"à¥ģà¤¾":6304,"Ġà¤īà¤¸à¤®":6305,"Ġà¥«à¥¨à¥Ń":6306,"à¤¨à¤ªà¤Łà¤ķ":6307,"tis":6308,"à¤¤à¤¨à¤¸":6309,"à¤·à¤¶":6310,"à¤°à¤®à¤¸à¤®":6311,"Ġà¤ħà¤¨à¤§":6312,"à¤°à¤¹à¤¬":6313,"Ġà¤ķà¤¹à¤²":6314,"Ġà¥§à¥ªà¥¯":6315,"à¤Ľà¤²à¤«à¤²à¤®":6316,"à¤Łà¤¨à¤Ĺà¤°à¤¬":6317,"Ġà¤ıà¤¡à¤Ń":6318,"Ġà¤Ĩà¤Ĺà¤®à¤¨à¤¸":6319,"Ġ2012":6320,"ĠGos":6321,"à¤ĸà¤°à¤ķ":6322,"à¤ĵà¤¹":6323,"à¤¬à¤¨à¤ķ":6324,"restha":6325,"à¤¬à¤¸à¤¨":6326,"à¤ĸà¤¸à¤¹":6327,"Ġà¤Ńà¤ĩà¤¨à¤¸à¤ķ":6328,"à¤¡à¤°à¤¹à¤°":6329,"ĠeAd":6330,"ĠeAdarsha":6331,"ey":6332,"Ġarticleà¤¨":6333,"ĠHeadlines":6334,"ĠEnepalese":6335,"à¥ģâĢĶ":6336,"Ġà¤ĺà¤°à¤ª":6337,"Ġus":6338,"à¤·à¤°à¤®":6339,"à¤®à¤¤à¤®":6340,"à¥¨à¥¦à¥§à¥¯":6341,"lus":6342,"à¤¯à¤¯à¤¨à¤¹à¤°":6343,"Ġà¤¬à¤²à¤¬à¤¹":6344,"à¤¤à¤°à¤Ĺà¤¤à¤ķ":6345,"Ġà¤Ĩà¤²à¤Ł":6346,"ĠPosted":6347,"Ġà¤ķà¤Łà¤µ":6348,"Ġà¤Ĩà¤īà¤ľ":6349,"à¥§à¥©à¥¯":6350,"Ġà¤¤à¤®à¤²":6351,"à¤Ńà¤µà¤¹à¤°":6352,"Ġà¥§à¥¯à¥®à¥¬":6353,"Ġà¤ħà¤µà¤®":6354,"à¤Ńà¤ıà¤Ľ":6355,"à¥Įà¤ĤâĢĶ":6356,"Ġ''":6357,"à¤ħà¤¨à¤¨":6358,"à¤ĥâĢĵ":6359,"à¤¸à¤¡à¤ķà¤ķ":6360,"Ġà¤¦à¤Ļ":6361,"Ġas":6362,"Ġà¤ķà¤®à¤²à¤°":6363,"à¤µà¤¤à¤¯":6364,"ĠGossip":6365,"à¥Įà¤ģà¥¤âĢĻ":6366,"AMAT":6367,"à¤ıà¤¸à¤ıà¤²à¤¸":6368,"ĠJANAMAT":6369,"ĠJANAMATPOST":6370,"à¤¨à¤²à¤¹à¤°":6371,"Ġà¥¨à¥¦à¥¨à¥®":6372,"Ġà¤Ĩà¤µà¤°à¤£à¤®":6373,"à¤ĩà¤¨à¤¹à¤°":6374,"à¥Ģ&":6375,"à¤£à¤¸à¤Ń":6376,"icode":6377,"à¤®à¤¯à¤¦à¤°":6378,"ĠDesign":6379,"Ġà¥§à¥§à¥ª":6380,"à¤ķà¤·":6381,"Ġà¤®à¤·":6382,"à¤²à¤®à¤²":6383,"Ġà¤Īà¤ľ":6384,"EE":6385,"NT":6386,"Ġà¤ªà¤°à¤µ":6387,"à¤§à¤ķà¤°":6388,"ja":6389,"Ġà¤ľà¤²à¤¬":6390,"à¤īà¤¹à¤°":6391,"ĠFSX":6392,"à¥įà¥Ģ":6393,"à¤¯à¤¯à¤¨à¤¬":6394,"ĠKhel":6395,"ci":6396,"Ġà¤ķà¤¶":6397,"à¤£à¤§":6398,"Ġà¥¨à¥¯à¥©":6399,"2014":6400,"Ġà¤¦à¤¸à¤®à¤²à¤µ":6401,"à¤°à¤¡à¤ķ":6402,"à¤®à¤¹à¤¨":6403,"à¤ªà¤ħà¤¨":6404,"Ġà¤Ľà¤²à¤«à¤²à¤¬":6405,"à¤ľà¤¬à¤°à¤ľà¤¸":6406,"Ġan":6407,"Ġà¥§à¥¯à¥Ńà¥¦":6408,"Ġà¥¨à¥¦à¥ªà¥«":6409,"à¥ĩ\"":6410,"à¥ģ!":6411,"à¥«à¥¨à¥¦à¥¦":6412,"has":6413,"Ġà¥ªà¥§à¥¦à¥¨à¥¬à¥¦à¥¬":6414,"press":6415,"à¤·à¤Ĺ":6416,"à¤¹à¤¸à¤ļ":6417,"Ġà¤ĺà¤®":6418,"Ġà¤Łà¤Ł":6419,"Ġà¤¶à¤ªà¤¥à¤Ĺ":6420,"Ġà¤ħà¤ķà¤²":6421,"Ġà¤®à¤Ľ":6422,"Ġà¥¨à¥¦à¥Ńà¥¬":6423,"à¤²à¤ķà¤¥":6424,"Ġex":6425,"à¤ķà¤£":6426,"à¤ļà¤°à¤®":6427,"Ġà¤Ĩà¤ĩà¤¡à¤²à¤®":6428,"ĠJapan":6429,"à¥ĭ?âĢĻ":6430,"à¤¨à¤¨à¤°à¤¸":6431,"ĠState":6432,"ĠThings":6433,"à¤£à¤¤à¤°":6434,"ace":6435,"HE":6436,"vt":6437,"à¥įà¥Ĥ":6438,"à¤®à¤Ł":6439,"âĢ¦)":6440,"à¤ªà¤°à¤¤":6441,"Ġà¥§à¥¯à¥¬à¥¦":6442,"à¤®à¤¸à¤Ļ":6443,"ĠRaj":6444,"âĢ¦âĢ¦âĢ¦âĢ¦":6445,"Ġhere":6446,"ows":6447,"59":6448,"à¥Ī/":6449,"à¤¤à¤Ńà¤¨":6450,"à¤¸à¤¤à¤°":6451,"Ġà¤Ĩà¤ĩà¤®":6452,"à¤ħà¤¯":6453,"Ġà¤ļà¤°à¤£à¤ħà¤¨":6454,"à¤¡à¤ķà¤²":6455,"ĠAP":6456,"ĠNay":6457,"à¤ħà¤ŀ":6458,"Ġà¤§à¤ª":6459,"Ġà¤¸à¤°à¤ª":6460,"à¤¸à¤¨à¤²à¤ķ":6461,"Ġà¤Ĩà¤īà¤¨à¤¸à¤ķ":6462,"à¤ıà¤¨à¤ıà¤¸":6463,"tiv":6464,"Ġà¤Ĩà¤Īà¤¡":6465,"à¥ģà¥¤'":6466,"à¤Ĺà¤«à¤²":6467,"à¥§à¥§à¥¨à¥¦":6468,"à¤ķà¤Ńà¤°à¤ķ":6469,"à¤Ļà¤ĸà¤²":6470,"à¤¡à¤²à¤¹à¤°":6471,"à¤¹à¤®à¤¦":6472,"à¤¦à¤°à¤¹à¤°":6473,"à¤ĩà¤ľà¤¨":6474,"âĢį.":6475,"May":6476,"Ġà¤®à¤¬":6477,"à¤µà¤¨à¤°à¤ķ":6478,"Ġà¤¨à¤Ĺà¤°à¤¬":6479,"à¤¨à¤ĵà¤Ł":6480,"ION":6481,"ged":6482,"à¤ĩà¤¬à¤²à¤ķ":6483,"à¤¿(":6484,"à¤£à¤ªà¤Ľ":6485,"Ġà¤Ńà¤µà¤¨à¤¬":6486,"___":6487,");":6488,"à¤Ĺà¤ıà¤°":6489,"Ġ---":6490,"à¤®à¤ªà¤Ľ":6491,"Ġbet":6492,"à¤¶à¤Ļ":6493,"à¤£à¤ªà¤ķ":6494,"à¤łà¤¬":6495,"Ġà¤«à¤°à¤ķà¤«à¤°à¤ķ":6496,"Ġà¤®à¤¹à¤¤à¤ķ":6497,"à¤ħà¤«à¤®":6498,"à¥¯à¥Ń":6499,"int":6500,"ĠMon":6501,"à¤Īà¤Ńà¤¨":6502,"à¤ĸà¤¬à¤°à¤ķ":6503,"Ġà¤¶à¤¸à¤ķ":6504,"à¥ģà¤ģâĢĻ":6505,"à¤ľà¤²à¤¸":6506,"ĠSer":6507,"Ġà¤Ľà¤°à¤Ľ":6508,"Ġà¤ľà¤¯à¤¨à¤Ĺà¤°":6509,"à¤ĵà¤¨":6510,"ĠSawal":6511,"à¥«à¥¨à¥¦à¥¦à¥§à¥¬":6512,"rof":6513,"à¤µà¤¯à¤²":6514,"mp":6515,"à¤ĵà¤¯":6516,"Ġà¥¯à¥®à¥§à¥¦":6517,"68":6518,"à¤ªà¤ļà¤¨":6519,"à¤¯à¤®à¤¤":6520,"Ġà¤ĸà¤¬à¤°à¤ªà¤¤":6521,"][":6522,"à¤Ĩà¤¨à¤¨":6523,"Ġ09":6524,"NEPAL":6525,"Ġà¤Ķà¤¸":6526,"ĠPaper":6527,"umar":6528,"nepali":6529,"Ġhamro":6530,"à¤ıà¤¯à¤°":6531,"Ġà¤ķà¤łà¤ĺà¤°":6532,"au":6533,"à¤¡à¤®à¤ķ":6534,"à¤ļà¤ķà¤®":6535,"à¥®à¥Ń":6536,"Ġà¤ıà¤¸à¤ıà¤¸à¤¬":6537,"à¤¯à¤¯à¤¨à¤ħà¤¨":6538,"Ġ01":6539,"à¤¯à¤°à¤¸":6540,"indows":6541,"ali":6542,"à¥«à¥Ńà¥§à¥§à¥¨à¥¦":6543,"à¤¶à¤¬à¤¹":6544,"à¤¡à¤¨à¤¸":6545,"Ġà¤¶à¤µà¤ķ":6546,"ĠPati":6547,"à¤Łà¤¬à¤²à¤²":6548,"074":6549,"Yes":6550,"rop":6551,"à¤¯à¤®à¤µ":6552,"icket":6553,"ivers":6554,"à¤°à¤ªà¤°":6555,"à¤łà¤¨à¤®":6556,"tive":6557,"ener":6558,"ĠDaily":6559,"à¥Ĳ":6560,"à¤ľà¤ªà¤°":6561,"?'":6562,"à¤¦à¤²à¤®":6563,"58":6564,"anch":6565,"ĠPvt":6566,"ĠNature":6567,"à¤¹à¤°à¤£à¤¹à¤°":6568,"Ġà¤ĵà¤Ńà¤°à¤¸":6569,"à¥ĭ.....":6570,"à¤¯à¤®à¤ħà¤¨":6571,"à¥¨à¥¦à¥¬à¥¨":6572,"Ġà¥¤-":6573,"à¤ħà¤®à¤°":6574,"Ġà¤Ĩà¤ĩà¤ıà¤¨à¤ľ":6575,"à¤Ĺà¤£à¤¤":6576,"Ġà¤®à¤¤à¤¸à¤¹":6577,"Ġà¤īà¤ªà¤ķà¤°à¤£à¤®":6578,"Ġà¤®à¤ł":6579,"olm":6580,"March":6581,"Ġà¤ļà¤¶":6582,"à¤²à¤¯à¤Ń":6583,"à¤Łà¤ĸ":6584,"à¥¨à¥¦à¥¬à¥ª":6585,"Ġà¤¸à¤®à¤Ŀ":6586,"à¤°à¤¦à¤¤":6587,"Ġà¤ĩà¤¥":6588,"à¤§à¤¨à¤µ":6589,"Ġà¤Īà¤¯":6590,"CE":6591,"à¤ķà¤ķà¤®":6592,"à¤ıà¤Ŀ":6593,"à¤Ķà¤·à¤§à¤ķ":6594,"à¤ķà¤¸à¤Ń":6595,"à¥ĢÃ·":6596,"à¤ªà¤¦à¤¸":6597,"Ġà¤¹à¤¸à¤¨":6598,"à¤Īà¤Ĺ":6599,"à¤Ļà¤°":6600,"Ġà¤Ĩà¤µà¤¤":6601,"Ġphotos":6602,"à¤ģà¤ģ":6603,"à¤Łà¤°à¤Ńà¤¨":6604,"Ġà¤¹à¤ķà¤¦":6605,"Ġà¤°à¤Ĺà¤¤à¤²":6606,"à¥¨à¥¦à¥¬à¥©":6607,"Ġà¤ĸà¤¹à¤°":6608,"ĠLive":6609,"à¤Ĩà¤ĩà¤ıà¤®à¤Ī":6610,"Ġà¤ĺà¤ļ":6611,"à¤¹à¤²à¤¤":6612,"ĠJun":6613,"à¤¸à¤«à¤²à¤¤":6614,"à¤·à¤°à¤ķ":6615,"à¥¨à¥¦à¥¬à¥¬":6616,"Ġà¤¦à¤¶à¤°à¤¥à¤ļà¤¨":6617,"à¤°à¤ķà¤°à¤£à¤²":6618,"à¤¸à¤ķà¤¸":6619,"à¤ħà¤ļà¤®":6620,"à¤ªà¤¦à¤®":6621,"à¥ªà¥¨à¥ª":6622,"ĠSajha":6623,"Ġà¤®à¤ķà¤°":6624,"à¤ľà¤¨à¤°":6625,"à¤°à¤µà¤¤":6626,"tice":6627,"à¥ĥà¥ĥ":6628,"Ġà¥§à¥©à¥¬":6629,"à¤¯à¤£à¤®":6630,"athi":6631,"Ġà¤ķà¤¬à¤¡":6632,"Ġà¤¦à¤®à¤ķà¤ķ":6633,"Ġà¤ľà¤¯à¤¬à¤¹":6634,"à¤ľà¤¨à¤¹à¤°":6635,"Ġà¤ıà¤¨à¤Ĩà¤°à¤ıà¤¨à¤²":6636,"à¤¦à¤¤à¤²":6637,"Ġà¤ĵà¤¶":6638,"ĠMedianp":6639,"Ġà¤¹à¤ķà¤¸à¤®":6640,"à¤°à¤ľà¤²":6641,"à¤µà¤ħà¤°":6642,"Ġà¤¨à¤°à¤¹à¤°":6643,"Ġà¤ħà¤®à¤¨":6644,"kud":6645,"à¤ķà¤ħ":6646,"à¤ĵà¤Ńà¤°":6647,"inks":6648,"ĠRoka":6649,"ategories":6650,"roup":6651,"à¤®à¤²à¤Ĺ":6652,"adhesh":6653,"à¥¨à¥¦à¥¨à¥¦à¥¨à¥©":6654,"Ġà¥¯à¥®à¥§à¥¦à¥¨à¥¦à¥¨à¥¦à¥¨à¥©":6655,"MAN":6656,"à¤µà¤ķà¤®":6657,"à¤«à¤Ł":6658,"Ġà¤§à¤µà¤²":6659,"à¥«à¥¨à¥«":6660,"à¤ķà¤²à¤¸":6661,"ucation":6662,"Ġà¤Ĭà¤¹":6663,"Ġà¤ıà¤¸à¤ĩà¤Ī":6664,"98":6665,"à¥ģ\"":6666,"Ġà¤ĩà¤¡":6667,"Ġà¤Ĳà¤²":6668,"An":6669,"Nayakhabar":6670,"Ġà¤ľà¤ķ":6671,"resham":6672,"à¤¤à¤ľà¤¨à¤²":6673,"urre":6674,"Ġà¤ľà¤¨à¤¸à¤¹à¤Ń":6675,"lalu":6676,"à¤¤à¤°à¤¨":6677,"Yesin":6678,"ts":6679,"à¤·à¤®à¤£":6680,"urope":6681,"à¤ıà¤ķà¤¦à¤®":6682,"à¤¶à¤¨à¤°":6683,"à¤Ńà¤µà¤¬":6684,"Ġde":6685,"Ġà¤ķà¤Łà¤¹à¤°":6686,".,":6687,"à¤¨à¤µà¤®":6688,"à¤ĩà¤¬à¤¹":6689,"à¤ģâĢĻ-":6690,"BBC":6691,"à¤Ĺà¤ľà¤ķ":6692,"ïĥ":6693,"Ġà¤Ľà¤¤à¤¬":6694,"à¤²à¤®à¤§":6695,"ris":6696,"Ġ07":6697,"Ġà¤ļà¤²à¤¨à¤ļà¤²":6698,"à¥¬à¥¦à¥¦":6699,"bh":6700,"Ġà¤¬à¤ª":6701,"à¤ĺà¤ļ":6702,"à¤·à¤¯à¤¬à¤¸":6703,"udio":6704,"à¤ķà¤¨à¤²":6705,"Ġà¤¤à¤¹à¤¸à¤¨":6706,"à¤ĩà¤¬à¤²à¤²":6707,"Ġà¤°à¤¹à¤¯":6708,"à¤Ĩà¤°à¤²":6709,"by":6710,"à¤°à¤£à¤¸":6711,"à¥¨à¥¦à¥§à¥«":6712,"à¤®à¤¹à¤ķ":6713,"Ġà¤Ĩà¤ĩà¤¹":6714,"Ġà¤ķà¤¦à¤®à¤¹à¤°":6715,"à¤Ļà¤ļ":6716,"Ġ?(":6717,"bin":6718,"à¤¯à¤¯à¤ķ":6719,"à¥«à¥¯à¥ªà¥§":6720,"à¤ªà¤°à¤Ń":6721,"à¤ıà¤¨à¤Ĩà¤°à¤ı":6722,"Ġà¥«à¥Ńà¥¦à¥«à¥¯à¥ªà¥§":6723,"Ġà¤ħà¤ļà¤²":6724,"Ġà¤¹à¤ķà¤²":6725,"Ġà¤Ĩà¤°à¤¤":6726,"Ġà¤ıà¤¸à¤¬":6727,"à¤¾à¤ģà¤ģ":6728,"ĠRes":6729,"Ġà¥ªà¥«à¥¦":6730,"à¥Ńà¥¦à¥¦":6731,"à¤¯à¤£à¤²":6732,"à¤¶à¤¨à¤¸":6733,"Ġà¤Ńà¤µà¤¨à¤²":6734,"Ġà¤¨à¤ĺà¤Ł":6735,"à¤¤à¤¨à¤ªà¤Ľ":6736,"ale":6737,"harma":6738,"âģ":6739,"Ġà¤Ĺà¤ıà¤®":6740,"à¥¨à¥¦à¥ªà¥¬":6741,"rd":6742,"Ġà¥Ńà¥«à¥©":6743,"à¤£à¤¤à¤¯":6744,"Ġ0000":6745,"à¤ĺà¤¡":6746,"Ġjust":6747,"Ġà¥¨à¥¦à¥¨à¥¬":6748,"Ġletter":6749,"Ġà¤¤à¤¹à¤¸à¤¨à¤¹à¤¸":6750,"à¤¡à¤²à¤¸":6751,"Hira":6752,"à¤ĵà¤ı":6753,"Own":6754,"à¤Łà¤ľà¤°à¤²":6755,"à¤²à¤¬à¤¹à¤¸":6756,"à¤¶à¤¨à¤ħà¤¨":6757,"ween":6758,"à¤²à¤ł":6759,"Ġà¥¨à¥¦à¥©à¥©":6760,"à¤ļà¤¨à¤¸":6761,"irmire":6762,"57":6763,"ĠSanchar":6764,"Ġà¤¹à¤²à¤ķ":6765,"à¤¯à¤¯à¤¨à¤ªà¤Ľ":6766,"ĠComm":6767,"Ġà¥§à¥§à¥¨":6768,"à¤²à¤¢":6769,"à¤µà¤µà¤°":6770,"à¤Łà¤¸à¤ķ":6771,"Ġà¤¸à¤¹à¤µ":6772,"Ġà¥§à¥«à¥Ń":6773,"à¤ıà¤®à¤ľ":6774,"ahil":6775,"âĸª":6776,"à¤°à¤ªà¤¨":6777,"à¤īà¤¸à¤«":6778,"MS":6779,"Ġà¤Ĺà¤ıà¤¨à¤¨":6780,"Net":6781,"Ġà¤¶à¤°à¤£à¤®":6782,"à¤ľà¤¨à¤µà¤°":6783,"à¤²à¤ķà¤¤":6784,"à¤°à¤¹à¤¤":6785,"Ġà¥§à¥§à¥¬":6786,"ĠTra":6787,"mirmire":6788,"Ġà¤¬à¤®à¤²":6789,"Ġà¤ľà¤²à¤®à¤Ĺ":6790,"ym":6791,"à¤ĸà¤ļ":6792,"à¤ķà¤°à¤£à¤¸à¤®":6793,"Ġà¥©à¥®à¥Ń":6794,"Ġà¥§à¥§à¥©":6795,"riv":6796,"mirmireonline":6797,"42":6798,"à¤ļà¤²à¤¯":6799,"Ġà¥¨à¥¦à¥©à¥«":6800,"Ġà¤ľà¤®à¤ĺ":6801,"Ġà¥¦à¥¨à¥«":6802,"ĠThapa":6803,"Ġbetween":6804,"à¤¾âĢĺ":6805,"à¤¬à¤Īà¤¬":6806,"Ġà¥¯à¥®à¥«à¥§à¥§":6807,"à¤µà¤ªà¤ķ":6808,"à¤Łà¤®à¤²":6809,"ĠAuthor":6810,"Ġà¤¤à¤¹à¤¦":6811,"Ġà¤¤à¤¡":6812,"à¤¸à¤¨à¤¹à¤°":6813,"Ġà¤ħà¤µà¤¸à¤°à¤µ":6814,"Ġà¥¨à¥¦à¥ªà¥¦":6815,"Ġvide":6816,"à¥§à¥¨à¥ª":6817,"ĠHe":6818,"Ġà¤Ľà¤łà¤ķ":6819,"à¤¤à¤¨à¤Ĺà¤°à¤ª":6820,"à¤§à¤ķà¤®":6821,"à¤ľà¤¨à¤¸à¤¹":6822,"Ġ50":6823,"Ġà¤²à¤Ĺà¤¨à¤ĸ":6824,"ĠAct":6825,"Kantipur":6826,"Ġà¤Ńà¤ĩà¤¯":6827,"à¤·à¤ħà¤Ĺ":6828,"à¤¬à¤¦à¤²":6829,"Ġà¤ıà¤¨à¤Ĩà¤°à¤Ł":6830,"à¥Įà¤Ĥà¥¤âĢĿ":6831,"Ġ(+":6832,"Ġà¤ľà¤µà¤°à¤ľà¤¸":6833,"ĠLoading":6834,"IL":6835,"Nirm":6836,"man":6837,"Ġà¤¯à¤®à¤ª":6838,"ĠPre":6839,"ĠOR":6840,"à¤Ĳà¤¶":6841,"Ġà¤ħà¤¸à¤¤":6842,"Ġà¤Ĩà¤ĩà¤°":6843,"Ġà¥¨à¥Ńà¥«":6844,"Ġà¤¨à¤ªà¤¤":6845,"à¤Ļà¤¤":6846,"à¤°à¤ľà¤¹à¤°":6847,"à¤ıà¤«à¤ı":6848,"à¥§à¥Ńà¥¬":6849,"low":6850,"Ġà¤®à¤°à¤£":6851,"à¤§à¤Ń":6852,"Ġà¤®à¤¤à¤²à¤µ":6853,"Ġà¤²à¤ļà¤ķà¤¤":6854,"à¥Ī'":6855,"Ġà¤µà¤ļà¤¤":6856,"Ġpm":6857,"à¤®à¤°à¤®":6858,"Ġà¤¡à¤Łà¤ķà¤®à¤²":6859,"à¤¤à¤Ĺà¤¤à¤ķ":6860,"à¤Īà¤µà¤°":6861,"à¤Ńà¤ıà¤ªà¤Ľ":6862,"Ġà¤¨à¤µà¤¦":6863,"Ġà¤Ĩà¤Ĺà¤®à¤¨à¤®":6864,"à¤ħà¤¸à¤¨":6865,"Ġà¥¦à¥ªà¥¬":6866,"oftware":6867,"à¤¨à¤ķà¤²":6868,"69":6869,"Ġà¤¦à¤¶à¤ķà¤¸à¤®":6870,"à¤¾à¥Ģ":6871,"à¥ĭ',":6872,"ublic":6873,"Ġà¤ıà¤¬à¤®":6874,"à¤¾,âĢĻ":6875,"à¥Įà¤ģ,âĢĿ":6876,"à¤ıà¤ļà¤ķ":6877,"Ġà¤¸à¤®à¤ļ":6878,"à¤ĩà¤ķà¤ķ":6879,"Ġà¤§à¤°à¤ªà¤ķ":6880,"Ġsub":6881,"Ġ90":6882,"ek":6883,"à¥įà¤¾à¤¾":6884,"à¤ħà¤µà¤°":6885,"à¤ªà¤¨à¤¹à¤°":6886,"Ġà¤¸à¤°à¤¹à¤ķ":6887,"à¤¯à¤¸à¤¸à¤®":6888,"à¤ķà¤°à¤Ń":6889,"Ġà¤ħà¤µà¤¸à¤°à¤¬":6890,"ĠMagar":6891,"à¤ıà¤¨à¤ıà¤®à¤¬":6892,"Ġà¤ıà¤ķà¤Ńà¤¨":6893,"Ġà¥§à¥©à¥ª":6894,"à¤ªà¤°à¤®à¤ª":6895,"Aug":6896,"Ros":6897,"Ġà¤Ĩà¤ĵà¤¸":6898,"ues":6899,"à¥Ī.":6900,"à¤£à¤¸à¤¹":6901,"à¥Ńà¥«à¥«à¥§":6902,"ource":6903,"Breaking":6904,"à¤łà¤¦":6905,"ĠFr":6906,"à¤ĩà¤µà¤Ł":6907,"Ġcont":6908,"Ġà¤Ĩà¤²à¤®à¤²":6909,"Ġ!:":6910,"Ġà¥§à¥¯à¥«":6911,"Ġà¤¥à¤®à¤®":6912,"Ġà¤ľà¤²à¤ª":6913,"Ġà¥¦à¥¬à¥§":6914,"à¥ªà¥¨à¥ªà¥Ńà¥«à¥«à¥§":6915,"Ġà¤ľà¤¨à¤Ĺ":6916,"à¤°à¤¨à¤Ĺà¤°à¤ķ":6917,"à¤Ĩà¤Īà¤¤à¤¬":6918,"à¤¥à¤¨à¤Ĺà¤°":6919,"à¤¾.âĢĵ":6920,"=\"":6921,"Ġà¤¨à¤µà¤ª":6922,"à¥¬à¥§à¥¯":6923,"à¤¹à¤¨à¤¤à¤²":6924,"Ġà¥§à¥Ńà¥¦":6925,"ages":6926,"à¥¤-":6927,"à¤ıà¤¨à¤ıà¤®":6928,")?":6929,"à¤¨à¤ªà¤¨":6930,"à¤£à¤¯à¤¸":6931,"à¥¨à¥¦à¥§à¥ª":6932,"Ġà¤¤à¤²à¤¬à¤®":6933,"Ġà¤ħà¤¸à¤°à¤²":6934,"ĠMain":6935,"Ġà¥Ńà¥«à¥¦":6936,"Ġà¤¹à¤ł":6937,"âĢĻâĢĻ":6938,"Ġ(#":6939,"à¤ĭà¤£":6940,"à¤µà¤ķà¤¸":6941,"à¤¦à¤¨à¤¸":6942,"à¤Ĺà¤®à¤§":6943,"Ġà¥§à¥¯à¥¦":6944,"Ġà¤ĺà¤Łà¤¬à¤¢":6945,"ĠTag":6946,"ĠÂĸ":6947,"à¤¦à¤¤à¤®":6948,"Ġà¥¨à¥«à¥¬":6949,"over":6950,"à¥¨à¥¯à¥©":6951,"à¤¤à¤ħà¤¨":6952,"à¤ĩà¤µà¤°":6953,"à¤¶à¤¤à¤¬":6954,"Ġà¥¨à¥¦à¥¨à¥«":6955,"Ġà¥©à¥©à¥¦":6956,"à¤²à¤Ĺà¤¢":6957,"à¤¹à¤Ĺà¤¤":6958,"Ġà¤¦à¤Ĺ":6959,"à¤«à¤°à¤²":6960,"à¤°à¤£à¤¸à¤®":6961,"à¤§à¤ªà¤¤":6962,"Ġà¤¸à¤ķà¤Ńà¤°":6963,"Ġà¥¤à¥¤à¥¤":6964,"à¤¹à¤£à¤®":6965,"à¤ķà¤²à¤¬":6966,"ĠOf":6967,"ste":6968,"Ġarticleà¤¸":6969,"Ġurl":6970,"à¤ķà¤ķà¤²":6971,"à¤ģ[":6972,"Ġtog":6973,"ÃĹ":6974,"à¤Ĺà¤Ńà¤¨":6975,"ĠPahil":6976,"à¤¤à¤¸à¤ŀ":6977,"à¤«à¤¸à¤²à¤ķ":6978,"ton":6979,"à¤¸à¤ħà¤«":6980,"Ġà¤ħà¤²à¤µ":6981,"Ġà¥§à¥®à¥¯":6982,"à¥¤)":6983,"Ġtoggle":6984,"Ch":6985,"Ġà¤¸à¤¦à¤¨à¤²":6986,"July":6987,"à¤¬à¤Ł":6988,"à¤¡à¤¨à¤²":6989,"à¤µà¤¨à¤ª":6990,"Ġhamroserofero":6991,"ĠQ":6992,"à¤ģà¥¤âĢĻ":6993,"à¤ıà¤ķà¤ªà¤Łà¤ķ":6994,"à¤¸à¤²à¤²":6995,"Ġà¤¬à¤«":6996,"à¤·à¤£à¤¸":6997,"ĠVideos":6998,"à¥®à¥¯à¥Ń":6999,"box":7000,"à¤¯à¤ķà¤¬":7001,"à¥Įà¤ģà¤ĥ":7002,"Ġà¥¯à¥®à¥¦à¥¬":7003,"à¤Ĩà¤ĩà¤ıà¤¸":7004,"Ġà¤²à¤Ļ":7005,"Ġà¥§à¥¯à¥¬à¥¬":7006,"ĠEducation":7007,"Ġà¤¬à¤Ĺà¤°à¤®":7008,"à¤ĸà¤Ń":7009,"à¤²à¤ļà¤¨":7010,"Ġà¤Ńà¤°à¤¤à¤°":7011,"Ġà¤¯à¤¸à¤µ":7012,"Ġà¤ħà¤ªà¤Ĺ":7013,"à¤¡à¤¶":7014,"à¤Ļà¤¸à¤¹":7015,"bile":7016,"Ġà¤ľà¤¯à¤ķ":7017,"Ġà¤®à¤¹à¤ķ":7018,"Ġà¥¦à¥¦":7019,"à¤ĩà¤¬à¤²à¤®":7020,"shikharnews":7021,"à¤ĩà¤¨à¤ĸà¤¬à¤°à¤¸":7022,"ĠToday":7023,"à¤Łà¤Ĺ":7024,"à¤ŀà¤¬à¤¹":7025,"Ġshikharnews":7026,"à¤¦à¤µà¤¸":7027,"à¤£à¤µà¤¤":7028,"gy":7029,"à¤ªà¤ľà¤¸":7030,"Ġà¥§à¥§à¥®":7031,"Ġmero":7032,"à¤°à¤«à¤²à¤ķ":7033,"à¤²à¤µà¤¨":7034,"Ġà¤ľà¤¨à¤ªà¤ķ":7035,"Ġà¤®à¤¨à¤¬à¤¹":7036,"à¤ķà¤²à¤²":7037,"Ġ:::":7038,"Ġ08":7039,"Ġà¤ľà¤Ĺà¤¤à¤²":7040,"awaj":7041,"à¥Ŀ":7042,"à¤®à¤°à¤£à¤®":7043,"Ġà¤°à¤Ĺ":7044,"Ġà¤Ĩà¤¯à¤¤":7045,"Ġà¤īà¤¨à¤¬":7046,"anews":7047,"à¤°à¤ľà¤ķ":7048,"Ġà¤ķà¤®à¤¬":7049,"à¤Łà¤²à¤°":7050,"ĠPhoto":7051,"à¤Łà¤¬à¤²à¤¬":7052,"ĠReg":7053,"ax":7054,"Ġà¤¶à¤ª":7055,"à¤°à¤¦à¤ķ":7056,"à¤Ĩà¤Ļ":7057,"à¤ķà¤¯":7058,"à¤ļà¤¨à¤°":7059,"Ġà¥¨à¥¦à¥ªà¥¨":7060,"à¥Ī!":7061,"Ġà¤Łà¤¯":7062,"à¤°à¤®à¤£à¤¹à¤°":7063,"Ġà¤§à¤¨à¤ľà¤¨à¤ķ":7064,"ĠIT":7065,"Ġal":7066,"à¤ķà¤°à¤£à¤ªà¤Ľ":7067,"2013":7068,"red":7069,"à¤µà¤°à¤¤":7070,"à¥¬à¥«à¥ª":7071,"ĠONL":7072,"à¤®à¤ľà¤¦":7073,"à¤¯à¤°à¤¬à¤ľ":7074,"Ġà¤Ĺà¤£à¤ķ":7075,"à¤ļà¤ªà¤¦à¤¸":7076,"Ġà¤°à¤¹à¤®":7077,"Ġà¤Ĩà¤µà¤°à¤£":7078,"à¥Įà¤Ĥà¥¤'":7079,"Ġà¤Ĩà¤ĩà¤ıà¤¸":7080,"à¤·à¤¯à¤¬":7081,"illed":7082,"à¤¹à¤²à¤ķ":7083,"à¤ľà¤¸à¤¹":7084,"Ġà¤ļà¤°à¤£à¤¬à¤¦":7085,"ĠONLINE":7086,"à¤¤à¤²à¤¬":7087,"à¤ªà¤¨à¤¸à¤®":7088,"ĠPe":7089,"à¤¦à¤¯à¤²":7090,"à¤«à¤¸à¤²":7091,"ĠâĢį":7092,"à¤ªà¤¨à¤¸":7093,"à¤¸à¤¨à¤µ":7094,"Ġà¤Ķà¤·à¤¤":7095,"ĠPl":7096,"ĠRec":7097,"à¥Ńà¥¨à¥§":7098,"à¥Ńà¥¦à¥§à¥Ń":7099,"Ġà¤¯à¤®à¤ªà¤ŀ":7100,"FA":7101,"sion":7102,"à¤¨à¤°à¤¸":7103,"à¤ıà¤Ĺ":7104,"Ġà¤Ľà¤µà¤Ł":7105,"à¤ľà¤¨à¤¸à¤®":7106,"à¤¨à¤¸à¤¹à¤¨":7107,"à¥¨à¥¦à¥¬à¥Ń":7108,"okar":7109,"à¤Īà¤Łà¤®":7110,"à¤Ĺà¤¤à¤¯":7111,"ĠMar":7112,"Ex":7113,"Ġà¤ħà¤¨à¤µà¤°à¤¤":7114,"Ġà¥«à¥¨à¥Ńà¥®à¥¯à¥Ń":7115,"Ġà¤Łà¤¨à¤ķ":7116,"à¥ĩà¥¤âĢĻ":7117,"ĠMan":7118,"à¤ĸà¤®à¤¯":7119,"à¤Ĩà¤Īà¤¡":7120,"tionary":7121,"à¤¹à¤¨à¤²":7122,"Ġà¥¦à¥¬à¥©":7123,"pu":7124,"à¤Ĺà¤¸à¤¬":7125,"à¤«à¤¹à¤°":7126,"à¤Łà¤µà¤²à¤¬":7127,"uropeNepal":7128,"ĠPahilo":7129,"à¤ĩà¤«à¤ķ":7130,"Ġà¤ıà¤ıà¤«à¤ª":7131,"Ġà¤¸à¤ªà¤¥à¤Ĺ":7132,"à¤ĭà¤¤":7133,"80":7134,"my":7135,"ull":7136,"del":7137,"à¤¤à¤°à¤£à¤²":7138,"à¤¬à¤°à¤¹à¤°":7139,"à¤§à¤ªà¤¥":7140,"à¥Įà¤ĤâĢĿ":7141,"ĠHealth":7142,"à¤ªà¤¥à¤°":7143,"à¤Łà¤°à¤°":7144,"ĠKhelkud":7145,"Ġà¤Ĩà¤²à¤¸":7146,"Ġà¤²à¤ª":7147,"Ġà¥¯à¥®à¥§à¥¬à¥¬à¥«à¥ª":7148,"cience":7149,"Ġà¥¯à¥®à¥¦à¥¬à¥Ńà¥¦à¥§à¥Ń":7150,"Ġà¥¯à¥®à¥§à¥¬à¥¬à¥«à¥ªà¥¨à¥¯à¥©":7151,"Ġà¥¯à¥®à¥¦à¥¬à¥Ńà¥¦à¥§à¥Ńà¥¯à¥©":7152,"41":7153,"About":7154,"à¥Ģ.....":7155,"Ġà¥¨à¥¦à¥©à¥¯":7156,"à¤µà¤°à¤¸à¤®":7157,"à¥Įà¤ģâĢĻ,":7158,"à¥§à¥¦à¥¨à¥¨":7159,"ĠâĢ¦..":7160,"à¥§à¥®à¥¨à¥¯":7161,"à¤ıà¤ĩ":7162,"à¤£à¤ĸ":7163,"à¤¶à¤®à¤§":7164,"Ġà¤ľà¤¨à¤ķà¤²":7165,"IE":7166,"à¤¤à¤¨à¤¬":7167,"à¥Įà¤Ĥ,âĢĿ":7168,"à¤Ĩà¤ľà¤Ń":7169,"à¥ĩÃ·":7170,"Ġà¤ķà¤Ľ":7171,"à¤Ĺà¤łà¤¨à¤¬":7172,"hani":7173,"ĠDesh":7174,"à¤Łà¤µà¤²à¤²":7175,"Un":7176,"à¥Ĥ...":7177,"Ġà¤¸à¤¹à¤ľà¤ķà¤°":7178,"Ġà¤ħà¤ķà¤¬à¤°":7179,"itco":7180,"ution":7181,"ams":7182,"à¤Ĺà¤«à¤Ĺ":7183,"\")":7184,"Ġà¤ħà¤®à¤°à¤¸":7185,"Ġà¥§à¥¨à¥§":7186,"à¥ģ/":7187,"Ġà¤Īà¤Ł":7188,"ĠKantipur":7189,"à¥ĭâĢĺ":7190,"Ġà¤¨à¤®à¤°":7191,"Ġà¤ħà¤«à¤µ":7192,"ĠSu":7193,"à¤ľà¤¬à¤¸à¤®":7194,"Ġà¥¬à¥©à¥§à¥®à¥¨à¥¯":7195,"Ġà¤°à¤¹à¤°à¤²":7196,"Ġà¥©à¥®à¥Ńà¥§à¥Ńà¥¬":7197,"Ġà¤²à¤ŀ":7198,"Ġà¤Łà¤ļ":7199,"Ġà¤īà¤ªà¤ķà¤ª":7200,"à¤Łà¤¨à¤°à¤ķ":7201,"Ġà¤®à¤¶":7202,"à¤ķà¤Łà¤¬":7203,"Ã¬":7204,"à¤§à¤ĸ":7205,"Ġà¤īà¤¥à¤²":7206,"Ġà¤Ĺà¤µ":7207,"Ġà¤ĸà¤¶":7208,"Ġà¥®à¥ªà¥Ń":7209,"ĠMeroJ":7210,"Ġ:)":7211,"Ġarticleà¤ķ":7212,"ET":7213,"yo":7214,"à¤µà¤ħà¤ĺ":7215,"à¤¾....":7216,"ĠSports":7217,"Ġà¤ıà¤¯à¤°à¤¬à¤¸":7218,"ĠMeroJilla":7219,"à¤¬à¤ª":7220,"Ġà¤ĩà¤¦":7221,"Ġà¤¸à¤¯à¤¸à¤®":7222,"Nirmala":7223,"Be":7224,"à¤ķà¤Łà¤¸":7225,"ĠMusic":7226,"BFF":7227,"To":7228,"Ġ{":7229,"à¤ķà¤ĺ":7230,"Ġà¤¹à¤Ĺ":7231,"Ġà¤ļà¤Ļ":7232,"ator":7233,"ĠFree":7234,"chha":7235,"iversity":7236,"à¤ıà¤¸à¤¡":7237,"à¤¤à¤°à¤¤à¤°":7238,"Ġà¤Ĺà¤ľà¤¬à¤ķ":7239,"ËĨ":7240,"stri":7241,"ĠMin":7242,"à¤Ńà¤µà¤®":7243,"Ġ?)":7244,"icy":7245,"à¤ķà¤¨à¤ķà¤°":7246,"à¤Īà¤ľà¤¹":7247,"à¤ĩà¤ªà¤Ľ":7248,"à¤«à¤ķà¤¨":7249,"Ġà¤¸à¤¬à¤ķ":7250,";&":7251,"à¥į;":7252,"à¤¯à¤ļà¤ķ":7253,"Ġà¤ħà¤¸à¤°à¤ķ":7254,"à¤ıà¤¸à¤ıà¤¸à¤ª":7255,"71":7256,"à¤±":7257,"Ġà¤£":7258,"à¤¤à¤°à¤ĺ":7259,"à¤ĩà¤¨à¤²à¤¸à¤®":7260,"à¤°à¤ĸà¤¬à¤°":7261,"PA":7262,"ĠFl":7263,"uction":7264,"Ġà¤°à¤¹à¤¨à¤¸à¤¹à¤¨":7265,"Ġà¥§à¥©à¥«":7266,"Sp":7267,"Sub":7268,"Who":7269,"à¤ªà¤¸à¤¹":7270,"à¤Ńà¤ľà¤¨":7271,"à¤ĸà¤ķà¤·":7272,"ult":7273,"à¥į-âĢĺ":7274,"orn":7275,"à¤¯à¤ªà¤Ľ":7276,"Ġà¥¯à¥®à¥«à¥§à¥¦":7277,"DR":7278,"UN":7279,"lease":7280,"à¥Īà¤Ĥ?":7281,"Ġà¤ıà¤«à¤¸":7282,"à¤ĸà¤Ĺ":7283,"à¥«à¥¨à¥¦":7284,"Ġà¥¨à¥¦à¥¨à¥ª":7285,"à¤£à¤¯à¤ª":7286,"Ġà¤¤à¤°à¤ªà¤¨":7287,"BS":7288,"à¤łà¤ª":7289,"Ġà¤¸à¤«à¤°":7290,"à¤®à¤¤à¤Ĺà¤£à¤¨":7291,"à¤¶à¤¶":7292,"Ġà¤«à¤ľ":7293,"à¤ıà¤¨à¤Ĩà¤ĩà¤¸":7294,"Ġà¥§à¥¯à¥Ńà¥®":7295,"rap":7296,"Ġ05":7297,"Ġà¥¦à¥¬à¥¯":7298,"]à¥¤":7299,"Ġà¤ļà¤¡":7300,"à¤µà¤¸à¤ļ":7301,"ryp":7302,"Video":7303,",âĢ¦":7304,"Ġà¤²à¤¥":7305,"à¤¯à¤®à¤¦":7306,"à¤¯à¤²à¤¸":7307,"à¤°à¤ªà¤¥à¤®":7308,"à¤µà¤¯à¤¨à¤²":7309,"Ġà¤Ĩà¤Īà¤¸à¤ķ":7310,"raha":7311,"ĠKTM":7312,"striyakhabar":7313,"mit":7314,"à¤Ĭà¤¦à¤²":7315,"Ġrastriyakhabar":7316,"ĠSunday":7317,"70":7318,"Ġà¤®à¤łà¤®":7319,"Ġà¥¤..":7320,"Ġà¤ıà¤ªà¤²":7321,"ased":7322,"60":7323,"DU":7324,"à¤¯à¤²à¤¯à¤²":7325,"Ġà¤Ĩà¤°à¤¸":7326,"Ġà¤ıà¤Ļ":7327,"à¤¸à¤¨à¤¸à¤®":7328,"ĠCol":7329,"les":7330,"%,":7331,"à¤ķà¤°à¤¸":7332,"Ġà¤¬à¤°à¤¬":7333,"à¤¾à¥¤âĢĻ":7334,"à¤°à¤ľà¤¨à¤²":7335,"Ġà¤ħà¤Ĺà¤®":7336,"ritis":7337,"Ġà¥¨à¥§à¥Ń":7338,"ako":7339,"ooks":7340,"PS":7341,"Ġà¤Ĩà¤¡":7342,"à¤ĩà¤«à¤¸":7343,"à¥¨à¥¦à¥¦à¥Ń":7344,"Ġà¤¦à¤²à¤¬à¤¹":7345,"à¤¤à¤®à¤¸":7346,"Ġà¤¤à¤²à¤¬à¤ķ":7347,"Ġtwitter":7348,"à¤¤à¤°à¤ľ":7349,"073":7350,"Google":7351,"Ġà¤ıà¤ķà¤µà¤°":7352,"à¤°à¤ªà¤Ł":7353,"à¤Ĩà¤Īà¤Ł":7354,"88":7355,"Ġà¤¸à¤¹à¤°à¤²":7356,"ized":7357,"eg":7358,"napur":7359,"pan":7360,"newiki":7361,"ĠPublished":7362,"Killed":7363,"à¤µà¤ļà¤¨":7364,"Ġà¤Ĺà¤ıà¤¨":7365,"à¤Łà¤°à¤¦":7366,"Ġà¤Ńà¤Ĺà¤¤":7367,"Ġà¤¬à¤¨à¤Ń":7368,"Ġà¤¦à¤®à¤¨à¤ķ":7369,"itcoin":7370,"à¤£à¤Ńà¤ķ":7371,"KilledNirmala":7372,"à¤°à¤¨à¤²":7373,"à¤Ļà¤ķà¤¨":7374,"acy":7375,"Ġyour":7376,"WhoKilledNirmala":7377,"à¤¥à¤¸à¤ļ":7378,"ĠCine":7379,"OO":7380,")âĢİ":7381,"Ġà¤ķà¤°à¤²":7382,"à¤ģà¥ĩ":7383,"Ġà¤Ĩà¤Ł":7384,"Ġà¤Ĩà¤¯à¤µ":7385,"Ġà¤ªà¤¦à¤®à¤ª":7386,"Ġà¤¬à¤¹à¤¸à¤²":7387,"à¤¡à¤²à¤¬":7388,"ps":7389,"à¤¿_":7390,"ĠâĢĮ":7391,"Ġà¥§à¥§à¥¯":7392,"Ġà¥§à¥¯à¥§à¥¦":7393,"Roshan":7394,"à¤ĸà¤¬à¤¹":7395,"angraha":7396,"à¥īà¤Ĥ":7397,"HAN":7398,"Ġà¤ªà¤°à¤ª":7399,"ĠTHE":7400,"Ġà¤ľà¤¨à¤®à¤ŀ":7401,"Ġà¥§à¥¯à¥®à¥®":7402,"af":7403,"à¤¸à¤¢":7404,"Ġà¤®à¤¤à¤®":7405,"à¤ľà¤²à¤Ĺ":7406,"à¤§à¤ķà¤¹à¤°":7407,"Ġà¤ĸà¤Łà¤ªà¤Ł":7408,"Ġà¤īà¤®à¤Ļ":7409,"Pra":7410,"à¤²à¤¯à¤¸à¤¹":7411,"Ġà¤ĵà¤®à¤¨":7412,"Ġà¤ĺà¤°à¤¸à¤®":7413,"????":7414,"à¤¸à¤¬à¤°":7415,"ĠAl":7416,"ĠLiterature":7417,"RNA":7418,"Ġà¤ĸà¤Ľ":7419,"à¤ĺà¤¹à¤°":7420,"à¤¤à¤ķà¤¬":7421,"à¤Ķà¤ªà¤ļ":7422,"Ġà¤¶à¤¹à¤°à¤²":7423,"à¤¨à¤Ī":7424,"à¤ĩà¤Ńà¤¨":7425,"Ġà¥§à¥«à¥«":7426,"Ġà¥§à¥¯à¥ªà¥Ń":7427,"Ġà¥¦à¥ªà¥®":7428,"Ġà¥§à¥¯à¥®à¥¨":7429,"Ġà¤ľà¤²à¤¯":7430,"Ġà¤Ķà¤°à¤¹":7431,"Ġà¥§à¥¬à¥¯":7432,"Ġà¤Īà¤Łà¤¹à¤°":7433,"à¤Łà¤°à¤¸à¤¹":7434,"istry":7435,"Ġà¥¨à¥¦à¥¨à¥©":7436,"Ġà¤ıà¤²à¤ľ":7437,"ĠUs":7438,"à¤¾!!":7439,"à¤ıà¤Ńà¤¨":7440,"Ġà¥§à¥¬à¥§":7441,"à¤°à¤ĸà¤ª":7442,"Ġà¤Ĺà¤ıà¤ªà¤¨":7443,"Ġworld":7444,"Ġà¥§à¥¯à¥®à¥«":7445,"à¤¡à¤ķà¤°":7446,"à¤Īà¤²à¤Ĺ":7447,"Ġà¤īà¤µ":7448,"Ġà¥§à¥«à¥¦à¥¦":7449,"Ġà¤ıà¤ħà¤°à¤²":7450,"ritisangraha":7451,"Â¸":7452,"ĠZ":7453,"Ġdays":7454,"à¥ĩâĢĮ":7455,"à¤łà¤²à¤Ĺ":7456,"à¤¯à¤£à¤ĺ":7457,"ĠAs":7458,"à¤ĩà¤Ńà¤°à¤²":7459,",\"":7460,"à¥ģ..":7461,"Ġà¤ķà¤²à¤Ļ":7462,"urkhabar":7463,"à¤¸à¤°à¤¸à¤«":7464,"à¤£à¤²à¤Ĺ":7465,"Ġà¥§à¥«à¥§":7466,"ĠAc":7467,"à¤¨à¤¯à¤²":7468,"à¤·à¤£à¤µ":7469,"à¥įà¥¤\"":7470,"à¤¸à¤¹à¤ľ":7471,"Ġà¥§à¥Ńà¥«":7472,"anga":7473,"à¤ıà¤Īà¤¬":7474,"à¤Ľà¤²à¤«à¤²":7475,"à¤®à¤¸à¤¨":7476,"à¤ıà¤µ":7477,"à¤°à¤®à¤°":7478,"Ġà¤ıà¤¸à¤ıà¤®":7479,"Ġà¤ıà¤¨à¤Ł":7480,"à¤ıà¤¸à¤ĩà¤Ī":7481,"Ġop":7482,"à¤¾à¥Ī,":7483,"à¤¯à¤·":7484,"à¤ļà¤¨à¤¹à¤°":7485,"à¤°à¤ļà¤¨à¤²":7486,"armedia":7487,"Ġà¤®à¤ľà¤¸":7488,"à¤¶à¤µà¤°":7489,"Ġà¤Ĩà¤¶à¤®":7490,"Ġà¥¨à¥§à¥¦":7491,"à¤¹à¤ķà¤®":7492,"à¤¾à¤ģà¤Ĥ":7493,"ĠDi":7494,"ba":7495,"à¤µà¤µà¤¤":7496,"Ġà¤µà¤ļ":7497,"à¤ļà¤¨à¤ľ":7498,"ĠMonday":7499,"Ġà¥§à¥¨à¥©":7500,"à¤¹à¤²à¤¹":7501,"atus":7502,"Ġà¤°à¤£à¤¬à¤¹":7503,"lock":7504,"Ġà¤µà¤·":7505,"Ġà¥§à¥¯à¥®à¥ª":7506,"à¤ħà¤µà¤¸à¤°":7507,"à¤¦à¤ªà¤Ľ":7508,"à¤ļà¤ķà¤²":7509,"Ġà¤«à¤·":7510,"Ġà¤ħà¤¬à¤²à¤®":7511,"mation":7512,"à¤µà¤¯à¤¨à¤¸":7513,"à¥įâĢĮ,":7514,"Ġà¤ľà¤Ĺà¤¤à¤¬à¤¹":7515,"mandarmedia":7516,"elebr":7517,"ĠSand":7518,"Ġà¤Łà¤²":7519,"Ġà¥¨à¥¦à¥©à¥¨":7520,"Ġsal":7521,"à¤Īà¤¸à¤¯":7522,"Ġà¤ķà¤ľ":7523,"Ġarticles":7524,"à¤¯à¤Ĺà¤°":7525,"à¥ģà¥ĥ":7526,"Ġà¤Ĩà¤ĩà¤ıà¤ķ":7527,"ĠTweet":7528,"CC":7529,"Of":7530,"à¤ªà¤§":7531,"Ġà¤ĺà¤°à¤¸":7532,"Ġà¤ĩà¤Ĺ":7533,"ĠAll":7534,"à¤«à¤²à¤®":7535,"à¤Ĺà¤°à¤ª":7536,"à¥Įà¤Ĥà¤ģ":7537,"...âĢĻ":7538,"Ġà¤ħà¤¸à¤Ī":7539,"ĠKB":7540,"ĠWebsoft":7541,"61":7542,"ros":7543,"à¥¦à¥Ńà¥ªà¥¯":7544,"à¥«à¥®à¥¦à¥Ńà¥ªà¥¯":7545,"Ġà¤ħà¤ªà¤¤":7546,"à¥§à¥§à¥ª":7547,"Ġà¤Ŀà¤¡à¤ªà¤ķ":7548,"à¤Ńà¤¨à¤°":7549,"à¤ĵà¤ıà¤®à¤ķ":7550,"ĠImandarmedia":7551,"kh":7552,"Ġà¤¸à¤Ī":7553,"à¤µà¤Ī":7554,"Ġà¤¥à¤ªà¤ķ":7555,"à¤ŀà¤¸":7556,"Ġà¤®à¤¨à¤¤":7557,"ush":7558,"à¤Ĩà¤¦à¤°à¤£":7559,"ysansar":7560,"AD":7561,"Ġà¤®à¤¹à¤®":7562,"Ġ2009":7563,"ICS":7564,"Ġà¤²à¤¹à¤²à¤¹":7565,"à¤¹à¤¨à¤¤à¤ķ":7566,"Upd":7567,"à¤¬à¤°à¤¦":7568,"à¤Ļà¤¹":7569,"ĠSep":7570,"ĠSahitya":7571,"à¥įâĢĮ?":7572,"Ġà¤ħà¤ªà¤¹à¤°à¤£à¤ªà¤Ľ":7573,"ĠPolicy":7574,"52":7575,"Radio":7576,"Ġà¤¹à¤¯":7577,"Ġà¤ĸà¤²à¤²":7578,"ïĥĺ":7579,"JW":7580,"à¤¥à¤¸à¤®":7581,"âĢº":7582,"à¤¸à¤ķà¤°":7583,"à¤Ĩà¤¸à¤¨":7584,"Ġ!,":7585,"edne":7586,"à¤¿à¥ģ":7587,"à¤Ŀà¤ªà¤ĸ":7588,"Ġà¤īà¤¡à¤¡":7589,"à¥¨à¥¦à¥¬à¥¨à¥¦":7590,"à¤Ĺà¤°à¤£à¤ķ":7591,"à¤ļà¤¤à¤°":7592,"à¤ļà¤¨à¤ħà¤ĺ":7593,"Ġà¥«à¥«à¥¦":7594,"à¤°à¤ªà¤Łà¤ķ":7595,"Ġkritisangraha":7596,"à¤¨à¤Ľà¤¨":7597,"à¤¿à¥Ģ":7598,"Ġà¤«à¤²à¤ķ":7599,"Ġà¥§à¥¯à¥Ńà¥«":7600,"eni":7601,"Ġà¤¬à¤¸à¤¹à¤°":7602,"Ġà¤°à¤ķà¤®à¤®à¤§":7603,"Ġà¥§à¥¬à¥®":7604,"Ġà¥§à¥ªà¥¨":7605,"rofile":7606,"Ġà¤īà¤¥à¤²à¤ª":7607,"Ġà¤®à¤Ī":7608,"Ġà¥¯à¥®à¥§à¥¨à¥ª":7609,"Ġà¥¯à¥®à¥§à¥¨à¥ªà¥¨à¥¦à¥¬à¥¨à¥¦":7610,"Ġtha":7611,"à¤Łà¤Ĩà¤īà¤Ł":7612,"à¤¬à¤²à¤²":7613,"Ġà¤ĵà¤ĸà¤°":7614,"apital":7615,"Ġà¥¨à¥¦à¥ªà¥ª":7616,"ĠUniversity":7617,"ĠAPK":7618,"à¤¦à¤¶à¤¨à¤®":7619,"Ġà¤¯à¤¸à¤ħà¤¨":7620,"ĠApr":7621,"à¤²à¤¸à¤²":7622,"à¤ªà¤¦à¤ķ":7623,"à¤ıà¤¦":7624,"à¤ªà¤Łà¤ķà¤ķ":7625,"Ġtv":7626,"à¤ľà¤¨à¤µ":7627,"Ġà¤¤à¤²à¤¬à¤Ńà¤¤":7628,"Rep":7629,"dhar":7630,"à¤µà¤¬à¤¹":7631,"Ġà¤ıà¤ħà¤°":7632,"Ġà¤¬à¤¬à¤°à¤®à¤¹à¤²":7633,"Ġà¤¸à¤®à¤·":7634,"à¤¯à¤¨à¤¶":7635,"à¤ľà¤¦à¤°à¤¬":7636,"jan":7637,"à¥ĭâĢĮ":7638,"à¤¸à¤°à¤¹à¤°":7639,"Ġà¤ıà¤¨à¤¬":7640,"Ġà¥¬à¥¨à¥©":7641,"à¤ľà¤¯à¤¨à¤Ĺà¤°":7642,"Ġà¥¨à¥¦à¥©à¥®":7643,"ĠICT":7644,"Biz":7645,"ering":7646,"ĠCopyright":7647,"ures":7648,"à¤ĩà¤¤à¤®":7649,"à¤ıà¤¨à¤ıà¤¨":7650,"ednesday":7651,"à¤·à¤¯à¤¸":7652,"Ġ04":7653,"ara":7654,"à¥Įà¤Ĥ,'":7655,"à¤Ĺà¤łà¤¨à¤¸":7656,"ĠRana":7657,"Vis":7658,"gun":7659,"à¤®à¤ªà¤¹":7660,"à¤ĩà¤ŀ":7661,"à¤¿âĢľ":7662,"Ġà¤¡à¤¨à¤¹à¤°":7663,"à¤ķà¤Łà¤ª":7664,"Ġà¤Ĩà¤łà¤¬":7665,"à¤ĩà¤Ľ":7666,"100":7667,"EL":7668,"à¤°à¤¨à¤ķ":7669,"à¤¡à¤Ł":7670,"à¤ļà¤²à¤°":7671,"à¤Īà¤®à¤¤":7672,"Ġà¤Łà¤¡":7673,"ĠLok":7674,"Ġà¤®à¤Ńà¤¨":7675,"à¤°à¤£à¤¤à¤¯":7676,"boutà¤®":7677,"mysansar":7678,"à¤Ĩà¤ĩà¤«":7679,"!âĢĿ":7680,"à¤¯à¤ŀ":7681,"à¤£à¤¯à¤¸à¤®":7682,"oll":7683,"rypto":7684,"à¤¦à¤¸à¤¤":7685,"Ġà¤®à¤¹Ã¬":7686,"Ġà¤¦à¤¶à¤Ĺà¤ľ":7687,"Ġ48":7688,"Categories":7689,"ĠDh":7690,"Ġà¤®à¤ª":7691,"à¥Įà¤Ĥ)":7692,"à¤¦à¤¨à¤ª":7693,"abin":7694,"ËĨà¤¨":7695,"à¤ĸà¤µ":7696,"Ġà¤¡à¤ķà¤°":7697,"à¤¦à¤¨à¤¨":7698,"à¤Ńà¤ªà¤¤à¤¨à¤ķ":7699,"atured":7700,"ĠCinema":7701,"à¤ªà¤Łà¤¨":7702,"Ġà¤¨à¤¡à¤°":7703,"à¤°à¤¦à¤²":7704,"à¤«à¤²à¤¤":7705,"ORG":7706,"à¤Ĺà¤ľà¤¸":7707,"à¤Łà¤¨à¤°à¤²":7708,"ada":7709,"ĠBud":7710,"à¥ªà¥¬à¥«":7711,"Ġà¤¨à¤¯à¤¨":7712,"à¤Ĩà¤ĩà¤Ł":7713,"à¤ªà¤ķà¤¤":7714,"Ġà¥§à¥ªà¥®":7715,"eder":7716,"à¤°à¤°à¤¹":7717,"Ġà¤ľà¤¨à¤Ń":7718,"abali":7719,"Ġà¤ķà¤ªà¤¨":7720,"à¤Ļà¤ĸ":7721,"à¤¸à¤²à¤Ł":7722,"ĠCon":7723,"ĠHack":7724,"One":7725,"Ġà¤ľà¤¨à¤ªà¤°":7726,"âĢ¦(":7727,"Ġà¤Ĩà¤¶à¤¯à¤ªà¤¤":7728,"Ġà¥©à¥¬à¥«":7729,"ocal":7730,"Bizpati":7731,"Ġà¤°à¤¤à¤¨":7732,"Ġà¤Ńà¤Łà¤®":7733,"Ġà¤¯à¤®à¤°":7734,"à¤£à¤¯à¤ªà¤Ľ":7735,"Ġà¤¨à¤ľà¤°à¤ħà¤¨":7736,"à¤¾à¤Ĥà¤ģ":7737,"à¤µà¤²à¤Ĺ":7738,"à¤¡à¤ªà¤ķ":7739,"Ġà¥¯à¥®à¥«à¥®":7740,"Ġà¤¸à¤°à¤¸à¤²":7741,"53":7742,"Ġà¤®à¤¥":7743,"à¤ħà¤°à¤ķ":7744,"à¤°à¤¹à¤¹à¤°":7745,"à¤Łà¤¬à¤ľ":7746,"à¥ĩà¤Ĥ?":7747,"NEWS":7748,"Ġà¤ħà¤Ńà¤¦":7749,"ĠSocial":7750,"Ġà¤§à¤°à¤ªà¤ķà¤¡":7751,"Ġà¤ħà¤Ĺà¤®à¤µà¤ķ":7752,"hoj":7753,"ĠPahiloPost":7754,"Ġà¤Łà¤ķà¤°":7755,"à¤ħà¤°à¤¬":7756,"Ġ:-âĢĺ":7757,"à¤Ĩà¤ĩà¤ıà¤®":7758,"Ġti":7759,"à¤§à¤ļ":7760,"âĢĶâĢĶ":7761,"Ġà¤¨à¤Ĩà¤¤":7762,"yst":7763,"okya":7764,";-":7765,"Ġà¤¬à¤°à¤¦":7766,"Ġà¤ľà¤¨à¤ĺ":7767,"Ġà¥§à¥«à¥¬":7768,"ĠEkhabar":7769,"à¤īà¤ľà¤°à¤®":7770,"ournal":7771,"Ġà¤ıà¤¸à¤ĩà¤ĩ":7772,"Ġà¤®à¤łà¤®à¤¨":7773,"Ġà¤¬à¤²à¤¦":7774,"à¤ľà¤¦à¤°à¤ķ":7775,"ĠSagar":7776,"à¤¾à¥ĪâĢĮ":7777,"Ġà¤¨à¤¹à¤°à¤ķ":7778,"à¤¯à¤ªà¤ķ":7779,"à¥©à¥¨à¥©":7780,"à¤µà¤¨à¤°":7781,"à¥Įà¤ģâĢĿ":7782,"Ġà¤¶à¤¹à¤°à¤¯":7783,"à¤¾......":7784,"Ġà¥§à¥ªà¥«":7785,"Ġà¤ľà¤²à¤¶":7786,"Ġà¥®à¥§à¥«":7787,"ĠCor":7788,"ĠViews":7789,"elebrity":7790,"à¤ľà¤¥":7791,"à¤Ļà¤¨":7792,"à¥Įà¤Ĥ'":7793,"img":7794,"à¤¸à¤²à¤ķ":7795,"Ġà¤¸à¤Łà¤°":7796,"Ġà¤Ĩà¤ĩà¤ķà¤¨":7797,"Ġà¤ľà¤Ĺà¤ľ":7798,"ich":7799,"clus":7800,"Ġà¤²à¤Ĺà¤¨":7801,"Ġà¥§à¥¯à¥«à¥®":7802,"à¤ĩà¤ľà¤¹":7803,"à¥Įà¤Ĥà¥¤\"":7804,"MANDU":7805,"Himal":7806,"à¥į..":7807,"Ġà¤ķà¤°à¤¨":7808,"Ġà¤Ĩà¤ķà¤·":7809,"ĠSat":7810,"ichar":7811,"Ġweeks":7812,"à¤«à¤µ":7813,"Ġà¤ħà¤¨à¤¸à¤¨à¤ķ":7814,"à¤Ĩà¤°à¤¬":7815,"asin":7816,"Ġsalokya":7817,"à¥Ĥà¤Ĥ":7818,"à¥ĭ,âĢĺ":7819,"Ġà¤Ŀà¤ª":7820,"ĠBl":7821,"Ġà¥§à¥¯à¥¬à¥¨":7822,"(\"":7823,"Ġà¤Ĩà¤īà¤Łà¤²":7824,"à¤ªà¤²à¤®":7825,"à¤ļà¤¢":7826,"âĢĻ...":7827,".......":7828,"à¤¥à¤ķà¤ķ":7829,"Ġà¤Ĩà¤łà¤°":7830,"âģĦ":7831,"Ġà¤Ńà¤ŀ":7832,"à¤Ĥ...":7833,"Ġà¤¹à¤ķà¤ħà¤§":7834,"ïĤ":7835,"à¤¿.....":7836,"Ġà¥¤.":7837,"à¤ĩà¤¤à¤²":7838,"ĠPriv":7839,"Ġà¤¨à¤¹à¤°à¤®":7840,"à¤°à¤¹à¤¸à¤®":7841,"entertainment":7842,"à¤¸à¤®à¤¯à¤ķ":7843,"Ġà¤¹à¤°à¤ªà¤²":7844,"Ġà¤¸à¤¤à¤¹à¤¦":7845,"Ġbanking":7846,"âĢĮà¤Ĥ.":7847,"à¤¯à¤¸à¤¨à¤ķ":7848,"à¤Łà¤¨à¤°à¤¸":7849,"Ġà¥¨à¥¬à¥¦":7850,"ication":7851,"Ġbreaking":7852,"à¥į[":7853,"à¥ĩ,'":7854,"Ġà¤Ĩà¤Ĺà¤®":7855,"à¤¯à¤¯à¤Ń":7856,"Ġà¤ıà¤ķà¤ıà¤ķ":7857,"à¤¸à¤¨à¤¦":7858,"à¥ħ":7859,"Ġà¤¨à¤®à¤¨":7860,"à¤§à¤ĺ":7861,"Ġà¤¸à¤¯à¤ľà¤¨":7862,"Ġ!'":7863,"Ġà¤§à¤¨à¤§":7864,"ĠBitcoin":7865,"Ġà¤ªà¤¥à¤®":7866,"Ġà¤«à¤°à¤®":7867,"ĠDay":7868,"à¤¤à¤¬à¤®":7869,"Ġà¥§à¥¯à¥®à¥§":7870,"ahal":7871,"à¥ĩà¤ĤâĢĻ":7872,"urrenc":7873,"</":7874,"pp":7875,"Ġà¤¹à¤°à¤ķ":7876,"à¤°à¤®à¤¸à¤¹":7877,"à¤¯à¤ķà¤¸":7878,"Ġà¤§à¤¨à¤ª":7879,"à¤¦à¤°à¤¬à¤ľ":7880,"Subas":7881,"ual":7882,"Ġà¤ıà¤ķà¤ª":7883,"ĠPow":7884,"ĠNotice":7885,"79":7886,"li":7887,"à¤Ńà¤°à¤£":7888,"à¤°à¤®à¤Ń":7889,"Ġà¤ľà¤¨à¤°":7890,"lam":7891,"à¤¬à¤°à¤¬à¤¹":7892,"ĠSing":7893,"matha":7894,"Ġà¤¸à¤¹à¤°à¤¬":7895,"ĠWindows":7896,"Ġbankingkhabar":7897,"+\"":7898,"à¤ľà¤ľ":7899,"à¤Ĩà¤°à¤®":7900,"à¤¬à¤²à¤¦":7901,"Pre":7902,"Ġup":7903,"à¤°à¤¸à¤¬":7904,"Ġsama":7905,"wiktionary":7906,"ĠÂ·":7907,"à¤ĩà¤¶":7908,"à¥¤âĢĺ":7909,"Ġfacebook":7910,"='":7911,"à¤¬à¤ĸ":7912,"ursday":7913,"à¤¹à¤Ļà¤ķà¤Ļà¤ķ":7914,"Ġà¤²à¤ļà¤ķ":7915,"ĠOn":7916,"Ġcon":7917,"à¤ĩà¤¨à¤Ń":7918,"à¤²à¤Ĺà¤Ńà¤Ĺ":7919,"à¤¹à¤¸à¤ķ":7920,"Ġà¤¨à¤Ĺà¤¨":7921,"à¤ļà¤°à¤¹à¤°":7922,"à¤ĩà¤²à¤Ĺ":7923,"aawaj":7924,"à¤¨à¤¬à¤°":7925,"Ġà¤ĸà¤°à¤¬":7926,"Ġà¤ħà¤¸à¤°à¤¬":7927,"à¤¨à¤Ĺà¤°à¤¬":7928,"ĠUr":7929,"à¤¯à¤²à¤¬":7930,"à¤¦à¤¤à¤°":7931,"ĠJournal":7932,"&&":7933,"à¤¯à¤Łà¤°à¤®":7934,"Ġà¤ķà¤ķà¤¨":7935,"à¤¤à¤°à¤Ĺ":7936,"à¥§à¥«à¥¦":7937,"Ġà¤¨à¤Ĩà¤ĵà¤¸":7938,"wordpress":7939,"à¥Ĥ'":7940,"Ġ');":7941,"elist":7942,"Ġà¥©à¥®à¥¬":7943,"ĠNamaste":7944,"!=":7945,"78":7946,"DP":7947,"Ĥ¬":7948,"Ġà¥¨à¥¦à¥¨à¥Ń":7949,"Ġ';-":7950,"ĠGan":7951,"indexOf":7952,"titlex":7953,"ĠThursday":7954,"November":7955,"\")&&":7956,"\")&&(":7957,"ïĢ":7958,"à¤¡à¤ªà¤Ľ":7959,"Ġà¤Ĩà¤Ļà¤ķ":7960,"Ġà¥§à¥¨à¥¯":7961,"ðŁĺ":7962,"ife":7963,"formation":7964,"Ġà¤¸à¤¬à¤¥":7965,"Ġbe":7966,"ĠAmrit":7967,"54":7968,"Ġà¤¦à¤§":7969,"Ġà¤Ĩà¤Ĺà¤®à¤¨à¤²":7970,"à¤µà¤Łà¤²":7971,"à¤¬à¤ĩ":7972,"Ġà¤¶à¤¹à¤°à¤¬":7973,"?\"":7974,"ĠCo":7975,"ricelist":7976,"à¤¹à¤²à¤Ĺ":7977,"à¤Īà¤Łà¤¹à¤°":7978,"à¤ĩà¤ªà¤ķ":7979,"à¤ķà¤Łà¤¹à¤°":7980,"à¥§à¥Ńà¥§à¥¬":7981,"Ġà¤¬à¤¨à¤ķ":7982,"à¤Īà¤°à¤¹à¤¨":7983,"Ġà¥©à¥¨à¥«":7984,"à¤Ĺà¤¤à¤¤à¤°":7985,"Ġà¤¨à¤Ĺà¤°à¤Ń":7986,"Ġà¤¨à¤µà¤Ĺà¤ł":7987,"Nagarikaawaj":7988,"à¥įà¤¿":7989,"à¤¨à¤µà¤²à¤ª":7990,"à¤ªà¤Ĺ":7991,"à¤¨à¤µà¤¶":7992,"Ġà¥§à¥©à¥§":7993,"Ġà¥§à¥ªà¥ª":7994,"à¤µà¤ıà¤®":7995,"ĠNet":7996,"ical":7997,"Ġ03":7998,"ĠWednesday":7999,"à¤²à¤µà¤®":8000,"Ġà¤°à¤ľà¤¸":8001,"à¤Ńà¤Ĺà¤µà¤¤":8002,"oooo":8003,"napurna":8004,"Ġor":8005,"Ġà¤µà¤«":8006,"Ġà¤ĨËĨà¤¨":8007,"Ġà¤ªà¤¦à¤²":8008,"ananews":8009,"Ġà¥§à¥©à¥®":8010,"ates":8011,"à¤łà¤¸à¤®":8012,"Ġpricelist":8013,"à¤ıà¤«à¤ıà¤ķ":8014,"haru":8015,"à¥¦à¥Ńà¥§":8016,"Ġ?:":8017,"ĠGr":8018,"ĠSparsha":8019,"à¤ľà¤Ńà¤¤":8020,"à¥Ńà¥Ńà¥Ńà¥¨à¥§":8021,"à¥¯à¥®à¥«à¥§à¥¨à¥Ńà¥Ńà¥Ńà¥¨à¥§":8022,"à¥¯à¥®à¥ªà¥§à¥Ńà¥§à¥¬":8023,"à¥¯à¥®à¥ªà¥§à¥Ńà¥§à¥¬à¥ªà¥¬à¥«":8024,"à¤°view":8025,"à¤¯à¤¨à¤°à¤¤":8026,"à¤¶à¤¹à¤°à¤®":8027,"à¥¨à¥¦à¥¬à¥«":8028,"Ġà¤¡à¤Łà¤ķà¤®à¤®":8029,"Ġà¥§à¥¯à¥®à¥Ń":8030,"à¤ĺà¤¸à¤®":8031,"Ġà¥¨à¥¦à¥©à¥§":8032,"Ġà¤¦à¤°à¤µà¤¨":8033,"à¥¦à¥¦à¥Ń":8034,"Visitor":8035,"à¤²à¤¸à¤ķ":8036,"Ġà¤Ľà¤¨à¤ķ":8037,"à¤ĩà¤ĸ":8038,"Ġà¤®à¤¹ÅĴà¤µ":8039,"à¤ľà¤ķà¤°":8040,"ĠBo":8041,"ike":8042,"à¤¦à¤īà¤¨":8043,"à¤¬à¤¸à¤²":8044,"à¤¥à¤²à¤¸à¤®":8045,"à¤®à¤ľà¤¸":8046,"à¤·à¤ĺ":8047,"à¤°à¤ªà¤¥à¤ķ":8048,"ism":8049,"à¥¨à¥¨à¥¦":8050,"Ag":8051,"Sh":8052,"currenc":8053,"yar":8054,"Ġà¤ħà¤ķà¤°":8055,"à¤®à¤°à¤£à¤¶à¤ķ":8056,"Ġà¤ıà¤ķà¤ªà¤ķ":8057,"ĠCelebrity":8058,"Ġà¤ľà¤¨à¤ķà¤°":8059,"Ġlinks":8060,"kson":8061,"ryptocurrenc":8062,"Ġà¤«à¤Ĺ":8063,"à¤µà¤°à¤°":8064,"à¤¶à¤ķà¤¬":8065,"à¤§à¤¨à¤¸à¤®":8066,"Ġà¤ıà¤²à¤ĩà¤¡":8067,"hane":8068,"clusive":8069,"à¥¦à¥Ńà¥¦":8070,"Ġà¤¥à¤µ":8071,"ĠSagarmatha":8072,"yle":8073,"à¤ĸà¤§à¤°":8074,"à¤¶à¤¨à¤²à¤ķ":8075,"Ġà¤¡à¤²à¤°à¤¸à¤®":8076,"Ġà¤¹à¤Ļà¤ķà¤Ļà¤¬":8077,"________________":8078,"ock":8079,"Ġ\\\\\\\\":8080,"Pat":8081,"à¤¿;":8082,"à¤®à¤¡":8083,"Ġà¤¯à¤¸à¤ªà¤²":8084,"ake":8085,"51":8086,"à¤¬à¤¤à¤®":8087,"Ġà¤ħà¤¨à¤¸":8088,"à¥ĩ?âĢĻ":8089,"Ġà¤°à¤¨à¤°à¤ħà¤ª":8090,"à¥į\"":8091,"à¤²à¤¯à¤¤":8092,"Ġà¤Ńà¤®":8093,"Ġà¤Ĺà¤°à¤®":8094,"ĠFeb":8095,"Ġà¤¨à¤Ĩà¤ıà¤¸à¤®":8096,"uni":8097,"Ġte":8098,"à¤ľà¤µà¤²":8099,"Ġà¤ļà¤Łà¤ķ":8100,"Ġà¤¦à¤²à¤Ĺà¤¤":8101,"ĠImage":8102,"BAR":8103,"Ġà¤Ńà¤°à¤ķ":8104,"à¤«à¤²à¤ķ":8105,"Ġà¤§à¤®à¤ķ":8106,"Ġà¤¤à¤°à¤¬":8107,"ATION":8108,"à¤ļà¤Ńà¤¨":8109,"Ġà¤®à¤²à¤ľà¤²":8110,"à¤ıà¤¸à¤Īà¤Īà¤ķ":8111,"ĠLeave":8112,"Ġà¤ıà¤ļà¤ª":8113,"atimes":8114,"Ġà¤Ĩà¤ĩà¤ıà¤®à¤ĩ":8115,"What":8116,"ble":8117,"Ġà¤¶à¤¸":8118,"à¥ĥ))":8119,"Ġà¤§à¤ľ":8120,"assword":8121,"IJ":8122,"à¤ķà¤®à¤¨":8123,"ments":8124,"Ġà¤¹à¤¦à¤¬à¤¨":8125,"ĠPrivacy":8126,"Ġà¤®à¤ĸà¤®à¤²":8127,"Ġà¤ķà¤°à¤µ":8128,"Ġà¤®à¤Ĺà¤°à¤¹à¤°":8129,"à¤ªà¤Łà¤ķà¤®":8130,"Ġthoughts":8131,"Ġà¤ŀ":8132,"à¤¥à¤°à¤¹à¤°":8133,"à¤«à¤°à¤®":8134,"Ġà¥§à¥¯à¥Ńà¥¨":8135,"à¤µà¤Ńà¤°à¤¬":8136,"Ġà¥¦à¥®à¥©":8137,"à¤Īà¤®à¤§":8138,"ĠâĢł":8139,"à¤ĺà¤¸à¤¸":8140,"à¥¬à¥¨à¥ª":8141,"à¤·à¤£à¤¯":8142,"à¤¶à¤¨à¤¦":8143,"Ġà¤¦à¤²à¤Ń":8144,"à¥ĩ_":8145,"à¤ģ'":8146,"à¤°à¤¤à¤¬à¤¨":8147,"ĠJu":8148,"64":8149,"ng":8150,"per":8151,"sansar":8152,"à¤²à¤ļà¤ķ":8153,"à¤¹à¤¤à¤®":8154,"à¤ķà¤®à¤®":8155,"Ġà¤°à¤ķà¤®à¤¸à¤¹":8156,"Ġà¥§à¥©à¥¯":8157,"ĠId":8158,"shrestha":8159,"Ġà¤ıà¤Łà¤²":8160,"Ġà¤ľà¤¨à¤²à¤¹à¤°":8161,"à¤ħà¤¸à¤ķ":8162,"Ġà¤ķà¤²à¤¸":8163,"ĠCr":8164,"Ġà¤¨à¤Ńà¤ıà¤ľà¤¸":8165,"à¤¶à¤¨à¤²à¤²":8166,"à¤µà¤°à¤¦":8167,"à¤ľà¤°à¤Ń":8168,"à¤°à¤®à¤¬à¤¦":8169,"Ġà¥¨à¥¦à¥©à¥Ń":8170,"à¤¡à¤®à¤°":8171,"à¤Ĩà¤Īà¤ı":8172,"ĠIN":8173,"olitic":8174,"Ġà¤Ĺà¤«à¤Ĺ":8175,"Ġà¤¬à¤²à¤¬":8176,"à¤§à¤¨à¤¸à¤¹":8177,"Ġtype":8178,"work":8179,"à¤°à¤ħà¤°":8180,"à¤¸à¤¡à¤°":8181,"à¤°à¤¦à¤¯à¤ĺ":8182,"à¤Ĺà¤łà¤¨à¤Ń":8183,"ĠBIZ":8184,"Ġà¤ľà¤¨à¤¬":8185,"Ġà¤ħà¤Ńà¤¯":8186,"Ġà¥§à¥¯à¥ªà¥¦":8187,"Ġcontact":8188,"ĠCorpor":8189,"à¤®à¤¨à¤Ĺà¤°à¤ķ":8190,"ayatimes":8191,"Ġà¤ļà¤°à¤®à¤¸":8192,"à¤Łà¤ľà¤¸":8193,"à¤¯à¤®à¤µà¤°":8194,"Ġà¤®à¤¨à¤Ń":8195,"Ġà¥§à¥¯à¥Ńà¥§":8196,"ountry":8197,"ĠSancharak":8198,"Ġà¤¤à¤Ĺ":8199,"à¤°à¤¤à¤¦":8200,"Himalayatimes":8201,"ĠBIZMANDU":8202,"Ġà¤Ĩà¤¬à¤¸":8203,"Ġbased":8204,"à¥Ńà¥¯à¥¬à¥¬":8205,"Ġadd":8206,"à¤µà¤īà¤ª":8207,"à¥¯à¥®à¥«à¥§à¥¦à¥®":8208,"Ġà¥§à¥¨à¥¦à¥¦":8209,"à¤¦à¤¨à¤¸à¤®":8210,"à¤ĵà¤ªà¤¨":8211,"à¤ħà¤¨à¤¶à¤¨":8212,"Ġà¥©à¥¨à¥¦":8213,"ĠHD":8214,"à¤®à¤ķà¤²":8215,"à¤¹à¤ħà¤¨":8216,"à¤ĩà¤Ńà¤®":8217,"à¤¸à¤¬à¤ķ":8218,"à¤Ĩà¤°à¤ıà¤¸":8219,"ĠAudio":8220,"ĠGlobal":8221,"Ġà¥¦à¥¬à¥«":8222,"Ġsaid":8223,"ĠDeshko":8224,"PE":8225,"à¤°à¤¹à¤£à¤®":8226,"à¤ļà¤¸à¤¯":8227,"à¥¯à¥®à¥ªà¥§à¥¦à¥¨à¥¨":8228,"à¥¯à¥®à¥«à¥§à¥¦à¥®à¥Ńà¥¯à¥¬à¥¬":8229,"à¥¯à¥®à¥ªà¥§à¥¦à¥¨à¥¨à¥¬à¥§à¥¯":8230,"à¤¨à¤¨à¤Ĺà¤°à¤®":8231,"à¤°à¤¶à¤®à¤¶":8232,"à¤¸à¤¸à¤¸":8233,"elect":8234,"struction":8235,"-âĢĺ":8236,"à¤ĸà¤ªà¤¢":8237,"Ġà¤ĵà¤ľ":8238,"à¤¿.(":8239,"Ġà¥§à¥¯à¥Ńà¥¯":8240,"Ġpl":8241,"Ġà¥¯à¥®à¥«à¥®à¥¦à¥¬":8242,"hy":8243,"à¥ĩ,âĢľ":8244,"à¤¶à¤ķà¤¸":8245,"Ġà¤ħà¤¦à¤Ń":8246,"ĠKumar":8247,"ystem":8248,"à¤ļà¤¡":8249,"Ġà¤°à¤¹à¤¨à¤ķ":8250,"à¤°à¤ªà¤¯":8251,"ĠFeder":8252,"Ġ.......":8253,"aud":8254,"à¤¡à¤·":8255,"Ġà¤ĸà¤²à¤¨":8256,"à¥ĩà¤ģâĢĻ":8257,"Ġà¤®à¤¹à¤°à¤²":8258,"otes":8259,"à¤¦à¤¶à¤¨à¤ķ":8260,"Ġà¤°à¤¬à¤°":8261,"à¤ĵà¤¤":8262,"ĠDe":8263,"à¥Ĥ\"":8264,"ĠAnnapurna":8265,"à¥§à¥¬à¥Ńà¥®":8266,"Ġà¤ıà¤¨à¤Ĩà¤°à¤ıà¤¨à¤ıà¤²":8267,"ĠPolitical":8268,"YA":8269,"à¤ĺà¤Ń":8270,"à¤¨à¤Ĺà¤°à¤Ń":8271,"ĠSite":8272,"à¥§à¥¦à¥¬":8273,"Ġ500":8274,"udrap":8275,"eHimalayatimes":8276,"kot":8277,"à¤¯à¤¨à¤¬":8278,"à¥¨à¥¦à¥§à¥¨":8279,"Ġà¤¨à¤ľà¤°à¤²":8280,"à¤ıà¤ļà¤ĵ":8281,"IP":8282,"ĠÃ·":8283,"Ġà¤¥à¤°à¤ķ":8284,"ĠLight":8285,"Ġà¥¯à¥®à¥¦à¥§à¥¨à¥©":8286,"à¤ªà¤¸à¤¬":8287,"à¥Īà¥ĩ":8288,"à¤¶à¤¯à¤ķ":8289,"à¤¸à¤®à¤¸à¤ķ":8290,"à¤¯à¤Łà¤¨à¤¸":8291,"ens":8292,"eadline":8293,"Ġà¥¦à¥«à¥§":8294,"à¤Ĺà¤¤à¤µà¤°":8295,"Ġà¤ıà¤®à¤ĵà¤¯":8296,"à¥¨à¥¦à¥§à¥§":8297,"à¤°à¤ľà¤¨à¤ķ":8298,"à¤ĩà¤¨à¤ĸà¤¬à¤°à¤²":8299,"udrapari":8300,"à¤ĩà¤¨à¤ĸà¤¬à¤°":8301,"ĠSamudrapari":8302,"blog":8303,"kshrestha":8304,"Ġà¤¸à¤°à¤Ĺà¤°":8305,"ĠStory":8306,"tt":8307,"Ġit":8308,"Ġà¤¬à¤¸à¤¬":8309,"New":8310,"à¤¾:-":8311,"Ġpaschimnepal":8312,"à¤·à¤¬à¤¹":8313,"Ġà¤«à¤Ĺà¤¤":8314,"à¥¨à¥©à¥«à¥¨":8315,"Ġà¥¯à¥®à¥«à¥®à¥¦à¥¬à¥¨à¥©à¥«à¥¨":8316,"Ġà¥¯à¥®à¥¦à¥§à¥¨à¥©à¥§à¥¬à¥Ńà¥®":8317,")_":8318,"Phone":8319,"à¤Ĺà¤Ńà¤°":8320,"Ġà¤Ĺà¤ľà¤¬":8321,"à¤¬à¤¦à¤¨":8322,"Ġà¤¹à¤Łà¤²":8323,"à¤¡à¤Łà¤ķà¤®":8324,"Ġà¤ľà¤®à¤²":8325,"Ġliterature":8326,"ĠJukson":8327,"Ġà¤¨à¤ħ":8328,"à¤¬à¤Ĺà¤°à¤®":8329,"à¤¶à¤ľà¤ķ":8330,"ĠBik":8331,"ĠGroup":8332,"Ġà¤ħà¤ľà¤¯à¤ķ":8333,"Ġà¤ĵà¤Ńà¤°à¤Ł":8334,"ariyar":8335,"Ram":8336,"à¤¹à¤ļ":8337,"à¥Īà¥Īà¤Ĥ":8338,"à¤ªà¤°à¤ľ":8339,"à¤¨à¤Ĺà¤°à¤¸":8340,"Ġà¤ļà¤°à¤£à¤¹à¤°":8341,"sad":8342,"à¤¬à¤¬à¤°à¤®à¤¹à¤²":8343,"Ġà¤§à¤¬":8344,"à¤ıà¤²à¤ľ":8345,"yas":8346,"à¤Ĺà¤Ĺ":8347,"Ġà¥¨à¥¦à¥¨à¥¯":8348,"à¥ģà¤ģ,âĢĻ":8349,"Ġà¤ħà¤¸à¤¹à¤ľà¤¤":8350,"ĠChannel":8351,"hik":8352,"à¤²à¤Ī":8353,"à¤¯à¤¶à¤ķ":8354,"à¤ĩà¤®à¤²":8355,"à¤ĩà¤ªà¤°":8356,"à¤łà¤¨à¤ķ":8357,"à¤ªà¤®à¤¤à¤®":8358,"Ġà¤ĵà¤¤":8359,"Ġà¤Ĺà¤łà¤¬":8360,"ative":8361,"ju":8362,"port":8363,"à¤ĩà¤ľà¤²":8364,"à¤Ĩà¤ľà¤Ńà¤¨":8365,"hz":8366,"Ġà¤¯à¤®à¤²":8367,"Ġà¤ĩà¤µ":8368,"à¤Łà¤°à¤Ń":8369,"ĠMobile":8370,"xx":8371,"Ġha":8372,"Ġà¤Ńà¤°à¤¤à¤ķ":8373,"Ġà¤īà¤ªà¤®à¤¨":8374,"à¤¤à¤¨à¤¸à¤®":8375,"ĠCity":8376,"onses":8377,"97":8378,"gram":8379,"watch":8380,"Åĵ":8381,"à¤Łà¤Ĺà¤¤":8382,"à¤¾à¤ģà¥Ī,":8383,"Ġà¤Ńà¤°à¤ĸà¤°":8384,"à¤¡à¤°à¤Ĺ":8385,"Report":8386,"Ġà¤ľà¤¨à¤ĺà¤¨à¤¤":8387,"Ġà¤¨à¤ł":8388,"à¤ľà¤®à¤ķ":8389,"Ġà¥§à¥«à¥¨":8390,"Ġà¥§à¥®à¥¨":8391,"ĠâĤ¬":8392,"Ġà¤°à¤ĸ":8393,"à¤ıà¤ĺ":8394,"Ġ-âĢĺ":8395,"à¤Ĭà¤¦":8396,"Ġthat":8397,"à¤¹à¤°à¤ª":8398,"à¥¤âĢĶ":8399,"Ġà¤Ĺà¤łà¤¨à¤¸à¤®":8400,"à¤¿à¥ĭ":8401,"Ġà¤Ĩà¤Ĺà¤®à¤¨à¤ķ":8402,"à¤¹à¤¨à¤µ":8403,"Ġà¤ıà¤¨à¤ıà¤¸":8404,"Ġà¤Ĺà¤łà¤¨à¤ªà¤Ľ":8405,"à¤Ĩà¤ľà¤¸à¤®":8406,"Ġà¤¦à¤¶à¤ķà¤¯à¤¤":8407,"Ġ2073":8408,"ING":8409,"à¤Ĺà¤ªà¤Ľ":8410,"Ġà¤¸à¤®à¤¥à¤°":8411,"ĠTE":8412,"ible":8413,"di":8414,"set":8415,"à¤µà¤°à¤¹":8416,"à¤Ńà¤ª":8417,"à¥ģ,âĢĿ":8418,"Ġà¥§à¥¨à¥Ń":8419,"ĠBh":8420,"à¥Ģ.,":8421,"à¤¦à¤¶à¤¹à¤°":8422,"apos":8423,"ĠChet":8424,"à¤¤à¤£":8425,"à¤¶à¤¨à¤¶":8426,"Ġà¤Ĺà¤£à¤ªà¤¤":8427,"ĠSMS":8428,"ĠBha":8429,":âĢĭ":8430,"?)":8431,"Ġà¤ªà¤¦à¤®à¤¬à¤¹":8432,"à¤¹à¤¨à¤°":8433,"Ġà¥¦à¥ªà¥Ń":8434,"ote":8435,"à¤¿[":8436,"à¤²à¤¡à¤ª":8437,"Ġà¤Ĩà¤ĩà¤¦":8438,"Ġà¥¦à¥¬à¥Ń":8439,"Åĵà¤¯":8440,"Ġà¤Ŀà¤®à¤ķ":8441,"à¤§à¤¨à¤Ĺà¤°":8442,"ĠTr":8443,"Ġà¥¨à¥¦à¥ªà¥§":8444,"229":8445,"à¤°à¤µà¤¸":8446,"à¤¨à¤µà¤¸":8447,"à¤ħà¤µà¤¤":8448,"iday":8449,"Ġ40":8450,"à¤Ĩà¤ĩà¤ĵà¤ıà¤®":8451,")âĢĵ":8452,"la":8453,"à¤·à¤°à¤¬":8454,"à¤ĸà¤¨à¤²":8455,"urday":8456,"!!!!":8457,"Ġà¤¨à¤Ĺà¤Ī":8458,"erson":8459,"scri":8460,"à¤¾à¥ģ":8461,"Ġà¤īà¤ĺ":8462,"Ġà¤Łà¤£":8463,"Ġà¤ĵà¤®à¤ķ":8464,"à¤¸à¤¬à¤Ńà¤¨":8465,"Ġà¥§à¥¯à¥Ńà¥¬":8466,"oseli":8467,"Ġvideo":8468,"ĠMinistry":8469,"à¤ľà¤¤à¤ķ":8470,"Ġà¤ĺà¤¤":8471,"Ġmuldhar":8472,"cy":8473,"à¤¹à¤¡à¤¤":8474,"Ġà¤¹à¤¥":8475,"à¤¡à¤ķà¤ªà¤®":8476,"à¤¬à¤¦à¤¬":8477,"edit":8478,"Ġà¤ľà¤¨à¤®à¤¤à¤¸":8479,"Ġresp":8480,"AP":8481,"à¤§à¤µà¤²":8482,"à¤ĤâĢĵ":8483,"à¤Ļà¤Ń":8484,"Ġà¤¤à¤°à¤ĸà¤°à¤®":8485,"à¤ĵà¤Ĩà¤°":8486,"à¤¾.-":8487,"ĠMB":8488,"ori":8489,"Ġà¤Ĩà¤Īà¤¡à¤²à¤ķ":8490,"icros":8491,"ĠAuthority":8492,"ach":8493,"Â¬":8494,"à¤ĸà¤µà¤°":8495,"Ġà¤Ķà¤°":8496,"à¤¬à¤²à¤Ł":8497,"Ġà¥§à¥ªà¥¬":8498,"atha":8499,"ecial":8500,"à¤Łà¤Ĩà¤īà¤Łà¤®":8501,"paschimnepal":8502,"ĠFund":8503,"ĠContact":8504,"à¤ıà¤¶à¤¨à¤ķ":8505,"à¤ĩà¤ľà¤®":8506,"Ġà¤ľà¤¨à¤¹à¤°":8507,"Ġà¤ĵà¤łà¤®":8508,"ebsite":8509,"Ġà¤¦à¤¬à¤¦à¤¬":8510,"Ġà¤ļà¤Łà¤ªà¤Ł":8511,"Ġà¤ªà¤¦à¤ķà¤ķ":8512,"Ġà¥§à¥¬à¥©":8513,"ï¿½âĢ¦":8514,"anta":8515,"Ġ>>>":8516,"LIT":8517,"à¤Łà¤¨à¤¸":8518,"Ġà¤ıà¤®à¤Ĩà¤°à¤ª":8519,"Ġà¤Ĺà¤¢à¤µ":8520,"à¤ķà¤Ĺà¤¢":8521,"ĠSex":8522,"Ġà¥ªà¥ªà¥§":8523,"Ġà¤ªà¤²à¤ķ":8524,"Ġà¥¤âĢľ":8525,"Ġà¤īà¤ªà¤ķà¤°à¤£à¤²":8526,"ĠKoh":8527,"Ġwp":8528,"Ġà¥§à¥¯à¥®à¥©":8529,"à¤µà¤¸à¤¹à¤®à¤¤":8530,"asino":8531,"à¤¨à¤«à¤²":8532,"Ġà¤ĵà¤¹à¤¦":8533,"ĠSansar":8534,"mc":8535,"à¤¥à¤°à¤ķ":8536,"à¤²à¤¯à¤²à¤Ĺ":8537,"Ġà¥©à¥¦à¥¦à¥¦":8538,"utari":8539,"à¤¾à¥Īà¤ģ,":8540,"âĢįâĢįâĢįâĢį":8541,"ĠChetananews":8542,"Ġarticleà¤®":8543,"Ġà¥¨à¥¦à¥ªà¥©":8544,"sar":8545,"à¤ģâĢĻ,":8546,"à¤°à¤¤à¤²à¤Ĺ":8547,"Ġà¤Ĩà¤®à¤¹à¤¡":8548,"ĠCash":8549,"à¤Ĩà¤Īà¤ıà¤¸":8550,"itiz":8551,"à¥«à¥¨à¥«à¥¬à¥¨à¥ª":8552,"ĠTagged":8553,"fe":8554,"icrosoft":8555,"à±":8556,"à¤ªà¤Łà¤¹à¤°":8557,"Ġà¤ķà¤µà¤°":8558,"Ġà¤Ĺà¤Ĺà¤¨à¤²":8559,"Ġà¤ļà¤¯à¤¨à¤®":8560,"à¤¯à¤¸à¤µà¤°":8561,"à¤ıà¤¸à¤ıà¤¸à¤¬":8562,"Ġà¤ıà¤¸à¤¡":8563,"ĠBas":8564,"Ġcryptocurrenc":8565,"aste":8566,"à¤ķà¤ħà¤ªà¤ķ":8567,"à¤ĸà¤°à¤²":8568,"à¤°à¤£à¤µà¤¶":8569,"à¥©à¥¨à¥¦":8570,"à¤Łà¤¨à¤¬":8571,"à¤Ĺà¤ľà¤²à¤®":8572,"ĠSaturday":8573,"Facebook":8574,"à¤¸à¤®à¤Ŀà¤¦":8575,"à¤ĵà¤¹à¤°":8576,"à¤¸à¤¹à¤°à¤ķ":8577,"Ġ02":8578,"à¤²à¤ļà¤²à¤¨":8579,"ĠÐ":8580,"à¤·à¤°à¤¹à¤°":8581,"à¤ĸà¤Ł":8582,"Ġà¤ĺà¤¨à¤®":8583,"Ġà¤¨à¤Ĺà¤°à¤¸":8584,"Ġà¤¸à¤¯à¤µà¤Ł":8585,"Ġà¥«à¥¦à¥¦à¥¦":8586,"December":8587,"à¥į(":8588,"Ġà¤ıà¤ķà¤¢":8589,"Ġà¤¥à¤ªà¤ĺà¤Ł":8590,"ĠCric":8591,"à¤ķà¤¬à¤¡":8592,"oj":8593,"à¤¶à¤Ńà¤¨":8594,"à¤Ŀà¤°":8595,"vision":8596,"ategorized":8597,"à¤¯à¤ªà¤¨":8598,"à¤Īà¤¸à¤¹":8599,"à¤¹à¤¨à¤ª":8600,"onym":8601,"att":8602,"vas":8603,"à¤°à¤¤à¤¯":8604,"Ġà¤¡à¤²à¤°à¤Ńà¤¨":8605,"amang":8606,"OT":8607,"à¤ªà¤¸à¤¹à¤°":8608,"Ġà¤Ĺà¤ĩ":8609,"Ġà¥§à¥¯à¥Ńà¥ª":8610,"ĠPar":8611,"ĠEp":8612,"Ġà¥©à¥¬à¥¦":8613,"Ġ%%":8614,"ĠĠĠĠ":8615,"ĠSingh":8616,"ĠCricnepal":8617,"Headline":8618,"Ġà¤ħà¤ªà¤¦à¤¸":8619,"Ġà¥§à¥Ńà¥ª":8620,".........":8621,"Ġà¤ªà¤¥à¤ª":8622,"à¤¹à¤ķà¤¸":8623,"Ġà¥§à¥¬à¥¨":8624,"à¥ĭâĢĵâĢĺ":8625,"2074":8626,"à¤ĸà¤Ĺà¤ŀ":8627,"à¤ľà¤Ĺà¤¦":8628,"ĠMhz":8629,"lection":8630,"à¤µà¤¯à¤®à¤¸":8631,"Ġà¥®à¥®à¥¬":8632,"ĠModel":8633,"Ġà¤¬à¤¹à¤°à¤¹à¤°":8634,"Ġ`":8635,"à¤©":8636,"Ġà¤®à¤Ń":8637,"à¤£à¤¨à¤Ĺà¤°":8638,"à¤¾à¤ģà¥¤":8639,"Ġà¥§à¥¯à¥Ńà¥©":8640,"tions":8641,"Ġsathi":8642,"ĠUrja":8643,"à¤¿âĢĻ,":8644,"à¥ģâĢĿ,":8645,"à¥©à¥¦à¥¦":8646,"à¤²à¤µà¤°":8647,"ĠWash":8648,"ĠInHeadline":8649,"à¥¦à¥¬à¥¯":8650,"à¥¨à¥¦à¥§à¥©":8651,"abul":8652,"earch":8653,"ward":8654,"Ġà¤¸à¤¶à¤°":8655,"Ġà¤Ńà¤¯à¤²":8656,"Ġà¤¡à¤ļ":8657,"Ġà¤Ĭà¤¨":8658,"Ġà¤¯à¤®à¤¨à¤®":8659,"à¤ªmà¤¤":8660,"mer":8661,"Ġà¤°à¤¯":8662,"à¥Įà¤Ĥ.":8663,"Ġà¥§à¥¯à¥«à¥©":8664,"Ġà¤¬à¤ļà¤¤à¤®":8665,"ĠDar":8666,"à¤ħà¤µà¤¸à¤°à¤®":8667,"Ġà¤¨à¤¸à¤ļ":8668,"Ġà¤Łà¤Ļ":8669,"Ġà¤¡à¤Ĺ":8670,"à¤¨à¤§à¤¨":8671,"à¤ķà¤·à¤ķ":8672,"à¤¹à¤Ĺ":8673,"Ġà¤ļà¤ķà¤¨":8674,"alue":8675,"ĠCapital":8676,"à¤ĩà¤ªà¤¬":8677,"ington":8678,"Ġ_____________":8679,"ĠCorporate":8680,"à¤²à¤°à¤¸":8681,"ïĤ§":8682,"onymous":8683,"Fast":8684,"à¤ıà¤¤à¤²":8685,"Ġà¤Ĩà¤Īà¤ķ":8686,"à¥¨à¥¦à¥ªà¥®":8687,"à¤¶à¤Ńà¤°à¤®":8688,"ovation":8689,"spy":8690,"à¤ıà¤ĩà¤ķ":8691,"à¤ħà¤ªà¤®":8692,"à¤Ŀà¤°à¤¨":8693,"à¤°à¤¸à¤¯":8694,"à¤²à¤¯à¤ª":8695,"à¤°à¤ªà¤ŀ":8696,"Ġà¤®à¤¦à¤°à¤¸":8697,"Ġà¤Ĩà¤ļà¤°à¤£à¤ķ":8698,"90":8699,"à¤Ńà¤ľ":8700,"à¥Ĥ?":8701,"adhi":8702,"HANI":8703,"Click":8704,"Tube":8705,"Ġà¤Ĩà¤µà¤°":8706,"Ġà¤ľà¤²à¤ķ":8707,"à¤īà¤¨à¤¸":8708,"Ġà¤¸à¤¹à¤Ĩà¤¯":8709,"à¥¯à¥¦à¥¯":8710,"Ġ!\"":8711,"Ġà¤Ĩà¤īà¤Ľà¤¨":8712,"Ġà¤¬à¤ļà¤¤à¤ķà¤°":8713,"Ġà¥§à¥©à¥©":8714,"Agro":8715,"ãĥ":8716,"Ġà¤¹à¤²à¤¬":8717,"à¥Į..":8718,"à¥¨à¥¦à¥«à¥®":8719,"ices":8720,"Ġà¥¦à¥«à¥®":8721,"under":8722,"LITICS":8723,"Ġ:Â«":8724,"à¤Ĥ.âĢĵ":8725,"ild":8726,"Ġà¥©à¥©à¥§":8727,"amp":8728,"rict":8729,"More":8730,"bi":8731,"web":8732,"Ġà¥¤:":8733,"Ġà¤ķà¤²à¤¶":8734,"ĠNewsAgro":8735,"ĠâĢ¦]":8736,"Ġfb":8737,"à¤µà¤¹à¤¨":8738,"Ġà¤Ĩà¤¥":8739,"à¤®à¤®à¤§":8740,"Ġdis":8741,"ner":8742,"Ġà¤ķà¤¹à¤°":8743,"à¤¶à¤¯à¤®":8744,"à¤ħà¤Ĺà¤¸":8745,"Ġà¤Ĩà¤¦à¤®":8746,"ĠCl":8747,"ĠPay":8748,"ĠBir":8749,"urya":8750,"iI":8751,"med":8752,"pri":8753,"à¤¿\"":8754,"à¤ļà¤¨à¤ħà¤¨":8755,"Ġà¤Ńà¤ıà¤ªà¤¶":8756,"018":8757,"Ġà¥§à¥Ńà¥§":8758,"actspy":8759,"à¥Ī?":8760,"Ġà¥§à¥¯à¥ªà¥«":8761,"ĠHamroS":8762,"93":8763,"à¤¸à¤°à¤ª":8764,"Ġà¤ħà¤²à¤Ĺà¤ħà¤²à¤Ĺ":8765,">>>":8766,"Ġà¤Łà¤¨à¤ķà¤ª":8767,"à¤µà¤ľà¤¸":8768,"à¤¸à¤¦à¤µ":8769,"Ġà¤¹à¤°à¤¸à¤®":8770,"Ġà¤°à¤ķà¤®à¤¸à¤®":8771,"Ġà¥§à¥ªà¥§":8772,"à¤¨à¤Ńà¤°à¤ķ":8773,"====":8774,"EO":8775,"Ġà¤ľà¤ľ":8776,"à¤µà¤¸à¤°":8777,"à¤²à¤®à¤®":8778,"Ġà¥§à¥®à¥«":8779,"tif":8780,"Ġà¥¨à¥®à¥¦":8781,"à¤¾::":8782,"Ġ91":8783,"ĠPOLITICS":8784,"à¤ªà¤ķà¤®":8785,"à¤ľà¤²à¤®":8786,"Ġà¤Ĩà¤īà¤¨à¤ķ":8787,"ery":8788,"Ġà¤Īà¤·":8789,"ĠRen":8790,"Ġà¥ªà¥¬à¥¬":8791,"ĠðŁĺ":8792,"ĠFriday":8793,"abulanda":8794,"à¤°à¤²à¤ķ":8795,"Ġà¤¡à¤®à¤°":8796,"chi":8797,"ĠDevelopment":8798,"Ð°":8799,"Ġà¤¸à¤ªà¤°":8800,"Ġà¤µà¤¨à¤¬":8801,"ĠPart":8802,"Ġà¤¾":8803,"ĠPress":8804,"ĠNayabulanda":8805,"ĠIdol":8806,"ĠTEAM":8807,"itizen":8808,"à¤§à¤°à¤£à¤²":8809,"Ġà¤§à¤°à¤¤":8810,"Ġà¥¨à¥¨à¥¨":8811,"ĠMe":8812,"Ġarticleà¤µ":8813,"vice":8814,"Ġà¤ªà¤¸à¤²à¤²":8815,"ĠUnc":8816,"kha":8817,"Ġà¤°à¤®à¤ľ":8818,"à¤Łà¤°à¤ķà¤¨":8819,"Ġfe":8820,"à¥¨à¥¯à¥¦à¥¦à¥Ń":8821,"à¤²à¤ľà¤¯":8822,"Ġà¤°à¤Ł":8823,"à¤ıà¤¨à¤²":8824,"Ġà¤Ńà¤ľ":8825,"à¥Į:":8826,"à¤¤à¤°à¤ªà¤¶":8827,"rend":8828,"à¥¯à¥®à¥ªà¥¨à¥¯à¥¦à¥«à¥§à¥¯":8829,"à¥¯à¥®à¥ªà¥¨à¥¯à¥¦à¥¦à¥Ń":8830,"scribe":8831,"à¥¯à¥®à¥ªà¥¨à¥¯à¥¦à¥«à¥§à¥¯à¥§à¥¦":8832,"à¥¯à¥®à¥ªà¥¨à¥¯à¥¦à¥¦à¥Ńà¥§à¥¨":8833,"ool":8834,"à¤®à¤¬à¤¦":8835,"à¤¾...!":8836,"Ġsong":8837,"à¥ĭ?âĢĿ":8838,"ĠDainikee":8839,"kota":8840,"Fastest":8841,"IME":8842,"à¤Īà¤¤à¤°":8843,"à¤¤à¤²à¤¹à¤°à¤ķ":8844,"Ġà¤·à¤·":8845,"ĠBIHANI":8846,"ĠSongs":8847,"62":8848,"à¤ķà¤·à¤£":8849,"à¤¸à¤°à¤Ń":8850,"Ġà¤µà¤Ĺ":8851,"à¤¥à¤¹":8852,"Ġà¤ļà¤ŀ":8853,"Ġà¤ĩà¤°à¤«":8854,"à¤·à¤ķà¤¸":8855,"ecu":8856,"à¥¯à¥®à¥ªà¥©":8857,"à¤ĺà¤Łà¤¨à¤ķ":8858,"Unicode":8859,"RE":8860,"à¤Łà¤Ĺà¤¢":8861,"à¥ĤâĢİ":8862,"à¤¸à¤®à¤¤":8863,"à¤ŀà¤¨":8864,"à¥ªà¥¦à¥¦":8865,"Ġà¤¨à¤°à¤¦":8866,"Ġà¤¤à¤Łà¤®":8867,"à¤ħà¤°à¤®":8868,"Ġà¤ĵà¤Ńà¤²":8869,"ĠGe":8870,"Ġà¤Ĺà¤¡à¤¬à¤¢":8871,"dha":8872,"gu":8873,"à¤¤à¤ĸà¤¤":8874,"à¤¬à¤°à¤¸":8875,"Ġà¤ıà¤®à¤ª":8876,"Ġà¥§à¥¯à¥Ńà¥Ń":8877,"ĠAN":8878,"ĠKHA":8879,"ĠUK":8880,"à¤ıà¤²à¤¬":8881,"Ġà¤ħà¤ľà¤®":8882,"Ġà¤¸à¤¹à¤ħà¤¸":8883,"Ġà¥§à¥©à¥Ń":8884,"ĠGur":8885,"Ġnew":8886,"à¤®à¤Ľà¤®":8887,"à¤¹à¤¬à¤°à¤®":8888,"à¤¬à¤¶":8889,"Ġà¤µà¤§":8890,"Ġà¤ľà¤¨à¤¶":8891,"Ġà¥§à¥«à¥®":8892,"ĠAbout":8893,"Email":8894,"Ġà¤Ĺà¤®à¤²":8895,"Ġà¤Ľà¤¹à¤°":8896,"à¤®à¤¨à¤ª":8897,"à¤¸à¤¦à¤¦":8898,"à¥§à¥®à¥«":8899,"tv":8900,"à¤·à¤¤à¤µ":8901,"Ġà¤Ľà¤®":8902,"Ġà¤ĸà¤²à¤¬à¤²":8903,"Ġà¤ķà¤²à¤¹":8904,"ĠDC":8905,"than":8906,"OOK":8907,"Ġent":8908,"Ġà¤¹à¤¬à¤²":8909,"Ġà¤ıà¤ķà¤¹à¤ľ":8910,"oun":8911,"à¤®à¤¸à¤ķ":8912,"à¤¹à¤µà¤°à¤®":8913,"à¤µà¤Ļ":8914,"à¤łà¤¯":8915,"Ġà¤īà¤ªà¤¬":8916,"Ġà¤ħà¤«à¤¸":8917,"ĠHolm":8918,"Ġlatest":8919,"ecutive":8920,"FM":8921,"à¤ķà¤¸à¤¨":8922,"à¤Łà¤ªà¤¤":8923,"âĢĻà¥¤":8924,"à¤ıà¤¨à¤¬":8925,"à¤¡à¤²à¤°à¤ķ":8926,"Ġà¤ħà¤«à¤®":8927,"à¤¿à¤¿":8928,"à¤®à¤¸à¤²":8929,"à¤£à¤¯à¤¨":8930,"Ġà¤Ńà¤¨à¤¸":8931,"à¤°à¤¹à¤¸":8932,"onstruction":8933,"ĠDr":8934,"RN":8935,"}}":8936,"à¤°à¤ħà¤ĺ":8937,"Ġà¤¡à¤°à¤ķ":8938,"âĢĿ(":8939,"à¤ıà¤¨à¤Ł":8940,"à¥§à¥«à¥¨à¥¯":8941,"ulsip":8942,"Ġà¤¬à¤ļà¤¤à¤ªà¤¤":8943,"Ġà¤Ĺà¤ıà¤¸":8944,"à¥ĤâĢĿ":8945,"Ġà¤®à¤¹à¤²à¤ķ":8946,"à¤ħà¤ļà¤²":8947,"Ġà¤¯à¤¸à¤Ń":8948,"Ġà¤ħà¤°à¤¬à¤²":8949,"status":8950,"à¤¾<":8951,"à¤Ĺà¤°à¤£à¤®":8952,"à¤Īà¤¨à¤¨":8953,"Ġà¤¬à¤¨à¤¸":8954,"Ġà¥§à¥¯à¥©":8955,"à¤ħà¤¬à¤¦":8956,"Ġà¤¬à¤¸à¤°":8957,"Ġà¤īà¤¨à¤¸":8958,"à¤®à¤¹à¤²":8959,"air":8960,"à¥ĩ.....":8961,"Ġà¤Łà¤ªà¤°":8962,"à¤ķà¤Łà¤Ĺ":8963,"ĠEU":8964,"à¤ªà¤¸à¤Ļ":8965,"rime":8966,"outu":8967,"Ġà¤ıà¤ħà¤°à¤ª":8968,"à¤¯à¤¶à¤¨":8969,"à¤µà¤Īà¤®":8970,"à¥Īà¤Ĥà¤ģ":8971,"à¤ķà¤°à¤°":8972,"à¤°à¤ªà¤²":8973,"Ġà¥§à¥Ńà¥©":8974,"Ġà¤Ĩà¤Īà¤ıà¤¸":8975,"à¥Ńà¥Ńà¥Ń":8976,"à¥¤âĢ¦":8977,"Ġà¤Ĩà¤¹à¤µ":8978,"lot":8979,"Samachar":8980,"ft":8981,"à¤¦à¤ľ":8982,"Ġà¤Ľà¤¸":8983,"Ġà¤ĵà¤ķà¤²":8984,"à¤§à¤¨à¤Ĺ":8985,"Ġà¤īà¤łà¤¨":8986,"à¤Ĩà¤ľà¤ķà¤²":8987,"ĠWord":8988,"à¤Ĩà¤ĩà¤ı":8989,"ĠActor":8990,"Bish":8991,"à¤²à¤ħà¤ĺ":8992,"Ġà¤¤à¤°à¤µ":8993,"à¤¡à¤²à¤°":8994,"Ġà¤¨à¤¬à¤¤":8995,"ĠGu":8996,"à¥¯à¥®à¥ªà¥©à¥§à¥«à¥¨à¥¯":8997,"à¥¯à¥®à¥ªà¥©à¥§à¥«à¥¨à¥¯à¥®à¥©":8998,"youtu":8999,"à¤¸à¤ı":9000,"à¤¦à¤°à¤¹":9001,"à¤§à¤¦":9002,"à¤ħà¤²à¤ªà¤¤":9003,"à¥ĭà¥¤à¥¤":9004,"63":9005,"à¤¨à¤¸à¤²":9006,"à¤ļà¤¯à¤¨":9007,"Ġà¤Ĩà¤Īà¤¨":9008,"à¤ĵà¤¡":9009,"à¤ıà¤®à¤Ĩà¤°à¤²":9010,"Ġà¥§à¥¬à¥¬":9011,"à¤ħà¤ªà¤¹à¤°à¤£à¤ķ":9012,"Ġà¥¦à¥«à¥¯":9013,"à¥ªà¥¬à¥¯":9014,"jp":9015,"à¤¨à¤¨à¤ķ":9016,"à¤®à¤¬à¤°":9017,"à¤¥à¤¡":9018,"inst":9019,"âĢįà¥ĭ":9020,"uesday":9021,"âĻ":9022,"Ġà¤¬à¤¥":9023,"à¤µà¤¨à¤¬à¤¹":9024,"à¤ıà¤®à¤ª":9025,"Ġà¥§à¥®à¥§":9026,"ita":9027,"ĠOS":9028,"Ġà¤ıà¤²à¤Īà¤¡":9029,"Ġ33":9030,"nu":9031,"à¤Īà¤²à¤®":9032,"Ġà¤ıà¤«à¤¬":9033,"à¤²à¤¬à¤¦":9034,"Ġ_____":9035,"Ġà¥§à¥¬à¥Ń":9036,"Ġà¥¦à¥¬à¥¬":9037,"yale":9038,"à¥ŀ":9039,"à¤®à¤¯à¤ķ":9040,"à¤®à¤²à¤®":9041,"Ġà¤¬à¤ļà¤¤à¤ķ":9042,"Ġà¤Īà¤£":9043,"ĠRa":9044,"à¥Ńà¥©à¥«":9045,"Prev":9046,"ĠCricket":9047,"ĠAsh":9048,"asansar":9049,"âĢĮâĢĮ":9050,"Ġu":9051,"Ġà¤Ńà¤°à¤¤à¤®":9052,"Ġà¥§à¥Ńà¥¨":9053,"ARK":9054,"!âĢĻ":9055,"Pages":9056,"ls":9057,"à¤ıà¤Ĩà¤°":9058,"à¥Ĥà¥į":9059,"Ġà¤Ĩà¤Īà¤ıà¤¨à¤ľ":9060,"ĠTele":9061,"ĠExecutive":9062,"'(":9063,"à¤·à¤ªà¤¹":9064,"à¤«à¤¯":9065,"à¤·à¤£à¤ªà¤¤":9066,"à¤µà¤ªà¤Ł":9067,"china":9068,"Ġà¥¬à¥«à¥¦":9069,"à¤¥à¤ªà¤°à¤ķ":9070,"à¥¦à¥¬à¥®":9071,"à¤ľà¤Ĺà¤¢à¤ķ":9072,"Ġà¤²à¤Ńà¤¸":9073,"ĠYoutube":9074,"à¤¾..(":9075,"ĠReconstruction":9076,"ĠRenovation":9077,"95":9078,"oint":9079,"à¤¯à¤µà¤¤":9080,"à¤īà¤¦à¤ķ":9081,"Ġà¤ĵà¤ĸà¤¤":9082,"arth":9083,"ĠMA":9084,")âĢĻ":9085,"à¤¨à¤¸à¤¨":9086,"à¤Ĺà¤ªà¤ŀ":9087,"Ġà¤ķà¤®à¤²à¤ķ":9088,"eck":9089,"à¥¨à¥¦à¥¬à¥§":9090,"à¤Īà¤ĵà¤Ł":9091,"yoti":9092,"Books":9093,"à¥Ľ":9094,"Ġà¤¨à¤¥à¤ª":9095,"à¤¯à¤®à¤ªà¤ŀ":9096,"Ġà¤ħà¤¸à¤°à¤¹à¤°":9097,"à¤¨à¤¸à¤¯":9098,"Ġà¤ĭà¤£à¤¬":9099,"à¤¸à¤¤à¤ķ":9100,"à¥Ī\"":9101,"Ġà¤¬à¥ľ":9102,"à¤Īà¤¤à¤²":9103,"à¤Ļà¤ªà¤Ľ":9104,"à¤ªà¤¨à¤¦":9105,"Ġà¤Ĺà¤ľà¤²à¤¹à¤°":9106,"arya":9107,"Ġrest":9108,"à¤ıà¤¨à¤Ĩà¤°à¤ıà¤¨à¤ķ":9109,"mun":9110,"à¤¨à¤ĺ":9111,"à¤¯à¤¬à¤°":9112,"à¤µà¤¥":9113,"Ġà¤ħà¤¦à¤ķ":9114,"à¤ľà¤²à¤ľà¤²":9115,"today":9116,"ĠGrant":9117,"TV":9118,"Ġà¤ľà¤¨à¤¸à¤°":9119,"Ġà¤®à¤¹à¤²à¤®":9120,"à¥ĩà¤ģ,âĢĻ":9121,"ited":9122,"Ġlink":9123,"Ġà¥ªà¥ªà¥©à¥¨à¥©":9124,"RP":9125,"now":9126,"à¥ĭ......":9127,"alit":9128,"à¤¹à¤¨à¤Ĺà¤°":9129,"Ġ3018":9130,"Ġwebsite":9131,"Ġà¤¨à¤Ĺà¤¦à¤®":9132,"985":9133,"à¤²à¤°à¤¹à¤°":9134,"Ġà¤¨à¤°à¤ķ":9135,"Ġà¤Ľà¤¥à¤°":9136,"à¤Ĩà¤ķà¤°":9137,"Ġ2229":9138,"à¥¨à¥«à¥¦":9139,"ĠWashington":9140,"à¤·à¤ľà¤¸":9141,"à¤ŀà¤¬":9142,"Ġà¤ĵà¤µ":9143,"Ġà¤ĺà¤°à¤ĸà¤°":9144,"anchar":9145,"Ġ301801":9146,"Ġun":9147,"à¤¦à¤¯à¤¦":9148,"Ġà¤¸à¤®à¤§":9149,"à¤°à¤®à¤ªà¤Ľ":9150,"à¤¸à¤®à¤§":9151,"à¤²à¤ķà¤¦":9152,"à¤®à¤¬à¤ľ":9153,"ĠCal":9154,"ĠAir":9155,"itan":9156,"à¤ıà¤«à¤¡":9157,"uman":9158,"tivate":9159,"à¤²à¤ªà¤ķ":9160,"à¤Łà¤§":9161,"Ġà¤µà¤¨à¤µ":9162,"Ġà¤ªà¤¦à¤¬à¤¹":9163,"ĠTuesday":9164,"DE":9165,"ÂŃ":9166,"à¤¶à¤®à¤²":9167,"Ġà¤ľà¤¯à¤µ":9168,"à¤ĸà¤²à¤Ĺ":9169,"Ġà¤«à¤°à¤ķà¤®":9170,"eneral":9171,"count":9172,"ji":9173,"Ġec":9174,"Ġà¤¬à¤¹à¤ķ":9175,"Ġà¤ķà¤¸à¤°à¤¤à¤®":9176,"Ġà¥§à¥«à¥©":9177,"Ġà¤Ĳà¤ļ":9178,"ĠScience":9179,"667":9180,"ĠFederation":9181,"Ġ222901":9182,"BOOK":9183,"oice":9184,"à¥į)à¥¤":9185,"à¤¦à¤¬à¤²":9186,"Ġà¤ķà¤ļà¤¨à¤ķ":9187,"à¤§à¤Ĺà¤¯":9188,"à¤¯à¤®à¤¨à¤®":9189,"à¤²à¤¯à¤µ":9190,"Ġà¤¨à¤²à¤¡":9191,"à¤¦à¤ķà¤ªà¤¦":9192,"à¥į_":9193,"à¤¬à¤Īà¤²":9194,"Ġà¤Ĩà¤ľà¤®":9195,"à¤ķà¤¨à¤¬":9196,"à¤¦à¤®à¤ķà¤®":9197,"Ġà¤Ĩà¤ıà¤ľà¤¸":9198,"tist":9199,"Ġà¤ªà¤²à¤²":9200,"Ġà¤¤à¤ªà¤¶":9201,"Ġà¤Īà¤Ń":9202,"Ġà¤¦à¤®à¤ķà¤²à¤ķ":9203,"à¤¦à¤¶à¤ķ":9204,"à¤µà¤£à¤ķ":9205,"à¤°à¤¦à¤¶":9206,"Ġà¤ĵà¤ĸ":9207,"Ġà¤¬à¤²à¤µ":9208,"Ġà¤ıà¤«à¤ıà¤®à¤ķ":9209,"ations":9210,"CS":9211,"Twitter":9212,"hu":9213,"à¤Īà¤ĸ":9214,"à¤®à¤¨à¤Ĺà¤°à¤®":9215,"ĠBank":9216,"ĠEuropeNepal":9217,"ĠUncategorized":9218,"Ġà¤Ĺà¤ľà¤®":9219,"à¤ļà¤²à¤¬":9220,"Ġà¤ĺà¤°à¤¤":9221,"Ġà¤¸à¤®à¤¯à¤¬":9222,"à¥§à¥¯à¥¯":9223,"à¤ıà¤ķà¤ķ":9224,"à¥Įà¤Ĥ...":9225,"Ġà¥«à¥§à¥Ń":9226,"à¥įà¥¤)":9227,"Ġà¥¨à¥Ńà¥¦":9228,"à¤ķà¤ªà¤Ľ":9229,"à¤®à¤ł":9230,"à¤¯Tags":9231,"à¥ĪâĢĿ":9232,"Ġà¤ĺà¤°à¤ľà¤®":9233,"à¤²à¤¤à¤¹à¤°":9234,"ety":9235,"à¥¤à¥¤à¥¤":9236,"Ġà¤ĵà¤Ńà¤°à¤¡":9237,"umbin":9238,"Ġà¤®à¤¹Ã¬à¤µà¤ª":9239,"ij":9240,"à¤ľà¤ħà¤¨":9241,"à¤¶à¤µà¤ª":9242,"à¥įà¥¤...":9243,"à¤ľà¤®à¤¸":9244,"à¤ıà¤®à¤¡":9245,"Ġà¤Ĩà¤ĩà¤¡à¤²à¤¬":9246,"à¤ıà¤¸à¤ĩà¤Īà¤ķ":9247,"xe":9248,"à¤®à¤Ńà¤ķ":9249,"Ġà¤Ĩà¤µà¤¹":9250,"lok":9251,"mo":9252,"à¥į+":9253,"à¤¸à¤ľà¤¨":9254,"à¤¹à¤¤à¤°":9255,"Ġà¥¨à¥Ńà¥ª":9256,"à¤®à¤¨à¤¹à¤°":9257,"Ġà¤ªà¤¤à¤ŀ":9258,"à¤¸à¤¹à¤¨":9259,"à¤łà¤ķà¤¸":9260,"Ġarticleà¤¬":9261,"87":9262,"Bab":9263,"à¤ªà¤²à¤Ĺ":9264,"à¤Ĺà¤ı":9265,"à¥ĭ),":9266,"à¤ıà¤®à¤¡à¤¬":9267,"Ġà¥¨à¥ªà¥«":9268,"à¥ĭ....":9269,"à¤²à¤ªà¤®":9270,"à¥Ī;":9271,"à¤ľà¤²à¤ķ":9272,"Ġà¤Ńà¤¯à¤Ń":9273,"à¤łà¤ķà¤µà¤°":9274,"ĠTO":9275,"à¥¦à¥©à¥§":9276,"à¤¯à¤¸à¤ªà¤Łà¤ķà¤ķ":9277,"ĠâĢĭ:âĢĭ":9278,"CEBOOK":9279,"DA":9280,"do":9281,"à¤®à¤°à¤¸":9282,"Ġà¤ļà¤¤à¤°":9283,"à¤¯à¤¤à¤µ":9284,"Ġ101":9285,"ĠRong":9286,"ato":9287,"ĠDis":9288,"ĠDoc":9289,"aso":9290,"Ġcategory":9291,"à¤«à¤²à¤«":9292,"arg":9293,"come":9294,"rame":9295,"à¤īà¤ªà¤¸à¤Ń":9296,"Ġà¥¦à¥«à¥¨":9297,"ship":9298,"mcm":9299,"Ġà¤ıà¤¸à¤Īà¤ĵ":9300,"à¤¯à¤¬à¤²":9301,"à¤·à¤°à¤²":9302,"âĢĻ(":9303,"inal":9304,"à¤ıà¤®à¤Ł":9305,"rakash":9306,"Ġà¤°à¤®à¤¨":9307,"à¤¬à¤ļà¤¤":9308,"à¤·à¤°à¤¶":9309,"Ġà¤Ĳà¤¸":9310,"Ġà¤ħà¤«à¤°à¤¹à¤°":9311,"Ġà¥¨à¥§à¥¬":9312,"ĠâĢ¦âĢ¦âĢ¦":9313,"à¥©à¥«à¥¨":9314,"à¤ħà¤®à¤²":9315,"Ġà¤ħà¤¬à¤²":9316,"Ġà¥§à¥¬à¥ª":9317,"ĠCO":9318,"ound":9319,"Ġà¤Ĺà¤ĩà¤°à¤¹à¤¨":9320,"sud":9321,"à¤¿à¥ĥ":9322,"à¤²à¤ķà¤¸":9323,"Ġà¤ªà¤¦à¤ļ":9324,"Ġà¤ıà¤¨à¤ıà¤®":9325,"Ġà¥¨à¥¨à¥«à¥®":9326,"à¤µà¤¯à¤¸":9327,"à¤µà¤Ńà¤¨":9328,"à¤ľà¤Ł":9329,"à¤ĩà¤®à¤ķ":9330,"à¤ĩà¤¸à¤²":9331,"Ġà¤ľà¤¨à¤¸à¤°à¤ķ":9332,"à¤ħà¤µà¤ķ":9333,"à¤°à¤ĸà¤£":9334,"ĠFull":9335,"Ġà¤Ĩà¤ıà¤Ľ":9336,"Ġà¥¯à¥®à¥«à¥§":9337,"ĠUSA":9338,"Ġà¤²à¤Ļà¤®":9339,"à¤·à¤£à¤ħà¤¨":9340,"reen":9341,"Ġà¥¨à¥ªà¥§":9342,"Ġentry":9343,"à¥¨à¥¦à¥§à¥¦":9344,"à¥¯à¥®à¥«à¥§à¥§":9345,"Today":9346,"PR":9347,"SD":9348,"à¤¸à¤£":9349,"Ġà¤ªà¤µà¤¨à¤ķ":9350,"à¤īà¤¸à¤¬":9351,"à¤°à¤£à¤ª":9352,"ĠAss":9353,"à¤«à¤°à¤ª":9354,"Ġà¤®à¤²à¤ĸ":9355,"à¤ıà¤¨à¤ıà¤ķ":9356,"Ġà¤ıà¤ķà¤Ľà¤¤":9357,"ropol":9358,"à¤¨à¤Ŀ":9359,"à¤¿âĢĶ":9360,"à¤¤à¤ħà¤²":9361,"à¤¯à¤ĸ":9362,"Ġà¤¹à¤¦à¤ķ":9363,"à¤ķà¤ªà¤¥":9364,"à¥¨à¥¦à¥Ńà¥¬":9365,"Ġà¥§à¥ªà¥©":9366,"âĢĭâĢĺ":9367,"yasamachar":9368,"GH":9369,"à¥Ģ+":9370,"à¤°à¤µà¤ª":9371,"Ġà¤Ĩà¤ĩà¤ĵà¤ıà¤¸":9372,"Ġà¤¸à¤ľà¤Ĺà¤¤":9373,"ïģ®":9374,"Ġà¤¹à¤¡à¤ª":9375,"à¤¡à¤ļ":9376,"Ġà¤Ĩà¤ľà¤ªà¤¨":9377,"FACEBOOK":9378,"à¥į/":9379,"à¤¦à¤¯à¤°":9380,"à¤µà¤¬à¤ľ":9381,"Ġà¤Ńà¤ıà¤Ľà¤¨":9382,"à¤¶à¤¤à¤µ":9383,"ĠMARK":9384,"Ġà¥©à¥©à¥ª":9385,"apul":9386,"ĠReport":9387,"%)":9388,"à¤¨à¤¨à¤²":9389,"à¤ĩà¤®à¤®":9390,"à¤ĺà¤·":9391,"Ġà¤īà¤ªà¤ľà¤ķ":9392,"Ġà¤Ńà¤ıà¤Ŀ":9393,"adi":9394,"Ġeconom":9395,"ĠMARKET":9396,"Sam":9397,"rj":9398,"à¤Ĥà¤Ĥ.":9399,"à¤¡à¤¨à¤¬":9400,"à¤ļà¤ĺà¤°à¤®":9401,"Ġà¤ľà¤²à¤¨":9402,"à¤µà¤¤à¤¸":9403,"Ġà¤Ĳà¤¨à¤¹à¤°":9404,"Ġà¥¨à¥©à¥¦":9405,"à¥§à¥Ńà¥¦":9406,"mà¤¯":9407,"world":9408,"Ġà¤ĵà¤¨":9409,"à¤°à¤ļà¤¨à¤ķ":9410,"Ġà¤¤à¤²à¤¬à¤¬":9411,")...":9412,"rs":9413,"Ġen":9414,"Ġà¤ªà¤¥à¤²":9415,"Ġà¤Ńà¤ĩà¤¸":9416,"à¥Įà¥¤âĢĻ":9417,"à¤¸à¤²à¤°":9418,"Ġà¤Ĩà¤°à¤ıà¤¸":9419,"oot":9420,"ĠUpd":9421,"Ranga":9422,"à¤Ľà¤¯":9423,"Ġà¤¬à¤¸à¤¸":9424,"Ġà¥§à¥¯à¥ªà¥®":9425,"Ġvalue":9426,"priyasamachar":9427,"lokpriyasamachar":9428,"à¤Ĺà¤µà¤¨":9429,"à¤ľà¤ªà¤Ľ":9430,"aradh":9431,"Ġà¤ľà¤¨à¤®à¤¤à¤²":9432,"à¤¼à¥Ģ":9433,"ĠHamroserofero":9434,"Download":9435,"RI":9436,"Ġunder":9437,"à¤¿Ã·":9438,"à¤¥à¤Ńà¤¨":9439,"à¤Ŀà¤®à¤ķ":9440,"Ġà¤ħà¤¬à¤¶":9441,"arb":9442,"à¤·à¤§à¤°à¤¹à¤°":9443,"ĠDuni":9444,"à¤¿âĢ¦.":9445,"ĠNayapul":9446,"Ġà¤®à¤Ĺà¤¨":9447,"à¤£à¤ľ":9448,"à¥Į,âĢĻ":9449,"à¤¨à¤¨à¤Ĺà¤°à¤ķ":9450,"à¤ĩà¤²à¤°":9451,"ilmy":9452,"à¤§à¤¨à¤²à¤Ĺ":9453,"ĠAparadh":9454,"âĹ":9455,"à¥ģà¥Įà¤ģ":9456,"Ġà¤Ľà¤ªà¤ķ":9457,"Ġà¤ĺà¤¸":9458,"ĠRam":9459,"charya":9460,"Ġà¤°à¤£à¤¬":9461,"à¤¹à¤ªà¤ŀ":9462,"à¥ªà¥¬à¥¯à¥©à¥ª":9463,"AIL":9464,"pt":9465,"à¤¹à¤¨à¤¸":9466,"à¤µà¤Łà¤®":9467,"Ġà¤¨à¤µà¤²":9468,"Ġà¤¯à¤¸à¤¬à¤°":9469,"à¥ģ,'":9470,"Ġà¥§à¥¯à¥ª":9471,"Ġà¥§à¥ªà¥Ń":9472,"ĠSc":9473,"edi":9474,"Ġà¤Ĩà¤ıà¤¦":9475,"Ġ45":9476,"Ġtimes":9477,"Ġà¤¬à¤¬à¤°à¤®":9478,"ĠSee":9479,"à¤ĩà¤«à¤¸à¤¬":9480,"à¥¯à¥®à¥¬":9481,"Inter":9482,"Ġà¤¦à¤²à¤¸à¤®":9483,"Ġà¥¦à¥¨à¥§":9484,"ĠAxe":9485,"ĠRo":9486,"Ġmo":9487,"à¤µà¤¦à¤¨":9488,"Ġà¤®à¤ķà¤¹":9489,"à¤£à¤ķà¤°":9490,"à¤ħà¤µà¤¶":9491,"Ġà¤Ĩà¤Īà¤ıà¤®":9492,"ents":9493,"Ġ35":9494,"à¤¾âĢį":9495,"à¤¨à¤Ĺà¤¢":9496,"à¤ªà¤Ńà¤¨":9497,"Ġà¤¹à¤°à¤«":9498,"Ġà¤īà¤ªà¤°à¤¥":9499,"Ġ32":9500,"etropol":9501,"Ġauthor":9502,"ĠYouTube":9503,"ĠChahe":9504,"ĠKHABAR":9505,"à¤¤à¤ķà¤¤":9506,"à¤°à¤¨à¤ľ":9507,"à¤ĩà¤°à¤¸à¤²":9508,"Ġà¤ĵà¤ıà¤¸":9509,"Ġà¥¨à¥«à¥«":9510,"Ġà¤ıà¤¸à¤Īà¤Īà¤ķ":9511,"Ġchannel":9512,"sudurkhabar":9513,"etropolitan":9514,"à¤¾âĢĮ":9515,"Ġà¤µà¤·à¤°":9516,"à¤¸à¤®à¤¬":9517,"à¤°à¤§à¤°":9518,"à¤¾',":9519,"à¤ıà¤¨à¤Ĩà¤°à¤ıà¤¨à¤ıà¤ķ":9520,"ĠApp":9521,"ĠDuniyale":9522,"à¥Ģ~":9523,"Ġà¤ķà¤°à¤£à¤²":9524,"ĠCitizen":9525,"ĠDep":9526,"à¥§à¥Ńà¥¯":9527,"ĠWe":9528,"ĠPatro":9529,"Exclusive":9530,"94":9531,"Re":9532,"à¤¨à¤¬à¤¨":9533,"Ġà¤¸à¤ľà¤ķ":9534,"à¤¥à¤¨à¤²":9535,"à¤īà¤ŀ":9536,"à¤ľà¤¨à¤¨":9537,"à¤¨à¤®à¤¹":9538,"Ġà¤ļà¤²à¤¨à¤²":9539,"ĠTel":9540,"ĠNow":9541,"ouse":9542,"Ġà¥¯à¥®à¥«à¥§à¥¦à¥®":9543,"ĠBlogger":9544,"ĠKhelkudNews":9545,"ï¼":9546,"à¥Ī(":9547,"Ġà¤¤à¤µà¤°à¤®":9548,"à¤°à¤µà¤¶":9549,"Ġà¤°à¤ľà¤¤à¤ª":9550,"Ġresponses":9551,",(":9552,"POR":9553,"à¤¡à¤°à¤µ":9554,"à¤Īà¤ķà¤²à¤®":9555,"ĠÂ´":9556,"à¥Ĭ":9557,"à¤¨à¤Ĺà¤¦":9558,"à¤¤à¤¥à¤²":9559,"Ġà¤ļà¤¹à¤²":9560,"à¤µà¤ķà¤°à¤²":9561,"Ġà¥§à¥¨à¥ª":9562,"Ġprofile":9563,"IA":9564,"ml":9565,"à¤¡à¤ľà¤¸":9566,"Ġà¤ıà¤®à¤ķ":9567,"à¤Ĩà¤£à¤µ":9568,"à¤®à¤¦à¤²":9569,"Ġdownload":9570,"ĠMotivate":9571,"PM":9572,"Ġà¤ħà¤§à¤ķ":9573,"Ġselect":9574,"\"à¥¤":9575,"Category":9576,"à¤§à¤°à¤£à¤ķ":9577,"à¤¨à¤®à¤°":9578,"Ġà¤Īà¤ŀ":9579,"Ġà¥¦à¥«à¥ª":9580,"kt":9581,"Ġà¤¤à¤µ":9582,"Ġà¤¸à¤¹à¤¦":9583,"à¤ĩà¤¨à¤«":9584,"Ġ...(":9585,"à¤µà¤°à¤£à¤¬":9586,"Ġà¤¹à¤²à¤¸à¤®":9587,"ĠTri":9588,"icer":9589,"ĠLy":9590,"2075":9591,"à¤¾âĢį.":9592,"ĠST":9593,"à¥Ńà¥©à¥¦":9594,"tical":9595,"acep":9596,"Ġà¤¸à¤°à¤²à¤¤":9597,"Ġ129":9598,"doc":9599,"tar":9600,"Ðµ":9601,"à¥ĮâĢľ":9602,"Ġà¤ĵà¤ĩà¤²":9603,"ondon":9604,"à¤°à¤Ĺà¤°":9605,"à¤ļà¤¯à¤¤":9606,"à¥Į...":9607,"à¤°à¤£à¤¨":9608,"Ġà¤®à¤¨à¤¬":9609,"Ġà¤ĩà¤¨à¤²":9610,"Ġà¥¬à¥Ńà¥«":9611,"Ġà¤®à¤¤à¤ħà¤¨":9612,"Article":9613,"Ġexactspy":9614,"à¤§à¤¸à¤Ń":9615,"à¥Įà¥Īà¤Ĥ":9616,"Ġà¤ıà¤Ĩà¤Ī":9617,"Ġà¤Ķà¤ķ":9618,"Ġmadhesh":9619,"Ġ!!!!":9620,"ular":9621,"Updated":9622,"à¤¿):":9623,"à¥ĩâĢĺ":9624,"Ġà¤ıà¤²à¤¬":9625,"Ġà¤ķà¤®à¤²à¤®à¤£":9626,"Ġ?...":9627,"à¥ĭâĢĵâĢľ":9628,"way":9629,"Ġà¤Ľà¤¹":9630,"Ġà¤ļà¤ªà¤²":9631,"Ġà¤Ĺà¤¤à¤¬à¤°":9632,"Ġà¤ĺà¤°à¤ĺà¤°":9633,"à¤¿,âĢĻ":9634,"Ġsharma":9635,"à¤¨à¤ħ":9636,"à¤¦à¤«":9637,"Ġà¤Ĺà¤°à¤¯":9638,"Ġà¤¤à¤®à¤¸":9639,"à¤Īà¤Ńà¤°":9640,"à¤¸à¤¨à¤¸à¤¹":9641,"chain":9642,"ĠPeacep":9643,"ĠPeacepokhara":9644,"à¤¯à¤¸à¤¨à¤²":9645,"Ġà¤ıà¤®à¤ıà¤¸":9646,"Ġ,,":9647,"ĠRight":9648,"à¤Ĺà¤¬à¤¤":9649,"à¤¯à¤£à¤Ĺà¤¢à¤®":9650,"angu":9651,"Ġà¤¬à¥Ŀ":9652,"à¤ľà¤¯à¤°":9653,"à¤¬à¤ªà¤Ľ":9654,"à¤·à¤²à¤Ĺ":9655,"à¤ĸà¤®à¤§":9656,"à¤°à¤®à¤¶à¤ķ":9657,"à¤µà¤°à¤µ":9658,"Ġà¥§à¥®à¥¬":9659,"à¤¤à¤°à¤²à¤¤":9660,"Ġà¤Ĺà¤ľà¤²à¤®":9661,"Ġà¤¸à¤¤à¤ķ":9662,"Ġà¤Ĺà¤ĩà¤¹":9663,"à¤Īà¤Łà¤ķ":9664,"Ġà¥«à¥§à¥®":9665,"à¥ĩ?'":9666,"à¤ªà¤Łà¤ªà¤ķ":9667,"744":9668,"Ġyoutube":9669,"ĠImageKhabar":9670,"koseli":9671,"à¥ĪâĢĮ":9672,"à¤ıà¤Łà¤°à¤ķ":9673,"à¤ģ...":9674,"à¤¨à¤®à¤£":9675,"Ġà¤®à¤¨à¤¶":9676,"à¤®à¤¨à¤µà¤®":9677,"Ġà¤ħà¤ªà¤¹à¤°":9678,"Ġà¥¬à¥¦à¥§":9679,"Ġà¤ĵà¤Ńà¤²à¤®":9680,"ASH":9681,"mm":9682,"à¤µà¤ĸ":9683,"à¤ľà¤¯à¤¸":9684,"Ġà¤ħà¤ªà¤ļà¤²à¤¨":9685,"ĠPo":9686,"à¥¦à¥¨à¥«":9687,"Ġà¤Ĺà¤łà¤¨à¤¬":9688,"à¤¯à¤£à¤¸":9689,"à¤ıà¤¨à¤ıà¤®à¤ıà¤ķ":9690,"ron":9691,"à¤ģâĢ¦":9692,"à¤¯à¤¸à¤ªà¤¶":9693,"ĠDER":9694,"Ġarticleà¤°":9695,"à¥¨à¥¦à¥¬à¥¦":9696,"Ġo":9697,"à¤¶à¤¤à¤°":9698,"à¤Ĩà¤°à¤ľ":9699,"à¤¶à¤ķà¤¦":9700,"à¤ķà¤°à¤£à¤¹à¤°":9701,"à¥ĩà¥¤âĢĿ":9702,"Info":9703,"ĠDERAIL":9704,"kal":9705,"à¤ĤâĢĻ":9706,"à¤²à¤®à¤ķ":9707,"à¤¦à¤°à¤ª":9708,"à¤¥à¤²à¤¤à¤°":9709,"Ġà¥§à¥Ńà¥¬":9710,"Ġà¤ľà¤®à¤ĺà¤Łà¤®":9711,"Ġà¤¸à¤®à¤¯à¤¤":9712,"à¤Ļà¤¡":9713,"à¥«à¥§à¥®à¥«":9714,"à¤²à¤¨à¤ļ":9715,"urbar":9716,"asha":9717,"kar":9718,"Ġà¤Ĺà¤«à¤®":9719,"Ġà¤¹à¤°à¤¦à¤®":9720,"Ġà¤ľà¤ļ":9721,"Ġà¤¯à¤®à¤¨à¤ķ":9722,"à¤ĩà¤Ļà¤²":9723,"à¤¾à¤ģâĢ¦":9724,"à¤ħà¤ĸà¤£":9725,"à¤¤à¤°à¤µà¤¸":9726,"Ġà¤¬à¤²à¤ľà¤«":9727,"à¥¨à¥¦à¥«à¥¨":9728,"Ġà¤µà¤¨à¤ľ":9729,"ĠWAT":9730,"spot":9731,"Prabh":9732,"Ġà¥¯à¥®à¥«à¥§à¥¦à¥®à¥«à¥§à¥®à¥«":9733,"par":9734,"Ġkhabar":9735,"Ġà¤¬à¤®à¤¬à¤¹":9736,"à¤¡à¤°à¤¬":9737,"Ġà¤Ĩà¤łà¤®":9738,"à¤Īà¤¹":9739,"à¤·à¤£à¤ķà¤°":9740,"Ġà¤ıà¤®à¤ľ":9741,"à¥Ģ)_":9742,"Ġà¤Ŀà¤ªà¤Ł":9743,"à¤¥à¤²à¤Ń":9744,"itle":9745,"All":9746,"dress":9747,"Ġà¤®à¤¨à¤°":9748,"à¤°à¤ľà¤¨à¤¸":9749,"Ġà¥¯à¥®à¥§à¥¬à¥Ńà¥Ńà¥Ń":9750,"Ġà¥¯à¥®à¥§à¥¬à¥Ńà¥Ńà¥Ńà¥Ńà¥©à¥«":9751,"Fe":9752,"hre":9753,"à¤ıà¤®à¤²":9754,"Ġà¤Ľà¤®à¤Ľà¤®":9755,"à¤°à¤®à¤µ":9756,"Ġà¤ĸà¤Łà¤¨":9757,"Ġà¤ıà¤¸à¤ķ":9758,"Ġà¤ıà¤²à¤¸":9759,"Ġà¤ľà¤¨à¤ħà¤¨":9760,"ĠTIME":9761,"ĠWhat":9762,"Ġà¤¬à¤§à¤¶":9763,"rjb":9764,"Ġà¤¸à¤®à¤¬à¤¨":9765,"Ġà¤Ķà¤·à¤§à¤ķ":9766,"ĠNewsToday":9767,"ĠâĢ¦âĢ¦":9768,"olution":9769,"Ġnewstoday":9770,"à¤¼à¤¿":9771,"Ġà¥§à¥¯à¥¬à¥Ń":9772,"à¤Ĺà¤ļà¤²à¤¨":9773,"à¥«à¥¨à¥¦à¥©à¥«à¥¨":9774,"lockchain":9775,"Ġà¤¤à¤¡à¤ķ":9776,"à¤ĸà¤ªà¤¤":9777,"à¤ĩà¤¤à¤ķ":9778,"à¤ľà¤¨à¤ªà¤Ľ":9779,"Ġà¤ľà¤¨à¤Ĺà¤£à¤¤":9780,"Ġà¥§à¥¯à¥©à¥¯":9781,"ater":9782,"Ġà¥¯à¥®à¥ªà¥¨à¥«":9783,"NRNA":9784,"à¤ļà¤Ń":9785,"Ġà¥ªà¥«à¥¬":9786,"Ġà¤ļà¤°à¤®à¤ªà¤¨":9787,"Ġ<!":9788,"ukrishna":9789,"Ġvis":9790,"Babukrishna":9791,".),":9792,"Ġà¤¬à¤ķà¤µ":9793,"à¤£à¤ªà¤¶":9794,"à¤¸à¤¨à¤ª":9795,"Ġà¤ĵà¤Ĺ":9796,"à¤¨à¤Ĺà¤°à¤µ":9797,"à¥§à¥¯à¥¦à¥¬":9798,"Ġsam":9799,"à¥¦à¥¬à¥Ń":9800,"à¤Łà¤ħà¤Ł":9801,"Ġà¤¹à¤¬à¤ķ":9802,"à¤Łà¤ķà¤¹à¤°":9803,"à¤¿à¤Ĥà¤ģ":9804,"à¤Ńà¤²à¤ªà¤°":9805,"Ġà¥¯à¥®à¥ªà¥¯":9806,"upada":9807,"à¤ĵà¤ıà¤®à¤²":9808,"Prabhupada":9809,"-(":9810,"Holm":9811,"eep":9812,"tang":9813,"à¤¤à¤²à¤²":9814,"à¤Łà¤¤à¤°":9815,"à¤Īà¤ı":9816,"à¤¡à¤ķà¤ķ":9817,"Ġà¤¢à¤²à¤ķ":9818,"Ġà¤ıà¤¸à¤¯":9819,"ness":9820,"à¤µà¤¯à¤¨à¤¬":9821,"ĠBhat":9822,"ikoooo":9823,"uli":9824,"à¤ļà¤¥à¤°à¤¬":9825,"ĠAnonymous":9826,"ĠUSNEPAL":9827,"puter":9828,"Ġ{{":9829,"GC":9830,"à¤¨à¤°à¤¤":9831,"à¤¹à¤¸à¤¹":9832,"à¤ľà¤¨à¤ļ":9833,"à¤¤à¤°à¤¹à¤°":9834,"à¥ªà¥©à¥«":9835,"à¤¾à¥ĩ-":9836,"ĠUSNEPALNEWS":9837,"rag":9838,"Ġà¥ŀ":9839,"à¥Į)":9840,"à¤ķà¤¨à¤¹à¤°":9841,"Ġà¤¨à¤Ńà¤Īà¤ķà¤¨":9842,"ĠMak":9843,"à¤īà¤ªà¤²à¤¬":9844,"Ġà¥¦à¥¬à¥¦":9845,"Ġà¤ĺà¤ļà¤ĺà¤ļ":9846,"/>":9847,"89":9848,"á¹":9849,"à¤£à¤®à¤¨":9850,"à¤Ńà¤°à¤²":9851,"Ġà¤«à¤²à¤¤":9852,"Ġà¤«à¤°à¤«à¤°":9853,"Ġà¤§à¤¨à¤¸à¤®":9854,"à¤Ĭà¤¦à¤ķ":9855,"opmcm":9856,"Ġlist":9857,"Ġà¥¯à¥®à¥«à¥§à¥¨":9858,"hadur":9859,"Ġsubmit":9860,"à¤ĩà¤ħà¤¨":9861,"Ġà¤ħà¤§à¤°":9862,"arpan":9863,"à¤²à¤¤à¤¸à¤®":9864,"à¤®à¤¸à¤Ļà¤²":9865,"ĠTou":9866,"ĠBanking":9867,"ika":9868,"ift":9869,"ĠTodays":9870,"Ġà¤ªà¤¹à¤²à¤²":9871,"à¤¸à¤¨à¤¹":9872,"à¤¬à¤²à¤¤":9873,"à¤łà¤ķà¤¸à¤®":9874,"ĠPariyar":9875,"ĠSup":9876,"ndash":9877,"Ġà¥§à¥¯à¥¬à¥©":9878,"à¤¸à¤ıà¤ķ":9879,"Ġà¤Ĩà¤ıà¤²à¤Ĺà¤¤":9880,"Ġà¤ıà¤®à¤ıà¤®":9881,"à¤·à¤®à¤§":9882,"Ġà¤°à¤¨à¤ľ":9883,"umber":9884,"Ġà¤¬à¥ľà¤ª":9885,"à¥Įà¥¤âĢĿ":9886,"Ġà¤ıà¤ķà¤¡":9887,"Ġà¤ķà¤°à¤¸à¤®":9888,"KJ":9889,"Ġà¤¨à¤ĺ":9890,"Ġman":9891,"rics":9892,"And":9893,"mb":9894,"ĠNepalese":9895,"à¤°à¤Ļà¤¬":9896,"ĠGeneral":9897,"à¤°à¤£à¤¸à¤¹":9898,"à¥ĭ,...":9899,"à¥Įà¤ģà¤Ĥ":9900,"ĠNewskoseli":9901,"-->":9902,"istrict":9903,"Ġà¥§à¥¯à¥¬à¥«":9904,"iled":9905,"haka":9906,"à¤¿),":9907,"Ġà¤¸à¤¨à¤ķ":9908,"à¤Łà¤ľ":9909,"à¤ľà¤Ĺà¤¤":9910,"Ġà¤²à¤Ľ":9911,"à¤ĩà¤Łà¤¨":9912,"Ġà¤§à¤¨à¤µ":9913,"Ġà¤¨à¤Ńà¤ĩà¤¸à¤ķ":9914,"itwan":9915,"ĠGanthan":9916,"ĠWATCH":9917,"ru":9918,"à¤°à¤¡à¤®":9919,"Ġà¤µà¤ļà¤¨à¤²":9920,"à¤ĵà¤ıà¤¨à¤ıà¤¸":9921,"Ġà¥§à¥¯à¥Ń":9922,"Ġà¥§à¥¯à¥©à¥¦":9923,"Ġà¤¬à¤Łà¤¨à¤®":9924,"MB":9925,"à¤¸à¤ķà¤¬":9926,"à¥ģà¥¤\"":9927,"Ġartha":9928,"Ġà¥¯à¥®à¥ªà¥§à¥ª":9929,"Ġà¤¤à¤¦à¤ħà¤¨":9930,"à¤ıà¤°à¤®":9931,"à¤ıà¤®à¤®":9932,"à¤·à¤¤à¤®":9933,"Ġà¥«à¥¨à¥¦":9934,"à¤¨à¤¸à¤ªà¤Ł":9935,"à¤Ńà¤µà¤¨à¤®":9936,"à¥¦à¥¦à¥¦à¥¦":9937,"ĠOSNepal":9938,"IK":9939,"con":9940,"kantipur":9941,"à¤ľà¤²à¤²":9942,"Ġà¤¤à¤Ļ":9943,"Ġà¤Ķà¤ªà¤¨":9944,"Ġà¤ĥâĢĵ":9945,"à¤ªà¤Łà¤ªà¤®":9946,"à¤ĺà¤¨à¤¶":9947,"Ġà¥«à¥¬à¥¦":9948,"à¤¨à¤¯à¤¨à¤ªà¤¤":9949,"gunaso":9950,"98511":9951,"à¤¿à¥¤âĢĻ":9952,"à¤µà¤īà¤ªà¤ª":9953,"à¤Ĩà¤ĵ":9954,"à¤®à¤¤à¤¸à¤¹":9955,"à¥Īà¤ģà¤Ĥ":9956,"à¤Ĺà¤ľà¤²à¤ķ":9957,"Ġà¤¨à¤ħà¤ªà¤¨":9958,"National":9959,"vel":9960,"à¤¤à¤ļà¤¨":9961,"à¤Ļà¤µà¤°à¤ķ":9962,"Ġà¤§à¤¸":9963,"à¤°à¤µà¤ļà¤¨à¤ķ":9964,"Ġï¿½...":9965,"Ġà¤°à¤¥à¤¯":9966,")[":9967,"NC":9968,"ven":9969,"à¤¬à¤¯":9970,"à¤§à¤ľà¤¯à¤¨":9971,"aru":9972,"Ġà¥§à¥«à¥¯":9973,"à¤¯à¤£à¤Ĺà¤¢à¤ķ":9974,"à¤°à¤¨à¤Ĺà¤°à¤¬":9975,"--------":9976,"918":9977,"Ġà¤¸à¤¤à¤ª":9978,"à¤¦à¤°à¤µ":9979,"à¤µà¤ªà¤¤":9980,"à¤°à¤£à¤¦":9981,"à¤¯à¤®à¤°":9982,"à¤ķà¤®à¤¬":9983,"à¤Ĺà¤²à¤ª":9984,"à¤ĺà¤°à¤ľà¤Ĺ":9985,"MEIJ":9986,"KJMEIJ":9987,"gh":9988,"Ġà¤ĸà¤²à¤Ļ":9989,"Ġà¥§à¥¯à¥¬à¥¯":9990,"Ġà¤ķà¤¦à¤®à¤¬":9991,"ĠUnicode":9992,"ĠSubscribe":9993,"Ġweek":9994,"ahadur":9995,"à¤°à¤ıà¤ķ":9996,"à¤§à¤Ńà¤°":9997,"à¤Łà¤¬à¤²à¤ħà¤¨":9998,"à¤µà¤Łà¤°à¤®":9999,"Ġà¥©à¥¬à¥Ń":10000,"Ġnewspaper":10001,"jpg":10002,"66774":10003,"Oct":10004,"à¤¹à¤Ń":10005,"Ġà¤Ĩà¤ĩà¤¤":10006,"Ġà¤ľà¤¨à¤Ĩà¤¸":10007,"à¤ĩà¤¨à¤²à¤¬":10008,"ration":10009,"vad":10010,"à¤¦à¤¸à¤¹":10011,"Ġà¥¤&":10012,"à¤¥à¤ķà¤®":10013,"à¤°à¤¦à¤¹":10014,"à¤ĸà¤°à¤ļà¤¨":10015,"Ġà¥¨à¥¨à¥§":10016,"atra":10017,"Ġnot":10018,"ix":10019,"Ġà¤Ľà¤ľà¤¨":10020,"à¤Īà¤Łà¤²":10021,"à¤®à¤®à¤£":10022,"à¤¦à¤µà¤¬":10023,"ĠMadhesh":10024,"à¤¾\",":10025,"Ġà¥§à¥¯à¥¬à¥®":10026,"ĠTIMES":10027,"durbar":10028,"eKhabar":10029,"à¥ĭà¥ĩ,":10030,"Ġà¤Ĩà¤¶à¤ķ":10031,"Ġà¤ıà¤¨à¤Ĩà¤ĩà¤¬":10032,"ĠAg":10033,"à¥§à¥¯à¥«à¥¦":10034,"ĠFrame":10035,"angtang":10036,"23744":10037,"Ġ4823744":10038,"9851166774":10039,"NP":10040,"à¤®à¤¢":10041,"à¤®à¤®à¤¨":10042,"à¤¸à¤¬à¤²":10043,"à¤Łà¤¤à¤¨":10044,"à¤ģ/":10045,"à¤ķà¤²à¤Ļ":10046,"à¤²à¤¨à¤¦":10047,"Ġà¤¸à¤¨à¤¸":10048,"Ġ-âĢ¦":10049,"atta":10050,"à¤īà¤ªà¤¸à¤®":10051,"Ġà¤Ĩà¤²à¤®à¤ķ":10052,"ĠPower":10053,"instant":10054,"Ġ<!-":10055,"ition":10056,"à¤ĩà¤Ńà¤²":10057,"Ġà¤¨à¤Ńà¤¤":10058,"à¤®à¤Ĺà¤¢":10059,"ĠNepalKhabar":10060,"à¤·à¤§à¤°à¤¤":10061,"Ġà¥¨à¥¯à¥¬":10062,"back":10063,"à¤°à¤ªà¤ķ":10064,"à¤ĩà¤°à¤¨":10065,"Ġà¤¸à¤¹à¤ĩà¤¨":10066,"à¤Ŀà¤¡à¤ªà¤®":10067,"à¤ıà¤¨à¤ıà¤²":10068,"à¥¨à¥¦à¥«à¥¬":10069,"Ġà¤Ĺà¤£à¤®":10070,"ĠSinghdurbar":10071,"MP":10072,"à¤¾âĢĿ,":10073,"à¤°à¤Ĩ":10074,"à¤¨à¤ħà¤§":10075,"à¤²à¤ĸà¤¨":10076,"Ġà¤¹à¤¦à¤®":10077,"Ġà¤¦à¤¸à¤ķ":10078,"ĠTer":10079,"à¤¡à¤¬à¤¡":10080,"à¥ĩ-'":10081,"Ġà¤¨à¤Ĩà¤ĩà¤ª":10082,"MAIN":10083,"Bishal":10084,"Type":10085,"à¥ģ_":10086,"Ġà¤¬à¤ķà¤°":10087,"à¤ľà¤¨à¤ķà¤°":10088,"Ġà¤°à¤®à¤Ŀà¤®":10089,"à¤Ĩà¤Īà¤ıà¤®à¤Ī":10090,"ĠBreaking":10091,"ĠBible":10092,"ĠKo":10093,"ĠArchive":10094,"Ġà¥¯à¥®à¥«à¥§à¥§à¥¨":10095,"iety":10096,"Ġà¤ħà¤«à¤²":10097,"à¤ĩà¤ıà¤ªà¤¨":10098,"Ġà¤ħà¤¨à¤²à¤ķ":10099,"à¤ħà¤¥à¤µ":10100,"Ġ?âĢĵ":10101,"Ġà¤īà¤¦à¤¯à¤°":10102,"à¥¨à¥¦à¥«à¥§":10103,"Ġà¤Ĩà¤īà¤¥":10104,"à¥ĩà¤ģâĢĵ":10105,"Ġà¤¤à¤¹à¤Ĺà¤¤":10106,"Ġà¤¨à¤µà¤īà¤¦":10107,"AB":10108,"Dabali":10109,"Ma":10110,"khar":10111,"à¤¬à¤ĩà¤®":10112,"à¤¤à¤°à¤¯":10113,"Ġ?-":10114,"Ġà¤Ĺà¤¤à¤¸":10115,"row":10116,"ĠOnlineDabali":10117,"Ġoff":10118,"ĠiPhone":10119,"laya":10120,"Ġà¤¹à¤¤à¤ķ":10121,"à¤§à¤§à¤°":10122,"à¤Īà¤²à¤ķ":10123,"Ġà¤ıà¤Ĩà¤°à¤Ł":10124,"à¤¨à¤®à¤ķ":10125,"à¤®à¤¤à¤ªà¤¤":10126,"à¤¾.),":10127,"Ġà¤Ĩà¤®à¤ļ":10128,"ĠNepaleKhabar":10129,"Ġpolitic":10130,"irect":10131,"eniOnline":10132,"hikari":10133,"My":10134,"Sc":10135,"à¤ıà¤ķà¤ªà¤Ľ":10136,"à¥Įà¥Ī":10137,"Ġà¥©à¥Ńà¥©":10138,"à¤¯à¤°à¤¸à¤®":10139,"ĠâĢĵâĢľ":10140,"ĠAcharya":10141,"ĠTem":10142,"à¤Ĩà¤¯à¤°à¤²":10143,"à¤¾âĢ¦.":10144,"Ġbusiness":10145,"oshi":10146,"Ġà¥§à¥¯à¥¬à¥§":10147,"Â®":10148,"Ġà¤¦à¤ĸà¤²":10149,"Ġà¤²à¤Łà¤ķ":10150,"Ġà¥§à¥¯à¥«à¥«":10151,"à¤ıà¤²à¤ĵ":10152,"rive":10153,"Nepalese":10154,"Ġdo":10155,"Ġà¥¯à¥®à¥«à¥«à¥¦":10156,"lt":10157,"Ġà¥¤....":10158,"Ġà¤ħà¤¨à¤ķ":10159,"à¤īà¤¦à¤Ľ":10160,"à¤ĩà¤¥":10161,"Ġà¤ħà¤¨à¤ľ":10162,"à¤¨à¤®à¤²":10163,"à¤ħà¤«à¤°":10164,"à¤Ĺà¤¤à¤Ńà¤¨":10165,"quo":10166,"Ġà¤ħà¤²à¤ķ":10167,"Ġà¤¯à¤²":10168,"à¤ĺà¤¤":10169,"à¥«à¥©à¥©":10170,"Ġà¤¬à¤¸à¤Ń":10171,"à¤Ĺà¤®à¤Ĺ":10172,"ren":10173,"Ġà¤¤à¤²à¤¸à¤®":10174,"ĠKc":10175,"à¤ķTags":10176,"Ġà¤¡à¤Ļ":10177,"à¥¨à¥¦à¥«à¥Ń":10178,"Ġà¤Ĳà¤°à¤²":10179,"Ġà¤¨à¤ľà¤°à¤¬à¤¨":10180,"Ġà¥¨à¥¯à¥®":10181,"Ġmp":10182,"à¥ĩà¤Ĥ,âĢĻ":10183,"ĠBish":10184,"ĠIOS":10185,"à¥©à¥¦à¥¨":10186,"MENT":10187,"96":10188,"Pal":10189,"PDF":10190,"bit":10191,"Ġà¤ļà¤ĸ":10192,"Ġà¤¶à¤¤à¤µ":10193,"Ġà¤Ĩà¤°à¤ª":10194,"âĢĿ-":10195,"à¤ıà¤²à¤ª":10196,"ĠLim":10197,"loc":10198,"82":10199,"à¤¯à¤«":10200,"à¤¬à¤¨à¤²":10201,"à¥Ĥ!":10202,"Ġà¤ıà¤°à¤ª":10203,"à¤²à¤¯à¤®à¤§":10204,"Ġà¤¹à¤¸à¤¨à¤²":10205,"ĠSar":10206,"ĠType":10207,"rows":10208,"à¤¯à¤£à¤Ĺà¤¢à¤¬":10209,"à¥©à¥¬à¥¨à¥¯":10210,"à¤°m":10211,"à¤Ĺà¤ĸà¤¬à¤°":10212,"à¤µà¤¨à¤ļà¤¨":10213,"Ġtr":10214,"à¥¯à¥¬à¥©à¥¨":10215,"ĠAdmin":10216,"ces":10217,"ky":10218,"à¥¤,":10219,"à¤ķà¤®à¤£":10220,"Ġà¤Ĩà¤ĩà¤¡à¤²à¤²":10221,"ĠNewslaya":10222,"Ġà¥¨à¥®à¥©":10223,"ize":10224,"ĠShrestha":10225,"à¥¯à¥®à¥¬à¥§à¥¦à¥®":10226,"was":10227,"à¤£à¤ķà¤²":10228,"Ġà¤Ĩà¤¸à¤¯":10229,"à¥¯à¥®à¥§à¥¯à¥¦à¥¬":10230,"à¥¦à¥©à¥Ńà¥¦à¥¦":10231,"Ġà¥¯à¥®à¥ªà¥¨à¥«à¥¦à¥©à¥Ńà¥¦à¥¦":10232,"à¥¯à¥®à¥¬à¥§à¥¦à¥®à¥¯à¥¬à¥©à¥¨":10233,"à¥¯à¥®à¥§à¥¯à¥¦à¥¬à¥©à¥¬à¥¨à¥¯":10234,"Ġz":10235,"à¤¯à¤°à¤µ":10236,"Ġà¤ıà¤¸à¤Ī":10237,"ĠMicrosoft":10238,"à¤µà¤¦à¤¹à¤®":10239,"outh":10240,"à¤Ľà¤²à¤«à¤²à¤ķ":10241,"83":10242,"à¤¸à¤Łà¤°":10243,"à¤¬à¤ľà¤¸":10244,"à¤ŀà¤¸à¤¹":10245,"à¤ħà¤ľà¤¯":10246,"Ġà¥¨à¥¦à¥©":10247,"à¤Ĥ.-":10248,"Ġà¥§à¥Ńà¥Ń":10249,"ĠSha":10250,"à¤¾âĢ¦âĢĻ":10251,"GL":10252,"à¤µà¤ªà¤°":10253,"à¤Łà¤°à¤µ":10254,"Ġà¤¨à¤µà¤¸":10255,"à¤Īà¤¨à¤¬":10256,"Ġà¤ħà¤ªà¤ľà¤¸":10257,"Ġà¥§à¥¯à¥«à¥¯":10258,"Ġà¥§à¥¯à¥ªà¥¯":10259,"ĠKatha":10260,"à¤¤à¤¹à¤Łà¤²":10261,"sahity":10262,"à¤ķà¤ªà¤¨":10263,"à¤¡à¤¤à¤°":10264,"Ġà¤¯à¤®à¤¬à¤¹":10265,"à¥¯à¥ªà¥Ń":10266,"à¤ĩà¤Łà¤¹":10267,"ĠCham":10268,"ounc":10269,"iation":10270,"vadin":10271,"à¥Īà¤¾":10272,"à¤¬à¤¤à¤¬":10273,"à¤¡à¤£":10274,"Ġà¤ıà¤ķà¤¦à¤²":10275,"Ġà¥¨à¥¦à¥®":10276,"Ġà¥§à¥¯à¥«à¥ª":10277,"à¤¤à¤ķà¤®à¤§":10278,"Ġà¤Ńà¤°à¤¤à¤¬à¤¹":10279,"Ġà¤¨à¤Ńà¤ĩà¤ķà¤¨":10280,"ĠFewa":10281,"ST":10282,"Ġout":10283,"à¤Łà¤µà¤¯":10284,"à¤ľà¤°à¤¬":10285,"Ġà¤µà¤ļà¤¨à¤®":10286,"à¤ĩà¤ªà¤®":10287,"à¤ĩà¤¸à¤°":10288,"à¤ħà¤°à¤¨":10289,"à¤ĵà¤¨à¤²":10290,"Ġà¤Ĩà¤¦à¤¤":10291,"à¤¸à¤µà¤¹à¤°":10292,"ĠOp":10293,"elcome":10294,"Ġko":10295,"à¤²à¤Ĺà¤°à¤¹à¤°":10296,"Ġà¤¨à¤Ńà¤°":10297,"Ġà¤Ĩà¤¸à¤®":10298,"à¤µà¤°à¤¨":10299,"à¤¸à¤¦à¤Ń":10300,"Ġà¤ĺà¤°à¤Łà¤¹à¤°":10301,"à¥¨à¥¦à¥«à¥ª":10302,"Ġà¥¤âĢĻ,":10303,"Ġà¥¨à¥«à¥¦à¥¦":10304,"Ġà¥¦à¥§à¥Ń":10305,"atn":10306,"à¤¤à¤°à¤ķà¤²":10307,"Ġà¥«à¥«à¥«":10308,"ĠInformation":10309,"à¥«à¥®à¥ª":10310,"blogspot":10311,"ĠHamroSoft":10312,"GCDP":10313,"à¥ĭà¥į":10314,"à¤¸à¤ħà¤°":10315,"à¥Ĥ&":10316,"Ġà¤ħà¤¨à¤¶à¤¨à¤²":10317,"à¤¹à¤ķà¤ª":10318,"state":10319,"ĠSid":10320,"à¤ıà¤²à¤ıà¤¨":10321,"ĠadminLeave":10322,"Ġcryptocurrency":10323,"SP":10324,"à¤®à¤°à¤²":10325,"à¤¸à¤¸à¤«":10326,"ĠSH":10327,"oli":10328,"Ġ60":10329,"à¤īà¤¥à¤¹":10330,"à¤Ĺà¤Ńà¤Ļ":10331,"ohori":10332,"ĠSuvadin":10333,"Ġà¤¬à¤¬à¤°à¤®à¤¹à¤²à¤¸":10334,"Articles":10335,"à¥į',":10336,"Ġà¤§à¤®à¤¨":10337,"à¤°à¤ķà¤°à¤£à¤¬":10338,")(":10339,"à¤ĸà¤¬à¤°à¤®":10340,"à¤Ĺà¤®à¤¨à¤ķà¤°":10341,"Ġà¤Ĩà¤®à¤¹à¤¡à¤¤":10342,"à¤¿.)":10343,"âĢĭâĢĭ":10344,"à¤Łà¤°à¤²à¤Ĺ":10345,"Ġà¥§à¥®à¥©":10346,"Ġà¥§à¥Ńà¥®":10347,"à¤¯à¤Łà¤¨à¤¬":10348,"à¥©à¥¦à¥©":10349,"à¥§à¥«à¥ª":10350,"Ġà¥§à¥¯à¥¬à¥ª":10351,"à¤Ľà¤Ł":10352,"à¤ľà¤¨à¤¦":10353,"à¤®à¤¨à¤¦":10354,"Ġà¤īà¤łà¤¬à¤¸":10355,"angadhi":10356,"hakhan":10357,"timeà¤®":10358,"ĠPravas":10359,"Author":10360,"Darpan":10361,"GO":10362,"ding":10363,"ox":10364,"Ð¾":10365,"à¤¨à¤Łà¤®":10366,"à¤¨à¤°à¤µà¤²":10367,"à¤ĺà¤¬à¤¹":10368,"à¤Ŀà¤«":10369,"Ġà¤ĵà¤¤à¤ª":10370,"Ġà¤ĺà¤°à¤Ĺ":10371,"à¤ıà¤¨à¤Ĩà¤°à¤ıà¤¨à¤²":10372,"76":10373,"wor":10374,"à¤Ĺà¤ĸ":10375,"à¤ľà¤¨à¤¶à¤ķ":10376,"Ġà¤¬à¤²à¤°à¤¹à¤°":10377,"à¤ľà¤¸à¤ħà¤¨":10378,"à¤µà¤°à¤£à¤¸à¤®":10379,"Ġpassword":10380,"OID":10381,"à¤¤à¤µà¤²":10382,"à¥ģà¥ģà¤ģ":10383,"Ġà¤¶à¤°à¤¤à¤¸":10384,"à¤¦à¤¨à¤¸à¤¹":10385,"à¤°à¤ľà¤ª":10386,"ionline":10387,"Ġvs":10388,"ĠLyrics":10389,"à¤¨à¤Łà¤ķ":10390,"Ġà¤¸à¤¯à¤°":10391,"à¤ªà¤ł":10392,"à¤°à¤²à¤¯":10393,"à¤Ŀà¤Łà¤¬":10394,"Ġà¤ħà¤¸à¤Ń":10395,"à¤µà¤®à¤§":10396,"à¤¡à¤®à¤§":10397,"à¤Ĩà¤°à¤Ĩà¤°":10398,"ĠSystem":10399,"ĠMaj":10400,"ĠKar":10401,"DC":10402,"Ġà¤ªà¤¯":10403,"Ġà¤Ĺà¤¹à¤ķ":10404,"à¤°à¤¸à¤µ":10405,"à¤ļà¤¨à¤µ":10406,"Ġ!(":10407,"Ġà¤¸à¤Ļà¤ĸ":10408,"aka":10409,"à¤¬à¤¹à¤¸à¤¸à¤¬":10410,"92":10411,"LO":10412,"okhabar":10413,"Ġà¤®à¤°à¤¹":10414,"Ġà¤ıà¤®à¤Ł":10415,"ĠAuth":10416,"Ġà¤°à¤®à¤ªà¤®":10417,"Ġà¥ªà¥¦à¥Ń":10418,"Ġà¤ĸà¤ªà¤¤à¤ķ":10419,"à¤ľà¤¸à¤®à¤§":10420,"ĠSandesh":10421,"Ġà¤¬à¤£":10422,"à¤Ĩà¤¤à¤®":10423,"âĢĿà¥¤":10424,"Ġà¥§à¥¯à¥«à¥Ń":10425,"à¤®à¤£à¤ª":10426,"CIAL":10427,"anguage":10428,"#...":10429,"Free":10430,"fm":10431,"wood":10432,"à¥«à¥¨à¥ª":10433,"Ġà¤ķà¤²à¤µ":10434,"Ġà¤¬à¤²à¤ª":10435,"Ġà¥¨à¥§à¥«":10436,"ĠSch":10437,"à¤¸à¤¹à¤°à¤®":10438,"à¤¯à¤¸à¤¬à¤ĸà¤¤":10439,"****":10440,"à¤Łà¤Ľ":10441,"à¥¨à¥¦à¥¦à¥¬":10442,"ĠSur":10443,"à¥§à¥¦à¥©":10444,"à¥ĭ?'":10445,"à¤¾à¥Īà¤ĤâĢĵ":10446,"AY":10447,"ĠÃĹ":10448,"à¥ĩ......":10449,"à¥ģ]":10450,"Ġà¤¹à¤£":10451,"à¤ĩà¤¬à¤°à¤ķ":10452,"à¥Įà¤ĥ":10453,"à¤²à¤®à¤¹":10454,"als":10455,"ems":10456,"à¤ĩà¤«à¤®":10457,"à¥Įà¤ģà¥¤âĢĿ":10458,"audel":10459,"Ð¸":10460,"à¤¨à¤¨à¤¸à¤ķ":10461,"Ġà¤ĺà¤°à¤Ńà¤¨":10462,"aly":10463,"à¤¾à¥ĩ...":10464,"era":10465,"à¤ªà¤£à¤²":10466,"à¤¸à¤µà¤¬":10467,"inews":10468,"Ġà¤¸à¤°à¤¸à¤°":10469,"Ġà¤ħà¤µà¤¶à¤°à¤®":10470,"à¥¨à¥¦à¥¦à¥¯":10471,"Ġà¤ıà¤«à¤ıà¤®à¤®":10472,"Ġà¥¯à¥®à¥«à¥§à¥§à¥¯à¥ªà¥Ń":10473,"rending":10474,"Ġà¥¯à¥®à¥«à¥§à¥§à¥¯à¥ªà¥Ńà¥¨à¥¦":10475,"à¯":10476,"à¤®à¤¸à¤°":10477,"à¤¸à¤µà¤¸":10478,"Ġà¤¥à¤¬":10479,"à¥ĭ,âĢľ":10480,"ĠSPE":10481,"ilm":10482,"à¤ķà¤®à¤²à¤ª":10483,"à¤Ĭà¤®":10484,"---":10485,"Ġà¤ıà¤«à¤ıà¤®à¤²":10486,"land":10487,"à¤¤à¤¡à¤®":10488,"à¤īà¤ķà¤²":10489,"Ġà¤«à¤°à¤µà¤°":10490,"ĠCINE":10491,"à¤ķà¤¸à¤ª":10492,"à¤ħà¤¸à¤«à¤²à¤¤":10493,"andesh":10494,"Ġbir":10495,"ĠShort":10496,"sarokar":10497,"TO":10498,"à¤¦à¤µà¤¸à¤¹":10499,"à¤Łà¤ĩà¤¨":10500,"à¤ģ?":10501,"Ġà¤¶à¤µà¤¦":10502,"à¤²à¤ķà¤¬à¤¸":10503,"à¤µà¤¤à¤¬":10504,"anam":10505,"à¤¯à¤Łà¤ķà¤¸":10506,"à¥Ģ)...":10507,"à¤ıà¤²à¤Ł":10508,"Ġcan":10509,"à¥¨à¥¦à¥¦à¥®":10510,"agariknews":10511,"ĠLove":10512,"à¤ķà¤µà¤°":10513,"à¤¦à¤°à¤Ń":10514,"Ġà¤®à¤°à¤®":10515,"à¥Ĥ]":10516,"à¤ķà¤°à¤µà¤°":10517,"à¤ĩà¤²à¤¨à¤®":10518,"Ġà¤Ĩà¤ĩà¤ĵà¤ıà¤®à¤ķ":10519,"à¥§à¥¦à¥§":10520,"248":10521,"alls":10522,"à¤ıà¤¬à¤®":10523,"à¤¡à¤¹à¤²à¤®":10524,"à¤¬à¤°à¤Ĺ":10525,"à¤§à¤¨à¤¦":10526,"Ġà¤ıà¤®à¤Ĩà¤Ī":10527,"Ġà¥¨à¥¯à¥«":10528,"ĠOF":10529,"raph":10530,"Ġà¤ĵà¤Ńà¤°à¤²":10531,"à¤¯à¤ľà¤¨à¤¸":10532,"haki":10533,"ICE":10534,"DROID":10535,"Raj":10536,"à¤®à¤µà¤²":10537,"à¤¤à¤ªà¤°":10538,"à¤¬à¤°à¤¤":10539,"à¤§à¤Ĺ":10540,"à¤ģâĢĿ":10541,"Ġà¤®à¤¨à¤ª":10542,"à¥¨à¥¦à¥«à¥¯":10543,"read":10544,"Ġà¤ıà¤¨à¤Ĩà¤Īà¤¬":10545,"Ġà¤ıà¤ªà¤¹à¤°":10546,"ters":10547,"à¥Ģ',":10548,"Ġà¥¯à¥®à¥ªà¥§à¥©":10549,"Ġà¥Ńà¥ªà¥ª":10550,"ĠANDROID":10551,"à¥§à¥Ńà¥¯à¥§à¥ª":10552,"ĠCINEMA":10553,"gstr":10554,"à¤°à¤¯à¤¸":10555,"Ġà¤¨à¤ĩ":10556,"Ġà¤ĸà¤²à¤¬":10557,"Ġà¤ľà¤¨à¤¤à¤¨":10558,"Ġà¤¸à¤ķà¤²":10559,"Ġà¥¨à¥§à¥ª":10560,"ange":10561,"Ġà¤¹à¤Ļà¤ķà¤Ļà¤µ":10562,"ĠEconomy":10563,"Ġà¤ħà¤¹à¤®à¤¦à¤²":10564,"à¤¾à¥ĭ":10565,"à¤¨à¤ı":10566,"Ġà¤¨à¤Ĩà¤Ī":10567,"à¤§à¤¡":10568,"à¤ļà¤°à¤¨":10569,"à¥ĩ,âĢĿ":10570,"Ġà¤Ĩà¤Īà¤ªà¤°":10571,"à¤Ĩà¤Īà¤ıà¤¨à¤ľ":10572,"Ġà¤ľà¤¨à¤¸à¤¤":10573,"Ġà¥©à¥ªà¥ª":10574,"ortmed":10575,"ðŁı":10576,"Ġà¥¯à¥®à¥«à¥§à¥¦à¥§à¥Ńà¥¯à¥§à¥ª":10577,"ĠAuthortmed":10578,"ĠAuthortmednews":10579,"LIVE":10580,"à¤°à¤¢":10581,"à¤ıà¤Ĩà¤Īà¤ľ":10582,"à¤¬à¤¬à¤Ī":10583,"Ġà¤¦à¤°à¤¹à¤°":10584,"Ġà¤ľà¤¯à¤¶":10585,"Ġà¤ªà¤°à¤«":10586,"à¤ĺà¤°à¤Ń":10587,"Ġ36":10588,"Ġarticleà¤Ń":10589,"à¥ªà¥«à¥¬":10590,"ANG":10591,"ĠWebsite":10592,"ĠRegmi":10593,"BE":10594,"à¤²Leave":10595,"Ġà¤Ĺà¤Ĺ":10596,"à¤µà¤ķà¤ªà¤²":10597,"à¤¸à¤¬à¤®":10598,"Best":10599,"Ġview":10600,"à¤¿....":10601,"à¤®à¤ªà¤°":10602,"à¥§à¥©à¥¦":10603,"à¤¸à¤¨à¤ªà¤Ľ":10604,"Ġà¤ħà¤ªà¤ļ":10605,"à¤²à¤µà¤¦":10606,"Ġà¤ªà¤²à¤¹à¤°":10607,"Ġà¤¨à¤¬à¤ľ":10608,"Ġà¤Ĩà¤¸à¤¨à¤®":10609,"awa":10610,",,,,":10611,"ĠSPECIAL":10612,"oy":10613,"à¤¨à¤ľà¤°":10614,"à¤¦à¤²à¤Ĺ":10615,"Ġà¤®à¤ľà¤µ":10616,"à¤ļà¤£":10617,"à¤¥à¤¸à¤¹":10618,"à¤łà¤¤à¤®":10619,"Ġà¤ıà¤ķà¤¹à¤ª":10620,"à¥«à¥§à¥¯à¥¯":10621,"à¥Įà¤Ĥ!":10622,"à¤Ĩà¤µà¤°à¤£":10623,"Ġ-'":10624,"à¤¸à¤¦à¤¸à¤®":10625,"let":10626,"Ġà¤¨à¤Ĩà¤īà¤²":10627,"Ġà¤¨à¤Ĺà¤ı":10628,"à¤ıà¤¨à¤ıà¤¨à¤²":10629,"ayai":10630,"Ġarthasarokar":10631,"Ġarthasarokarnews":10632,"Cont":10633,"à¤Łà¤Ńà¤°":10634,"à¤¶à¤²à¤ķ":10635,"Ġà¤ıà¤ŀ":10636,"Ġà¤ĸà¤°à¤ĸà¤ľ":10637,"à¥¨à¥¦à¥ªà¥Ń":10638,"à¤¤à¤°à¤£à¤¸à¤®":10639,"Ġà¤¦à¤¶à¤µà¤°":10640,"ĠChe":10641,"à¤Łà¤¬à¤²à¤ª":10642,"à¥§à¥¨à¥¯":10643,"à¥Ńà¥¨à¥¬à¥§":10644,"Featured":10645,"bu":10646,"à¤īà¤Łà¤ķ":10647,"à¤ĺà¤°à¤¦":10648,"Ġà¤ıà¤ķà¤ªà¤Łà¤ķà¤®":10649,"à¤Ĺà¤¤à¤¬":10650,"Ġà¤ªà¤¦à¤µ":10651,"ĠPr":10652,"ĠOfficer":10653,"Ġà¤²à¤ĸà¤¨à¤ī":10654,"Android":10655,"Ġà¥¯à¥®à¥«à¥§à¥§à¥¨à¥Ńà¥¨à¥¬à¥§":10656,"à¥«à¥§à¥¯à¥¯à¥§à¥¦à¥®":10657,"Red":10658,"ject":10659,"à¤°à¤ľà¤¨à¤®":10660,"Ġà¤Ńà¤ıà¤¬à¤®":10661,"Ġà¤ħà¤ªà¤¶à¤¬":10662,"Ġà¤¸à¤¡à¤ķà¤¦":10663,"ĠPhone":10664,"à¥ĩà¤ģà¥¤âĢĻ":10665,"Ġà¥¯à¥®à¥«à¥Ńà¥¦":10666,"à¥¬à¥®à¥ª":10667,"Ġimage":10668,"msgstr":10669,"ĠTelevision":10670,"Ġà¤¬à¤¬à¤°à¤®à¤¹à¤²à¤®":10671,"hakahaki":10672,"à¤ļà¤¸à¤¹":10673,"à¤°à¤ķà¤¸":10674,"âĢĵ...":10675,"à¤ķà¤°à¤ļ":10676,"à¤µà¤²à¤¸":10677,"à¥¨à¥¦à¥¨à¥¯":10678,"Ġà¤Ĩà¤¶à¤²":10679,"ern":10680,"à¥Ģ.)":10681,"ĠWicket":10682,"Ġ2072":10683,"ïģ¶":10684,"ission":10685,"âĢı":10686,"à¥Ĥà¤ĥ":10687,"Ġà¤ıà¤ıà¤¨à¤ı":10688,"Ġà¤ĺà¤®à¤¨":10689,"à¤ªà¤¨à¤¸à¤¹":10690,"Ġà¤Ŀà¤Ŀà¤²":10691,"Ġà¥§à¥¯à¥¨":10692,"à¤ļà¤²à¤¨à¤ķ":10693,"ors":10694,"ĠRSS":10695,"à¥§à¥¯à¥§à¥®":10696,"Ġvisit":10697,"à¤ľà¤¨à¤Ĩà¤¨":10698,"Ġà¤ıà¤ķà¤®à¤¹":10699,"à¤¯à¤¤à¤µà¤¶":10700,"à¤ĩà¤¨à¤¦":10701,"urch":10702,"Ġarticleà¤¦":10703,"Ġà¤®à¤¦à¤¨à¤¸":10704,"hakhanchi":10705,"ĠWicketNepal":10706,"à¤¯à¤¯à¤®":10707,"à¥Ģ]":10708,"Ġà¤¹à¤°à¤£":10709,"à¤£à¤Ń":10710,"à¤¬à¤¸à¤ª":10711,"à¤¨à¤¦à¤¹":10712,"à¥§à¥§à¥¯":10713,"usta":10714,"fn":10715,"Ġà¤ªà¤°à¤²":10716,"Ġà¤ĺà¤¨à¤¤":10717,"à¤²à¤¯à¤Ĺà¤¤":10718,"à¤°à¤µà¤®à¤¯":10719,"à¤ĩà¤«à¤Ł":10720,"Ġà¥ªà¥©à¥¯":10721,"jilla":10722,"Â£":10723,"Ġà¥ĩ":10724,"à¤ĩà¤Ńà¤ķ":10725,"à¤ħà¤ªà¤²":10726,"Ġ(...":10727,"à¤ķà¤²à¤¹à¤°":10728,"à¤ĸà¤°à¤ª":10729,"à¥¨à¥¦à¥«à¥¦":10730,"Ġà¤Ľà¤²à¤«à¤²à¤¸à¤®":10731,"à¤¹à¤¤à¤¸":10732,"à¥§à¥¦à¥«":10733,"raj":10734,"AJ":10735,"ËĪ":10736,"Ġà¥į":10737,"Ġà°":10738,"Ġà¤Ľà¤°à¤ªà¤¸":10739,"Ġà¤¸à¤®à¤ªà¤¨":10740,"Ġà¤Ńà¤ıà¤¬":10741,"Ġà¤Ľà¤²à¤«à¤²à¤¹à¤°":10742,"ĠName":10743,"abil":10744,"Ġà¤Ĺà¤ıà¤Ľ":10745,"à¤µà¤¯à¤®à¤²":10746,"Ġà¤Ĩà¤īà¤Łà¤¸":10747,"facebook":10748,"à¤¬à¤µ":10749,"à¤²à¤®à¤ĸ":10750,"à¤Ŀà¤ª":10751,"Ġà¤ĺà¤°à¤Ĩ":10752,"Ġà¤ªà¤Łà¤ķà¤Ńà¤¨":10753,"ony":10754,"à¤²à¤¸à¤ĸ":10755,"à¤īà¤ªà¤ķà¤°à¤£":10756,"ĠWordPress":10757,"Ho":10758,"à¤ķà¤ªà¤ķ":10759,"à¤¯à¤Ńà¤°":10760,"à¤·à¤ªà¤¨":10761,"à¤īà¤¡à¤²":10762,"Ġà¤ĸà¤°à¤ķ":10763,"alent":10764,"Ġà¤Ńà¤°à¤¸à¤ķ":10765,"Ġà¥¦à¥ªà¥¯":10766,"ĠCenter":10767,"ats":10768,"html":10769,"à¥Ĥà¤ģ,":10770,"otang":10771,"ĠAdhikari":10772,"ĠService":10773,"EuropeNepal":10774,"à¤°à¤ł":10775,"à¤ªà¤Ń":10776,"Ġà¤¤à¤²à¤¤":10777,"à¤Īà¤µà¤¸":10778,"à¤Īà¤ĵà¤ķ":10779,"à¤°à¤£à¤®à¤§":10780,"Ġà¤Ĩà¤°à¤¨":10781,"Ġà¤¸à¤°à¤°":10782,"ĠTaste":10783,"Ġ),":10784,"2012":10785,"à¤ªà¤¨à¤²à¤Ĺ":10786,"upane":10787,"ization":10788,"undra":10789,"ghakhanchi":10790,"que":10791,"à¤¹à¤ªà¤¥":10792,"à¤¦à¤ĸ":10793,"à¤ľà¤Ńà¤¨":10794,"Ġà¥§à¥Ńà¥¯":10795,"Ġà¥¨à¥®à¥¨":10796,"bari":10797,"à¤¯à¤Łà¤ķà¤®":10798,"à¤£à¤Ĺà¤Ļ":10799,"Ġà¤ķà¤ļà¤¨à¤ķà¤µà¤²":10800,"à¤¯à¤¡à¤Ńà¤¨":10801,"à¤¬à¤Īà¤¸":10802,"à¤Ľà¤®":10803,"à¤īà¤ªà¤¸":10804,"à¤ĺà¤°à¤²":10805,"à¤°à¤¹à¤ªà¤Ľ":10806,"Ġà¥¨à¥¦à¥¨":10807,"Ġà¤ķà¤®à¤²à¤¨":10808,"Ġà¤ĵà¤ļ":10809,"Ġà¤ĸà¤°à¤¨":10810,"à¤µà¤¤à¤¨à¤ķ":10811,"Ġà¥¨à¥©à¥«":10812,"Ġsource":10813,"ĠFeatured":10814,"Ġà¤ľà¤®à¤ĺà¤Łà¤ķ":10815,"ĠDhangadhi":10816,"Âķ":10817,"à¤¾~":10818,"à¤¨à¤¤à¤ķ":10819,"Ġà¤¨à¤¢":10820,"à¤°à¤¦à¤¶à¤¨":10821,"à¤¹à¤ķà¤µà¤°":10822,"Ġà¥§à¥¯à¥«à¥¬":10823,"à¤¥à¤²à¤¸":10824,"Ġà¤¦à¤¶à¤µà¤Ł":10825,"Ġà¥¨à¥©à¥¨":10826,"mat":10827,"Ġset":10828,"ooter":10829,"rism":10830,"Ġà¤Ĩà¤¦à¤¨à¤ª":10831,"à¤ĩà¤ħà¤ķ":10832,"à¤¸à¤®à¤¯à¤²":10833,"Ġà¤ľà¤¨à¤īà¤¤":10834,"à¤µà¤°à¤£à¤µ":10835,"Ġà¤Ĺà¤£à¤ª":10836,"ĠShare":10837,"à¥§à¥¨à¥®":10838,"Ġà¤¬à¤ķà¤ªà¤¤":10839,"igh":10840,"Ġ80":10841,"AK":10842,"RV":10843,"Ġà¤Ĺà¤®à¤Ĺà¤¢":10844,"Ġà¤µà¤¨à¤®à¤¨":10845,"à¤ıà¤¨à¤Ĩà¤Ī":10846,"Ġà¤¦à¤²à¤¦à¤²à¤®":10847,"Ġà¤¤à¤²à¤¬à¤²":10848,"Ġ39":10849,"Ġà¤ľà¤Ĺà¤¤à¤ª":10850,"Ġà¤ģ":10851,"à¥ĭ&":10852,"à¤ĩà¤ıà¤«à¤ı":10853,"à¤īà¤¨à¤¤":10854,"à¤Ŀà¤²à¤¨":10855,"ĠCOR":10856,"Ġmy":10857,"ĠWeb":10858,"Ġà¤¦à¤®à¤ķà¤¸":10859,"Ġà¤Ĩà¤ĩà¤¨à¤¸à¤ķ":10860,"Ġ</":10861,"KR":10862,"ĠÃ":10863,"Ġà¤¬à¤µ":10864,"à¤Ļà¤ķà¤°":10865,"Ġà¤§à¤°à¤§à¤°":10866,"à¤ķà¤²à¤°":10867,"à¤Ĺà¤¤à¤°à¤¤":10868,"à¤§à¤¨à¤Ń":10869,"Ġà¥§à¥§à¥¦à¥¦":10870,"Ġ.::":10871,"à¤¯à¤ľà¤¨à¤¬":10872,"ĠPuri":10873,"à¥«à¥©à¥©à¥ªà¥©à¥«":10874,"Fl":10875,"à¤¡à¤®à¤²":10876,"Ġà¤īà¤¤à¤°":10877,"à¤¾,...":10878,"à¤²à¤¨à¤ľ":10879,"Ġà¤¹à¤°à¤°":10880,"Ġà¤¬à¤¹à¤®":10881,"ĠNagarik":10882,"ĠHel":10883,"xy":10884,"à¤ıà¤«à¤¬":10885,"à¤Łà¤¨à¤ªà¤Ľ":10886,"à¤ıà¤®à¤Ĩà¤°":10887,"raz":10888,"à¤¾à¥¤à¥¤":10889,"Ġà¥®à¥®à¥¦":10890,"Ġ____________":10891,"iri":10892,"à¤¾ï¿½...":10893,"à¤¬à¤ķà¤°":10894,"Ġà¤µà¤¶":10895,"à¤°à¤®à¤¤":10896,"à¤ĺà¤²à¤Ĺ":10897,"Ġà¤ľà¤¨à¤Ĺà¤£à¤¤à¤¨":10898,"à¤Ĺà¤°à¤¨":10899,"Ġà¥¨à¥¦à¥Ńà¥Ń":10900,"à¤¨à¤¸à¤ªà¤Ľ":10901,"Ġà¤Ĩà¤ĩà¤¬":10902,"Ġà¤ľà¤®à¤°à¤ķà¤Ł":10903,"à¤ľà¤¦à¤£":10904,"Ġà¥¨à¥©à¥¬":10905,"Ġpage":10906,"Ġà¥¦à¥«à¥Ń":10907,"ociety":10908,"alkrishna":10909,"Videos":10910,"bywiki":10911,"tarai":10912,"/âĢĵ":10913,"Sab":10914,"à¥ĭï¿½":10915,"Ġà¤ªà¤ľ":10916,"à¤ļà¤²à¤¸":10917,"à¤Ńà¤°à¤¬":10918,"âĢķ":10919,"Ġà¤ķà¤®à¤²à¤²":10920,"à¥ģà¤ģà¥¤âĢĻ":10921,"à¤®à¤¦à¤¨à¤ķ":10922,"ĠRai":10923,"à¤¶à¤¬à¤£":10924,"Ġ34":10925,"iman":10926,"Ġà¤¡à¤Łà¤ķà¤®à¤¸":10927,"yah":10928,"104":10929,"âĹı":10930,"à¤µà¤¶à¤¤":10931,"à¤«à¤£":10932,"Ġà¤¯à¤¸à¤ĸ":10933,"Ġà¤Īà¤¬":10934,"ĠRE":10935,"ĠRev":10936,"à¤¾à¥¤âĢĿ":10937,"Tagged":10938,"PORATE":10939,"dm":10940,"âĪ":10941,"Ġà¤°à¤Ļà¤®":10942,"Ġà¤®à¤¤à¤®à¤§":10943,"Ġà¤µà¤¶à¤®":10944,"à¤ļà¤®à¤§":10945,"à¤ĩà¤¤à¤°":10946,"Ġà¤ıà¤ķà¤ĸ":10947,"à¤®à¤¤à¤ª":10948,"Ġà¥§à¥¯à¥§":10949,"à¥§à¥¦à¥Ń":10950,"edy":10951,"ĠBRT":10952,"Ġà¤ªà¤¸à¤²à¤¦":10953,"à¥©à¥®à¥©":10954,"ered":10955,"Ramkshrestha":10956,"ĠCORPORATE":10957,"Ġid":10958,"Ġram":10959,"Ġà¤µà¤ļà¤¨à¤ķ":10960,"à¤īà¤§":10961,"à¤īà¤Łà¤°":10962,"Ġà¤¸à¤®à¤¶":10963,"Ġ?âĢĻ,":10964,"à¤²à¤²à¤²":10965,"Ġ:...":10966,"à¤ķà¤°à¤£à¤¦":10967,"Ġà¥®à¥«à¥¦":10968,"Ġà¤®à¤¦à¤¤à¤®":10969,"ĠBest":10970,"ĠNRNA":10971,"à¤¯à¤°à¤ķà¤ª":10972,"amak":10973,"Ġwh":10974,"ĠBuddha":10975,"surya":10976,"ãģ":10977,"à¤²à¤Ĺà¤²":10978,"à¤·à¤¯à¤ª":10979,"Ġà¤Ľà¤²à¤ķ":10980,"à¤Īà¤ªà¤Ľ":10981,"à¤īà¤ªà¤¹":10982,"Ġà¤®à¤¤à¤¸à¤°":10983,"aro":10984,"ites":10985,"à¤ĸà¤¨à¤¨à¤ķ":10986,"ollow":10987,"Ġà¤ıà¤«à¤¡":10988,"Ġà¤¨à¤ļà¤¢":10989,"à¥«à¥¯à¥§à¥«":10990,"Ġno":10991,"Miss":10992,"Trending":10993,"à¤ªà¤¯à¤®":10994,"à¤¬à¤Łà¤°à¤«":10995,"à¥Į/":10996,"à¤²à¤ķà¤µ":10997,"Ġà¤Ĳà¤ľ":10998,"Ġslider":10999,"Ġcl":11000,"âĢ¦âĢ¦.":11001,"ĠYear":11002,"ĠShow":11003,"ouncil":11004,"CSS":11005,"MT":11006,"UP":11007,"à¤¯à¤µà¤ķ":11008,"à¤¸à¤ĸà¤¬à¤°":11009,"à¤¹à¤°à¤¬":11010,"à¤¸à¤²à¤§":11011,"à¤Łà¤®à¤£":11012,"Ġà¤¨à¤Ĺà¤°à¤ªà¤²":11013,"Ġà¤ıà¤¨à¤Ĩà¤°à¤ıà¤¨à¤¹à¤°":11014,"à¥©à¥©à¥Ńà¥©à¥¦":11015,"form":11016,"075":11017,"Filed":11018,"à¤®à¤ĺà¤°":11019,"Ġà¤ķà¤ķà¤ª":11020,"à¤·à¤£à¤Ńà¤°à¤®":11021,"à¤¯à¤Łà¤ķà¤¬":11022,"à¤¸à¤µà¤Ł":11023,"ĠESD":11024,"Ġà¤°à¤£à¤ľ":11025,"Ġbig":11026,"ĠSpy":11027,"mnt":11028,"à¤ķà¤ľà¤¨":11029,"à¤¬à¤²à¤¬":11030,"à¤Ńà¤²à¤ª":11031,"à¤īà¤ªà¤¦":11032,"à¤ħà¤ł":11033,"eng":11034,"à¥Ģ)âĢĵ":11035,"iko":11036,"Ġà¤¡à¤²à¤°à¤²":11037,"à¤Ĳà¤¨à¤ķ":11038,"à¥¨à¥¦à¥¦à¥§":11039,"Ġ2008":11040,"IEW":11041,"ichhane":11042,"OUR":11043,"Ġà¤¸à¤®à¤¦":11044,"à¤¯à¤ķà¤Ńà¤¨":11045,"à¤ħà¤¸à¤®":11046,"Ġà¥¬à¥¦à¥Ń":11047,"use":11048,"à¥«à¥«à¥©à¥©à¥Ńà¥©à¥¦":11049,"à¥§à¥Ńà¥¦à¥¨à¥¨":11050,"Ġà¥¯à¥®à¥ªà¥§à¥ªà¥§à¥Ńà¥¦à¥¨à¥¨":11051,"'âĢ¦":11052,"How":11053,"yv":11054,"à¤²à¤¤à¤ª":11055,"Ġà¤ķà¤Łà¤°":11056,"Ġà¤īà¤¸à¤¬":11057,"à¤ĺà¤µ":11058,"Ġà¥¨à¥ªà¥¯":11059,"à¥Ńà¥«à¥¦":11060,"Ġà¥¬à¥¦à¥«à¥¯à¥§à¥«":11061,"ĠGa":11062,"ustry":11063,"à¤¾?âĢĻ":11064,"Ġà¥¬à¥¦à¥«à¥¯à¥§à¥«à¥§à¥§à¥ª":11065,"Title":11066,"hal":11067,"nagariknews":11068,"à¥ĩâĢľ":11069,"à¥ĭà¤¾":11070,"à¤¸à¤ł":11071,"Ġà¤¬à¤Ĺà¤¨":11072,"à¤ĸà¤¤à¤°":11073,"à¥Ĥ/":11074,"à¤¨à¤ķà¤¤":11075,"à¤²à¤¨à¤¤à¤°":11076,"à¤®à¤²à¤ª":11077,"inter":11078,"Ġà¤ļà¤°à¤¨":11079,"Ġà¤¸à¤¡à¤ķà¤¸à¤®":11080,"tik":11081,"à¤µà¤ķà¤ªà¤¬":11082,"Ġà¤¢à¤ķà¤¢à¤ķ":11083,"à¤¹à¤£à¤¬":11084,"mntv":11085,"Balkrishna":11086,"à¥ĩ::":11087,"à¤²à¤ļà¤°":11088,"à¤Łà¤ı":11089,"à¤łà¤¯à¤ķ":11090,"à¤Ĺà¤°à¤¬":11091,"à¤Łà¤°à¤¨à¤²":11092,"Ġà¥¨à¥¬à¥¯":11093,"à¥¦à¥©à¥¯":11094,"artment":11095,"board":11096,"Ġà¤¶à¤ªà¤¥à¤ķ":11097,"ĠBaskota":11098,"âĭ":11099,"à¤¾à¥ĥ":11100,"Ġà¤ªà¤§":11101,"à¤ľà¤ľà¤¸":11102,"à¥¯à¥¦à¥¦":11103,"à¤°à¤¬à¤ľ":11104,"Ġà¥§à¥¯à¥§à¥ª":11105,"Ġà¥§à¥®à¥®":11106,"ĠSharma":11107,"ĠRani":11108,"Ġà¤ĭà¤£à¤²":11109,"Ġà¤®à¤Ļà¤¸":11110,"isode":11111,"à¥Įà¤ģà¥¤\"":11112,"Ġ2007":11113,"azz":11114,"à¤¨à¤¸à¤ªà¤Łà¤²à¤®":11115,"500":11116,"filmy":11117,"ument":11118,"à¤®à¤µà¤¤":11119,"Ġà¤Ĺà¤ĩà¤¯":11120,"à¤Łà¤¶":11121,"Ġà¤Ĩà¤Ļà¤¦":11122,"à¥Ĥà¥°":11123,"à¤°à¤®à¤£à¤ħà¤ĺ":11124,"ĠFooter":11125,"Ġà¤ĵà¤®à¤¨à¤ķ":11126,"setokhabar":11127,"DS":11128,"Haw":11129,"JY":11130,"fere":11131,"ves":11132,"Ġro":11133,"Ġà¤¹à¤ķà¤¸":11134,"à¤·à¤ľà¤¤":11135,"à¤¡à¤¹à¤²":11136,"à¥ĤâĢĻ,":11137,"Ġà¤ªà¤°à¤ľ":11138,"à¥ĩà¥¤'":11139,"à¥§à¥¦à¥¨":11140,"à¤ħà¤ªà¤¹à¤°à¤£":11141,"ĠGhar":11142,"à¤ļà¤¨à¤²à¤Ĺà¤¤":11143,",âĢĿâĢĵ":11144,"Address":11145,"OL":11146,"à¤¸à¤ķà¤®":11147,"à¥§à¥¯à¥§à¥«":11148,"à¤¦à¤¶à¤°à¤¥":11149,"à¤ĩà¤Ńà¤°à¤ķ":11150,"ĠVis":11151,"ociation":11152,"à¤¨à¤ħà¤Łà¤°":11153,"ux":11154,"à¤®à¤£à¤ķ":11155,"à¤¶à¤Ĺà¤¤":11156,"à¤Ĺà¤®à¤¯":11157,"à¤ıà¤¨à¤Ĩà¤°à¤Ł":11158,"à¤µà¤¦à¤¹à¤ķ":11159,"ries":11160,"dey":11161,"ĠArun":11162,"à¤¿âĢ¦(":11163,"ĠEngine":11164,"Ġsamaj":11165,"âĭĻ":11166,"à¥ĩ....":11167,"Ġà¤ıà¤ķà¤ł":11168,"ĠMahal":11169,"à¤§à¤¸à¤¤à¤ķ":11170,"Shekhar":11171,"chhakhabar":11172,"ĠNamastefilmy":11173,"yahoo":11174,"JYOT":11175,"Bichar":11176,"à¤¨à¤Ĺà¤¨":11177,"Ġà¤Ĩà¤°à¤¬":11178,"à¤Ńà¤°à¤¸":11179,"à¤īà¤ªà¤²":11180,"à¤¸à¤¨à¤¸à¤¤":11181,"à¤ķà¤ķà¤ķ":11182,"à¤¤à¤²à¤¤":11183,"à¤¸à¤¦à¤®à¤§":11184,"Ġà¤ıà¤®à¤Ń":11185,"Ġ,âĢĻ":11186,"à¤°à¤ľà¤¤":11187,"à¤ªà¤£à¤®":11188,"à¤°à¤ĸà¤¨":11189,"à¤ıà¤ľà¤¤":11190,"ĠLocal":11191,"à¤¶à¤¹à¤°à¤ķ":11192,"ĠVJ":11193,"ĠYour":11194,"ifest":11195,"TA":11196,"bir":11197,"kchhakhabar":11198,"à¤ĸà¤Ĺà¤¨":11199,"à¤ļà¤¨à¤¦":11200,"Ġà¤ªà¤¤à¤¨à¤ķ":11201,"à¤Ĺà¤®à¤¬":11202,"à¤ĩà¤¡à¤¬":11203,"à¤ªà¤¸à¤²à¤®":11204,"à¤ıà¤¨à¤ıà¤ļà¤¸":11205,"ĠProgram":11206,"Samundra":11207,"Sabanam":11208,"Hawdey":11209,"JYOTIE":11210,"CA":11211,"à¤²à¤¸à¤°":11212,"Ġà¤¬à¤®à¤¬":11213,"Ġà¤Ĩà¤łà¤ķ":11214,"à¤Īà¤Łà¤°":11215,"à¤Īà¤¥à¤°":11216,"à¤£à¤ĺ":11217,"Ġà¤§à¤¨à¤¸":11218,"à¤Ĺà¤°à¤¸":11219,"Ġà¤ħà¤µà¤¯à¤µ":11220,"ĠNepalD":11221,"à¤ķà¤¸à¤¤":11222,"à¤ĩà¤ķà¤²à¤¯":11223,"ĠList":11224,"ĠForum":11225,"hw":11226,"à¤®à¤¦à¤ķ":11227,"Ġà¤Ńà¤Łà¤°":11228,"à¤¶à¤²à¤Ĺ":11229,"Ġà¥¨à¥Ńà¥Ń":11230,"à¤ħà¤ªà¤¹à¤°à¤£à¤®":11231,"Ġ38":11232,"riend":11233,"_à¥¤":11234,"ove":11235,"vZ":11236,"à¤¦à¤Ńà¤®":11237,"à¤Łà¤īà¤ªà¤Ĺ":11238,"Ġà¤¨à¤¢à¤²":11239,"à¤Ļà¤ľà¤¸":11240,"à¤Ŀà¤¨à¤²":11241,"Ġà¤ĩà¤¦à¤ķ":11242,"à¤·à¤ķà¤¦":11243,"à¤·à¤§à¤°à¤²":11244,"Ġà¥¨à¥¬à¥«":11245,"Ġà¤¨à¤µà¤²à¤ķ":11246,"ayak":11247,"Ġà¤ıà¤²à¤¡":11248,"à¤ħà¤¨à¤¶à¤¨à¤°à¤¤":11249,"ðŁı¢":11250,"Hamro":11251,"Software":11252,"à¥įï¿½":11253,"à¤¹à¤¨à¤®":11254,"Ġà¤®à¤²à¤²":11255,"Ġà¤Ńà¤°à¤£à¤ª":11256,"inanc":11257,"Ġà¥§à¥¯à¥§à¥Ń":11258,"Ġà¤Ńà¤ĩà¤°à¤¹à¤ķ":11259,"à¤µà¤ªà¤¦":11260,"à¤®à¤¸à¤Ļà¤ķ":11261,"à¤Ĺà¤®à¤¨à¤ªà¤Ľ":11262,"ica":11263,"Ġinter":11264,"ĠSpins":11265,"âĻ¦":11266,"Sept":11267,"âľ":11268,"Ġx":11269,"à¤¹à¤²à¤¯":11270,"à¤¶à¤Ĺ":11271,"Ġà¥ªà¥¨à¥¦":11272,"à¤°à¤ļà¤²à¤¨à¤ķ":11273,"Ġà¥¨à¥«à¥¬à¥¨":11274,"ĠSud":11275,"à¥ĭâĢ¦.":11276,"Ġà¤ħà¤°à¤¬à¤¬":11277,"à¤ªmà¤¬":11278,"uresh":11279,")!":11280,"ga":11281,"à¤¨à¤ĩ":11282,"à¤°à¤¤à¤¸à¤®":11283,"à¤ħà¤«à¤ķ":11284,"Ġà¤ĩà¤¨à¤ķ":11285,"à¤ķà¤ķà¤¬":11286,"lege":11287,"Ġà¥¨à¥©à¥©":11288,"Ġà¤Ńà¤µà¤¨à¤Ń":11289,"olly":11290,"ĠDiary":11291,"Khoj":11292,"MO":11293,"avi":11294,"so":11295,"Ġà¥Ĥ":11296,"à¤¶à¤°à¤¬à¤¹":11297,"à¤ħà¤ªà¤ķ":11298,"à¥Įà¤ĤâĢĿ,":11299,"Ġà¤ĵà¤¯":11300,"Ġ-\"":11301,"Ġà¤¸à¤¡à¤ķà¤ª":11302,"amb":11303,"ĠâĢİ[":11304,"obile":11305,"ĠCommer":11306,"xas":11307,"Ġà¤¸à¤Ĺà¤°":11308,"à¤¶à¤Ĺà¤°":11309,"Ġà¤ıà¤ķà¤¬":11310,"à¤µà¤ķà¤¬":11311,"à¤ķà¤¨à¤¸à¤®":11312,"Ġà¤ıà¤¸à¤ıà¤¸":11313,"ĠPusta":11314,"Ġà¤°à¤ľà¤¤à¤ªà¤Łà¤®":11315,"sahityasansar":11316,"'à¥¤":11317,"91":11318,"Ġà¤¨à¤§":11319,"à¥Į.":11320,"à¤¤à¤ķà¤¸à¤®":11321,"à¤ħà¤¨à¤¸à¤¨":11322,"à¤ıà¤®à¤ĵà¤¯":11323,"new":11324,"ĠBi":11325,"inger":11326,"tices":11327,"amity":11328,"Ġà¤¬à¤¹à¤¸à¤ªà¤Ľ":11329,"okes":11330,"ĠShuk":11331,"ĠPrena":11332,"vZg":11333,"SE":11334,"à¤¹à¤ħà¤ĺ":11335,"à¤¹à¤¬à¤¹":11336,"Ġà¤Ľà¤łà¤²":11337,"Ġà¤¯à¤¸à¤¦":11338,"à¥Įà¤ģ'":11339,"Ġà¤ħà¤µà¤¶à¤°":11340,"Ġà¤Ĩà¤®à¤°":11341,"Ġà¤Ĩà¤ĩà¤ıà¤¸à¤ķ":11342,"à¥§à¥¬à¥ª":11343,"Ġà¤¨à¤ĸà¤¸":11344,"khabard":11345,"energy":11346,"khotang":11347,"GLyv":11348,"dmvZg":11349,"dmvZgGLyv":11350,"Suresh":11351,"sa":11352,"Ä«":11353,"à¤¤à¤Ľ":11354,"à¤¥à¤¦":11355,"à¤ĺà¤Łà¤¸":11356,"Ġà¤§à¤µà¤¨à¤²":11357,"à¤ªà¤®à¤¤à¤ķ":11358,"Ġà¥«à¥¨à¥«":11359,"Ġà¥¯à¥«à¥¦":11360,"ating":11361,"à¤°à¤ŀà¤¨":11362,"Feb":11363,"Ġà¤ķà¤¸à¤ľ":11364,"ĠBiz":11365,"Ġ88":11366,"à¤Ńà¤ªà¤¤à¤¨à¤²":11367,"appy":11368,"Patrika":11369,"!'":11370,"à¤°à¤Ŀ":11371,"à¤¹à¤Ńà¤¨":11372,"à¤ĸà¤¶":11373,"à¥ĮâĢĮ":11374,"Ġà¤«à¤®":11375,"à¤°à¤²à¤²":11376,"ĠCouncil":11377,"Ġà¤¶à¤°à¤¦à¤²":11378,"umbini":11379,"Infobox":11380,"Published":11381,"à¤¾ï¿½":11382,"Ġà¤¨à¤¤à¤®à¤¸":11383,"à¤Ńà¤Ī":11384,"à¤ĩà¤¬à¤°à¤®":11385,"à¤¤à¤°à¤Ĩà¤§":11386,"à¤¤à¤°à¤Ĺà¤¯":11387,"à¤ĩà¤¨à¤¸à¤®":11388,"à¤Ĩà¤ĩà¤²":11389,"à¤µà¤¨à¤µ":11390,"à¤¹à¤ķà¤¬":11391,"Ġà¤ħà¤®à¤°à¤¬à¤¹":11392,"Ġà¤ħà¤«à¤°à¤ķ":11393,"Ġà¤¨à¤ľà¤°à¤¬":11394,"à¥ĩ?-":11395,"Ġà¤ĺà¤Łà¤ķà¤¹à¤°":11396,"ĠBRTNepal":11397,"TS":11398,"à¤¨à¤°à¤¹":11399,"Ġà¤¦à¤¨à¤ķ":11400,"Ġà¤§à¤µà¤¨":11401,"Ġà¤Ńà¤ıà¤Ńà¤°à¤ķ":11402,"anj":11403,"Ġà¤ıà¤¸à¤Ł":11404,"ĠCrime":11405,"à¥ĭ)-":11406,"à¤Łà¤°à¤®à¤§":11407,"à¤°à¤¨à¤Ĺà¤°à¤²":11408,"Ġ........":11409,"Ġà¤ķà¤¦à¤°à¤ªà¤¤":11410,"ĠHamrokhotang":11411,"Church":11412,"rg":11413,"à¥ªà¥¨à¥®":11414,"à¤ĩà¤¨à¤ª":11415,"à¤Łà¤²à¤°à¤²":11416,"Ġà¤ĺà¤°à¤¨à¤ľ":11417,"à¤Ĩà¤°à¤¡":11418,"à¤¸à¤¨à¤²à¤Ĺ":11419,"ural":11420,"chautari":11421,"Ġspins":11422,"à¤¹à¤Łà¤ķ":11423,"Ġà¤ĺà¤°à¤¬à¤¹":11424,"à¤µà¤¨à¤ªà¤Ľ":11425,"à¤®à¤¤à¤µ":11426,"à¤ĥ-":11427,"Ġà¥§à¥®à¥Ń":11428,"Ġà¤ĭà¤¦":11429,"à¤Ĺà¤¬à¤®":11430,"ĠOnlinePatrika":11431,"Ġ43":11432,"à¥¦à¥¬à¥ª":11433,"ðŁĴ":11434,"ollywood":11435,"ii":11436,"à¤·à¤¯à¤¸à¤®":11437,"Ġà¤Ľà¤°à¤ª":11438,"Ġà¤ĸà¤°à¤¦":11439,"à¥Įà¤Ĥ__":11440,"à¤²à¤¨à¤§":11441,"à¤ĩà¤²à¤Łà¤¬":11442,"Ġà¤Ĺà¤łà¤¨à¤¸":11443,"Ġà¤Ĩà¤ĩà¤¯":11444,"Ġà¤¨à¤ªà¤ļ":11445,"à¤ĩà¤°à¤²à¤ķ":11446,"à¤Łà¤ªà¤¬":11447,"ople":11448,"ident":11449,"Ġà¤µà¤ļà¤¨à¤¬à¤¦":11450,"Ġ9856":11451,"tajyoti":11452,"ĠTime":11453,"Ġworldamity":11454,"khabardabali":11455,"EN":11456,"Os":11457,"à¤Ĺà¤Ĺà¤°":11458,"Ġà¤Ĺà¤°à¤°":11459,"à¤§à¤®à¤²":11460,"à¤Ńà¤ıà¤°":11461,"à¤ĺà¤ħà¤¨":11462,"Ġà¤ħà¤§à¤¬":11463,"à¤ķà¤°à¤£à¤¤à¤°":11464,"tics":11465,"à¤£à¤ªà¤¦à¤ķ":11466,"ĠIns":11467,"ĠIndustry":11468,"Ġhave":11469,"ĠTourism":11470,"ifestyle":11471,"tulsip":11472,"à¤¦à¤¯à¤µ":11473,"à¤Ĺà¤µà¤¶":11474,"Ġà¤¬à¤Łà¤®":11475,"à¤¬à¤¤à¤¸":11476,"Ġà¤¬à¤°à¤«":11477,"à¤Łà¤®à¤¬":11478,"Ġà¥«à¥¦à¥§à¥¦":11479,"à¤¯à¤ªà¤°à¤ķ":11480,"Ġà¤¸à¤²à¤¹":11481,"à¥§à¥¨à¥¬":11482,"à¥ģà¥ģà¥ģ":11483,"à¤Ĩà¤¤à¤Ļ":11484,"ĠTexas":11485,"uck":11486,"ĠBloggers":11487,"Ġà¤¤à¤¡à¤ķà¤Ń":11488,"ruth":11489,"Ġà¤¸à¤ĸà¤°":11490,"à¤Ĥ-":11491,"Ġà¤ľà¤¨à¤²":11492,"à¤Ĩà¤ķà¤¸":11493,"à¤¤à¤¨à¤§":11494,"à¤®à¤²à¤¤":11495,"Ġà¤®à¤²à¤¦":11496,"Ġà¥§à¥¯à¥ªà¥¨":11497,"à¤¨à¤ªà¤ŀ":11498,"Ġà¥¨à¥§à¥®":11499,"ĠNepalChurch":11500,"à¤ľà¤¦à¤°à¤²":11501,"ĠSw":11502,"ĠSoftware":11503,"ories":11504,"ĠRed":11505,"Ġà¥¯à¥®à¥§à¥®":11506,"apt":11507,"Story":11508,"à¤ķà¤¥à¤°":11509,"Ġà¤¸à¤²à¤²":11510,"à¤Ĩà¤ªà¤¸":11511,"à¤¾à¤Ĥà¥Ī,":11512,"à¤°à¤¶à¤®":11513,"Ġà¤¸à¤®à¤¯à¤¸à¤®à¤¯à¤®":11514,"à¥¦à¥¬à¥¨":11515,"à¤¤à¤²à¤¹à¤°à¤¬":11516,"tulsipurkhabar":11517,"AG":11518,"Th":11519,"bc":11520,"Ġentertainment":11521,"Ġà¤¨à¤ĸà¤°":11522,"à¤ľà¤¤à¤°":11523,"à¤ļà¤ķà¤¤":11524,"à¤Īà¤ľà¤°":11525,"à¤ĵà¤ıà¤¸à¤¨":11526,"Ġà¤¦à¤²à¤ľ":11527,"Ġà¥¨à¥§à¥©":11528,"Ġ[..":11529,"à¤Ĩà¤Īà¤ıà¤®":11530,"Ġoption":11531,"ĠChamber":11532,"inancial":11533,"84":11534,"caption":11535,"hya":11536,"à¤¸à¤¥":11537,"Ġà¤¤à¤¶":11538,"à¤«à¤¯à¤¸à¤ķ":11539,"Ġà¤¥à¤¦":11540,"à¤łà¤®à¤¡":11541,"à¤²à¤®à¤¤":11542,"Ġà¥«à¥§à¥¨":11543,"Ġà¤ıà¤®à¤Ĩà¤°à¤Ĩà¤Ī":11544,"à¤°à¤Ńà¤²":11545,"à¤°à¤ļà¤²à¤¨à¤²":11546,"ĠNeupane":11547,"à¤¯à¤¯à¤¨à¤¶":11548,"ĠBFM":11549,"ĠLifestyle":11550,"Ġ37":11551,"akhet":11552,"ty":11553,"Ñģ":11554,"à¥įà¥Ī":11555,"Ġà¤¬à¤Ĺà¤²":11556,"à¥Įà¤¾":11557,"Ġà¥Ńà¥©à¥¦":11558,"à¥¨à¥¦à¥«":11559,"ĠSec":11560,"Ġà¥¨à¥©à¥ª":11561,"hares":11562,"à¥Ģ::":11563,"play":11564,"fnl":11565,"ĠCommerce":11566,"Live":11567,"TER":11568,"Wik":11569,"à¤ĩà¤·":11570,"à¥ĭà¥¤[":11571,"à¤ķà¤°à¤¶":11572,"Ġà¤ĵà¤łà¤ķ":11573,"à¥¨à¥¦à¥«à¥«":11574,"Ġà¤ħà¤Ŀà¤¸à¤®":11575,"à¤Ĺà¤²à¤¬à¤ľ":11576,"Ġà¤ĩà¤®à¤°à¤ľ":11577,"à¤Ĩà¤Īà¤¤à¤µ":11578,"agro":11579,"ĠBhad":11580,"Ġà¤Ľà¤łà¤ªà¤°":11581,"ĠRepublic":11582,"Pro":11583,"QL":11584,"bid":11585,"click":11586,"ten":11587,"à¥ģà¥ĩ":11588,"Ġà¤¸à¤°à¤¹à¤°":11589,"à¤¹à¤²à¤¯à¤ķ":11590,"Ġà¤¦à¤²à¤¬à¤²":11591,"Ġà¤ĵà¤®à¤¬à¤¹":11592,"à¤ľà¤²à¤¸à¤®":11593,"Ġà¥§à¥®à¥ª":11594,"ĠAward":11595,"ĠBe":11596,"ĠNRN":11597,"ĠIs":11598,"Ġà¥©à¥¨à¥ª":11599,"Ġà¥©à¥ªà¥¦":11600,"terest":11601,"plate":11602,"ĠNetwork":11603,"su":11604,"à¤ķà¤¨à¤¸":11605,"à¤¦à¤¹à¤®":11606,"à¤¦à¤¤à¤¹à¤°":11607,"à¤Łà¤¨à¤¦":11608,"Ġà¤ħà¤¹à¤Ļ":11609,"ics":11610,"Ġà¥©à¥ªà¥¬":11611,"Ġekantipur":11612,"oghar":11613,"porary":11614,"overn":11615,"nce":11616,"à¥ģ),":11617,"Ġà¤Ĩà¤¦à¤¨":11618,"à¤Īà¤ıà¤¨":11619,"à¤īà¤«":11620,"à¤¾à¥¤'":11621,"Ġpr":11622,"Ġcountry":11623,"ute":11624,"Ġhimal":11625,"0324":11626,"arthik":11627,"App":11628,"Ġenergy":11629,"à¤¶à¤£":11630,"à¤²à¤ķà¤¨":11631,"Ġà¤ľà¤¨à¤Ĩà¤ķ":11632,"à¥Įà¤Ĥà¤ģ,":11633,"à¤«à¤²à¤¸":11634,"ĠAaja":11635,"lect":11636,"ĠDohori":11637,"Ġà¤ĭà¤£à¤¦":11638,"Ġà¤ķà¤łà¤ª":11639,"uprakash":11640,"ukuprakash":11641,"Ġvideos":11642,"Digital":11643,"Mar":11644,"Ġà¤Ĥ":11645,"Ġà¤Ńà¤¸":11646,"à¤ļà¤°à¤£à¤ķ":11647,"à¤īà¤ªà¤Ľ":11648,"à¤Ĩà¤·":11649,"à¤·à¤ķà¤¤":11650,"Ġà¥§à¥¯à¥«à¥§":11651,"à¤¹à¤®à¤§":11652,"ĠCan":11653,"ĠOFF":11654,"ĠHam":11655,"à¥Įà¤ģà¥¤'":11656,"117":11657,"âĢ¦âĢ¦..":11658,"insahitya":11659,"kalinsahitya":11660,"Here":11661,"à¤¨à¤ħà¤Ĺ":11662,"à¤µà¤ļà¤°":11663,"Ġà¤¨à¤Ļà¤®":11664,"Ġà¤°à¤¸à¤®":11665,"à¤¦à¤°à¤¬à¤¨":11666,"Ġà¤¦à¤²à¤µ":11667,"Ġà¥¦à¥Ńà¥¬":11668,"à¥§à¥¬à¥«":11669,"ĠLIVE":11670,"puri":11671,"à¤¦à¤ľà¤¸":11672,"à¤Ńà¤ħà¤µà¤¸à¤°à¤®":11673,"à¤ĸà¤¤à¤°à¤¨":11674,"Ġà¤Ńà¤¯à¤Ļ":11675,"à¤¤à¤°à¤£à¤ªà¤Ľ":11676,"Ġà¤Ĩà¤ĩà¤ĵà¤¸":11677,"à¤¾):":11678,"ned":11679,"à¥§à¥¨à¥«":11680,"Ġblockchain":11681,"Ġ0615":11682,"LGCDP":11683,"NO":11684,"à¥ĩà¥Ī":11685,"Ġà¤¨à¤°à¤ª":11686,"Ġà¤¨à¤Ĺà¤£":11687,"Ġà¤ĸà¤ªà¤Ł":11688,"Ġà¤¸à¤¹à¤®":11689,"à¤ķà¤®à¤¸":11690,"Ġà¤¢à¤°":11691,"ade":11692,"ĠRast":11693,"à¥ģà¥ģà¥ģà¥ģ":11694,"asy":11695,"Ġ984":11696,"Samacharpati":11697,"24812":11698,"Ġ98560324":11699,"Ġ061524812":11700,"Ġ9856032486":11701,"Tim":11702,"tor":11703,"win":11704,"à¥ģ',":11705,"à¤ıà¤ı":11706,"à¤ıà¤ĩà¤®":11707,"Ġà¤µà¤¤à¤¨":11708,"à¤ªà¤¤à¤®":11709,"à¤²à¤¬à¤¡":11710,"Ġà¥¯à¥¨à¥¦":11711,"à¤¿à¤ģà¤Ĥ":11712,"à¤¸à¤¹à¤¸à¤ļ":11713,"à¤ľà¤¯à¤ªà¤Ľ":11714,"Ġà¤Ĩà¤ĩà¤Ń":11715,"ĠSU":11716,"Ġll":11717,"à¥¨à¥©à¥¬à¥¯":11718,"yai":11719,"Ġchukuprakash":11720,"Ġà¤Ŀà¤®à¤Ŀà¤®":11721,"ĠBhag":11722,"ounter":11723,"MG":11724,"RL":11725,"XI":11726,"iya":11727,"london":11728,"à¤¤à¤Ĺà¤¢":11729,"à¤¶à¤ľà¤¸":11730,"à¤Ĺà¤²à¤ªà¤¨":11731,"ald":11732,"Ġà¥¨à¥¨à¥®":11733,"ĠIS":11734,"etail":11735,"???":11736,"ĠRamail":11737,"oon":11738,"à¤¦à¤ħà¤¨":11739,"à¤·à¤ļà¤¨":11740,"Ġà¤ľà¤¦":11741,"Ġà¤ľà¤ķà¤¡":11742,"âĢļ":11743,"à¤ĸà¤¨à¤µ":11744,"à¤ľà¤¨à¤°à¤²":11745,"à¤°à¤¬à¤®":11746,"à¥Īà¤Ĥà¤Ĥ":11747,"à¤¨à¤¯à¤¬":11748,"à¤ªà¤¦à¤¯":11749,"à¥ĩà¤ģ-":11750,"emporary":11751,"à¥ĭ??":11752,"Ġà¤°à¤Ļà¤°":11753,"Ġà¤ıà¤ħà¤°à¤ķ":11754,"à¤¶à¤°à¤¦à¤²":11755,"ðŁĺĤ":11756,"ĠAssociation":11757,"MIS":11758,"Rabin":11759,"Set":11760,"WW":11761,"à¤¸à¤¯à¤ķ":11762,"à¤¹à¤Łà¤®":11763,"Ġà¤¬à¤ĺ":11764,"à¤ľà¤ĺ":11765,"Ġà¤Ĺà¤°à¤¨":11766,"Ġà¤ıà¤²à¤¨":11767,"à¥ĥà¤¿":11768,"à¤¶à¤¨à¤µ":11769,"ĠAarthik":11770,"ĠStud":11771,"ions":11772,"ĠPrasad":11773,"Special":11774,"ĠPoems":11775,"DM":11776,"dit":11777,"à¤¹à¤ľà¤¸":11778,"Ġà¤ķà¤ªà¤²":11779,"Ġà¤¤à¤Ĺà¤¡":11780,"à¤Łà¤ķà¤¹":11781,"à¤°à¤®à¤£à¤¸":11782,"Ġà¤Ĩà¤ĩà¤ĵà¤ıà¤®":11783,"Ġà¤Ĩà¤ļà¤°à¤£à¤®":11784,"rabar":11785,"Ġ102":11786,"Ġà¤²à¤¹à¤¡":11787,"Ġà¤¬à¤ĸà¤¤à¤®":11788,"IDEO":11789,"Artist":11790,"ĠðŁĻ":11791,"à¤¸à¤²à¤²à¤²":11792,"ĠTexasNepal":11793,"RO":11794,"post":11795,"à¥ĭÃ·":11796,"Ġà¤ªà¤Ĺà¤°":11797,"à¤ªà¤Łà¤®":11798,"Ġà¤ıà¤¨à¤ķ":11799,"Ġà¤ķà¤®à¤²à¤¸":11800,"Ġà¥ªà¥¨à¥«":11801,"Ġà¤ªà¤¢à¤¦":11802,"Ġà¤ļà¤°à¤£à¤¸à¤®":11803,"à¥ĩ):":11804,"à¤ıà¤«à¤ıà¤²":11805,"ĠGlam":11806,"vest":11807,"Â«à¥ĩ":11808,"IMA":11809,"Ġà¤¸à¤¦à¤¨à¤¬":11810,"Ġà¤¦à¤®à¤ķà¤²à¤²":11811,"81":11812,"See":11813,"à¤ģ:":11814,"à¤¸à¤¦à¤¸à¤¹":11815,"à¥¨à¥¦à¥ªà¥¯":11816,"à¤ıà¤®à¤ıà¤²":11817,"Ġone":11818,"à¤Ĺà¤®à¤¨à¤¬":11819,"Ġsays":11820,"à¤®à¤µà¤¹":11821,"Ġ44":11822,"::âĢĵ":11823,"à¥«à¥®à¥¨":11824,"Ġà¤ķà¤¦à¤®à¤®":11825,"II":11826,"LP":11827,"à¤Łà¤Ĺà¤°":11828,"à¤ľà¤¯à¤®":11829,"à¤°à¤®à¤¯":11830,"Ġ,âĢĺ":11831,"à¤ıà¤¸à¤ıà¤¸":11832,"Ġinbox":11833,"____________":11834,"âĢİ;":11835,"400":11836,"Links":11837,"~~":11838,"à¤¾âĢĮà¤Ĥ":11839,"à¤ªà¤²à¤¬":11840,"à¤¡à¤ķà¤®":11841,"à¤ļà¤°à¤£à¤®":11842,"Ġà¤ĸà¤¤à¤®":11843,"à¥¦à¥ªà¥¬":11844,"à¤ªà¤®à¤¤":11845,"à¤®à¤ķà¤¨":11846,"à¤ĥ:":11847,"à¤ķà¤ªà¤Łà¤ķ":11848,"à¤ĩà¤²à¤¸":11849,"à¤¸à¤°à¤¸à¤®":11850,"à¤¨à¤Ĺà¤°à¤¸à¤Ń":11851,"the":11852,"à¥§à¥¯à¥¯à¥®":11853,"à¥¨à¥«à¥¨":11854,"oftruth":11855,"ĠUSB":11856,"Ġà¤ıà¤®à¤ıà¤¡à¤¬":11857,"yn":11858,"à¤ªà¤µà¤¨":11859,"à¤§à¤µà¤¨":11860,"ĠâĢº":11861,"iran":11862,"à¤ıà¤Īà¤µ":11863,"à¤ĩà¤ıà¤ħà¤¨":11864,"ava":11865,"Ġupload":11866,"Ġà¥¯à¥®à¥«à¥«à¥¦à¥¨à¥¯":11867,"à¤¶à¤ªà¤¤":11868,"Ġà¤ıà¤¡à¤²":11869,"à¤łà¤ķà¤¦":11870,"vies":11871,"Ġleading":11872,"Update":11873,"ĠShukrabar":11874,"Please":11875,"à¤ªà¤ħà¤ĺ":11876,"Ġà¤¬à¤°à¤®":11877,"à¤·à¤ªà¤¤":11878,"à¤·à¤°à¤¸à¤¹":11879,"Ġà¤µà¤£":11880,"Ġà¤Ĩà¤¹à¤¤":11881,"à¤ļà¤¨à¤¤":11882,"à¤ĵà¤¶":11883,"à¤¥à¤²à¤¦":11884,"Ġà¤Īà¤¦":11885,"ĠSim":11886,"Ġà¤ľà¤¹à¤¦":11887,"Ġà¤Ĩà¤Īà¤ıà¤«à¤¸":11888,"ĠLa":11889,"ubai":11890,"wordoftruth":11891,"à¤ıà¤¯à¤°à¤ª":11892,"ĠPlan":11893,"ĠUpdate":11894,"Ġà¥¯à¥®à¥«à¥«à¥¦à¥¨à¥¯à¥©à¥®à¥©":11895,"à¥Ģ......":11896,"Ġà¤µà¤²à¤¤":11897,"à¤Īà¤¬à¤¸":11898,"Ġà¤ĺà¤°à¤¤à¤°":11899,"à¥ªà¥¨à¥¦":11900,"à¤µà¤°à¤«":11901,"Ġà¥©à¥¦à¥¨":11902,"Ġà¥¨à¥¯à¥¯":11903,"Ġà¤²à¤¹à¤°à¤®":11904,"anepal":11905,"ĠDepartment":11906,"ĠRevolution":11907,"à¤°à¤Ĩà¤²":11908,"Ġà¤ķà¤ªà¤°":11909,"Ġà¤¨à¤ķà¤®":11910,"Ġà¤µà¤¦":11911,"à¤¶à¤ªà¤¥":11912,"à¤Īà¤ıà¤®à¤Ī":11913,"Ġà¤¤à¤°à¤¹à¤°":11914,"à¤²à¤¨à¤¤":11915,"à¥Īà¤ĤâĢĵ":11916,"à¤ĩà¤Łà¤¸":11917,"Ġà¥§à¥®à¥®à¥§":11918,"à¤ľà¤ªà¤¥":11919,"ĠBar":11920,"ĠHalk":11921,"Ġsc":11922,"à¤ĩà¤¬à¤°à¤²":11923,"à¥©à¥®à¥¦à¥©":11924,"iforn":11925,"ĠiOS":11926,"Ġbirtajyoti":11927,"à¤¯à¤¦à¤°":11928,"Ġà¤¨à¤µà¤µ":11929,"à¥§à¥¨à¥¦":11930,"à¤§à¤¨à¤ªà¤¤":11931,"Ġà¤¹à¤°à¤«à¤¹à¤°":11932,"à¤ıà¤¨à¤ıà¤®à¤ı":11933,"Ġà¤«à¤°à¤«":11934,"Ġà¤¦à¤²à¤¦":11935,"Ġà¥¨à¥¯à¥¦":11936,"inepal":11937,"à¤ıà¤«à¤Ł":11938,"Ġà¥©à¥®à¥¦":11939,"Ġnewsagro":11940,"ĠUp":11941,"londonnepalnews":11942,"Photo":11943,"ÉĻ":11944,"Ġà®":11945,"à¤¨à¤ªà¤²":11946,"Ġà¤¹à¤²à¤²":11947,"à¤§à¤Ńà¤¨":11948,"à¤¶à¤²à¤²":11949,"Ġà¤¤à¤¬à¤²":11950,"à¤ĸà¤¸à¤®à¤ķ":11951,"Ġà¤«à¤Ļ":11952,"à¤°à¤¸à¤ĺ":11953,"Ġà¥©à¥Ńà¥¬":11954,"à¤ªà¤ķà¤ª":11955,"Ġà¤®à¤¤à¤¬":11956,"à¤Łà¤²à¤¸à¤®":11957,"Ġà¤īà¤łà¤¦":11958,"à¤²à¤µà¤¹à¤°":11959,"à¤ķà¤Łà¤¹à¤°à¤ķ":11960,"ĠNumber":11961,"chana":11962,"Ġ87":11963,"ĠUrjaKhabar":11964,"ifornia":11965,"à¥Ĩ":11966,"à¤°à¤®à¤²à¤Ĺ":11967,"Ġà¤¬à¤²à¤°à¤²":11968,"Ġà¤¹à¤¤à¤ªà¤¤":11969,"Ġà¤Ĳà¤¡":11970,"ĠPu":11971,"à¥§à¥¦à¥¯":11972,"chanda":11973,"à¤¤à¤°à¤®à¤¹":11974,"à¥¯à¥®à¥¨à¥©à¥¬à¥¯":11975,"ĠBIKR":11976,"ïĢł":11977,"Ġà¥¯à¥®à¥ªà¥¯à¥¯à¥®à¥¨à¥©à¥¬à¥¯":11978,"ĠBhattarai":11979,"ĠAarthiknews":11980,"à¥©à¥®à¥¦à¥©à¥©à¥¦à¥¨":11981,"ĠBIKRAM":11982,"da":11983,"à¤¹à¤Ļ":11984,"à¤·à¤°à¤¸":11985,"Ġà¤¯à¤ļ":11986,"à¤ĺà¤°à¤¸":11987,"Ġà¥§à¥©à¥©à¥¬":11988,"Ġà¥¨à¥ªà¥¬":11989,"à¤ĩà¤ķà¤²à¤¬":11990,"à¤¯à¤Łà¤ķà¤®à¤§":11991,"à¤Łà¤µà¤²à¤¸":11992,"Ġà¤ļà¤ķà¤ļà¤ķ":11993,"Ġà¥©à¥Ńà¥¦":11994,"à¥¦à¥¬à¥«":11995,"WhatLinks":11996,"ĠSidha":11997,"WhatLinksHere":11998,"EP":11999,"ting":12000,"Ġqu":12001,"à¤§à¤µà¤°":12002,"à¤²à¤ķà¤¦à¤²à¤ķ":12003,"revie":12004,"Ġà¥©à¥¯à¥ª":12005,"Ġà¤ľà¤¯à¤¨à¤¨":12006,"à¤Ĩà¤ĩà¤ĵà¤¸":12007,"ĠPosts":12008,"à¥¤à¥¤à¥¤à¥¤":12009,"ĠNEEL":12010,"ĠSport":12011,"à¤¿!âĢĻ":12012,"Ġà¤¹à¤¤à¤ķà¤¡":12013,"Ġà¤Ľà¤°à¤ªà¤·":12014,"ĠGlamour":12015,"ĠNEELIMA":12016,"Eng":12017,"ning":12018,"à¤¨à¤°à¤ª":12019,"à¤¨à¤ıà¤ľ":12020,"à¥ģà¤¿":12021,"Ġà¤ķà¤ļà¤²":12022,"à¤°à¤®à¤ĸ":12023,"à¤¤à¤®à¤¯":12024,"à¤ĩà¤²à¤Łà¤¹à¤°":12025,"à¤ĺà¤°à¤ªà¤°":12026,"Ġà¤«à¤²à¤¹à¤°":12027,"Ġà¥¯à¥®à¥¬à¥¨":12028,"Ġsup":12029,"Ġsoftware":12030,"Ġà¥©à¥¬à¥®":12031,"Ġà¥¯à¥¯à¥¦":12032,"Ġà¥¯à¥¯à¥¯":12033,"à¤ĺà¤Łà¤¨à¤®":12034,"à¥ĭâĢĿâĢĵ":12035,"ĠIndia":12036,"ĠAccount":12037,"door":12038,"azzako":12039,"Ġ[..]":12040,"Sep":12041,"],":12042,"à¤§à¤§":12043,"Ġà¤Ĩà¤Ļà¤¬":12044,"à¤Īà¤ªà¤²":12045,"à¥¤(":12046,"âĢĻâĢ¦":12047,"à¥¬à¥§à¥©":12048,"à¤·à¤£à¤²à¤Ĺ":12049,"à¤¡à¤®à¤Ľ":12050,"Ġà¥¨à¥§à¥¦à¥¦":12051,"ĠAj":12052,"à¤²à¤¨à¤²à¤Ĺ":12053,"Ġ55":12054,"Ġà¤Ĺà¤Ĺà¤¨à¤ļ":12055,"erse":12056,"ĠCalifornia":12057,"SA":12058,"à¤¯à¤¨à¤®à¤¨":12059,"à¤¬à¤ĩà¤ķ":12060,"à¤ļà¤ĺà¤°":12061,"à¤ħà¤°à¤²":12062,"Ġà¤Ĩà¤¯à¤¶":12063,"à¤ľà¤ķà¤¸à¤®":12064,"à¤²à¤¤à¤¦":12065,"ĠMp":12066,"Ġà¥¨à¥Ńà¥¬":12067,"Ġà¥¯à¥®à¥¬à¥¦à¥¦":12068,"Ġ70":12069,"Ġà¥¯à¥®à¥«à¥¬à¥¦":12070,"ĠAsia":12071,"RA":12072,"à¤°à¤ĸà¤ķ":12073,"à¥ĩÂ¥":12074,"Ġà¤µà¤µ":12075,"Ġà¤¸à¤®à¤¬":12076,"Ġà¤ıà¤Łà¤®":12077,"à¤¶à¤ķà¤°":12078,"Ġà¤ıà¤®à¤µ":12079,"Ġà¥§à¥§à¥§à¥¨":12080,"Ġà¤Īà¤¯à¤°":12081,"à¤Ńà¤µà¤¨à¤ķ":12082,"à¤¯à¤¬à¤®":12083,"ĠTatt":12084,"Ġper":12085,"à¥§à¥®à¥¦":12086,"Ġà¤īà¤ªà¤ķà¤°à¤£à¤¬":12087,"Ġà¤ĸà¤¬à¤°à¤¸":12088,"Ġà¥¦à¥«à¥©":12089,"Ġ..!":12090,"ĠJanata":12091,"ĠCheck":12092,"ĠSamaj":12093,"ONG":12094,"ĠSave":12095,"à¤Łà¤¬à¤¹":12096,"à¤¡à¤¢":12097,"à¥¤âĢľ":12098,"Ġ?/":12099,"à¥¨à¥¦à¥©à¥¬":12100,"Ġà¤ħà¤«à¤°à¤®":12101,"à¥ĩâĢĵâĢľ":12102,"à¤¨à¤Ńà¤µà¤¨à¤¸":12103,"Ġbahadur":12104,"timeà¤ħà¤¸":12105,"à¤īà¤·":12106,"à¤Ļà¤Ĺà¤¤":12107,"à¤¾à¤Ĥà¤Ĥ":12108,"à¤¡à¤ķà¤¨":12109,"à¥¨à¥¦à¥«à¥©":12110,"Ġà¥§à¥®à¥§à¥¬":12111,"Ġà¤Ĺà¤£à¤°":12112,"Ġà¤Ńà¤Īà¤¦":12113,"ilak":12114,"Ġà¤°à¤¨à¤Ń":12115,"ĠBAR":12116,"Ġsocial":12117,"à¥§à¥ªà¥ªà¥¯":12118,"ĠGork":12119,"Ġà¤®à¤¦à¤¨à¤ª":12120,"icial":12121,"Ġhimalayakhabar":12122,"Ġà¤ľà¤¯à¤¦":12123,"à¤Īà¤ªà¤¨":12124,"à¤ĸà¤²à¤¨à¤ķ":12125,"à¤ľà¤¨à¤¸à¤Ļ":12126,"Ġ?âĢ¦":12127,"à¤·à¤£à¤¸à¤¹":12128,"Ġà¤«à¤°à¤ķà¤ªà¤¨":12129,"Ġpre":12130,"ĠGate":12131,"Ġ59":12132,"ĠBikash":12133,"Ġà¤ıà¤¸à¤Īà¤Īà¤®":12134,"imanharu":12135,"den":12136,"ï¸":12137,"Ġà¤¹à¤ķà¤µ":12138,"Ġà¤ľà¤¯à¤¸à¤µ":12139,"Ġà¤ĸà¤¦":12140,"à¤¯à¤®à¤¸à¤®":12141,"à¤Ĩà¤īà¤¦":12142,"à¤ķà¤°à¤¨à¤Ĺà¤°":12143,"à¤¤à¤¨à¤Ĺà¤°à¤®":12144,"à¤¦à¤°à¤¨à¤Ĺà¤°":12145,"à¥§à¥¦à¥ª":12146,"à¤¤à¤µà¤¨à¤¸":12147,"Ġà¥¯à¥®à¥¬":12148,"à¤ģà¥¤'":12149,"arek":12150,"Ġeconomic":12151,"à¤¶à¤¨à¤ª":12152,"Ġà¥§à¥¯à¥©à¥®":12153,"à¤ķà¤¨à¤ªà¤Ľ":12154,"Ġà¤Ĩà¤ĩà¤ıà¤¸à¤²":12155,"ĠPublic":12156,"Ġà¥¨à¥®à¥§":12157,"ila":12158,"à¤Ĭà¤²":12159,"Ġà¥©à¥¬à¥ª":12160,"Ġ42":12161,"Ġ________":12162,")/":12163,"Tamang":12164,"Ð²":12165,"Ġà¤ıà¤¦":12166,"à¤®à¤¨à¤ªà¤°":12167,"Ġà¥¨à¥ªà¥©":12168,"ĠHow":12169,"ĠHarek":12170,"ĠLumbini":12171,"Ġfree":12172,"DIYA":12173,"ĠBARDIYA":12174,"ï¸ı":12175,"mal":12176,"à¤°à¤ĵà¤Ł":12177,"à¤ķà¤ªà¤®":12178,"à¤¦à¤ļ":12179,"Ġà¤ķà¤¥à¤²":12180,"à¤Ĺà¤ķà¤²":12181,"à¤¶à¤§":12182,"à¤ļà¤®à¤¤":12183,"à¤Ļà¤ĺ":12184,"Ġà¤ıà¤ķà¤¸à¤°":12185,"Ġà¤®à¤¹à¤ľ":12186,"à¥ĭà¥¤...":12187,"à¤Łà¤²à¤°à¤ķ":12188,"à¤ļà¤ķà¤¸à¤®":12189,"Ġà¤Īà¤ľà¤°":12190,"ĠProfile":12191,"à¥¦à¥¦à¥§":12192,"Ġà¤²à¤¡à¤¨":12193,"à¥°]":12194,"âĢĶâĢĶâĢĶâĢĶ":12195,"ĠHalkaro":12196,"Pos":12197,"ful":12198,"nr":12199,"à¤°à¤«à¤¤":12200,"à¤ķà¤¤à¤²":12201,"à¤²à¤īà¤ªà¤°":12202,"à¤·à¤ķà¤¸à¤¹":12203,"Ġà¤Ŀà¤¨à¤ķ":12204,"Ġà¤ªà¤¦à¤ħà¤¨":12205,"Ġ'...":12206,"ĠBr":12207,"Ġà¥©à¥©à¥«":12208,"eta":12209,"ĠWelcome":12210,"à¤ģà¥¤âĢĿ":12211,"à¤ĸà¤¬à¤°à¤¡":12212,"Ġà¤ķà¤¨à¤ķà¤®à¤£":12213,"ĠYouth":12214,"à¤¤à¤µà¤°":12215,"Ġà¤¨à¤«à¤¸":12216,"à¤§à¤°à¤¤":12217,"Ġà¤Ľà¤¯":12218,"Ġà¤¸à¤®à¤ª":12219,"Ġà¤ıà¤¨à¤²":12220,"Ġà¤¬à¤¢à¤¯":12221,"à¤Łà¤°à¤ªà¤¨":12222,"Ġà¤Ĩà¤Īà¤®":12223,"ily":12224,"à¤¦à¤µà¤²à¤Ĺ":12225,"ames":12226,"Ġarticleà¤Ĺ":12227,"ffic":12228,"hiv":12229,"ĠChand":12230,"ĠBhadra":12231,"IF":12232,"à¤²à¤°à¤¬":12233,"à¤¡à¤¨à¤µ":12234,"à¤¥à¤²à¤Ĺ":12235,"à¤Īà¤®à¤¨":12236,"à¤°à¤¤à¤Ĺà¤¤":12237,"à¤°à¤µà¤£à¤ķ":12238,"à¤¤à¤²à¤¹à¤°à¤²":12239,"à¤²à¤¤à¤¸":12240,"Ġà¥¦à¥©à¥¬":12241,"Ġà¤ıà¤¨à¤¡":12242,"Ġà¥§à¥¬à¥¦à¥¦":12243,"ĠPaschimnepal":12244,"à¥©à¥¦à¥©à¥¦à¥©":12245,"Ġsite":12246,"à¤®à¤¨à¤Ĺà¤°à¤¸":12247,"ots":12248,"ĠContemporary":12249,"Sajhaonline":12250,"Ġà¤²à¤ĸà¤¨à¤īà¤®":12251,"à¥¯à¥¯à¥©à¥¦":12252,"ĠEpisode":12253,"ĠGurkha":12254,"Ġramkshrestha":12255,"ference":12256,"EAT":12257,"bs":12258,"dhani":12259,"war":12260,"à¥Ģ....":12261,"à¤¶à¤¬à¤¨":12262,"à¤Ĥ)":12263,"à¤¡à¤ĸ":12264,"Ġà¤ľà¤£":12265,"à¤ĸà¤¨à¤¬":12266,"Ġà¤¶à¤µà¤¯":12267,"à¤¯à¤ķà¤¸à¤®":12268,"à¤¤à¤°à¤īà¤¨":12269,"à¤Ĩà¤Ĺà¤¨":12270,"Ġà¥§à¥¯à¥¨à¥¦":12271,"Ġà¤ıà¤¸à¤ľ":12272,"ĠMazzako":12273,"ĠTharu":12274,"ĠBa":12275,"à¤Ĭà¤²à¤²":12276,"à¥ĭâĢĻâĢĵ":12277,"ĠComputer":12278,"à¥įâĢĻâĢĵ":12279,"âĢįà¥į":12280,"âĢ¦âĢ¦âĢ¦":12281,"ĠPowered":12282,"ĠAshok":12283,"Media":12284,"UT":12285,"à¤¾!!!":12286,"à¤ķà¤ķà¤°":12287,"à¤Īà¤Ļ":12288,"à¤ķà¤ķà¤¸":12289,"Ġà¤¨à¤®à¤ľ":12290,"à¥¨à¥¦à¥¨à¥®":12291,"à¤°à¤¥à¤®à¤¤":12292,"ORE":12293,"Ġà¤¦à¤®à¤¨à¤¨":12294,"ulture":12295,"guys":12296,"Ġà¥¯à¥®à¥¬à¥¦à¥¦à¥©à¥¦à¥©à¥¦à¥©":12297,"Tamangguys":12298,"List":12299,"à¤ķà¤¤à¤ķ":12300,"à¤¡à¤ªà¤¸":12301,"Ġà¥«à¥¨à¥¬":12302,"à¤¬à¤°à¤ª":12303,"à¤¦à¤°à¤ĸ":12304,"ĠPop":12305,"Ġà¥¯à¥®à¥ªà¥ªà¥¨à¥®":12306,"Ġà¤²à¤ĸà¤¨à¤īà¤¸":12307,",,,":12308,"itive":12309,"à¤½à¤½":12310,"ĠPlay":12311,"Ġà¥¯à¥®à¥ªà¥ªà¥¨à¥®à¥¯à¥¯à¥©à¥¦":12312,"damak":12313,"global":12314,"uv":12315,"uct":12316,"à¤¨à¤ĩà¤ļ":12317,"à¤¯à¤°à¤¸à¤¹":12318,"à¤µà¤Ńà¤ķ":12319,"Ġà¤°à¤¥à¤ķ":12320,"Ġà¤¬à¤¨à¤®":12321,"Ġà¤ħà¤¬à¤¤":12322,"inf":12323,"Ġà¤Ńà¤°à¤¥":12324,"à¤ģ,'":12325,"Ġ49":12326,"à¤°à¤ľà¤¨à¤ª":12327,"à¤¯à¤¯à¤¨à¤ķà¤°":12328,"Ġwag":12329,"Ġ985":12330,"Ġplay":12331,"ĠTerms":12332,"-'":12333,"à¤ªà¤ªà¤¤":12334,"à¤Īà¤ľà¤¸":12335,"Ġà¤¯à¤®à¤¨à¤¸":12336,"à¤¤à¤°à¤¸à¤°à¤ķ":12337,"Ġà¤²à¤Ĺà¤¨à¤Ĺ":12338,"Ġà¤īà¤¦à¤¯à¤®":12339,"à¤µà¤¤à¤§":12340,"ining":12341,"Ġà¥¨à¥©à¥®":12342,"à¥ĭ):":12343,"à¤Ĩà¤Īà¤ıà¤²":12344,"à¤¹à¤°à¤£à¤²":12345,"Ġfile":12346,"Ġà¥«à¥ªà¥¯":12347,"Ġà¤Ĺà¤Īà¤¸à¤ķ":12348,"Ġà¤ĸà¤µà¤°à¤¦":12349,"puch":12350,"Lo":12351,"à¤¿&":12352,"à¤¦à¤Ńà¤¨":12353,"à¥Ī\",":12354,"à¥§à¥§à¥¦":12355,"à¥Įà¤Ĥ',":12356,"Ġà¤ķà¤°à¤¹à¤°":12357,"Ġà¤¹à¤ľà¤°":12358,"Ġà¤ħà¤®à¤°à¤ª":12359,"à¥¨à¥¦à¥¨à¥¨":12360,"Ġà¥§à¥¯à¥«à¥¨":12361,"à¤Ĺà¤łà¤¨à¤¦":12362,"à¤ļà¤²à¤ĸ":12363,"à¤ĸà¤ķà¤¸":12364,"à¤¡à¤°à¤°":12365,"ĠOut":12366,"rade":12367,"Ġmerojilla":12368,"RHo":12369,"cl":12370,"pXI":12371,"à¤ĩà¤ĵà¤ķ":12372,"Ġà¤ıà¤ķà¤¥":12373,"oman":12374,"à¤°à¤®à¤£à¤¸à¤®":12375,"Ġà¥§à¥ªà¥§à¥«":12376,"Ġà¤®à¤¦à¤¨à¤²":12377,"à¤¤à¤¹à¤Łà¤¬":12378,"Ġbis":12379,"à¥¤âĢĿâĢĶ":12380,"ĠVotes":12381,"plRHo":12382,"chhapuch":12383,"pXIplRHo":12384,"à¤¸à¤¤à¤²":12385,"Ġà¤¤à¤ľà¤¬":12386,"à¤īà¤¨à¤¤à¤°":12387,"à¤ªà¤¨à¤¹":12388,"à¤Ĺà¤°à¤¸à¤¹":12389,"à¤£à¤¯à¤¬à¤®":12390,"à¤¨à¤µà¤¹":12391,"vide":12392,"à¥įâĢĮ:":12393,"à¤Ĩà¤īà¤Łà¤ķ":12394,"à¤Łà¤ªà¤Łà¤ķà¤ķ":12395,"Hamrodamak":12396,"cle":12397,"Ð½":12398,"Ø§":12399,"à¤¨à¤°à¤¬":12400,"à¤¯à¤Ĺà¤¢":12401,"Ġà¤°à¤¸à¤²":12402,"à¥Į!":12403,"à¤¯à¤ķà¤¦":12404,"à¤Ĩà¤ı":12405,"Ġà¥«à¥¨à¥®":12406,"à¤ıà¤¨à¤ıà¤«à¤ª":12407,"Ġà¤Ĺà¤łà¤¨à¤²":12408,"à¤ľà¤¯à¤Ń":12409,"à¤¾...âĢĻ":12410,"mag":12411,"ATA":12412,"ĠRajdhani":12413,"à¤°à¤Ĩà¤µà¤¸":12414,"razesh":12415,"Ġà¥«à¥¦à¥§à¥¦à¥«à¥®à¥¨":12416,"ĠTharuwan":12417,"October":12418,"nn":12419,"Ġà¤¨à¤ħà¤Ł":12420,"à¤ļà¤ªà¤Łà¤ķ":12421,"à¤£à¤ľà¤¯à¤¨":12422,"Ġà¤¸à¤¹à¤¬":12423,"à¤®à¤²à¤ļ":12424,"à¤·à¤¦à¤¹à¤°":12425,"à¤®à¤°à¤¨à¤²":12426,"à¤ĺà¤°à¤¸à¤®":12427,"ĠNO":12428,"ise":12429,"à¥ĭâĢ¦âĢĻ":12430,"Ġà¥¦à¥«à¥«":12431,"risti":12432,"Ġà¤¨à¤¯à¤¨à¤°":12433,"à¤ħà¤µà¤¤à¤°à¤£":12434,"fej":12435,"him":12436,"Ġà¤ĳ":12437,"Ġà¤¸à¤°à¤®":12438,"à¤·à¤¡":12439,"Ġà¤Ĩà¤¶à¤¨":12440,"Ġà¤ľà¤¯à¤¸":12441,"âĢ¡":12442,"Ġà¤¥à¤®à¤¨":12443,"à¤·à¤ķà¤¸à¤®":12444,"Ġà¤Ŀà¤¸à¤Ļ":12445,"Ġà¤ļà¤²à¤¨à¤ķ":12446,"à¤Īà¤ķà¤²à¤ķ":12447,"Ġà¤Ĺà¤łà¤ľ":12448,"à¤¾)à¥¤":12449,"Ġà¥¨à¥¨à¥ª":12450,"Ġmedia":12451,"ĠLife":12452,"Ġ127":12453,"Ġnefej":12454,"chhapuchhre":12455,"Ġnefejhakahaki":12456,"Ind":12457,"Tilak":12458,"oices":12459,"à¤²à¤ľà¤µ":12460,"à¤¸à¤ĸà¤°":12461,"à¤¹à¤²à¤²":12462,"à¤¦à¤Ļ":12463,"à¤ıà¤ķà¤¸":12464,"à¤ĸà¤°à¤¬":12465,"à¤ªà¤¤à¤¯":12466,"âĢĵ$":12467,"à¥®à¥¦à¥¦":12468,"à¥®à¥¨à¥¨":12469,"Ġà¥ªà¥©à¥¦":12470,"thday":12471,"Ġà¤łà¤Ĺà¤¹à¤°":12472,"Ġarticleà¤¯":12473,"Ġ52":12474,"à¤Īà¤ķà¤²à¤²":12475,"Ġà¤¦à¤²à¤®à¤§":12476,"Ġsongs":12477,"Ġim":12478,"Ġà¥¤.....":12479,"à¤¯à¤ķà¤®à¤¨":12480,"à¤µà¤®à¤¯":12481,"à¤ľà¤Ĺà¤¦à¤®":12482,"ĠPS":12483,"ĠMO":12484,"à¤Īà¤¨à¤²à¤ķ":12485,"Ġà¤¹à¤²à¤ļ":12486,"Ġà¤°à¤£à¤Ń":12487,"aster":12488,"KS":12489,"à¤¯à¤¦à¤ķ":12490,"Ġà¤¨à¤¬à¤°":12491,"à¤§à¤²à¤Ĺ":12492,"à¤¡à¤¸à¤²":12493,"Ġà¤²à¤ķà¤°":12494,"à¤ĩà¤ľà¤¸":12495,"...'":12496,"ĠPaudel":12497,"ĠRikoooo":12498,"ĠKura":12499,"à¤µà¤Ńà¤°à¤®":12500,"Ġ51":12501,"Ġà¤ķà¤²à¤®à¤ķ":12502,"ARE":12503,"Ġà¤Ĩà¤¸à¤¨à¤¬":12504,"à¥«à¥¨à¥«à¥¦à¥©à¥¯":12505,"à¤²à¤°à¤¸à¤¨à¤²":12506,"Ġà¥¯à¥®à¥§à¥®à¥«à¥¨à¥«à¥¦à¥©à¥¯":12507,"Ġà¥¯à¥®à¥¬à¥¨à¥§à¥ªà¥ªà¥¯":12508,"Ġà¥¯à¥®à¥¬à¥¨à¥§à¥ªà¥ªà¥¯à¥Ńà¥«":12509,"800":12510,"ke":12511,"à¤ªà¤Łà¤²":12512,"à¤Ĺà¤Ľ":12513,"Ġà¤¸à¤°à¤Ĺà¤®":12514,"Ġà¤Ĳà¤¯":12515,"Ġà¥¨à¥«à¥§":12516,"Ġà¥¨à¥«à¥Ń":12517,"ĠPh":12518,"ĠPaschim":12519,"Ġà¤Ńà¤Īà¤°à¤¹à¤¨":12520,"ĠEP":12521,"harpal":12522,"à¥Ģà¥¤à¥¤":12523,"ĠMachhapuchhre":12524,
[...]
